{
  "version": "1.0",
  "truncation": null,
  "padding": null,
  "added_tokens": [
    {
      "id": 0,
      "content": "<pad>",
      "single_word": false,
      "lstrip": false,
      "rstrip": false,
      "normalized": false,
      "special": true
    },
    {
      "id": 1,
      "content": "<unk>",
      "single_word": false,
      "lstrip": false,
      "rstrip": false,
      "normalized": false,
      "special": true
    },
    {
      "id": 2,
      "content": "<s>",
      "single_word": false,
      "lstrip": false,
      "rstrip": false,
      "normalized": false,
      "special": true
    },
    {
      "id": 3,
      "content": "</s>",
      "single_word": false,
      "lstrip": false,
      "rstrip": false,
      "normalized": false,
      "special": true
    }
  ],
  "normalizer": {
    "type": "NFC"
  },
  "pre_tokenizer": {
    "type": "Metaspace",
    "replacement": "▁",
    "prepend_scheme": "always",
    "split": true
  },
  "post_processor": null,
  "decoder": {
    "type": "Metaspace",
    "replacement": "▁",
    "prepend_scheme": "always",
    "split": true
  },
  "model": {
    "type": "BPE",
    "dropout": null,
    "unk_token": "<unk>",
    "continuing_subword_prefix": null,
    "end_of_word_suffix": null,
    "fuse_unk": false,
    "byte_fallback": false,
    "ignore_merges": false,
    "vocab": {
      "<pad>": 0,
      "<unk>": 1,
      "<s>": 2,
      "</s>": 3,
      "\t": 4,
      "\n": 5,
      "!": 6,
      "\"": 7,
      "#": 8,
      "$": 9,
      "%": 10,
      "&": 11,
      "'": 12,
      "(": 13,
      ")": 14,
      "*": 15,
      "+": 16,
      ",": 17,
      "-": 18,
      ".": 19,
      "/": 20,
      "0": 21,
      "1": 22,
      "2": 23,
      "3": 24,
      "4": 25,
      "5": 26,
      "6": 27,
      "7": 28,
      "8": 29,
      "9": 30,
      ":": 31,
      ";": 32,
      "=": 33,
      "?": 34,
      "@": 35,
      "A": 36,
      "B": 37,
      "C": 38,
      "D": 39,
      "E": 40,
      "F": 41,
      "G": 42,
      "H": 43,
      "I": 44,
      "J": 45,
      "K": 46,
      "L": 47,
      "M": 48,
      "N": 49,
      "O": 50,
      "P": 51,
      "Q": 52,
      "R": 53,
      "S": 54,
      "T": 55,
      "U": 56,
      "V": 57,
      "W": 58,
      "X": 59,
      "Y": 60,
      "Z": 61,
      "[": 62,
      "\\": 63,
      "]": 64,
      "^": 65,
      "_": 66,
      "`": 67,
      "a": 68,
      "b": 69,
      "c": 70,
      "d": 71,
      "e": 72,
      "f": 73,
      "g": 74,
      "h": 75,
      "i": 76,
      "j": 77,
      "k": 78,
      "l": 79,
      "m": 80,
      "n": 81,
      "o": 82,
      "p": 83,
      "q": 84,
      "r": 85,
      "s": 86,
      "t": 87,
      "u": 88,
      "v": 89,
      "w": 90,
      "x": 91,
      "y": 92,
      "z": 93,
      "{": 94,
      "|": 95,
      "}": 96,
      "~": 97,
      " ": 98,
      "¡": 99,
      "¢": 100,
      "£": 101,
      "¥": 102,
      "¦": 103,
      "§": 104,
      "©": 105,
      "ª": 106,
      "«": 107,
      "­": 108,
      "®": 109,
      "¯": 110,
      "°": 111,
      "±": 112,
      "²": 113,
      "³": 114,
      "´": 115,
      "µ": 116,
      "·": 117,
      "¹": 118,
      "º": 119,
      "»": 120,
      "¼": 121,
      "½": 122,
      "¾": 123,
      "¿": 124,
      "À": 125,
      "Á": 126,
      "Â": 127,
      "Ã": 128,
      "Ä": 129,
      "Å": 130,
      "Æ": 131,
      "Ç": 132,
      "È": 133,
      "É": 134,
      "Ê": 135,
      "Ë": 136,
      "Ì": 137,
      "Í": 138,
      "Î": 139,
      "Ð": 140,
      "Ñ": 141,
      "Ò": 142,
      "Ó": 143,
      "Ô": 144,
      "Õ": 145,
      "Ö": 146,
      "×": 147,
      "Ø": 148,
      "Ú": 149,
      "Ü": 150,
      "Þ": 151,
      "ß": 152,
      "à": 153,
      "á": 154,
      "â": 155,
      "ã": 156,
      "ä": 157,
      "å": 158,
      "æ": 159,
      "ç": 160,
      "è": 161,
      "é": 162,
      "ê": 163,
      "ë": 164,
      "ì": 165,
      "í": 166,
      "î": 167,
      "ï": 168,
      "ð": 169,
      "ñ": 170,
      "ò": 171,
      "ó": 172,
      "ô": 173,
      "õ": 174,
      "ö": 175,
      "÷": 176,
      "ø": 177,
      "ù": 178,
      "ú": 179,
      "û": 180,
      "ü": 181,
      "ý": 182,
      "þ": 183,
      "ÿ": 184,
      "Ā": 185,
      "ā": 186,
      "ă": 187,
      "ą": 188,
      "Ć": 189,
      "ć": 190,
      "ĉ": 191,
      "ċ": 192,
      "Č": 193,
      "č": 194,
      "Ď": 195,
      "ď": 196,
      "Đ": 197,
      "đ": 198,
      "Ē": 199,
      "ē": 200,
      "Ĕ": 201,
      "ė": 202,
      "ę": 203,
      "Ě": 204,
      "ě": 205,
      "ğ": 206,
      "Ġ": 207,
      "ġ": 208,
      "Ĥ": 209,
      "ĥ": 210,
      "Ħ": 211,
      "ħ": 212,
      "ĩ": 213,
      "Ī": 214,
      "ī": 215,
      "ĭ": 216,
      "İ": 217,
      "ı": 218,
      "ĺ": 219,
      "ļ": 220,
      "Ľ": 221,
      "ľ": 222,
      "Ł": 223,
      "ł": 224,
      "ń": 225,
      "ņ": 226,
      "Ň": 227,
      "ň": 228,
      "Ŋ": 229,
      "ŋ": 230,
      "Ō": 231,
      "ō": 232,
      "Ŏ": 233,
      "ŏ": 234,
      "ő": 235,
      "Œ": 236,
      "œ": 237,
      "Ř": 238,
      "ř": 239,
      "Ś": 240,
      "ś": 241,
      "ŝ": 242,
      "Ş": 243,
      "ş": 244,
      "Š": 245,
      "š": 246,
      "ţ": 247,
      "Ť": 248,
      "ť": 249,
      "ũ": 250,
      "Ū": 251,
      "ū": 252,
      "ů": 253,
      "ų": 254,
      "ŵ": 255,
      "Ÿ": 256,
      "ź": 257,
      "Ż": 258,
      "ż": 259,
      "Ž": 260,
      "ž": 261,
      "Ɓ": 262,
      "Ɔ": 263,
      "Ɗ": 264,
      "Ə": 265,
      "Ɛ": 266,
      "Ƙ": 267,
      "ƙ": 268,
      "ơ": 269,
      "ư": 270,
      "Ƴ": 271,
      "ƴ": 272,
      "ƶ": 273,
      "ǀ": 274,
      "ǁ": 275,
      "ǂ": 276,
      "ǃ": 277,
      "Ǌ": 278,
      "ǋ": 279,
      "ǌ": 280,
      "Ǎ": 281,
      "ǎ": 282,
      "Ǐ": 283,
      "ǐ": 284,
      "Ǒ": 285,
      "ǒ": 286,
      "Ǔ": 287,
      "ǔ": 288,
      "ǜ": 289,
      "ǧ": 290,
      "ȍ": 291,
      "Ș": 292,
      "ș": 293,
      "Ț": 294,
      "ț": 295,
      "ȵ": 296,
      "ɐ": 297,
      "ɑ": 298,
      "ɒ": 299,
      "ɓ": 300,
      "ɔ": 301,
      "ɕ": 302,
      "ɖ": 303,
      "ɗ": 304,
      "ə": 305,
      "ɛ": 306,
      "ɜ": 307,
      "ɞ": 308,
      "ɟ": 309,
      "ɠ": 310,
      "ɡ": 311,
      "ɢ": 312,
      "ɣ": 313,
      "ɤ": 314,
      "ɥ": 315,
      "ɦ": 316,
      "ɨ": 317,
      "ɩ": 318,
      "ɪ": 319,
      "ɫ": 320,
      "ɬ": 321,
      "ɭ": 322,
      "ɯ": 323,
      "ɲ": 324,
      "ɳ": 325,
      "ɴ": 326,
      "ɵ": 327,
      "ɹ": 328,
      "ɽ": 329,
      "ɾ": 330,
      "ʀ": 331,
      "ʁ": 332,
      "ʂ": 333,
      "ʃ": 334,
      "ʇ": 335,
      "ʈ": 336,
      "ʉ": 337,
      "ʊ": 338,
      "ʋ": 339,
      "ʌ": 340,
      "ʍ": 341,
      "ʎ": 342,
      "ʏ": 343,
      "ʑ": 344,
      "ʒ": 345,
      "ʔ": 346,
      "ʕ": 347,
      "ʘ": 348,
      "ʙ": 349,
      "ʧ": 350,
      "ʰ": 351,
      "ʱ": 352,
      "ʲ": 353,
      "ʷ": 354,
      "ʹ": 355,
      "ʻ": 356,
      "ʼ": 357,
      "ʽ": 358,
      "ʾ": 359,
      "ʿ": 360,
      "ˀ": 361,
      "ˁ": 362,
      "ˆ": 363,
      "ˈ": 364,
      "ˉ": 365,
      "ˊ": 366,
      "ˌ": 367,
      "ː": 368,
      "ˑ": 369,
      "˔": 370,
      "˖": 371,
      "˗": 372,
      "ˠ": 373,
      "ˤ": 374,
      "˥": 375,
      "˦": 376,
      "˧": 377,
      "˨": 378,
      "˩": 379,
      "̀": 380,
      "́": 381,
      "̂": 382,
      "̃": 383,
      "̄": 384,
      "̆": 385,
      "̇": 386,
      "̈": 387,
      "̊": 388,
      "̌": 389,
      "̍": 390,
      "̓": 391,
      "̕": 392,
      "̚": 393,
      "̝": 394,
      "̞": 395,
      "̟": 396,
      "̠": 397,
      "̢": 398,
      "̣": 399,
      "̤": 400,
      "̥": 401,
      "̧": 402,
      "̩": 403,
      "̪": 404,
      "̬": 405,
      "̯": 406,
      "̰": 407,
      "̱": 408,
      "̲": 409,
      "̹": 410,
      "̺": 411,
      "̽": 412,
      "͂": 413,
      "͆": 414,
      "͉": 415,
      "͍": 416,
      "͜": 417,
      "͟": 418,
      "͡": 419,
      "ͤ": 420,
      "ͭ": 421,
      "Ά": 422,
      "Έ": 423,
      "Ό": 424,
      "ΐ": 425,
      "Α": 426,
      "Β": 427,
      "Γ": 428,
      "Δ": 429,
      "Ε": 430,
      "Ζ": 431,
      "Η": 432,
      "Θ": 433,
      "Ι": 434,
      "Κ": 435,
      "Λ": 436,
      "Μ": 437,
      "Ν": 438,
      "Ξ": 439,
      "Ο": 440,
      "Π": 441,
      "Ρ": 442,
      "Σ": 443,
      "Τ": 444,
      "Υ": 445,
      "Φ": 446,
      "Χ": 447,
      "Ψ": 448,
      "Ω": 449,
      "ά": 450,
      "έ": 451,
      "ή": 452,
      "ί": 453,
      "α": 454,
      "β": 455,
      "γ": 456,
      "δ": 457,
      "ε": 458,
      "ζ": 459,
      "η": 460,
      "θ": 461,
      "ι": 462,
      "κ": 463,
      "λ": 464,
      "μ": 465,
      "ν": 466,
      "ξ": 467,
      "ο": 468,
      "π": 469,
      "ρ": 470,
      "ς": 471,
      "σ": 472,
      "τ": 473,
      "υ": 474,
      "φ": 475,
      "χ": 476,
      "ψ": 477,
      "ω": 478,
      "ϊ": 479,
      "ό": 480,
      "ύ": 481,
      "ώ": 482,
      "Є": 483,
      "І": 484,
      "Ї": 485,
      "Ј": 486,
      "А": 487,
      "Б": 488,
      "В": 489,
      "Г": 490,
      "Д": 491,
      "Е": 492,
      "Ж": 493,
      "З": 494,
      "И": 495,
      "Й": 496,
      "К": 497,
      "Л": 498,
      "М": 499,
      "Н": 500,
      "О": 501,
      "П": 502,
      "Р": 503,
      "С": 504,
      "Т": 505,
      "У": 506,
      "Ф": 507,
      "Х": 508,
      "Ц": 509,
      "Ч": 510,
      "Ш": 511,
      "Щ": 512,
      "Ъ": 513,
      "Ь": 514,
      "Э": 515,
      "Ю": 516,
      "Я": 517,
      "а": 518,
      "б": 519,
      "в": 520,
      "г": 521,
      "д": 522,
      "е": 523,
      "ж": 524,
      "з": 525,
      "и": 526,
      "й": 527,
      "к": 528,
      "л": 529,
      "м": 530,
      "н": 531,
      "о": 532,
      "п": 533,
      "р": 534,
      "с": 535,
      "т": 536,
      "у": 537,
      "ф": 538,
      "х": 539,
      "ц": 540,
      "ч": 541,
      "ш": 542,
      "щ": 543,
      "ъ": 544,
      "ы": 545,
      "ь": 546,
      "э": 547,
      "ю": 548,
      "я": 549,
      "ѐ": 550,
      "ё": 551,
      "є": 552,
      "і": 553,
      "ї": 554,
      "ј": 555,
      "ћ": 556,
      "ґ": 557,
      "ғ": 558,
      "ҙ": 559,
      "ҥ": 560,
      "ӓ": 561,
      "Ӧ": 562,
      "ӧ": 563,
      "ӱ": 564,
      "ӹ": 565,
      "Ա": 566,
      "Դ": 567,
      "Ե": 568,
      "Թ": 569,
      "Կ": 570,
      "Հ": 571,
      "Մ": 572,
      "Յ": 573,
      "Ն": 574,
      "Շ": 575,
      "Ո": 576,
      "Պ": 577,
      "Տ": 578,
      "Ր": 579,
      "Ւ": 580,
      "ա": 581,
      "բ": 582,
      "գ": 583,
      "դ": 584,
      "ե": 585,
      "ը": 586,
      "թ": 587,
      "ի": 588,
      "խ": 589,
      "կ": 590,
      "հ": 591,
      "մ": 592,
      "յ": 593,
      "ն": 594,
      "ո": 595,
      "պ": 596,
      "վ": 597,
      "տ": 598,
      "ր": 599,
      "ց": 600,
      "ւ": 601,
      "և": 602,
      "ְ": 603,
      "ִ": 604,
      "ֵ": 605,
      "ֶ": 606,
      "ַ": 607,
      "ָ": 608,
      "ֹ": 609,
      "ּ": 610,
      "־": 611,
      "ׁ": 612,
      "ׂ": 613,
      "א": 614,
      "ב": 615,
      "ג": 616,
      "ד": 617,
      "ה": 618,
      "ו": 619,
      "ז": 620,
      "ח": 621,
      "ט": 622,
      "י": 623,
      "ך": 624,
      "כ": 625,
      "ל": 626,
      "ם": 627,
      "מ": 628,
      "ן": 629,
      "נ": 630,
      "ס": 631,
      "ע": 632,
      "ף": 633,
      "פ": 634,
      "ץ": 635,
      "צ": 636,
      "ק": 637,
      "ר": 638,
      "ש": 639,
      "ת": 640,
      "،": 641,
      "؟": 642,
      "ء": 643,
      "آ": 644,
      "أ": 645,
      "ؤ": 646,
      "إ": 647,
      "ئ": 648,
      "ا": 649,
      "ب": 650,
      "ة": 651,
      "ت": 652,
      "ث": 653,
      "ج": 654,
      "ح": 655,
      "خ": 656,
      "د": 657,
      "ذ": 658,
      "ر": 659,
      "ز": 660,
      "س": 661,
      "ش": 662,
      "ص": 663,
      "ض": 664,
      "ط": 665,
      "ظ": 666,
      "ع": 667,
      "غ": 668,
      "ـ": 669,
      "ف": 670,
      "ق": 671,
      "ك": 672,
      "ل": 673,
      "م": 674,
      "ن": 675,
      "ه": 676,
      "و": 677,
      "ى": 678,
      "ي": 679,
      "ً": 680,
      "َ": 681,
      "ُ": 682,
      "ِ": 683,
      "ّ": 684,
      "ْ": 685,
      "ٔ": 686,
      "٠": 687,
      "١": 688,
      "٢": 689,
      "٣": 690,
      "٧": 691,
      "ٰ": 692,
      "ٱ": 693,
      "پ": 694,
      "ٿ": 695,
      "چ": 696,
      "ڏ": 697,
      "ڐ": 698,
      "ڙ": 699,
      "ڤ": 700,
      "ڦ": 701,
      "ک": 702,
      "گ": 703,
      "ھ": 704,
      "ہ": 705,
      "ۆ": 706,
      "ی": 707,
      "ێ": 708,
      "ە": 709,
      "ۡ": 710,
      "ܐ": 711,
      "ܒ": 712,
      "ܗ": 713,
      "ܘ": 714,
      "ܝ": 715,
      "ܡ": 716,
      "ܢ": 717,
      "ܣ": 718,
      "ܩ": 719,
      "ܪ": 720,
      "ܬ": 721,
      "ܳ": 722,
      "ं": 723,
      "ः": 724,
      "अ": 725,
      "आ": 726,
      "इ": 727,
      "ई": 728,
      "उ": 729,
      "क": 730,
      "ख": 731,
      "ग": 732,
      "घ": 733,
      "ज": 734,
      "ठ": 735,
      "ड": 736,
      "ण": 737,
      "त": 738,
      "द": 739,
      "ध": 740,
      "न": 741,
      "प": 742,
      "फ": 743,
      "ब": 744,
      "म": 745,
      "य": 746,
      "र": 747,
      "ल": 748,
      "ळ": 749,
      "व": 750,
      "श": 751,
      "ष": 752,
      "स": 753,
      "ह": 754,
      "़": 755,
      "ा": 756,
      "ि": 757,
      "ी": 758,
      "ु": 759,
      "ू": 760,
      "ृ": 761,
      "े": 762,
      "ै": 763,
      "ॉ": 764,
      "ो": 765,
      "ौ": 766,
      "्": 767,
      "অ": 768,
      "আ": 769,
      "ই": 770,
      "এ": 771,
      "ও": 772,
      "ক": 773,
      "খ": 774,
      "গ": 775,
      "ঘ": 776,
      "চ": 777,
      "ছ": 778,
      "জ": 779,
      "ট": 780,
      "ড": 781,
      "ত": 782,
      "থ": 783,
      "দ": 784,
      "ন": 785,
      "প": 786,
      "ব": 787,
      "ভ": 788,
      "ম": 789,
      "য": 790,
      "র": 791,
      "ল": 792,
      "শ": 793,
      "স": 794,
      "হ": 795,
      "়": 796,
      "া": 797,
      "ি": 798,
      "ী": 799,
      "ু": 800,
      "ূ": 801,
      "ে": 802,
      "ৈ": 803,
      "ো": 804,
      "্": 805,
      "ৰ": 806,
      "ਁ": 807,
      "ਆ": 808,
      "ਗ": 809,
      "ਬ": 810,
      "ਰ": 811,
      "ਲ": 812,
      "ੀ": 813,
      "ੋ": 814,
      "ੌ": 815,
      "க": 816,
      "ச": 817,
      "ட": 818,
      "த": 819,
      "ந": 820,
      "ன": 821,
      "ப": 822,
      "ய": 823,
      "ல": 824,
      "ள": 825,
      "வ": 826,
      "ா": 827,
      "ி": 828,
      "ீ": 829,
      "ு": 830,
      "ை": 831,
      "்": 832,
      "ం": 833,
      "ప": 834,
      "బ": 835,
      "ల": 836,
      "ి": 837,
      "ె": 838,
      "్": 839,
      "ಂ": 840,
      "ಅ": 841,
      "ಕ": 842,
      "ಗ": 843,
      "ಜ": 844,
      "ಣ": 845,
      "ದ": 846,
      "ಧ": 847,
      "ನ": 848,
      "ಪ": 849,
      "ಬ": 850,
      "ಭ": 851,
      "ಮ": 852,
      "ಯ": 853,
      "ರ": 854,
      "ಲ": 855,
      "ಳ": 856,
      "ವ": 857,
      "ಷ": 858,
      "ಸ": 859,
      "ಹ": 860,
      "ಾ": 861,
      "ಿ": 862,
      "ು": 863,
      "ೇ": 864,
      "್": 865,
      "പ": 866,
      "യ": 867,
      "ള": 868,
      "വ": 869,
      "െ": 870,
      "ർ": 871,
      "අ": 872,
      "ග": 873,
      "ත": 874,
      "ද": 875,
      "න": 876,
      "ප": 877,
      "ය": 878,
      "ර": 879,
      "ල": 880,
      "ව": 881,
      "ස": 882,
      "හ": 883,
      "්": 884,
      "ා": 885,
      "ැ": 886,
      "ෑ": 887,
      "ි": 888,
      "ෙ": 889,
      "ේ": 890,
      "ก": 891,
      "ค": 892,
      "ง": 893,
      "จ": 894,
      "ท": 895,
      "น": 896,
      "ป": 897,
      "พ": 898,
      "ม": 899,
      "ร": 900,
      "ล": 901,
      "ศ": 902,
      "ษ": 903,
      "ห": 904,
      "อ": 905,
      "า": 906,
      "ิ": 907,
      "ื": 908,
      "ุ": 909,
      "เ": 910,
      "ํ": 911,
      "ກ": 912,
      "ງ": 913,
      "ຈ": 914,
      "ຍ": 915,
      "ຕ": 916,
      "ບ": 917,
      "ຟ": 918,
      "ຣ": 919,
      "ອ": 920,
      "ັ": 921,
      "າ": 922,
      "ີ": 923,
      "ແ": 924,
      "່": 925,
      "້": 926,
      "་": 927,
      "ཀ": 928,
      "ག": 929,
      "ང": 930,
      "པ": 931,
      "ཙ": 932,
      "ཡ": 933,
      "ར": 934,
      "ས": 935,
      "ུ": 936,
      "ོ": 937,
      "ླ": 938,
      "ა": 939,
      "ბ": 940,
      "გ": 941,
      "დ": 942,
      "ე": 943,
      "ვ": 944,
      "ზ": 945,
      "თ": 946,
      "ი": 947,
      "ლ": 948,
      "მ": 949,
      "ნ": 950,
      "ო": 951,
      "პ": 952,
      "რ": 953,
      "ს": 954,
      "უ": 955,
      "ფ": 956,
      "ქ": 957,
      "შ": 958,
      "ც": 959,
      "წ": 960,
      "ხ": 961,
      "ሀ": 962,
      "ለ": 963,
      "ሉ": 964,
      "ሊ": 965,
      "ላ": 966,
      "ል": 967,
      "ሕ": 968,
      "መ": 969,
      "ም": 970,
      "ሥ": 971,
      "ሪ": 972,
      "ራ": 973,
      "ሬ": 974,
      "ር": 975,
      "ሰ": 976,
      "ሴ": 977,
      "ስ": 978,
      "ሸ": 979,
      "ቀ": 980,
      "ቆ": 981,
      "በ": 982,
      "ቡ": 983,
      "ባ": 984,
      "ቤ": 985,
      "ብ": 986,
      "ተ": 987,
      "ቲ": 988,
      "ት": 989,
      "ቶ": 990,
      "ነ": 991,
      "ን": 992,
      "ኖ": 993,
      "አ": 994,
      "ኤ": 995,
      "ኦ": 996,
      "ከ": 997,
      "ካ": 998,
      "ክ": 999,
      "ኮ": 1000,
      "ወ": 1001,
      "ዋ": 1002,
      "ዎ": 1003,
      "ዕ": 1004,
      "ዘ": 1005,
      "ያ": 1006,
      "ዬ": 1007,
      "ይ": 1008,
      "ዮ": 1009,
      "ደ": 1010,
      "ድ": 1011,
      "ዶ": 1012,
      "ጉ": 1013,
      "ጣ": 1014,
      "ጭ": 1015,
      "ጳ": 1016,
      "ጾ": 1017,
      "ፁ": 1018,
      "ፋ": 1019,
      "ፓ": 1020,
      "ក": 1021,
      "ង": 1022,
      "ច": 1023,
      "ជ": 1024,
      "ញ": 1025,
      "ដ": 1026,
      "ណ": 1027,
      "ត": 1028,
      "ទ": 1029,
      "ន": 1030,
      "ប": 1031,
      "ព": 1032,
      "ម": 1033,
      "យ": 1034,
      "រ": 1035,
      "ល": 1036,
      "ស": 1037,
      "អ": 1038,
      "ា": 1039,
      "ិ": 1040,
      "ុ": 1041,
      "ូ": 1042,
      "ួ": 1043,
      "ឿ": 1044,
      "េ": 1045,
      "ៃ": 1046,
      "ោ": 1047,
      "ំ": 1048,
      "់": 1049,
      "្": 1050,
      "៛": 1051,
      "ᴳ": 1052,
      "ᵇ": 1053,
      "ᵈ": 1054,
      "ᵝ": 1055,
      "ᵻ": 1056,
      "ᶡ": 1057,
      "ᶢ": 1058,
      "᷂": 1059,
      "᷄": 1060,
      "᷅": 1061,
      "᷆": 1062,
      "᷇": 1063,
      "᷈": 1064,
      "᷉": 1065,
      "ḇ": 1066,
      "ḍ": 1067,
      "ḏ": 1068,
      "ḓ": 1069,
      "ḗ": 1070,
      "ḛ": 1071,
      "Ḥ": 1072,
      "ḥ": 1073,
      "Ḩ": 1074,
      "ḫ": 1075,
      "ḭ": 1076,
      "ḳ": 1077,
      "ḵ": 1078,
      "Ḷ": 1079,
      "ḷ": 1080,
      "ḽ": 1081,
      "ṁ": 1082,
      "ṃ": 1083,
      "ṅ": 1084,
      "ṇ": 1085,
      "ṛ": 1086,
      "Ṣ": 1087,
      "ṣ": 1088,
      "Ṭ": 1089,
      "ṭ": 1090,
      "ṯ": 1091,
      "Ṱ": 1092,
      "ṱ": 1093,
      "ṵ": 1094,
      "ṿ": 1095,
      "Ẓ": 1096,
      "ẓ": 1097,
      "ạ": 1098,
      "ả": 1099,
      "ấ": 1100,
      "ậ": 1101,
      "ắ": 1102,
      "ằ": 1103,
      "ặ": 1104,
      "Ẹ": 1105,
      "ẹ": 1106,
      "ẽ": 1107,
      "ế": 1108,
      "ề": 1109,
      "ể": 1110,
      "ễ": 1111,
      "ệ": 1112,
      "ỉ": 1113,
      "Ị": 1114,
      "ị": 1115,
      "Ọ": 1116,
      "ọ": 1117,
      "ố": 1118,
      "ồ": 1119,
      "ổ": 1120,
      "ỗ": 1121,
      "ộ": 1122,
      "ớ": 1123,
      "ờ": 1124,
      "ở": 1125,
      "ợ": 1126,
      "Ụ": 1127,
      "ụ": 1128,
      "ủ": 1129,
      "ứ": 1130,
      "ữ": 1131,
      "ỳ": 1132,
      "ỹ": 1133,
      "ἀ": 1134,
      "ἁ": 1135,
      "ἆ": 1136,
      "Ἀ": 1137,
      "Ἅ": 1138,
      "ἐ": 1139,
      "Ἐ": 1140,
      "ἡ": 1141,
      "Ἡ": 1142,
      "ἰ": 1143,
      "ὀ": 1144,
      "ὁ": 1145,
      "ὐ": 1146,
      "ὰ": 1147,
      "ὴ": 1148,
      "ὶ": 1149,
      "ὸ": 1150,
      "ᾶ": 1151,
      "ῃ": 1152,
      "ῆ": 1153,
      "ῖ": 1154,
      "ῦ": 1155,
      "ῶ": 1156,
      " ": 1157,
      " ": 1158,
      " ": 1159,
      "​": 1160,
      "‌": 1161,
      "‎": 1162,
      "‐": 1163,
      "‑": 1164,
      "‒": 1165,
      "–": 1166,
      "—": 1167,
      "―": 1168,
      "‖": 1169,
      "‘": 1170,
      "’": 1171,
      "‚": 1172,
      "‛": 1173,
      "“": 1174,
      "”": 1175,
      "„": 1176,
      "†": 1177,
      "‡": 1178,
      "•": 1179,
      "…": 1180,
      "‧": 1181,
      "‬": 1182,
      " ": 1183,
      "‰": 1184,
      "′": 1185,
      "″": 1186,
      "‹": 1187,
      "›": 1188,
      "※": 1189,
      "‼": 1190,
      "‿": 1191,
      "⁄": 1192,
      "⁇": 1193,
      "⁠": 1194,
      "⁴": 1195,
      "⁶": 1196,
      "⁹": 1197,
      "ⁿ": 1198,
      "₦": 1199,
      "₨": 1200,
      "€": 1201,
      "₵": 1202,
      "₹": 1203,
      "₺": 1204,
      "ℓ": 1205,
      "№": 1206,
      "℘": 1207,
      "™": 1208,
      "←": 1209,
      "↑": 1210,
      "→": 1211,
      "↗": 1212,
      "⇔": 1213,
      "∂": 1214,
      "−": 1215,
      "∗": 1216,
      "√": 1217,
      "∫": 1218,
      "∼": 1219,
      "≈": 1220,
      "≠": 1221,
      "≤": 1222,
      "≥": 1223,
      "≫": 1224,
      "⋅": 1225,
      "ⓘ": 1226,
      "▁": 1227,
      "■": 1228,
      "□": 1229,
      "◌": 1230,
      "●": 1231,
      "★": 1232,
      "☆": 1233,
      "☛": 1234,
      "♂": 1235,
      "♡": 1236,
      "♥": 1237,
      "♦": 1238,
      "♪": 1239,
      "✍": 1240,
      "✓": 1241,
      "⟨": 1242,
      "⟩": 1243,
      "⠔": 1244,
      "⠳": 1245,
      "ⲁ": 1246,
      "ⲃ": 1247,
      "ⲉ": 1248,
      "ⲏ": 1249,
      "ⲓ": 1250,
      "ⲕ": 1251,
      "ⲗ": 1252,
      "Ⲙ": 1253,
      "ⲛ": 1254,
      "ⲟ": 1255,
      "ⲡ": 1256,
      "ⲣ": 1257,
      "ⲥ": 1258,
      "ⲧ": 1259,
      "ⲩ": 1260,
      "Ⲫ": 1261,
      "ⲫ": 1262,
      "ⲱ": 1263,
      "ⴰ": 1264,
      "ⴱ": 1265,
      "ⴷ": 1266,
      "ⴻ": 1267,
      "ⴼ": 1268,
      "ⵀ": 1269,
      "ⵄ": 1270,
      "ⵇ": 1271,
      "ⵉ": 1272,
      "ⵍ": 1273,
      "ⵎ": 1274,
      "ⵏ": 1275,
      "ⵓ": 1276,
      "ⵙ": 1277,
      "ⵜ": 1278,
      "ⵟ": 1279,
      "ⵠ": 1280,
      "ⵢ": 1281,
      "　": 1282,
      "、": 1283,
      "。": 1284,
      "々": 1285,
      "《": 1286,
      "》": 1287,
      "「": 1288,
      "」": 1289,
      "『": 1290,
      "』": 1291,
      "【": 1292,
      "】": 1293,
      "〒": 1294,
      "〜": 1295,
      "い": 1296,
      "う": 1297,
      "お": 1298,
      "が": 1299,
      "き": 1300,
      "く": 1301,
      "け": 1302,
      "こ": 1303,
      "し": 1304,
      "す": 1305,
      "せ": 1306,
      "た": 1307,
      "だ": 1308,
      "っ": 1309,
      "て": 1310,
      "で": 1311,
      "な": 1312,
      "に": 1313,
      "ぬ": 1314,
      "の": 1315,
      "は": 1316,
      "ふ": 1317,
      "み": 1318,
      "む": 1319,
      "め": 1320,
      "よ": 1321,
      "ら": 1322,
      "り": 1323,
      "る": 1324,
      "れ": 1325,
      "を": 1326,
      "ん": 1327,
      "ァ": 1328,
      "ア": 1329,
      "ィ": 1330,
      "イ": 1331,
      "ゥ": 1332,
      "ウ": 1333,
      "ェ": 1334,
      "エ": 1335,
      "オ": 1336,
      "カ": 1337,
      "キ": 1338,
      "ギ": 1339,
      "ク": 1340,
      "グ": 1341,
      "ゲ": 1342,
      "コ": 1343,
      "ゴ": 1344,
      "サ": 1345,
      "シ": 1346,
      "ジ": 1347,
      "ス": 1348,
      "ズ": 1349,
      "セ": 1350,
      "ゼ": 1351,
      "タ": 1352,
      "ダ": 1353,
      "チ": 1354,
      "ッ": 1355,
      "ツ": 1356,
      "テ": 1357,
      "デ": 1358,
      "ト": 1359,
      "ド": 1360,
      "ナ": 1361,
      "ニ": 1362,
      "ハ": 1363,
      "バ": 1364,
      "ビ": 1365,
      "フ": 1366,
      "ブ": 1367,
      "プ": 1368,
      "ベ": 1369,
      "マ": 1370,
      "ミ": 1371,
      "ム": 1372,
      "メ": 1373,
      "ャ": 1374,
      "ヤ": 1375,
      "ュ": 1376,
      "ラ": 1377,
      "リ": 1378,
      "ル": 1379,
      "レ": 1380,
      "ロ": 1381,
      "ン": 1382,
      "ヴ": 1383,
      "ヶ": 1384,
      "・": 1385,
      "ー": 1386,
      "一": 1387,
      "丁": 1388,
      "七": 1389,
      "三": 1390,
      "不": 1391,
      "与": 1392,
      "丑": 1393,
      "且": 1394,
      "世": 1395,
      "业": 1396,
      "东": 1397,
      "两": 1398,
      "个": 1399,
      "中": 1400,
      "丰": 1401,
      "丹": 1402,
      "主": 1403,
      "乃": 1404,
      "久": 1405,
      "么": 1406,
      "之": 1407,
      "乐": 1408,
      "九": 1409,
      "也": 1410,
      "乡": 1411,
      "乱": 1412,
      "了": 1413,
      "争": 1414,
      "二": 1415,
      "于": 1416,
      "五": 1417,
      "亚": 1418,
      "亜": 1419,
      "交": 1420,
      "京": 1421,
      "亭": 1422,
      "亲": 1423,
      "人": 1424,
      "仁": 1425,
      "介": 1426,
      "令": 1427,
      "以": 1428,
      "仮": 1429,
      "价": 1430,
      "任": 1431,
      "企": 1432,
      "伊": 1433,
      "优": 1434,
      "会": 1435,
      "伟": 1436,
      "伦": 1437,
      "伯": 1438,
      "估": 1439,
      "佐": 1440,
      "佑": 1441,
      "何": 1442,
      "作": 1443,
      "你": 1444,
      "來": 1445,
      "例": 1446,
      "依": 1447,
      "侯": 1448,
      "俊": 1449,
      "保": 1450,
      "信": 1451,
      "倫": 1452,
      "值": 1453,
      "假": 1454,
      "偉": 1455,
      "傳": 1456,
      "優": 1457,
      "元": 1458,
      "先": 1459,
      "光": 1460,
      "克": 1461,
      "兒": 1462,
      "入": 1463,
      "八": 1464,
      "公": 1465,
      "共": 1466,
      "关": 1467,
      "兵": 1468,
      "内": 1469,
      "况": 1470,
      "净": 1471,
      "凍": 1472,
      "凰": 1473,
      "出": 1474,
      "刀": 1475,
      "则": 1476,
      "创": 1477,
      "初": 1478,
      "別": 1479,
      "利": 1480,
      "刻": 1481,
      "前": 1482,
      "劉": 1483,
      "劍": 1484,
      "力": 1485,
      "加": 1486,
      "勝": 1487,
      "勧": 1488,
      "化": 1489,
      "北": 1490,
      "区": 1491,
      "千": 1492,
      "华": 1493,
      "协": 1494,
      "卓": 1495,
      "南": 1496,
      "博": 1497,
      "印": 1498,
      "原": 1499,
      "去": 1500,
      "县": 1501,
      "参": 1502,
      "友": 1503,
      "収": 1504,
      "发": 1505,
      "口": 1506,
      "古": 1507,
      "只": 1508,
      "可": 1509,
      "台": 1510,
      "史": 1511,
      "叶": 1512,
      "号": 1513,
      "合": 1514,
      "吉": 1515,
      "同": 1516,
      "名": 1517,
      "后": 1518,
      "向": 1519,
      "吕": 1520,
      "君": 1521,
      "含": 1522,
      "启": 1523,
      "吴": 1524,
      "员": 1525,
      "周": 1526,
      "和": 1527,
      "品": 1528,
      "哉": 1529,
      "員": 1530,
      "哲": 1531,
      "唐": 1532,
      "唱": 1533,
      "商": 1534,
      "啟": 1535,
      "善": 1536,
      "喔": 1537,
      "喜": 1538,
      "四": 1539,
      "回": 1540,
      "因": 1541,
      "固": 1542,
      "国": 1543,
      "图": 1544,
      "國": 1545,
      "圍": 1546,
      "圖": 1547,
      "土": 1548,
      "在": 1549,
      "地": 1550,
      "场": 1551,
      "址": 1552,
      "均": 1553,
      "坛": 1554,
      "坝": 1555,
      "坦": 1556,
      "城": 1557,
      "執": 1558,
      "基": 1559,
      "堂": 1560,
      "塘": 1561,
      "塞": 1562,
      "墓": 1563,
      "墨": 1564,
      "士": 1565,
      "壬": 1566,
      "壮": 1567,
      "売": 1568,
      "変": 1569,
      "夏": 1570,
      "外": 1571,
      "多": 1572,
      "夜": 1573,
      "夢": 1574,
      "大": 1575,
      "天": 1576,
      "太": 1577,
      "夫": 1578,
      "失": 1579,
      "奈": 1580,
      "奉": 1581,
      "奥": 1582,
      "女": 1583,
      "奴": 1584,
      "如": 1585,
      "妇": 1586,
      "始": 1587,
      "委": 1588,
      "姿": 1589,
      "娃": 1590,
      "娱": 1591,
      "婆": 1592,
      "婷": 1593,
      "媒": 1594,
      "子": 1595,
      "存": 1596,
      "孝": 1597,
      "学": 1598,
      "孩": 1599,
      "孵": 1600,
      "學": 1601,
      "宇": 1602,
      "安": 1603,
      "宏": 1604,
      "官": 1605,
      "定": 1606,
      "宜": 1607,
      "实": 1608,
      "室": 1609,
      "宮": 1610,
      "容": 1611,
      "富": 1612,
      "實": 1613,
      "寨": 1614,
      "对": 1615,
      "寺": 1616,
      "寿": 1617,
      "専": 1618,
      "将": 1619,
      "將": 1620,
      "對": 1621,
      "導": 1622,
      "小": 1623,
      "少": 1624,
      "尔": 1625,
      "尚": 1626,
      "尤": 1627,
      "就": 1628,
      "屈": 1629,
      "屏": 1630,
      "展": 1631,
      "層": 1632,
      "山": 1633,
      "岛": 1634,
      "岡": 1635,
      "岳": 1636,
      "岸": 1637,
      "峡": 1638,
      "峰": 1639,
      "島": 1640,
      "崎": 1641,
      "巂": 1642,
      "川": 1643,
      "州": 1644,
      "工": 1645,
      "巨": 1646,
      "已": 1647,
      "巴": 1648,
      "市": 1649,
      "布": 1650,
      "希": 1651,
      "帝": 1652,
      "師": 1653,
      "帶": 1654,
      "常": 1655,
      "平": 1656,
      "年": 1657,
      "并": 1658,
      "幸": 1659,
      "幻": 1660,
      "底": 1661,
      "庙": 1662,
      "庫": 1663,
      "康": 1664,
      "延": 1665,
      "开": 1666,
      "式": 1667,
      "张": 1668,
      "張": 1669,
      "当": 1670,
      "影": 1671,
      "律": 1672,
      "徐": 1673,
      "得": 1674,
      "德": 1675,
      "心": 1676,
      "必": 1677,
      "志": 1678,
      "忘": 1679,
      "忠": 1680,
      "忧": 1681,
      "怒": 1682,
      "性": 1683,
      "息": 1684,
      "恵": 1685,
      "悖": 1686,
      "悠": 1687,
      "您": 1688,
      "情": 1689,
      "惠": 1690,
      "意": 1691,
      "愛": 1692,
      "感": 1693,
      "慰": 1694,
      "慶": 1695,
      "應": 1696,
      "成": 1697,
      "戦": 1698,
      "戰": 1699,
      "戴": 1700,
      "房": 1701,
      "所": 1702,
      "扇": 1703,
      "扉": 1704,
      "手": 1705,
      "才": 1706,
      "扎": 1707,
      "承": 1708,
      "技": 1709,
      "投": 1710,
      "折": 1711,
      "拉": 1712,
      "拓": 1713,
      "拔": 1714,
      "拢": 1715,
      "拼": 1716,
      "持": 1717,
      "指": 1718,
      "按": 1719,
      "捨": 1720,
      "掌": 1721,
      "排": 1722,
      "控": 1723,
      "推": 1724,
      "搞": 1725,
      "撃": 1726,
      "支": 1727,
      "放": 1728,
      "效": 1729,
      "教": 1730,
      "散": 1731,
      "敦": 1732,
      "敬": 1733,
      "文": 1734,
      "斗": 1735,
      "料": 1736,
      "新": 1737,
      "方": 1738,
      "旅": 1739,
      "旗": 1740,
      "既": 1741,
      "日": 1742,
      "旦": 1743,
      "早": 1744,
      "昌": 1745,
      "明": 1746,
      "易": 1747,
      "星": 1748,
      "昭": 1749,
      "是": 1750,
      "時": 1751,
      "晖": 1752,
      "晚": 1753,
      "暴": 1754,
      "曲": 1755,
      "書": 1756,
      "月": 1757,
      "有": 1758,
      "朗": 1759,
      "望": 1760,
      "期": 1761,
      "木": 1762,
      "未": 1763,
      "末": 1764,
      "本": 1765,
      "朱": 1766,
      "朴": 1767,
      "杀": 1768,
      "权": 1769,
      "李": 1770,
      "村": 1771,
      "来": 1772,
      "杨": 1773,
      "杭": 1774,
      "杰": 1775,
      "東": 1776,
      "松": 1777,
      "枕": 1778,
      "林": 1779,
      "果": 1780,
      "某": 1781,
      "査": 1782,
      "栖": 1783,
      "株": 1784,
      "样": 1785,
      "根": 1786,
      "格": 1787,
      "桂": 1788,
      "案": 1789,
      "档": 1790,
      "梅": 1791,
      "棄": 1792,
      "棋": 1793,
      "森": 1794,
      "楓": 1795,
      "楚": 1796,
      "業": 1797,
      "楼": 1798,
      "概": 1799,
      "樓": 1800,
      "横": 1801,
      "樹": 1802,
      "橋": 1803,
      "檔": 1804,
      "次": 1805,
      "欧": 1806,
      "歌": 1807,
      "正": 1808,
      "武": 1809,
      "歩": 1810,
      "死": 1811,
      "母": 1812,
      "毛": 1813,
      "民": 1814,
      "氓": 1815,
      "気": 1816,
      "氛": 1817,
      "氣": 1818,
      "水": 1819,
      "求": 1820,
      "江": 1821,
      "池": 1822,
      "沉": 1823,
      "河": 1824,
      "沿": 1825,
      "泉": 1826,
      "法": 1827,
      "波": 1828,
      "泳": 1829,
      "洋": 1830,
      "洞": 1831,
      "津": 1832,
      "活": 1833,
      "派": 1834,
      "流": 1835,
      "浩": 1836,
      "浪": 1837,
      "海": 1838,
      "涌": 1839,
      "涨": 1840,
      "混": 1841,
      "清": 1842,
      "港": 1843,
      "游": 1844,
      "源": 1845,
      "潘": 1846,
      "潤": 1847,
      "潮": 1848,
      "澤": 1849,
      "濟": 1850,
      "瀬": 1851,
      "炎": 1852,
      "為": 1853,
      "烏": 1854,
      "然": 1855,
      "照": 1856,
      "熊": 1857,
      "爵": 1858,
      "版": 1859,
      "牌": 1860,
      "牙": 1861,
      "牧": 1862,
      "特": 1863,
      "状": 1864,
      "独": 1865,
      "猛": 1866,
      "猪": 1867,
      "獅": 1868,
      "獨": 1869,
      "玉": 1870,
      "王": 1871,
      "现": 1872,
      "班": 1873,
      "現": 1874,
      "球": 1875,
      "理": 1876,
      "生": 1877,
      "田": 1878,
      "由": 1879,
      "甲": 1880,
      "男": 1881,
      "町": 1882,
      "画": 1883,
      "界": 1884,
      "略": 1885,
      "番": 1886,
      "癸": 1887,
      "発": 1888,
      "白": 1889,
      "百": 1890,
      "的": 1891,
      "皮": 1892,
      "盈": 1893,
      "益": 1894,
      "盘": 1895,
      "盛": 1896,
      "目": 1897,
      "相": 1898,
      "真": 1899,
      "着": 1900,
      "瞥": 1901,
      "石": 1902,
      "研": 1903,
      "破": 1904,
      "硏": 1905,
      "碟": 1906,
      "碧": 1907,
      "碳": 1908,
      "社": 1909,
      "祐": 1910,
      "祖": 1911,
      "神": 1912,
      "票": 1913,
      "祭": 1914,
      "福": 1915,
      "私": 1916,
      "秋": 1917,
      "种": 1918,
      "科": 1919,
      "税": 1920,
      "稱": 1921,
      "稲": 1922,
      "穆": 1923,
      "穢": 1924,
      "究": 1925,
      "立": 1926,
      "竞": 1927,
      "章": 1928,
      "童": 1929,
      "笙": 1930,
      "第": 1931,
      "等": 1932,
      "箸": 1933,
      "精": 1934,
      "系": 1935,
      "紀": 1936,
      "級": 1937,
      "紫": 1938,
      "細": 1939,
      "組": 1940,
      "統": 1941,
      "絵": 1942,
      "經": 1943,
      "綜": 1944,
      "綠": 1945,
      "維": 1946,
      "網": 1947,
      "緑": 1948,
      "縣": 1949,
      "績": 1950,
      "纂": 1951,
      "组": 1952,
      "经": 1953,
      "编": 1954,
      "缺": 1955,
      "网": 1956,
      "羊": 1957,
      "美": 1958,
      "羞": 1959,
      "群": 1960,
      "羽": 1961,
      "習": 1962,
      "翠": 1963,
      "翼": 1964,
      "耀": 1965,
      "老": 1966,
      "而": 1967,
      "耕": 1968,
      "耳": 1969,
      "职": 1970,
      "聖": 1971,
      "聞": 1972,
      "肇": 1973,
      "肯": 1974,
      "背": 1975,
      "胜": 1976,
      "腐": 1977,
      "膎": 1978,
      "膩": 1979,
      "自": 1980,
      "興": 1981,
      "良": 1982,
      "色": 1983,
      "芒": 1984,
      "芦": 1985,
      "花": 1986,
      "芳": 1987,
      "芹": 1988,
      "苏": 1989,
      "苑": 1990,
      "若": 1991,
      "苦": 1992,
      "英": 1993,
      "苼": 1994,
      "茒": 1995,
      "茦": 1996,
      "茩": 1997,
      "茶": 1998,
      "草": 1999,
      "莲": 2000,
      "莹": 2001,
      "菜": 2002,
      "華": 2003,
      "萍": 2004,
      "落": 2005,
      "葉": 2006,
      "蒙": 2007,
      "蓳": 2008,
      "蓷": 2009,
      "蔡": 2010,
      "蕴": 2011,
      "薮": 2012,
      "藍": 2013,
      "藏": 2014,
      "藤": 2015,
      "藩": 2016,
      "蘆": 2017,
      "蘇": 2018,
      "虎": 2019,
      "蝦": 2020,
      "蝶": 2021,
      "衆": 2022,
      "行": 2023,
      "術": 2024,
      "街": 2025,
      "表": 2026,
      "被": 2027,
      "裕": 2028,
      "襲": 2029,
      "西": 2030,
      "要": 2031,
      "見": 2032,
      "規": 2033,
      "覺": 2034,
      "解": 2035,
      "觸": 2036,
      "言": 2037,
      "計": 2038,
      "記": 2039,
      "評": 2040,
      "詞": 2041,
      "語": 2042,
      "誠": 2043,
      "談": 2044,
      "論": 2045,
      "諾": 2046,
      "謝": 2047,
      "議": 2048,
      "讀": 2049,
      "论": 2050,
      "诗": 2051,
      "话": 2052,
      "语": 2053,
      "课": 2054,
      "谢": 2055,
      "谷": 2056,
      "豆": 2057,
      "象": 2058,
      "豬": 2059,
      "貙": 2060,
      "財": 2061,
      "貴": 2062,
      "賢": 2063,
      "質": 2064,
      "賴": 2065,
      "贝": 2066,
      "财": 2067,
      "贵": 2068,
      "赤": 2069,
      "起": 2070,
      "超": 2071,
      "越": 2072,
      "足": 2073,
      "路": 2074,
      "蹤": 2075,
      "蹴": 2076,
      "身": 2077,
      "軍": 2078,
      "輔": 2079,
      "輸": 2080,
      "边": 2081,
      "达": 2082,
      "这": 2083,
      "迟": 2084,
      "追": 2085,
      "退": 2086,
      "通": 2087,
      "逝": 2088,
      "連": 2089,
      "週": 2090,
      "進": 2091,
      "道": 2092,
      "達": 2093,
      "遠": 2094,
      "選": 2095,
      "邓": 2096,
      "那": 2097,
      "邱": 2098,
      "郎": 2099,
      "部": 2100,
      "郭": 2101,
      "都": 2102,
      "鄉": 2103,
      "鄭": 2104,
      "里": 2105,
      "重": 2106,
      "野": 2107,
      "金": 2108,
      "鈥": 2109,
      "鈧": 2110,
      "鈴": 2111,
      "銀": 2112,
      "銳": 2113,
      "铮": 2114,
      "银": 2115,
      "镇": 2116,
      "長": 2117,
      "閉": 2118,
      "開": 2119,
      "閏": 2120,
      "閱": 2121,
      "问": 2122,
      "阳": 2123,
      "阿": 2124,
      "附": 2125,
      "际": 2126,
      "陈": 2127,
      "院": 2128,
      "陰": 2129,
      "陳": 2130,
      "陽": 2131,
      "階": 2132,
      "随": 2133,
      "隐": 2134,
      "際": 2135,
      "障": 2136,
      "隼": 2137,
      "难": 2138,
      "雁": 2139,
      "雄": 2140,
      "雅": 2141,
      "集": 2142,
      "雪": 2143,
      "雲": 2144,
      "雷": 2145,
      "電": 2146,
      "霞": 2147,
      "霸": 2148,
      "青": 2149,
      "非": 2150,
      "面": 2151,
      "革": 2152,
      "鞠": 2153,
      "韓": 2154,
      "韩": 2155,
      "音": 2156,
      "項": 2157,
      "須": 2158,
      "頭": 2159,
      "颖": 2160,
      "题": 2161,
      "風": 2162,
      "风": 2163,
      "飛": 2164,
      "飲": 2165,
      "餐": 2166,
      "館": 2167,
      "饶": 2168,
      "首": 2169,
      "香": 2170,
      "馬": 2171,
      "駒": 2172,
      "马": 2173,
      "高": 2174,
      "魔": 2175,
      "魚": 2176,
      "鲁": 2177,
      "鹽": 2178,
      "麟": 2179,
      "麻": 2180,
      "黃": 2181,
      "黄": 2182,
      "黯": 2183,
      "龍": 2184,
      "龙": 2185,
      "ꁱ": 2186,
      "ꂷ": 2187,
      "ꆈ": 2188,
      "ꌠ": 2189,
      "ꜣ": 2190,
      "ꜥ": 2191,
      "Ʝ": 2192,
      "가": 2193,
      "간": 2194,
      "감": 2195,
      "걸": 2196,
      "격": 2197,
      "계": 2198,
      "고": 2199,
      "공": 2200,
      "괴": 2201,
      "구": 2202,
      "국": 2203,
      "그": 2204,
      "금": 2205,
      "기": 2206,
      "길": 2207,
      "나": 2208,
      "남": 2209,
      "낭": 2210,
      "넘": 2211,
      "네": 2212,
      "녀": 2213,
      "년": 2214,
      "노": 2215,
      "농": 2216,
      "는": 2217,
      "니": 2218,
      "다": 2219,
      "닥": 2220,
      "단": 2221,
      "당": 2222,
      "대": 2223,
      "도": 2224,
      "동": 2225,
      "드": 2226,
      "들": 2227,
      "디": 2228,
      "떠": 2229,
      "떤": 2230,
      "란": 2231,
      "람": 2232,
      "랑": 2233,
      "래": 2234,
      "랜": 2235,
      "러": 2236,
      "로": 2237,
      "르": 2238,
      "른": 2239,
      "를": 2240,
      "리": 2241,
      "릭": 2242,
      "린": 2243,
      "마": 2244,
      "만": 2245,
      "맨": 2246,
      "먼": 2247,
      "명": 2248,
      "무": 2249,
      "문": 2250,
      "미": 2251,
      "민": 2252,
      "박": 2253,
      "밖": 2254,
      "반": 2255,
      "방": 2256,
      "배": 2257,
      "버": 2258,
      "범": 2259,
      "벙": 2260,
      "보": 2261,
      "봉": 2262,
      "부": 2263,
      "비": 2264,
      "사": 2265,
      "산": 2266,
      "살": 2267,
      "상": 2268,
      "새": 2269,
      "서": 2270,
      "성": 2271,
      "세": 2272,
      "셜": 2273,
      "소": 2274,
      "송": 2275,
      "쇄": 2276,
      "수": 2277,
      "순": 2278,
      "스": 2279,
      "습": 2280,
      "시": 2281,
      "식": 2282,
      "신": 2283,
      "쌈": 2284,
      "아": 2285,
      "안": 2286,
      "알": 2287,
      "았": 2288,
      "양": 2289,
      "어": 2290,
      "없": 2291,
      "에": 2292,
      "여": 2293,
      "연": 2294,
      "열": 2295,
      "영": 2296,
      "오": 2297,
      "올": 2298,
      "와": 2299,
      "외": 2300,
      "우": 2301,
      "워": 2302,
      "원": 2303,
      "유": 2304,
      "융": 2305,
      "은": 2306,
      "의": 2307,
      "이": 2308,
      "인": 2309,
      "있": 2310,
      "자": 2311,
      "잡": 2312,
      "장": 2313,
      "재": 2314,
      "저": 2315,
      "전": 2316,
      "절": 2317,
      "정": 2318,
      "조": 2319,
      "족": 2320,
      "죄": 2321,
      "주": 2322,
      "지": 2323,
      "진": 2324,
      "창": 2325,
      "축": 2326,
      "치": 2327,
      "캐": 2328,
      "코": 2329,
      "콩": 2330,
      "크": 2331,
      "탐": 2332,
      "터": 2333,
      "틴": 2334,
      "패": 2335,
      "퍼": 2336,
      "포": 2337,
      "피": 2338,
      "하": 2339,
      "학": 2340,
      "한": 2341,
      "해": 2342,
      "홍": 2343,
      "화": 2344,
      "활": 2345,
      "회": 2346,
      "훈": 2347,
      "ﭘ": 2348,
      "ﮑ": 2349,
      "ﯾ": 2350,
      "ﯿ": 2351,
      "﴾": 2352,
      "﴿": 2353,
      "ﷺ": 2354,
      "️": 2355,
      "︱": 2356,
      "ﺀ": 2357,
      "ﺃ": 2358,
      "ﺆ": 2359,
      "ﺇ": 2360,
      "ﺋ": 2361,
      "ﺍ": 2362,
      "ﺎ": 2363,
      "ﺏ": 2364,
      "ﺐ": 2365,
      "ﺑ": 2366,
      "ﺒ": 2367,
      "ﺓ": 2368,
      "ﺔ": 2369,
      "ﺕ": 2370,
      "ﺖ": 2371,
      "ﺗ": 2372,
      "ﺘ": 2373,
      "ﺛ": 2374,
      "ﺜ": 2375,
      "ﺝ": 2376,
      "ﺟ": 2377,
      "ﺠ": 2378,
      "ﺣ": 2379,
      "ﺤ": 2380,
      "ﺧ": 2381,
      "ﺨ": 2382,
      "ﺩ": 2383,
      "ﺪ": 2384,
      "ﺭ": 2385,
      "ﺮ": 2386,
      "ﺯ": 2387,
      "ﺰ": 2388,
      "ﺱ": 2389,
      "ﺲ": 2390,
      "ﺳ": 2391,
      "ﺴ": 2392,
      "ﺷ": 2393,
      "ﺸ": 2394,
      "ﺺ": 2395,
      "ﺻ": 2396,
      "ﺼ": 2397,
      "ﻀ": 2398,
      "ﻃ": 2399,
      "ﻄ": 2400,
      "ﻉ": 2401,
      "ﻋ": 2402,
      "ﻌ": 2403,
      "ﻏ": 2404,
      "ﻐ": 2405,
      "ﻓ": 2406,
      "ﻔ": 2407,
      "ﻖ": 2408,
      "ﻗ": 2409,
      "ﻘ": 2410,
      "ﻛ": 2411,
      "ﻜ": 2412,
      "ﻝ": 2413,
      "ﻞ": 2414,
      "ﻟ": 2415,
      "ﻠ": 2416,
      "ﻢ": 2417,
      "ﻣ": 2418,
      "ﻤ": 2419,
      "ﻥ": 2420,
      "ﻦ": 2421,
      "ﻧ": 2422,
      "ﻨ": 2423,
      "ﻩ": 2424,
      "ﻪ": 2425,
      "ﻫ": 2426,
      "ﻬ": 2427,
      "ﻭ": 2428,
      "ﻮ": 2429,
      "ﻯ": 2430,
      "ﻰ": 2431,
      "ﻱ": 2432,
      "ﻲ": 2433,
      "ﻳ": 2434,
      "ﻴ": 2435,
      "ﻷ": 2436,
      "ﻹ": 2437,
      "ﻼ": 2438,
      "﻿": 2439,
      "！": 2440,
      "（": 2441,
      "）": 2442,
      "，": 2443,
      "：": 2444,
      "？": 2445,
      "｜": 2446,
      "￼": 2447,
      "�": 2448,
      "𐎠": 2449,
      "𐎡": 2450,
      "𐎧": 2451,
      "𐎫": 2452,
      "𐎱": 2453,
      "𐎲": 2454,
      "𐎼": 2455,
      "𐎿": 2456,
      "𐏁": 2457,
      "𐞋": 2458,
      "𐤀": 2459,
      "𐤁": 2460,
      "𐤃": 2461,
      "𐤊": 2462,
      "𐤋": 2463,
      "𐤍": 2464,
      "𐤏": 2465,
      "𐤔": 2466,
      "𐬁": 2467,
      "𐬌": 2468,
      "𐬑": 2469,
      "𐬜": 2470,
      "𐬠": 2471,
      "𐭠": 2472,
      "𐭡": 2473,
      "𐭧": 2474,
      "𐭫": 2475,
      "𓊖": 2476,
      "𓏌": 2477,
      "𝼆": 2478,
      "𞠁": 2479,
      "𞠂": 2480,
      "🇩": 2481,
      "🇬": 2482,
      "🇱": 2483,
      "🇳": 2484,
      "🇾": 2485,
      "🇿": 2486,
      "🉺": 2487,
      "🌐": 2488,
      "🏆": 2489,
      "👇": 2490,
      "📝": 2491,
      "🖉": 2492,
      "😂": 2493,
      "😅": 2494,
      "🙊": 2495,
      "🠀": 2496,
      "🤔": 2497,
      "🦠": 2498,
      "an": 2499,
      "ar": 2500,
      "da": 2501,
      "in": 2502,
      "▁da": 2503,
      "▁k": 2504,
      "t;": 2505,
      "▁a": 2506,
      "▁s": 2507,
      "ma": 2508,
      "ta": 2509,
      "ya": 2510,
      "wa": 2511,
      "na": 2512,
      "▁b": 2513,
      "▁na": 2514,
      "▁ta": 2515,
      "▁ma": 2516,
      "ka": 2517,
      "re": 2518,
      "sa": 2519,
      "un": 2520,
      "ga": 2521,
      "▁ya": 2522,
      "▁c": 2523,
      "▁A": 2524,
      "on": 2525,
      "qu": 2526,
      "quo": 2527,
      "quot;": 2528,
      "&quot;": 2529,
      "am": 2530,
      "gt;": 2531,
      "&gt;": 2532,
      "▁sh": 2533,
      "lt;": 2534,
      "&lt;": 2535,
      "▁t": 2536,
      "ik": 2537,
      "▁h": 2538,
      "▁ba": 2539,
      "en": 2540,
      "ref": 2541,
      "la": 2542,
      "yan": 2543,
      "▁wa": 2544,
      "▁ka": 2545,
      "er": 2546,
      "▁d": 2547,
      "▁M": 2548,
      "▁f": 2549,
      "▁z": 2550,
      "▁ku": 2551,
      "ir": 2552,
      "wan": 2553,
      "▁S": 2554,
      "ara": 2555,
      "ref&gt;": 2556,
      "sh": 2557,
      "▁g": 2558,
      "li": 2559,
      "ur": 2560,
      "▁r": 2561,
      "20": 2562,
      "▁m": 2563,
      "▁ga": 2564,
      "yar": 2565,
      "iya": 2566,
      "ikin": 2567,
      "ba": 2568,
      "▁sa": 2569,
      "or": 2570,
      "▁su": 2571,
      "▁1": 2572,
      "▁n": 2573,
      "su": 2574,
      "▁B": 2575,
      "▁kuma": 2576,
      "▁K": 2577,
      "yi": 2578,
      "▁j": 2579,
      "&lt;/": 2580,
      "▁T": 2581,
      "ce": 2582,
      "▁ƙ": 2583,
      "▁cikin": 2584,
      "▁20": 2585,
      "▁wan": 2586,
      "▁ha": 2587,
      "kar": 2588,
      "ci": 2589,
      "▁C": 2590,
      "▁D": 2591,
      "yin": 2592,
      "▁(": 2593,
      "ut": 2594,
      "&lt;/ref&gt;": 2595,
      "uk": 2596,
      "▁za": 2597,
      "war": 2598,
      "it": 2599,
      "ana": 2600,
      "uwa": 2601,
      "le": 2602,
      "sar": 2603,
      "▁yan": 2604,
      "▁N": 2605,
      "cin": 2606,
      ".\n": 2607,
      "▁ne": 2608,
      "is": 2609,
      "▁ce": 2610,
      "lo": 2611,
      "me": 2612,
      "ke": 2613,
      "san": 2614,
      "um": 2615,
      "▁yi": 2616,
      "▁Ma": 2617,
      "▁she": 2618,
      "▁shi": 2619,
      "▁J": 2620,
      "are": 2621,
      "▁G": 2622,
      "▁H": 2623,
      "ti": 2624,
      "▁L": 2625,
      "iy": 2626,
      "▁R": 2627,
      "▁F": 2628,
      "▁I": 2629,
      "▁Y": 2630,
      "▁ko": 2631,
      "&lt;ref&gt;": 2632,
      "ban": 2633,
      "▁mai": 2634,
      "=&quot;": 2635,
      "id": 2636,
      "▁daga": 2637,
      "▁P": 2638,
      "▁19": 2639,
      "iyar": 2640,
      "kin": 2641,
      "al": 2642,
      "tar": 2643,
      "tan": 2644,
      "he": 2645,
      "▁ke": 2646,
      "om": 2647,
      "tsa": 2648,
      "▁ra": 2649,
      "ra": 2650,
      "iki": 2651,
      "▁W": 2652,
      "il": 2653,
      "fi": 2654,
      "'a": 2655,
      "te": 2656,
      "▁an": 2657,
      "▁aka": 2658,
      "ani": 2659,
      "▁sun": 2660,
      "im": 2661,
      "fa": 2662,
      "▁kan": 2663,
      "bu": 2664,
      "nan": 2665,
      "ha": 2666,
      "ari": 2667,
      "▁201": 2668,
      "us": 2669,
      "anar": 2670,
      "▁yana": 2671,
      "▁ɗ": 2672,
      "es": 2673,
      "▁wanda": 2674,
      "▁don": 2675,
      "▁sam": 2676,
      "▁&quot;": 2677,
      "▁matsa": 2678,
      "ud": 2679,
      "ed": 2680,
      "fin": 2681,
      "▁la": 2682,
      "ko": 2683,
      "▁am": 2684,
      "▁name": 2685,
      "▁in": 2686,
      "ki": 2687,
      "kan": 2688,
      "ch": 2689,
      "&lt;ref": 2690,
      "▁*": 2691,
      "▁shekar": 2692,
      "ri": 2693,
      "bo": 2694,
      "▁name=&quot;": 2695,
      "&lt;ref&gt;&lt;/ref&gt;": 2696,
      "▁han": 2697,
      "▁zuwa": 2698,
      "▁O": 2699,
      "▁mu": 2700,
      "tt": 2701,
      "▁'": 2702,
      "&quot;&gt;": 2703,
      "▁sha": 2704,
      "▁suka": 2705,
      "▁E": 2706,
      "▁ƙa": 2707,
      "▁fa": 2708,
      "▁An": 2709,
      "et": 2710,
      "ig": 2711,
      "▁lo": 2712,
      "lin": 2713,
      "▁matsayin": 2714,
      "kara": 2715,
      "una": 2716,
      "▁far": 2717,
      "▁kar": 2718,
      "▁tsa": 2719,
      "shin": 2720,
      "▁masu": 2721,
      "ung": 2722,
      "ss": 2723,
      "ye": 2724,
      "man": 2725,
      "▁Ba": 2726,
      "▁tare": 2727,
      "▁al": 2728,
      "▁cewa": 2729,
      "uga": 2730,
      "el": 2731,
      "she": 2732,
      "▁loka": 2733,
      "▁ci": 2734,
      "▁w": 2735,
      "▁i": 2736,
      "of": 2737,
      "▁Ya": 2738,
      "▁kam": 2739,
      "▁Na": 2740,
      "to": 2741,
      "▁2": 2742,
      "▁mut": 2743,
      "ic": 2744,
      "▁shekara": 2745,
      "bin": 2746,
      "▁Sa": 2747,
      "▁gaba": 2748,
      "▁mata": 2749,
      "ang": 2750,
      "ia": 2751,
      "▁wani": 2752,
      "▁kwa": 2753,
      "din": 2754,
      "bar": 2755,
      "00": 2756,
      "lla": 2757,
      "▁bayan": 2758,
      "ja": 2759,
      "▁iya": 2760,
      "▁.": 2761,
      "shi": 2762,
      "▁suna": 2763,
      "▁har": 2764,
      "ol": 2765,
      "st": 2766,
      "ww": 2767,
      "▁san": 2768,
      "ida": 2769,
      "i,": 2770,
      "ro": 2771,
      "▁watan": 2772,
      "▁wasan": 2773,
      "sp": 2774,
      "if": 2775,
      "▁shekarar": 2776,
      "▁lokacin": 2777,
      "bi": 2778,
      "▁ranar": 2779,
      "▁of": 2780,
      "//": 2781,
      "ttp": 2782,
      "▁200": 2783,
      "://": 2784,
      "ane": 2785,
      "▁U": 2786,
      "ag": 2787,
      "tion": 2788,
      "▁ɗa": 2789,
      "http": 2790,
      "jin": 2791,
      "arin": 2792,
      "th": 2793,
      "em": 2794,
      "di": 2795,
      "▁biy": 2796,
      "▁wannan": 2797,
      "yo": 2798,
      "and": 2799,
      "ami": 2800,
      "har": 2801,
      "▁Af": 2802,
      "ul": 2803,
      "wam": 2804,
      "▁-": 2805,
      "uka": 2806,
      "▁In": 2807,
      "amp": 2808,
      "sance": 2809,
      "irin": 2810,
      "▁Da": 2811,
      "▁Am": 2812,
      "za": 2813,
      "▁l": 2814,
      "ura": 2815,
      "no": 2816,
      "ina": 2817,
      "so": 2818,
      "▁Ta": 2819,
      "▁the": 2820,
      "▁.\n": 2821,
      "▁kasance": 2822,
      "u,": 2823,
      "ll": 2824,
      "ni": 2825,
      "jer": 2826,
      "anin": 2827,
      "ts": 2828,
      "▁ƙar": 2829,
      "dda": 2830,
      "tta": 2831,
      "de": 2832,
      "ira": 2833,
      "ine": 2834,
      "▁farko": 2835,
      "anda": 2836,
      "ungiyar": 2837,
      "uniya": 2838,
      "▁aiki": 2839,
      "▁p": 2840,
      "anta": 2841,
      "▁Ka": 2842,
      "▁ji": 2843,
      "▁so": 2844,
      "je": 2845,
      "nin": 2846,
      "▁amf": 2847,
      "▁ru": 2848,
      "&lt;/ref&gt;\n": 2849,
      "ho": 2850,
      "▁202": 2851,
      "shen": 2852,
      "mi": 2853,
      "▁kasa": 2854,
      "▁&lt;ref": 2855,
      "se": 2856,
      "▁[": 2857,
      "hi": 2858,
      "▁fara": 2859,
      "uwar": 2860,
      "▁Ha": 2861,
      "),": 2862,
      "▁biyu": 2863,
      "▁zama": 2864,
      "▁do": 2865,
      "/&gt;": 2866,
      "ji": 2867,
      "ge": 2868,
      "ve": 2869,
      "tu": 2870,
      "▁'yan": 2871,
      "▁tsar": 2872,
      "▁amfani": 2873,
      "jeriya": 2874,
      "mar": 2875,
      "ɗa": 2876,
      "kwa": 2877,
      "▁wasu": 2878,
      "tun": 2879,
      "idan": 2880,
      ").": 2881,
      "ing": 2882,
      "ƙa": 2883,
      "ugaban": 2884,
      "amp;": 2885,
      "bban": 2886,
      "ib": 2887,
      ".&lt;ref": 2888,
      "19": 2889,
      "▁kara": 2890,
      "ika": 2891,
      "&lt;ref&gt;&lt;/ref&gt;\n": 2892,
      "jen": 2893,
      "▁kai": 2894,
      "▁3": 2895,
      "ent": 2896,
      "▁Wa": 2897,
      "▁ɗan": 2898,
      "▁duk": 2899,
      "▁V": 2900,
      "ew": 2901,
      "annan": 2902,
      "▁Najeriya": 2903,
      "▁inda": 2904,
      "ev": 2905,
      "&amp;": 2906,
      "umar": 2907,
      "▁fi": 2908,
      "eb": 2909,
      "▁Al": 2910,
      "du": 2911,
      ".c": 2912,
      "▁Z": 2913,
      "s://": 2914,
      "wo": 2915,
      "wamna": 2916,
      "▁ake": 2917,
      "▁gud": 2918,
      "utar": 2919,
      "ona": 2920,
      "ami'": 2921,
      "▁man": 2922,
      "▁La": 2923,
      "▁ja": 2924,
      "ter": 2925,
      "▁ƙasa": 2926,
      "▁hanyar": 2927,
      "ber": 2928,
      "https://": 2929,
      "ren": 2930,
      "s,": 2931,
      "fe": 2932,
      "yyan": 2933,
      "▁yawa": 2934,
      "▁=": 2935,
      "jali": 2936,
      "kon": 2937,
      "irka": 2938,
      "go": 2939,
      "zu": 2940,
      "span": 2941,
      "ca": 2942,
      "ima": 2943,
      "▁yin": 2944,
      "antar": 2945,
      "ton": 2946,
      "▁/&gt;": 2947,
      "isa": 2948,
      "▁aikin": 2949,
      "▁kafa": 2950,
      "▁Sh": 2951,
      "▁baya": 2952,
      "▁haif": 2953,
      "▁tana": 2954,
      "▁bin": 2955,
      "ukan": 2956,
      "▁199": 2957,
      "▁Fa": 2958,
      "▁abin": 2959,
      "▁kamar": 2960,
      "▁\"": 2961,
      "▁Mar": 2962,
      "▁Mu": 2963,
      "▁huk": 2964,
      "uran": 2965,
      "gi": 2966,
      "w.": 2967,
      "▁zam": 2968,
      "▁bayyan": 2969,
      "do": 2970,
      "▁zai": 2971,
      "▁haka": 2972,
      "▁waɗ": 2973,
      "iri": 2974,
      "▁shiga": 2975,
      "▁amma": 2976,
      "yen": 2977,
      "tin": 2978,
      "▁name=&quot;:": 2979,
      "boda": 2980,
      "urka": 2981,
      "▁shugaban": 2982,
      "▁nuna": 2983,
      "▁Ko": 2984,
      "▁yawan": 2985,
      "gin": 2986,
      "iyo": 2987,
      "ano": 2988,
      "co": 2989,
      "▁Ra": 2990,
      "www.": 2991,
      "▁kasar": 2992,
      "▁Amurka": 2993,
      "▁Ar": 2994,
      "▁Afirka": 2995,
      "▁and": 2996,
      "ers": 2997,
      "ita": 2998,
      "▁dan": 2999,
      "▁ana": 3000,
      "▁,": 3001,
      "▁bayyana": 3002,
      "▁mag": 3003,
      ".com": 3004,
      "▁yadda": 3005,
      "lass": 3006,
      "&quot;,": 3007,
      "ug": 3008,
      "▁wur": 3009,
      "▁18": 3010,
      "omin": 3011,
      "be": 3012,
      "▁kya": 3013,
      "ck": 3014,
      "▁gwamna": 3015,
      "jalisar": 3016,
      "▁duniya": 3017,
      "kanin": 3018,
      "▁shekaru": 3019,
      "▁saboda": 3020,
      "▁ts": 3021,
      "▁wata": 3022,
      "▁yar": 3023,
      "ku": 3024,
      "▁ita": 3025,
      "▁tun": 3026,
      "lar": 3027,
      "&quot;&gt;&lt;/ref&gt;": 3028,
      "▁class": 3029,
      "▁babban": 3030,
      "▁fit": 3031,
      "▁gida": 3032,
      "iyyar": 3033,
      "▁ruwa": 3034,
      "▁class=&quot;": 3035,
      "▁So": 3036,
      "▁nan": 3037,
      "201": 3038,
      "dar": 3039,
      "fiya": 3040,
      "yya": 3041,
      "him": 3042,
      "&quot;.": 3043,
      "dan": 3044,
      "▁Ch": 3045,
      "▁mafi": 3046,
      "kwai": 3047,
      "▁Ga": 3048,
      "▁The": 3049,
      "▁4": 3050,
      "▁mutane": 3051,
      "chi": 3052,
      "ami'ar": 3053,
      "uda": 3054,
      "▁gir": 3055,
      "s.": 3056,
      "cik": 3057,
      "iyya": 3058,
      "won": 3059,
      "▁abu": 3060,
      "uku": 3061,
      "yy": 3062,
      "org": 3063,
      "eved": 3064,
      "▁samu": 3065,
      "rieved": 3066,
      "▁Ret": 3067,
      "now": 3068,
      "ne": 3069,
      "op": 3070,
      ".&lt;ref&gt;": 3071,
      "▁tsakanin": 3072,
      "▁Retrieved": 3073,
      "mba": 3074,
      "▁ada": 3075,
      "ta,": 3076,
      "cce": 3077,
      "uni": 3078,
      "▁game": 3079,
      "▁&lt;ref&gt;&lt;/ref&gt;": 3080,
      "unan": 3081,
      "▁Le": 3082,
      "ue": 3083,
      "ty": 3084,
      "▁cin": 3085,
      "▁yanzu": 3086,
      "ham": 3087,
      "min": 3088,
      "▁sau": 3089,
      "ma'a": 3090,
      "▁198": 3091,
      "▁5": 3092,
      "si": 3093,
      "und": 3094,
      "▁yake": 3095,
      "▁to": 3096,
      "▁samun": 3097,
      ")\n": 3098,
      "▁yayin": 3099,
      "▁sai": 3100,
      "▁buga": 3101,
      "▁sami": 3102,
      "▁wajen": 3103,
      "▁dai": 3104,
      "▁makar": 3105,
      "sa,": 3106,
      "▁Mo": 3107,
      "wa,": 3108,
      "▁tsarin": 3109,
      "▁sama": 3110,
      "▁gudanar": 3111,
      "▁ɗaya": 3112,
      "▁yankin": 3113,
      "▁sake": 3114,
      "anci": 3115,
      "▁Ro": 3116,
      "-0": 3117,
      "bba": 3118,
      "▁go": 3119,
      "tic": 3120,
      "kama": 3121,
      "▁li": 3122,
      "tor": 3123,
      "llon": 3124,
      "▁re": 3125,
      "▁ki": 3126,
      "▁Har": 3127,
      "▁Jami'ar": 3128,
      "▁samar": 3129,
      "▁shine": 3130,
      "▁lam": 3131,
      "▁waɗanda": 3132,
      "▁ili": 3133,
      "▁bir": 3134,
      "▁jihar": 3135,
      "▁Pa": 3136,
      "-da": 3137,
      "▁can": 3138,
      "▁gasar": 3139,
      "▁shir": 3140,
      "ɓa": 3141,
      "▁Ƙ": 3142,
      "▁hann": 3143,
      "ili": 3144,
      "hin": 3145,
      "-1": 3146,
      "jo": 3147,
      "mman": 3148,
      "▁uku": 3149,
      "▁197": 3150,
      "land": 3151,
      "▁ƙasar": 3152,
      "▁New": 3153,
      "▁Jo": 3154,
      ".com/": 3155,
      "▁Co": 3156,
      "▁ma'a": 3157,
      "ly": 3158,
      "sha": 3159,
      "ancin": 3160,
      "http://": 3161,
      "▁kwan": 3162,
      "▁daya": 3163,
      "▁sanya": 3164,
      "&quot;]": 3165,
      "aren": 3166,
      "▁kama": 3167,
      "▁ar": 3168,
      "▁din": 3169,
      "▁jam": 3170,
      "▁mul": 3171,
      ".org": 3172,
      "▁Ja": 3173,
      "▁Far": 3174,
      "ver": 3175,
      "▁koma": 3176,
      "▁ciki": 3177,
      "ran": 3178,
      "fo": 3179,
      "▁bincik": 3180,
      "▁bu": 3181,
      "▁kungiyar": 3182,
      "warar": 3183,
      "onal": 3184,
      "ɗin": 3185,
      "▁ayy": 3186,
      "▁Re": 3187,
      "▁Bayan": 3188,
      "▁|": 3189,
      "▁kasu": 3190,
      "▁guda": 3191,
      "▁y": 3192,
      "yoyin": 3193,
      "▁sauran": 3194,
      "▁tar": 3195,
      "y,": 3196,
      "gar": 3197,
      "ph": 3198,
      "▁Jam": 3199,
      "▁siya": 3200,
      "anan": 3201,
      "ok": 3202,
      "kokin": 3203,
      "▁hanka": 3204,
      "itin": 3205,
      "▁kamf": 3206,
      "0,": 3207,
      "ce-": 3208,
      "▁&lt;ref&gt;": 3209,
      "--": 3210,
      "▁Kud": 3211,
      "samman": 3212,
      "▁Bo": 3213,
      "▁haɗa": 3214,
      "e-": 3215,
      ".&lt;ref&gt;&lt;/ref&gt;": 3216,
      "ƙin": 3217,
      "▁Ca": 3218,
      "uta": 3219,
      "▁&lt;": 3220,
      "cite": 3221,
      "ust": 3222,
      "▁nau": 3223,
      "uri": 3224,
      "lam": 3225,
      "anen": 3226,
      "ht": 3227,
      "▁6": 3228,
      "▁al'": 3229,
      "▁mutum": 3230,
      "ort": 3231,
      "od": 3232,
      "▁ba,": 3233,
      "▁wad": 3234,
      "200": 3235,
      "ub": 3236,
      "ai": 3237,
      "cen": 3238,
      "ukar": 3239,
      "▁tari": 3240,
      "ad": 3241,
      "▁jin": 3242,
      "bon": 3243,
      "sara": 3244,
      "▁gidan": 3245,
      "▁jama'a": 3246,
      "▁tatta": 3247,
      "▁196": 3248,
      "▁ray": 3249,
      "sta": 3250,
      "unin": 3251,
      "uba": 3252,
      "▁kayan": 3253,
      "agor": 3254,
      "ubu": 3255,
      "for": 3256,
      "▁manyan": 3257,
      "po": 3258,
      "▁on": 3259,
      "▁mo": 3260,
      "▁Do": 3261,
      "0.": 3262,
      "▁Duniya": 3263,
      "▁kula": 3264,
      "▁tso": 3265,
      "▁bai": 3266,
      "▁lokaci": 3267,
      "▁domin": 3268,
      "e,": 3269,
      "▁girma": 3270,
      "▁rashin": 3271,
      "web": 3272,
      "1,": 3273,
      "▁wasa": 3274,
      "▁yanayi": 3275,
      "▁musamman": 3276,
      "▁Majalisar": 3277,
      "les": 3278,
      "▁ad": 3279,
      "▁haife": 3280,
      "span&gt;": 3281,
      "sul": 3282,
      "\t\t": 3283,
      "▁(19": 3284,
      "▁jir": 3285,
      "&lt;/span&gt;": 3286,
      "▁ƙungiyar": 3287,
      "▁haifar": 3288,
      "'i": 3289,
      "▁Lo": 3290,
      "uma": 3291,
      "ikwa": 3292,
      "▁asa": 3293,
      "son": 3294,
      "hal": 3295,
      "2,": 3296,
      "▁is": 3297,
      ".org/": 3298,
      "bra": 3299,
      "ion": 3300,
      "ary": 3301,
      "▁7": 3302,
      "▁irin": 3303,
      "▁de": 3304,
      "▁bi": 3305,
      "vi": 3306,
      "▁cutar": 3307,
      "urin": 3308,
      "▁Par": 3309,
      "▁idan": 3310,
      "▁hankali": 3311,
      "▁Daga": 3312,
      "3,": 3313,
      "▁9": 3314,
      "rom": 3315,
      "ity": 3316,
      "▁jagor": 3317,
      "5,": 3318,
      "up": 3319,
      "https://www.": 3320,
      "iyoyin": 3321,
      "▁kafin": 3322,
      "▁taka": 3323,
      "ea": 3324,
      ".&lt;ref&gt;&lt;/ref&gt;\n": 3325,
      ".&lt;/ref&gt;": 3326,
      "▁ƙwa": 3327,
      "4,": 3328,
      "ansa": 3329,
      "▁kim": 3330,
      "▁2019": 3331,
      "▁kwaikwa": 3332,
      "'s": 3333,
      "▁hai": 3334,
      "ken": 3335,
      "inis": 3336,
      "▁tabba": 3337,
      "▁rubu": 3338,
      "mala": 3339,
      "▁Wannan": 3340,
      "hon": 3341,
      "▁maza": 3342,
      "&quot;&gt;&lt;/ref&gt;\n": 3343,
      "▁jam'": 3344,
      "▁taima": 3345,
      "▁dang": 3346,
      "▁Kwa": 3347,
      "▁fim": 3348,
      "▁May": 3349,
      "▁zar": 3350,
      "8,": 3351,
      "▁kawa": 3352,
      "ril": 3353,
      "kiya": 3354,
      "▁al'um": 3355,
      "▁lafiya": 3356,
      "buwan": 3357,
      "▁daban": 3358,
      "tional": 3359,
      "▁amin": 3360,
      "▁De": 3361,
      "▁ayyukan": 3362,
      "▁akwai": 3363,
      "▁ri": 3364,
      "ssa": 3365,
      "▁ala": 3366,
      "arra": 3367,
      "▁kashi": 3368,
      "▁Ab": 3369,
      "nowiki": 3370,
      "che": 3371,
      "▁yanayin": 3372,
      "amar": 3373,
      "▁takar": 3374,
      "uwan": 3375,
      "▁daida": 3376,
      "▁fasa": 3377,
      "7,": 3378,
      "▁&lt;ref&gt;&lt;/ref&gt;\n": 3379,
      "era": 3380,
      "▁masa": 3381,
      "ben": 3382,
      "ula": 3383,
      "▁ban": 3384,
      "sana": 3385,
      "6,": 3386,
      "wi": 3387,
      "iye": 3388,
      "▁Ana": 3389,
      "▁2020": 3390,
      "▁kira": 3391,
      "nowiki&gt;": 3392,
      "▁zaɓ": 3393,
      "far": 3394,
      "ard": 3395,
      "▁for": 3396,
      "▁fito": 3397,
      "▁tara": 3398,
      "▁are": 3399,
      "pp": 3400,
      "ure": 3401,
      "▁8": 3402,
      "une": 3403,
      "iliyan": 3404,
      "▁kawai": 3405,
      "tr": 3406,
      "▁dama": 3407,
      "ƙi": 3408,
      "▁zaman": 3409,
      "kil": 3410,
      "▁kammala": 3411,
      "don": 3412,
      "liya": 3413,
      "▁kwaikwayo": 3414,
      "▁gar": 3415,
      "▁Is": 3416,
      "▁bar": 3417,
      "▁suke": 3418,
      "umb": 3419,
      "▁sosa": 3420,
      "gu": 3421,
      "ann": 3422,
      "▁th": 3423,
      "▁wadanda": 3424,
      "▁akan": 3425,
      "▁damar": 3426,
      "ora": 3427,
      "▁ma'aika": 3428,
      "▁mar": 3429,
      "▁{": 3430,
      "▁kare": 3431,
      "▁talla": 3432,
      "▁195": 3433,
      "▁Man": 3434,
      "uki": 3435,
      "pa": 3436,
      "▁/&gt;\n": 3437,
      "▁ing": 3438,
      "▁te": 3439,
      "▁id": 3440,
      "can": 3441,
      "uke": 3442,
      "202": 3443,
      "o,": 3444,
      "▁kusan": 3445,
      "ot": 3446,
      "s/": 3447,
      "▁Ji": 3448,
      "▁or": 3449,
      "▁sannan": 3450,
      "▁magana": 3451,
      "▁al'a": 3452,
      "lan": 3453,
      "unci": 3454,
      "▁mulkin": 3455,
      "1&quot;": 3456,
      "ong": 3457,
      "▁birnin": 3458,
      "10": 3459,
      "000": 3460,
      "▁maha": 3461,
      "▁karatun": 3462,
      "▁Kano": 3463,
      "uh": 3464,
      "2.": 3465,
      "ccess": 3466,
      "▁Mata": 3467,
      "▁as": 3468,
      "kai": 3469,
      "▁She": 3470,
      "▁gabatar": 3471,
      "▁abubuwan": 3472,
      "mma": 3473,
      "▁siyasa": 3474,
      "1.": 3475,
      "pe": 3476,
      "va": 3477,
      "http://www.": 3478,
      "▁gwamnati": 3479,
      "▁wurin": 3480,
      "▁kusa": 3481,
      "▁Ag": 3482,
      "▁kir": 3483,
      "ris": 3484,
      "▁kashe": 3485,
      "bara": 3486,
      "▁cewar": 3487,
      "nb": 3488,
      "mo": 3489,
      "▁dig": 3490,
      "erin": 3491,
      "▁le": 3492,
      "▁makarantar": 3493,
      "▁Bur": 3494,
      "▁arz": 3495,
      "▁shirin": 3496,
      "iti": 3497,
      "ito": 3498,
      "'in": 3499,
      "▁neman": 3500,
      "▁mem": 3501,
      "▁tas": 3502,
      "▁rubuta": 3503,
      "ork": 3504,
      "ibiyar": 3505,
      "▁gur": 3506,
      "▁shekarun": 3507,
      "ye-": 3508,
      "ru": 3509,
      "]\n": 3510,
      "▁Yu": 3511,
      "▁:": 3512,
      "▁Se": 3513,
      "▁gwamnatin": 3514,
      "-daban": 3515,
      "▁gaban": 3516,
      "▁sanar": 3517,
      "▁tabbatar": 3518,
      "▁hali": 3519,
      "▁lashe": 3520,
      "sp;": 3521,
      "▁To": 3522,
      "▁daban-daban": 3523,
      "nbsp;": 3524,
      "taniya": 3525,
      "▁name=&quot;:0": 3526,
      "amban": 3527,
      "▁o": 3528,
      "▁from": 3529,
      "▁hakan": 3530,
      "▁‘": 3531,
      "&amp;nbsp;": 3532,
      ",\n": 3533,
      "s-": 3534,
      "▁kal": 3535,
      "▁fitar": 3536,
      "ct": 3537,
      "tation": 3538,
      "▁gwa": 3539,
      "▁malla": 3540,
      "▁hukumar": 3541,
      "▁yara": 3542,
      "▁sosai": 3543,
      "ance": 3544,
      "▁wakil": 3545,
      "▁amince": 3546,
      "ɗi": 3547,
      "▁ɗin": 3548,
      "▁Babban": 3549,
      "▁shari": 3550,
      "iru": 3551,
      "▁St": 3552,
      "idar": 3553,
      "▁15": 3554,
      "▁No": 3555,
      "▁Huk": 3556,
      "▁majalisar": 3557,
      "▁hada": 3558,
      "hana": 3559,
      "iger": 3560,
      "▁wu": 3561,
      "ite": 3562,
      "▁shirya": 3563,
      "halli": 3564,
      "ress": 3565,
      "wanci": 3566,
      "wara": 3567,
      "▁Ho": 3568,
      "io": 3569,
      "▁dali": 3570,
      "himman": 3571,
      "▁Cibiyar": 3572,
      "▁ɓ": 3573,
      "▁gano": 3574,
      "▁jam'iyyar": 3575,
      "lejin": 3576,
      "kiyar": 3577,
      "▁gina": 3578,
      "mu": 3579,
      "▁kun": 3580,
      "▁hannu": 3581,
      "ta-": 3582,
      "▁Abu": 3583,
      "▁10": 3584,
      "rewa": 3585,
      "18": 3586,
      "▁cika": 3587,
      "▁arewa": 3588,
      "▁sani": 3589,
      "▁masana": 3590,
      "usa": 3591,
      "ith": 3592,
      "ire": 3593,
      "▁v": 3594,
      "kun": 3595,
      "yon": 3596,
      "▁fus": 3597,
      "log": 3598,
      "▁ganin": 3599,
      "▁karatu": 3600,
      "▁Tura": 3601,
      "hn": 3602,
      "▁Za": 3603,
      "▁mutanen": 3604,
      "ya,": 3605,
      "▁ik": 3606,
      "▁taimaka": 3607,
      "unta": 3608,
      "3.": 3609,
      "▁Jana": 3610,
      "▁abo": 3611,
      "oro": 3612,
      "ster": 3613,
      "ve-": 3614,
      "est": 3615,
      "jejen": 3616,
      "▁Musul": 3617,
      "shir": 3618,
      "ill": 3619,
      "kamakon": 3620,
      "umb|": 3621,
      "-z": 3622,
      "BC": 3623,
      "▁17": 3624,
      "▁biyar": 3625,
      "der": 3626,
      "▁'yar": 3627,
      "gen": 3628,
      "mai": 3629,
      "▁haka,": 3630,
      "▁Te": 3631,
      "▁yamma": 3632,
      "4.": 3633,
      "▁Bir": 3634,
      "▁Ok": 3635,
      "▁ba.": 3636,
      "access": 3637,
      "ifin": 3638,
      "ƙar": 3639,
      "▁taron": 3640,
      "▁mara": 3641,
      "▁ruwan": 3642,
      "▁Ita": 3643,
      "mad": 3644,
      "tum": 3645,
      "▁bayar": 3646,
      "▁[&quot;": 3647,
      "▁addin": 3648,
      "we": 3649,
      "▁Ada": 3650,
      "▁bang": 3651,
      "▁yanke": 3652,
      "▁waɗannan": 3653,
      "ab": 3654,
      "ry": 3655,
      "▁Kudu": 3656,
      "kunan": 3657,
      "▁194": 3658,
      "ved": 3659,
      "uth": 3660,
      "▁nasara": 3661,
      "▁yau": 3662,
      "ld": 3663,
      "▁Afri": 3664,
      "▁Yana": 3665,
      "▁abinci": 3666,
      "▁kowan": 3667,
      "▁En": 3668,
      "sarar": 3669,
      "},\n": 3670,
      "\"\"": 3671,
      "▁tsohon": 3672,
      "▁ilimin": 3673,
      "▁miliyan": 3674,
      "ila": 3675,
      "▁kowa": 3676,
      "▁bincike": 3677,
      "▁(an": 3678,
      "▁Hukumar": 3679,
      "▁Q": 3680,
      "▁Maris": 3681,
      "▁fan": 3682,
      "iz": 3683,
      "ware": 3684,
      "▁ho": 3685,
      "age": 3686,
      "-a": 3687,
      "den": 3688,
      "▁Bar": 3689,
      "ini": 3690,
      "wa.": 3691,
      "-2": 3692,
      "▁Ind": 3693,
      "▁tattalin": 3694,
      "▁Tsar": 3695,
      "▁raho": 3696,
      "ist": 3697,
      "jiya": 3698,
      "▁&amp;": 3699,
      "▁ra'a": 3700,
      "archi": 3701,
      "▁fata": 3702,
      "use": 3703,
      "con": 3704,
      "▁bisa": 3705,
      "▁Un": 3706,
      "▁Duk": 3707,
      "▁maso": 3708,
      "urar": 3709,
      "▁Con": 3710,
      "▁buƙa": 3711,
      "▁Sha": 3712,
      "▁Ingi": 3713,
      "▁kamfanin": 3714,
      "▁Shugaban": 3715,
      "▁Archi": 3716,
      "6.": 3717,
      "ina-": 3718,
      "llah": 3719,
      "▁e": 3720,
      "▁shafi": 3721,
      "▁take": 3722,
      "▁litta": 3723,
      "8.": 3724,
      "▁fiye": 3725,
      "▁farkon": 3726,
      "▁Kwalejin": 3727,
      "mp": 3728,
      "citation": 3729,
      "}}": 3730,
      "ungiyoyin": 3731,
      "▁Satum": 3732,
      "▁zaben": 3733,
      "jojin": 3734,
      "inal": 3735,
      "Ma": 3736,
      "9,": 3737,
      "▁rik": 3738,
      "▁tsara": 3739,
      "5.": 3740,
      "sen": 3741,
      "▁haɗ": 3742,
      "▁gas": 3743,
      "rap": 3744,
      "▁buka": 3745,
      "mber": 3746,
      "yayya": 3747,
      "▁Ghana": 3748,
      "7.": 3749,
      "▁Com": 3750,
      "ited": 3751,
      "▁tala": 3752,
      "▁karka": 3753,
      "▁Disa": 3754,
      "ij": 3755,
      "▁mama": 3756,
      "▁Jihar": 3757,
      "sanin": 3758,
      "▁rage": 3759,
      "irar": 3760,
      "▁hana": 3761,
      "▁jerin": 3762,
      "▁Nuwa": 3763,
      "ment": 3764,
      "▁kwam": 3765,
      "▁bamban": 3766,
      "ell": 3767,
      "▁jirgin": 3768,
      "▁cs": 3769,
      "all": 3770,
      "an,": 3771,
      "int": 3772,
      "▁son": 3773,
      "▁Agus": 3774,
      "▁halin": 3775,
      "▁Makar": 3776,
      "▁garin": 3777,
      "'ar": 3778,
      "▁wacce": 3779,
      "▁Tun": 3780,
      "▁inganta": 3781,
      "11": 3782,
      "▁tsawon": 3783,
      "dun": 3784,
      "&quot;&gt;&lt;": 3785,
      "htm": 3786,
      "ori": 3787,
      "▁Muham": 3788,
      "▁ilimi": 3789,
      "med": 3790,
      "▁data-": 3791,
      "▁haifi": 3792,
      "▁gwi": 3793,
      "▁sakamakon": 3794,
      "a,": 3795,
      "ction": 3796,
      "▁ba\n": 3797,
      "▁lambar": 3798,
      "▁Mai": 3799,
      "▁Okto": 3800,
      "▁hannun": 3801,
      "▁jiki": 3802,
      "ƙashin": 3803,
      "30": 3804,
      "▁kyau": 3805,
      "oni": 3806,
      "iyoyi": 3807,
      "wn": 3808,
      "▁ƴ": 3809,
      "▁waje": 3810,
      "▁memba": 3811,
      "▁16": 3812,
      "bur": 3813,
      "er,": 3814,
      "fiyar": 3815,
      "lay": 3816,
      "li,": 3817,
      "▁je": 3818,
      "ye-shir": 3819,
      "▁tu": 3820,
      "▁12": 3821,
      "▁kawo": 3822,
      "▁cib": 3823,
      "▁aika": 3824,
      "▁halar": 3825,
      "▁mutu": 3826,
      "zarin": 3827,
      "▁jami'": 3828,
      "▁ƙarƙashin": 3829,
      "▁2021": 3830,
      "▁Me": 3831,
      "▁labar": 3832,
      "igno": 3833,
      "▁/": 3834,
      "▁sab": 3835,
      "anga": 3836,
      "ignore": 3837,
      "▁data-ve-": 3838,
      "the": 3839,
      "▁tawa": 3840,
      "ted": 3841,
      "ina-fin": 3842,
      "▁ne,": 3843,
      "▁Archived": 3844,
      "cite&gt;": 3845,
      "&lt;/cite&gt;": 3846,
      "▁data-ve-ignore": 3847,
      "▁class=&quot;citation": 3848,
      "▁data-ve-ignore=&quot;": 3849,
      "▁Afril": 3850,
      "▁matakin": 3851,
      "▁fannin": 3852,
      "▁sabon": 3853,
      "▁Fo": 3854,
      "▁garga": 3855,
      "▁14": 3856,
      "▁muhalli": 3857,
      "▁al-": 3858,
      "▁ƙwallon": 3859,
      "▁digiri": 3860,
      "▁dace": 3861,
      "ɗe": 3862,
      "▁Ben": 3863,
      "os": 3864,
      "▁binciken": 3865,
      "▁kowane": 3866,
      "12": 3867,
      "▁Faransa": 3868,
      "barai": 3869,
      "tal": 3870,
      "▁Gwamna": 3871,
      "ide": 3872,
      "▁Arewa": 3873,
      "▁(A": 3874,
      "&lt;span": 3875,
      "▁Nuwamba": 3876,
      "▁kansa": 3877,
      "▁saka": 3878,
      "▁adam": 3879,
      "▁goma": 3880,
      "▁ƙafa": 3881,
      "iginal": 3882,
      "ci,": 3883,
      "nowrap": 3884,
      "▁fina-fin": 3885,
      "▁Fabra": 3886,
      "oma": 3887,
      "wancin": 3888,
      "▁ju": 3889,
      "▁tarihin": 3890,
      "og": 3891,
      "▁kansu": 3892,
      "udu": 3893,
      "mon": 3894,
      "▁yabo": 3895,
      "▁Turai": 3896,
      "▁Disamba": 3897,
      "ile": 3898,
      "▁rayuwar": 3899,
      "▁asali": 3900,
      "▁zafi": 3901,
      "▁sar": 3902,
      "▁Gu": 3903,
      "▁Dan": 3904,
      "▁babu": 3905,
      "▁ɓang": 3906,
      "▁jar": 3907,
      "mawa": 3908,
      "▁kakar": 3909,
      "▁shawarar": 3910,
      "fen": 3911,
      "▁–": 3912,
      "omi": 3913,
      "▁fuskan": 3914,
      "▁Makarantar": 3915,
      "▁jari": 3916,
      "▁tarihi": 3917,
      "▁Aust": 3918,
      "illi": 3919,
      "fofin": 3920,
      "▁John": 3921,
      "▁hukum": 3922,
      "-19": 3923,
      "archive": 3924,
      "▁original": 3925,
      "▁‘yan": 3926,
      "pg": 3927,
      "▁karkashin": 3928,
      "▁Yan": 3929,
      "eren": 3930,
      "▁manu": 3931,
      "&quot;&gt;&lt;cite": 3932,
      "▁lala": 3933,
      "ccen": 3934,
      "▁York": 3935,
      "as": 3936,
      "▁faru": 3937,
      "ista": 3938,
      "iya,": 3939,
      "▁BBC": 3940,
      "▁Oktoba": 3941,
      "▁hu": 3942,
      "▁Gaba": 3943,
      "▁arziki": 3944,
      "le=&quot;": 3945,
      "▁mayar": 3946,
      "▁sunan": 3947,
      "orin": 3948,
      "▁Sai": 3949,
      "vers": 3950,
      "▁shirye-shir": 3951,
      "url": 3952,
      "▁Po": 3953,
      "▁nu": 3954,
      "amma": 3955,
      "▁rayuwa": 3956,
      "▁cs1&quot;": 3957,
      "hu": 3958,
      "▁haƙ": 3959,
      "ka,": 3960,
      "lai": 3961,
      "br": 3962,
      "▁kwana": 3963,
      "50": 3964,
      "sun": 3965,
      "▁Ge": 3966,
      "igeria": 3967,
      "jejeniyar": 3968,
      "▁)": 3969,
      "▁&lt;span": 3970,
      "▁Wani": 3971,
      "ene": 3972,
      "▁Burtaniya": 3973,
      "han": 3974,
      "bbar": 3975,
      "ta.": 3976,
      "buwa": 3977,
      "▁Ri": 3978,
      "imakin": 3979,
      "ki,": 3980,
      "cy": 3981,
      "wun": 3982,
      "▁takarar": 3983,
      "isan": 3984,
      "▁Sar": 3985,
      "bobin": 3986,
      "igh": 3987,
      "▁'Y": 3988,
      "▁dawo": 3989,
      "▁Minis": 3990,
      "ude": 3991,
      "res": 3992,
      "referen": 3993,
      "&quot;/&gt;": 3994,
      "▁Tsa": 3995,
      "▁labarai": 3996,
      "ugaba": 3997,
      "▁kwallon": 3998,
      "ward": 3999,
      "▁rana": 4000,
      "orld": 4001,
      "at": 4002,
      "▁asalin": 4003,
      "but": 4004,
      "irun": 4005,
      "▁2018": 4006,
      "▁Car": 4007,
      "▁bakin": 4008,
      "▁Satumba": 4009,
      "▁dam": 4010,
      "ian": 4011,
      "▁yakin": 4012,
      "ram": 4013,
      "▁mawa": 4014,
      "▁Go": 4015,
      "▁Pro": 4016,
      "ical": 4017,
      "▁rufe": 4018,
      "▁Be": 4019,
      "nal": 4020,
      "▁100": 4021,
      "▁tattauna": 4022,
      "▁Uni": 4023,
      "▁11": 4024,
      "arak": 4025,
      "▁wuraren": 4026,
      "▁fasaha": 4027,
      "▁thumb|": 4028,
      "ido": 4029,
      "bai": 4030,
      "ilin": 4031,
      "inin": 4032,
      "-g": 4033,
      "ble": 4034,
      "yoyi": 4035,
      "▁Shi": 4036,
      "▁shawara": 4037,
      "▁Col": 4038,
      "▁ƙarshe": 4039,
      "▁co": 4040,
      "▁ƙarshen": 4041,
      "ananan": 4042,
      "▁Ingila": 4043,
      "▁web": 4044,
      "▁Ma'a": 4045,
      "name": 4046,
      "ford": 4047,
      "▁193": 4048,
      "▁sha'a": 4049,
      "▁zo": 4050,
      "ia,": 4051,
      "▁haɓa": 4052,
      "▁shida": 4053,
      "new": 4054,
      "ague": 4055,
      "▁kamata": 4056,
      "amin": 4057,
      "▁kasuwanci": 4058,
      "sin": 4059,
      "PC": 4060,
      "ley": 4061,
      "▁Lara": 4062,
      "▁Inter": 4063,
      "▁2015": 4064,
      "▁kasashen": 4065,
      "cho": 4066,
      "▁bikin": 4067,
      "▁(201": 4068,
      "----": 4069,
      "▁As": 4070,
      "angu": 4071,
      "▁2022": 4072,
      "▁Sp": 4073,
      "gon": 4074,
      "▁haɗin": 4075,
      "ze": 4076,
      "istan": 4077,
      "▁13": 4078,
      "▁daji": 4079,
      "▁wadda": 4080,
      "▁Ad": 4081,
      "jpg": 4082,
      "▁Kim": 4083,
      "date": 4084,
      "▁yanki": 4085,
      "▁(200": 4086,
      "22": 4087,
      "&lt;/nowiki&gt;": 4088,
      "..": 4089,
      "html": 4090,
      "’a": 4091,
      "▁umar": 4092,
      "▁masana'": 4093,
      "▁2016": 4094,
      "▁kudu": 4095,
      "bil": 4096,
      "ari,": 4097,
      "late": 4098,
      "▁Kwam": 4099,
      "o.": 4100,
      "▁koyar": 4101,
      "▁Mut": 4102,
      "\t\t\t\t": 4103,
      "▁2023": 4104,
      "▁San": 4105,
      ".&lt;/cite&gt;": 4106,
      "▁tash": 4107,
      "14": 4108,
      "▁El": 4109,
      "ubli": 4110,
      "▁zane": 4111,
      "undumar": 4112,
      "▁zamani": 4113,
      "dare": 4114,
      "oc": 4115,
      "▁2017": 4116,
      "▁kiya": 4117,
      "alla": 4118,
      "sup": 4119,
      "▁30": 4120,
      "ron": 4121,
      "tawa": 4122,
      "▁riki": 4123,
      "▁war": 4124,
      "▁jan": 4125,
      "t,": 4126,
      "anu": 4127,
      "kacin": 4128,
      "▁hanyoyin": 4129,
      "▁id=&quot;": 4130,
      "▁nufin": 4131,
      ").\n": 4132,
      "The": 4133,
      "▁(S": 4134,
      "15": 4135,
      "wanda": 4136,
      "▁Li": 4137,
      "▁ɗaukar": 4138,
      "▁teku": 4139,
      "9.": 4140,
      "▁at": 4141,
      "edia": 4142,
      "▁Ah": 4143,
      "▁Austra": 4144,
      "▁marubu": 4145,
      "▁United": 4146,
      "▁riga": 4147,
      "ER": 4148,
      "▁ƙara": 4149,
      "wamnan": 4150,
      "uf": 4151,
      "▁[https://": 4152,
      "17": 4153,
      "▁Kasa": 4154,
      "ord": 4155,
      "▁Gre": 4156,
      "▁ƙun": 4157,
      "himmanci": 4158,
      "▁Ƙungiyar": 4159,
      "▁dare": 4160,
      "▁musu": 4161,
      "katar": 4162,
      "▁nada": 4163,
      "▁Kam": 4164,
      "emp": 4165,
      "▁&quot;&quot;,": 4166,
      "▁al'umma": 4167,
      "▁alaƙa": 4168,
      "eri": 4169,
      "utut": 4170,
      "▁Yamma": 4171,
      "yyar": 4172,
      "▁zaune": 4173,
      "16": 4174,
      "13": 4175,
      "DP": 4176,
      "ikan": 4177,
      "▁nau'": 4178,
      "▁gargajiya": 4179,
      "▁Tara": 4180,
      "▁class=&quot;nowrap": 4181,
      "one": 4182,
      "▁wuce": 4183,
      "&quot;&gt;[": 4184,
      "▁25": 4185,
      "▁class=&quot;nowrap&quot;&gt;": 4186,
      "▁yawancin": 4187,
      "▁Mayu": 4188,
      "onin": 4189,
      "jpg|": 4190,
      "iwa": 4191,
      "uncin": 4192,
      "sa.": 4193,
      "▁ruk": 4194,
      "▁National": 4195,
      "▁amba": 4196,
      "▁bid": 4197,
      "▁haɓaka": 4198,
      "ces": 4199,
      "eth": 4200,
      "▁karshe": 4201,
      "antake": 4202,
      "▁sayar": 4203,
      "kandare": 4204,
      "ys": 4205,
      "▁Sun": 4206,
      "EF": 4207,
      "▁kofin": 4208,
      "▁shari'a": 4209,
      "▁Sta": 4210,
      ".n": 4211,
      "▁Ken": 4212,
      "▁Indiya": 4213,
      "ƙo": 4214,
      "▁Ne": 4215,
      "▁kull": 4216,
      "CI": 4217,
      "i.": 4218,
      "▁ka'": 4219,
      "mes": 4220,
      "▁wasanni": 4221,
      "▁be": 4222,
      "▁kuɗi": 4223,
      "ike": 4224,
      "▁saman": 4225,
      "antu": 4226,
      "url=": 4227,
      "▁Gidan": 4228,
      "▁babbar": 4229,
      "▁Ali": 4230,
      "te=": 4231,
      "▁p.": 4232,
      "▁sanda": 4233,
      "▁Allah": 4234,
      "anada": 4235,
      "ua": 4236,
      "fesa": 4237,
      "&quot;].": 4238,
      "▁kwamitin": 4239,
      "rev": 4240,
      "▁Ju": 4241,
      "▁zamantake": 4242,
      "▁2014": 4243,
      "istor": 4244,
      "▁hak": 4245,
      "▁Di": 4246,
      "ture": 4247,
      "tur": 4248,
      "▁huɗ": 4249,
      "-A": 4250,
      "web.": 4251,
      "ondon": 4252,
      "▁hudu": 4253,
      "illa": 4254,
      "national": 4255,
      "▁asib": 4256,
      "▁matsayi": 4257,
      "▁ƴan": 4258,
      "▁Nor": 4259,
      "▁cikak": 4260,
      "unar": 4261,
      "▁ca": 4262,
      "▁Dokar": 4263,
      "%D": 4264,
      "-p": 4265,
      "men": 4266,
      "▁ɗali": 4267,
      "ther": 4268,
      "-date=": 4269,
      "▁Tari": 4270,
      "▁ƙwarar": 4271,
      "▁dukkan": 4272,
      "▁ikon": 4273,
      "▁Jamus": 4274,
      "▁Ma'aika": 4275,
      "▁#": 4276,
      "▁He": 4277,
      "ssan": 4278,
      "▁zu": 4279,
      "rin": 4280,
      "▁Bin": 4281,
      "dig": 4282,
      "▁sana": 4283,
      "kari": 4284,
      "jan": 4285,
      "▁2011": 4286,
      "archive.org/": 4287,
      "▁2013": 4288,
      "▁Bel": 4289,
      "▁Tsarin": 4290,
      "▁kowace": 4291,
      "▁League": 4292,
      "book": 4293,
      "agen": 4294,
      "▁halarci": 4295,
      "olor": 4296,
      "▁dokar": 4297,
      "▁tafiya": 4298,
      "zi": 4299,
      "▁dauki": 4300,
      "▁Kya": 4301,
      "tsi": 4302,
      "▁malam": 4303,
      "▁ƙunshi": 4304,
      "▁mahaifin": 4305,
      "fishin": 4306,
      "▁kimiyya": 4307,
      "▁biyu,": 4308,
      "uniyar": 4309,
      "pan": 4310,
      "▁daukar": 4311,
      "▁haƙƙin": 4312,
      "▁mulki": 4313,
      "▁Adam": 4314,
      "78": 4315,
      "▁mace": 4316,
      "lia": 4317,
      "▁fada": 4318,
      "▁nasarar": 4319,
      "▁Masu": 4320,
      "fan": 4321,
      "ight": 4322,
      "▁fita": 4323,
      "web/": 4324,
      "▁Malam": 4325,
      "▁rahoton": 4326,
      "▁karɓ": 4327,
      "▁has": 4328,
      "▁Br": 4329,
      "▁ƙananan": 4330,
      "▁mi": 4331,
      "▁muka": 4332,
      "▁Don": 4333,
      "#x": 4334,
      "▁samo": 4335,
      "1]": 4336,
      "▁rubut": 4337,
      "▁mur": 4338,
      "▁Yo": 4339,
      "fawa": 4340,
      "▁Party": 4341,
      "web.archive.org/": 4342,
      "web.archive.org/web/": 4343,
      "▁sada": 4344,
      "es,": 4345,
      "▁ƙau": 4346,
      "▁fahim": 4347,
      "▁harkokin": 4348,
      "▁shirye-shiryen": 4349,
      "▁masanin": 4350,
      "▁sojojin": 4351,
      "tsar": 4352,
      "▁Bra": 4353,
      "ular": 4354,
      "▁Muhammad": 4355,
      "uro": 4356,
      "▁Or": 4357,
      "ven": 4358,
      "▁raba": 4359,
      "▁matasa": 4360,
      "▁gami": 4361,
      "▁tashi": 4362,
      "▁isa": 4363,
      "kuna": 4364,
      "▁tit": 4365,
      "▁Yar": 4366,
      "▁tasirin": 4367,
      "vem": 4368,
      "▁shaida": 4369,
      "ddamar": 4370,
      "Ba": 4371,
      "bijin": 4372,
      "iro": 4373,
      "ica": 4374,
      "▁London": 4375,
      "▁Ban": 4376,
      "▁Ƙa": 4377,
      "▁ge": 4378,
      "orar": 4379,
      "▁fir": 4380,
      "oƙ": 4381,
      "las": 4382,
      "▁walla": 4383,
      "▁Wasu": 4384,
      "▁lau": 4385,
      "hara": 4386,
      "hur": 4387,
      "▁tsakiyar": 4388,
      "▁bara": 4389,
      "▁tila": 4390,
      "ciyar": 4391,
      "▁Ni": 4392,
      "▁im": 4393,
      "▁mutuwar": 4394,
      "▁Nigeria": 4395,
      "arraba": 4396,
      "y.": 4397,
      "▁tawagar": 4398,
      "▁canza": 4399,
      "▁Pe": 4400,
      "▁Najeriya,": 4401,
      "▁buƙatar": 4402,
      "▁gali": 4403,
      "bobi": 4404,
      "ling": 4405,
      "▁doka": 4406,
      "▁fina-finai": 4407,
      "kaicin": 4408,
      "le,": 4409,
      "▁yiw": 4410,
      "▁tsaro": 4411,
      "▁labarin": 4412,
      "▁tse": 4413,
      "▁girman": 4414,
      "cal": 4415,
      "▁Din": 4416,
      ":\n": 4417,
      "▁Ber": 4418,
      "tes": 4419,
      "accessdate": 4420,
      "▁Akwai": 4421,
      "▁2012": 4422,
      "▁aure": 4423,
      "▁Masar": 4424,
      "▁mallaka": 4425,
      "▁daidai": 4426,
      "▁zabe": 4427,
      "▁dala": 4428,
      "▁Abd": 4429,
      "fri": 4430,
      "su,": 4431,
      "▁shigar": 4432,
      "40": 4433,
      "reference-": 4434,
      "cia": 4435,
      "▁rawar": 4436,
      "▁watsa": 4437,
      "&quot;&gt;.": 4438,
      "lu": 4439,
      "on,": 4440,
      "huwar": 4441,
      "▁du": 4442,
      "▁Kir": 4443,
      "ututt": 4444,
      "reference-accessdate": 4445,
      "▁Mon": 4446,
      "▁class=&quot;reference-accessdate": 4447,
      "▁huɗu": 4448,
      "▁majali": 4449,
      "vid": 4450,
      "▁gani": 4451,
      "▁Yuni": 4452,
      "orona": 4453,
      "▁goyon": 4454,
      "/0": 4455,
      "▁makama": 4456,
      "▁yammacin": 4457,
      "▁by": 4458,
      "▁class=&quot;reference-accessdate&quot;&gt;.": 4459,
      "▁2000": 4460,
      "▁Lib": 4461,
      "&lt;/span&gt;.&lt;/cite&gt;": 4462,
      "ifiyar": 4463,
      "▁zargin": 4464,
      "▁Sara": 4465,
      ".[": 4466,
      "▁filin": 4467,
      "▁kudin": 4468,
      "▁ni": 4469,
      "buwar": 4470,
      "▁Afrilu": 4471,
      "▁saba": 4472,
      "▁tamba": 4473,
      "▁'ya": 4474,
      "▁kada": 4475,
      "▁tsaye": 4476,
      "cha": 4477,
      "▁sara": 4478,
      "▁tsan": 4479,
      "yn": 4480,
      "▁dokokin": 4481,
      "▁gurbin": 4482,
      "▁tarayya": 4483,
      "▁tashar": 4484,
      "daya": 4485,
      "▁kamfan": 4486,
      "ugu": 4487,
      "▁Lokacin": 4488,
      "uren": 4489,
      "▁Kar": 4490,
      "80": 4491,
      "mw": 4492,
      "▁Che": 4493,
      "▁Fre": 4494,
      "▁dut": 4495,
      "▁minis": 4496,
      "▁kwal": 4497,
      "▁hukuncin": 4498,
      "ves": 4499,
      "▁Fasa": 4500,
      ".&lt;ref&gt;&quot;": 4501,
      "iwatar": 4502,
      "▁192": 4503,
      "▁2010": 4504,
      "end": 4505,
      "▁File": 4506,
      "▁abubuwa": 4507,
      "▁Han": 4508,
      "▁23": 4509,
      "▁kanta": 4510,
      "que": 4511,
      "▁Lit": 4512,
      "zar": 4513,
      "▁tasiri": 4514,
      "ibirin": 4515,
      "lis": 4516,
      "▁Buh": 4517,
      "▁Ti": 4518,
      "▁Dem": 4519,
      "koki": 4520,
      "▁jiragen": 4521,
      "▁jiho": 4522,
      "▁21": 4523,
      "▁ɓangare": 4524,
      "wood": 4525,
      "site": 4526,
      "uman": 4527,
      "▁gudum": 4528,
      "▁jagoranci": 4529,
      "ence": 4530,
      "▁danganta": 4531,
      "▁Musulunci": 4532,
      "versity": 4533,
      "▁24": 4534,
      "▁File:": 4535,
      "wiki": 4536,
      "▁lantar": 4537,
      "▁Bincik": 4538,
      "ma,": 4539,
      "▁Cha": 4540,
      "▁yankunan": 4541,
      "▁karni": 4542,
      "ens": 4543,
      "▁al'ummar": 4544,
      "▁nau'ikan": 4545,
      "▁nau'in": 4546,
      "▁kuri": 4547,
      "lob": 4548,
      "▁22": 4549,
      "lif": 4550,
      "▁ƙir": 4551,
      "▁2009": 4552,
      "▁\"\"\"": 4553,
      "▁\"\"\"\"": 4554,
      "▁bayanai": 4555,
      "▁''": 4556,
      "▁adawa": 4557,
      "▁kisan": 4558,
      "▁fama": 4559,
      "▁dubu": 4560,
      "xt": 4561,
      "▁lik": 4562,
      "▁[http://www.": 4563,
      "ƙe": 4564,
      "mas": 4565,
      "▁wato": 4566,
      "▁ƙoƙ": 4567,
      "▁Char": 4568,
      "our": 4569,
      "tri": 4570,
      "▁aiwatar": 4571,
      "▁Ili": 4572,
      "▁daidaita": 4573,
      "▁wasannin": 4574,
      "▁Sin": 4575,
      "raph": 4576,
      "▁&quot;A": 4577,
      "▁shafin": 4578,
      ".&quot;": 4579,
      "▁Ap": 4580,
      "▁iska": 4581,
      "▁ƙarin": 4582,
      "ID": 4583,
      "hat": 4584,
      "▁dole": 4585,
      "▁Ɗ": 4586,
      "▁color": 4587,
      "ero": 4588,
      "ta\n": 4589,
      "▁sarra": 4590,
      "▁'yancin": 4591,
      "▁cibiyar": 4592,
      "▁Shugaba": 4593,
      "▁lissa": 4594,
      "▁At": 4595,
      "▁kiwon": 4596,
      "▁Kudancin": 4597,
      "ast": 4598,
      "▁Kungiyar": 4599,
      "▁bakwai": 4600,
      "▁gwiwa": 4601,
      "▁(P": 4602,
      "▁maye": 4603,
      "mer": 4604,
      "▁yau,": 4605,
      "▁talabijin": 4606,
      "ick": 4607,
      "ger": 4608,
      "%20": 4609,
      "▁(C": 4610,
      "▁short": 4611,
      "▁sakandare": 4612,
      "▁2007": 4613,
      "▁Ste": 4614,
      "▁littafin": 4615,
      "gh": 4616,
      "▁Ayy": 4617,
      "▁maima": 4618,
      "edu": 4619,
      "60": 4620,
      "AA": 4621,
      "jar": 4622,
      "ek": 4623,
      "▁hara": 4624,
      "▁takwa": 4625,
      "▁yawa,": 4626,
      "rea": 4627,
      "▁halitta": 4628,
      "ugust": 4629,
      "Na": 4630,
      "▁lafiyar": 4631,
      "old": 4632,
      "▁batun": 4633,
      "line": 4634,
      "▁kulob": 4635,
      "▁tashin": 4636,
      "cial": 4637,
      "pedia": 4638,
      "▁kudi": 4639,
      "▁maka": 4640,
      "▁tura": 4641,
      "▁Bro": 4642,
      "▁sauya": 4643,
      "▁wakiltar": 4644,
      "access-date=": 4645,
      "▁On": 4646,
      "▁Pre": 4647,
      "▁jima": 4648,
      "fut": 4649,
      "▁Amurka,": 4650,
      "▁Ci": 4651,
      "ungiyoyi": 4652,
      "▁ƙirƙ": 4653,
      "▁zur": 4654,
      "▁bat": 4655,
      "▁kuɗin": 4656,
      "toci": 4657,
      "fafa": 4658,
      "▁'ya'": 4659,
      "brev": 4660,
      "umi": 4661,
      "▁yarda": 4662,
      "ant": 4663,
      "▁zaga": 4664,
      "▁shi,": 4665,
      "illiam": 4666,
      "abbrev": 4667,
      "▁tilasta": 4668,
      "▁Dinkin": 4669,
      "▁dauke": 4670,
      "▁shortname": 4671,
      "▁tsakiya": 4672,
      "▁Buhari": 4673,
      "▁27": 4674,
      "▁And": 4675,
      "▁ma'aikatan": 4676,
      "▁{abbrev": 4677,
      "▁gundumar": 4678,
      "In": 4679,
      "vis": 4680,
      "▁kuda": 4681,
      "▁Sam": 4682,
      "▁lura": 4683,
      "▁--": 4684,
      "▁biyan": 4685,
      "▁Agusta": 4686,
      "23": 4687,
      "cto": 4688,
      "run": 4689,
      "iyon": 4690,
      "▁cire": 4691,
      "▁2008": 4692,
      "▁Kamar": 4693,
      "▁Lega": 4694,
      "ser": 4695,
      "▁marasa": 4696,
      "▁tatt": 4697,
      "▁misa": 4698,
      "ce,": 4699,
      "▁Amma": 4700,
      "▁arewacin": 4701,
      "▁dakatar": 4702,
      "▁shar": 4703,
      "25": 4704,
      "eld": 4705,
      "▁jami": 4706,
      "▁ila": 4707,
      "lle": 4708,
      "per": 4709,
      "wit": 4710,
      "▁kwatan": 4711,
      "▁ƙasashen": 4712,
      "gov": 4713,
      "TER": 4714,
      "▁con": 4715,
      "▁1,": 4716,
      "▁zauna": 4717,
      "▁bayanan": 4718,
      "▁farko,": 4719,
      "brahim": 4720,
      "▁takara": 4721,
      "▁galibi": 4722,
      "l,": 4723,
      "▁sadar": 4724,
      "▁Zam": 4725,
      "▁wurare": 4726,
      "ft": 4727,
      "itan": 4728,
      "▁Janairu": 4729,
      "▁ɗauki": 4730,
      "dayake": 4731,
      "-S": 4732,
      "cc": 4733,
      "▁(199": 4734,
      "nes": 4735,
      "▁Mus": 4736,
      "▁Ku": 4737,
      "▁launin": 4738,
      "uly": 4739,
      "70": 4740,
      "▁(M": 4741,
      "low": 4742,
      "▁mataimakin": 4743,
      "▁leda": 4744,
      "yara": 4745,
      "art": 4746,
      "▁wadannan": 4747,
      "▁mamaye": 4748,
      "▁shaka": 4749,
      "▁Ed": 4750,
      "▁APC": 4751,
      "▁buɗe": 4752,
      "▁sty": 4753,
      "eral": 4754,
      "fi,": 4755,
      "▁az": 4756,
      "▁taf": 4757,
      "▁tan": 4758,
      "warin": 4759,
      "▁kewa": 4760,
      "BN": 4761,
      "▁°": 4762,
      "▁gwamnan": 4763,
      "▁sune": 4764,
      "ttun": 4765,
      "▁Press": 4766,
      "▁&lt;nowiki&gt;": 4767,
      "▁zaɓen": 4768,
      "▁Kanada": 4769,
      "▁nemi": 4770,
      "ics": 4771,
      "ding": 4772,
      "▁kasuwa": 4773,
      "24": 4774,
      "▁ma'": 4775,
      "ocra": 4776,
      "tive": 4777,
      "▁zara": 4778,
      "sup&gt;": 4779,
      "▁26": 4780,
      "▁kyawun": 4781,
      "emplate": 4782,
      "antun": 4783,
      "▁taba": 4784,
      "▁II": 4785,
      "▁Yayin": 4786,
      "arch": 4787,
      "▁iz": 4788,
      "▁Hausa": 4789,
      "ce-r": 4790,
      "dancin": 4791,
      "▁International": 4792,
      "cember": 4793,
      "karin": 4794,
      "▁duba": 4795,
      "▁gona": 4796,
      "',": 4797,
      "ish": 4798,
      "zo": 4799,
      "▁abokan": 4800,
      "CITER": 4801,
      "CITEREF": 4802,
      "-c": 4803,
      "▁IS": 4804,
      "red": 4805,
      "▁Ibrahim": 4806,
      "oman": 4807,
      "▁pro": 4808,
      "▁jikin": 4809,
      "▁Kasu": 4810,
      "▁[https://www.": 4811,
      "▁matar": 4812,
      "▁makaranta": 4813,
      "▁name=&quot;:0&quot;": 4814,
      "▁ed": 4815,
      "▁Ma'aikatar": 4816,
      "▁dara": 4817,
      "anguage": 4818,
      "▁City": 4819,
      "▁(wanda": 4820,
      "▁Rasha": 4821,
      "'o": 4822,
      "▁For": 4823,
      "▁nazarin": 4824,
      "▁rawa": 4825,
      "▁with": 4826,
      "▁baki": 4827,
      "▁albar": 4828,
      "zab": 4829,
      "pte": 4830,
      "▁mahimmanci": 4831,
      "▁duka": 4832,
      "udanar": 4833,
      "▁tsaya": 4834,
      "gara": 4835,
      "▁ce,": 4836,
      "umin": 4837,
      "true": 4838,
      "▁kirk": 4839,
      "lolin": 4840,
      "ese": 4841,
      "▁la'a": 4842,
      "▁sha'awar": 4843,
      "val": 4844,
      "▁28": 4845,
      "▁Laraba": 4846,
      "▁ido": 4847,
      "mun": 4848,
      "▁tafi": 4849,
      "fanin": 4850,
      "ef": 4851,
      "▁jim": 4852,
      "momin": 4853,
      "▁Th": 4854,
      "▁dangin": 4855,
      "ctor": 4856,
      "▁Su": 4857,
      "▁Janairun": 4858,
      "▁lantarki": 4859,
      "▁gudun": 4860,
      "▁Arewacin": 4861,
      "bert": 4862,
      "la,": 4863,
      "▁Gwamnatin": 4864,
      "anuary": 4865,
      "▁style=&quot;": 4866,
      "tocin": 4867,
      "▁addinin": 4868,
      "▁“": 4869,
      "▁la'akari": 4870,
      "▁&quot;#": 4871,
      "by": 4872,
      "&quot;},\n": 4873,
      "▁Fran": 4874,
      "▁dab": 4875,
      "▁Kotun": 4876,
      "▁Fasaha": 4877,
      "ptember": 4878,
      "▁190": 4879,
      "▁29": 4880,
      "ctober": 4881,
      "SA": 4882,
      "vir": 4883,
      "cation": 4884,
      "▁dake": 4885,
      "omen": 4886,
      "▁soja": 4887,
      "▁zane-z": 4888,
      "▁kullun": 4889,
      "▁August": 4890,
      "uwa,": 4891,
      "mita": 4892,
      "▁Mis": 4893,
      "▁(N": 4894,
      "▁alka": 4895,
      "▁Lafiya": 4896,
      "wa\n": 4897,
      "▁kwalla": 4898,
      "▁Yankin": 4899,
      "in,": 4900,
      "▁Yawancin": 4901,
      "joji": 4902,
      "▁Shari": 4903,
      "▁China": 4904,
      "ikh": 4905,
      "▁kabil": 4906,
      "▁yun": 4907,
      "▁sabbin": 4908,
      "vo": 4909,
      "▁Mad": 4910,
      "▁Gida": 4911,
      "chool": 4912,
      "▁William": 4913,
      "▁yarjejeniyar": 4914,
      "▁sarrafa": 4915,
      "▁Haka": 4916,
      "▁riko": 4917,
      "Da": 4918,
      "lex": 4919,
      "ungiya": 4920,
      "▁mahaifiyar": 4921,
      "▁hakkin": 4922,
      "▁kungiyoyin": 4923,
      "len": 4924,
      "tti": 4925,
      "▁tuna": 4926,
      "▁Kimiyya": 4927,
      "▁kayayya": 4928,
      "▁dari": 4929,
      "▁zum": 4930,
      "▁karshen": 4931,
      "gun": 4932,
      "sc": 4933,
      "sk": 4934,
      "▁matsakaicin": 4935,
      "/p": 4936,
      "▁kotun": 4937,
      "8%": 4938,
      "▁bude": 4939,
      "▁kokarin": 4940,
      "#x5": 4941,
      "▁aj": 4942,
      "▁noma": 4943,
      "ebru": 4944,
      "▁World": 4945,
      "▁Mic": 4946,
      "▁biyo": 4947,
      "▁jami'an": 4948,
      "ame": 4949,
      "▁Kula": 4950,
      "da,": 4951,
      "▁Mafi": 4952,
      "lon": 4953,
      "▁zanga": 4954,
      "ebruary": 4955,
      "▁addini": 4956,
      "rit": 4957,
      "▁ro": 4958,
      "ball": 4959,
      "▁Nazarin": 4960,
      "▁Wad": 4961,
      "▁fuskantar": 4962,
      "▁fafut": 4963,
      "lymp": 4964,
      "▁University": 4965,
      "lack": 4966,
      "▁June": 4967,
      "▁watanni": 4968,
      "▁aikata": 4969,
      "):": 4970,
      "bia": 4971,
      "▁Moham": 4972,
      "▁Mc": 4973,
      "▁gine": 4974,
      "▁kyautar": 4975,
      "sion": 4976,
      "&lt;ref&gt;&lt;/ref&gt;&lt;ref&gt;&lt;/ref&gt;": 4977,
      "▁{&quot;": 4978,
      "▁'Yan": 4979,
      "▁batut": 4980,
      "▁kallon": 4981,
      "▁duniya,": 4982,
      "▁Birtaniya": 4983,
      "▁was": 4984,
      "▁faruwa": 4985,
      "▁Yuli": 4986,
      "▁samf": 4987,
      "▁data-ve-ignore=&quot;true": 4988,
      "  ": 4989,
      "▁taɓa": 4990,
      "▁Sco": 4991,
      "▁laif": 4992,
      "c.": 4993,
      "▁zaɓe": 4994,
      "33": 4995,
      "▁tsaron": 4996,
      "▁&lt;ref&gt;[": 4997,
      "website": 4998,
      "ern": 4999,
      "▁lalata": 5000,
      "p.": 5001,
      "▁matsalar": 5002,
      "▁id=&quot;CITEREF": 5003,
      "▁Kamfanin": 5004,
      "26": 5005,
      "▁X": 5006,
      "▁Kuma": 5007,
      "▁|url=": 5008,
      "▁yaki": 5009,
      "▁gyara": 5010,
      "▁gidaje": 5011,
      "▁Kwamitin": 5012,
      "▁takwas": 5013,
      "▁rag": 5014,
      "▁Ministan": 5015,
      "yd": 5016,
      "ille": 5017,
      "▁Chris": 5018,
      "90": 5019,
      "▁gabashin": 5020,
      "▁biya": 5021,
      "link": 5022,
      "▁March": 5023,
      "undunar": 5024,
      "idid": 5025,
      "▁su,": 5026,
      "▁Dr": 5027,
      "▁wuri": 5028,
      "sis": 5029,
      "▁gari": 5030,
      "▁PDP": 5031,
      "▁Ade": 5032,
      "▁harshen": 5033,
      "▁2019,": 5034,
      "▁cikakken": 5035,
      "▁giz": 5036,
      "cewa": 5037,
      "▁&quot;S": 5038,
      "wu": 5039,
      "▁adadin": 5040,
      "zara": 5041,
      "▁aikinsa": 5042,
      ".a": 5043,
      "27": 5044,
      "ler": 5045,
      "▁July": 5046,
      "tarwa": 5047,
      "▁ƙarni": 5048,
      "▁shugabannin": 5049,
      "gwar": 5050,
      "▁alam": 5051,
      "angar": 5052,
      "▁kimanin": 5053,
      "ɗan": 5054,
      "▁farashin": 5055,
      "▁ra'ayin": 5056,
      "vember": 5057,
      "website=": 5058,
      "ardin": 5059,
      "▁South": 5060,
      "▁kilo": 5061,
      "▁majalisa": 5062,
      "-ba": 5063,
      "list": 5064,
      "▁Ki": 5065,
      "idge": 5066,
      "▁Africa": 5067,
      "▁maimakon": 5068,
      "▁kasashe": 5069,
      "▁tunanin": 5070,
      "▁April": 5071,
      "'u": 5072,
      "▁2006": 5073,
      "▁Rep": 5074,
      "▁Democra": 5075,
      "df": 5076,
      "fai": 5077,
      "▁Hakan": 5078,
      "▁Ug": 5079,
      "▁sassan": 5080,
      "▁Pet": 5081,
      "▁Jam'": 5082,
      "ition": 5083,
      "▁ciwon": 5084,
      "▁matakan": 5085,
      "▁ziyar": 5086,
      "ciya": 5087,
      "▁Fim": 5088,
      "ily": 5089,
      "▁2024": 5090,
      "ilar": 5091,
      "▁Kogin": 5092,
      "bari": 5093,
      "kasa": 5094,
      "IS": 5095,
      "▁waha": 5096,
      "▁ran": 5097,
      "▁Faran": 5098,
      "▁|access-date=": 5099,
      ".html": 5100,
      "mat": 5101,
      "▁Gasar": 5102,
      "▁mala": 5103,
      "px": 5104,
      "▁Maha": 5105,
      "▁motsa": 5106,
      "ory": 5107,
      "▁Mag": 5108,
      "▁shakatawa": 5109,
      "madu": 5110,
      "▁al'adun": 5111,
      "▁abokin": 5112,
      "▁damuwa": 5113,
      "▁Can": 5114,
      "▁January": 5115,
      "▁December": 5116,
      "▁kwallaye": 5117,
      "▁iri": 5118,
      "▁Italiya": 5119,
      "▁Fabrairu": 5120,
      "▁dar": 5121,
      "▁West": 5122,
      "▁mita": 5123,
      "▁Matsa": 5124,
      "▁bukatar": 5125,
      "▁min": 5126,
      "▁ayyuka": 5127,
      "ice": 5128,
      "▁0": 5129,
      "sa\n": 5130,
      "▁birni": 5131,
      "▁taimakawa": 5132,
      "bn": 5133,
      "g,": 5134,
      "ji,": 5135,
      "ow": 5136,
      "2&quot;": 5137,
      "lika": 5138,
      "▁haram": 5139,
      "▁zamantakewa": 5140,
      "▁Yah": 5141,
      "▁kiyaye": 5142,
      "EC": 5143,
      "▁juna": 5144,
      "▁ina": 5145,
      "▁Koya": 5146,
      "▁Lu": 5147,
      "yl": 5148,
      "▁mana": 5149,
      "1-": 5150,
      "ess": 5151,
      "▁mura": 5152,
      "▁karo": 5153,
      "ton,": 5154,
      "▁Jama'a": 5155,
      "▁Isra": 5156,
      "2&quot;&gt;&lt;/ref&gt;": 5157,
      "h,": 5158,
      "pr": 5159,
      "su\n": 5160,
      "id=": 5161,
      "▁alha": 5162,
      "▁gidajen": 5163,
      "ind": 5164,
      "▁rasa": 5165,
      "ign": 5166,
      "logy": 5167,
      "ps": 5168,
      "t-": 5169,
      "▁taken": 5170,
      "gal": 5171,
      "▁&quot;&quot;,},\n": 5172,
      "▁October": 5173,
      "▁189": 5174,
      "▁African": 5175,
      "karun": 5176,
      "▁tushen": 5177,
      "▁albarka": 5178,
      "▁zanga-z": 5179,
      "▁hala": 5180,
      "is,": 5181,
      ",000": 5182,
      "k,": 5183,
      "▁All": 5184,
      "▁rarraba": 5185,
      "gwarma": 5186,
      "▁wutar": 5187,
      "re,": 5188,
      "su.": 5189,
      "▁ƙaura": 5190,
      "▁gaskiya": 5191,
      "▁gudanarwa": 5192,
      "84": 5193,
      "wari": 5194,
      "▁February": 5195,
      "spa": 5196,
      "andun": 5197,
      "artic": 5198,
      "▁Iran": 5199,
      "▁dogara": 5200,
      "▁Farfesa": 5201,
      "▁Jam'iyyar": 5202,
      "▁alif": 5203,
      "▁Dut": 5204,
      "udan": 5205,
      "▁yanar": 5206,
      "umm": 5207,
      "▁September": 5208,
      "▁jima'i": 5209,
      "▁dauka": 5210,
      "▁2018,": 5211,
      "▁gu": 5212,
      "▁yada": 5213,
      "▁auri": 5214,
      "▁hadin": 5215,
      "uto": 5216,
      "▁Gar": 5217,
      "▁gabata": 5218,
      "▁arzikin": 5219,
      "▁di": 5220,
      "▁wallafa": 5221,
      "▁bo": 5222,
      "diga": 5223,
      "ilm": 5224,
      "chester": 5225,
      "▁(a": 5226,
      "▁Yulin": 5227,
      "▁rikodin": 5228,
      "▁ƙungiyoyin": 5229,
      "▁**": 5230,
      "▁(18": 5231,
      "▁tsari": 5232,
      "▁zamanin": 5233,
      "▁ra'ayi": 5234,
      "▁shan": 5235,
      "▁baraz": 5236,
      "▁Koyaya,": 5237,
      "▁bayi": 5238,
      "eal": 5239,
      "▁Je": 5240,
      "▁injin": 5241,
      "▁magance": 5242,
      "imma": 5243,
      "udi": 5244,
      "▁title=&quot;": 5245,
      "ES": 5246,
      "view": 5247,
      "▁kundin": 5248,
      "king": 5249,
      "▁Olymp": 5250,
      "eric": 5251,
      "▁sabuwar": 5252,
      "▁kogin": 5253,
      "-F": 5254,
      "zan": 5255,
      "▁waƙar": 5256,
      "irarin": 5257,
      "iru,": 5258,
      "&lt;/ref&gt;&lt;ref&gt;": 5259,
      "itar": 5260,
      "▁Litta": 5261,
      "▁;": 5262,
      "zon": 5263,
      "iko": 5264,
      "▁Ost": 5265,
      "▁fafa": 5266,
      "istory": 5267,
      "▁$": 5268,
      "inka": 5269,
      "way": 5270,
      "cewar": 5271,
      "▁CO": 5272,
      "▁Cro": 5273,
      "▁mataki": 5274,
      "▁mako": 5275,
      "enn": 5276,
      "▁tarin": 5277,
      "▁Mari": 5278,
      "sso": 5279,
      "▁kwatanta": 5280,
      "29": 5281,
      "▁hanya": 5282,
      "▁baya,": 5283,
      "▁ginin": 5284,
      "▁Abdu": 5285,
      "orge": 5286,
      "▁Ph": 5287,
      "▁Per": 5288,
      "▁mada": 5289,
      "▁hij": 5290,
      "en,": 5291,
      "dian": 5292,
      "▁tallafin": 5293,
      "▁Gro": 5294,
      "shing": 5295,
      "▁kur": 5296,
      "▁tsohuwar": 5297,
      "▁tattara": 5298,
      "biya": 5299,
      "▁horar": 5300,
      "▁bangare": 5301,
      "▁matu": 5302,
      "▁cututt": 5303,
      "▁(F": 5304,
      "▁amincewa": 5305,
      "0%": 5306,
      "▁Cor": 5307,
      "▁Port": 5308,
      "▁tallafawa": 5309,
      "ifi": 5310,
      "▁fadin": 5311,
      "▁tsibirin": 5312,
      "ker": 5313,
      "▁Vi": 5314,
      "▁gwagwarma": 5315,
      "▁had": 5316,
      "▁muhim": 5317,
      "▁ƙasashe": 5318,
      "▁gwiwar": 5319,
      "huriyar": 5320,
      "▁musul": 5321,
      "▁Tr": 5322,
      "▁mallakar": 5323,
      "DF": 5324,
      "▁biliyan": 5325,
      "▁November": 5326,
      "▁se": 5327,
      "▁kuwa": 5328,
      "▁David": 5329,
      "▁iskar": 5330,
      "▁Uganda": 5331,
      "▁juya": 5332,
      "▁Tsakiya": 5333,
      "▁Award": 5334,
      "lima": 5335,
      "▁Tur": 5336,
      "ttu": 5337,
      "▁Yammacin": 5338,
      "tare": 5339,
      "es/": 5340,
      "▁karin": 5341,
      "▁Sana": 5342,
      "▁ne.": 5343,
      "▁hoton": 5344,
      "▁gandun": 5345,
      "▁Tana": 5346,
      "d,": 5347,
      "dy": 5348,
      "ff": 5349,
      "▁kilomita": 5350,
      "van": 5351,
      "▁kudancin": 5352,
      "▁Ser": 5353,
      "▁Tarayyar": 5354,
      "▁zane-zane": 5355,
      "▁mat": 5356,
      "▁kujer": 5357,
      "ani,": 5358,
      "ugh": 5359,
      "▁Yarjejeniyar": 5360,
      "aman": 5361,
      "▁ƙan": 5362,
      "▁Wasan": 5363,
      "▁kiran": 5364,
      "▁2020,": 5365,
      "▁Tare": 5366,
      "▁riƙe": 5367,
      "▁sassa": 5368,
      "▁yankuna": 5369,
      "85": 5370,
      "yil": 5371,
      "▁Hol": 5372,
      "ania": 5373,
      "▁haya": 5374,
      "▁name=": 5375,
      "▁lamarin": 5376,
      "▁Ayyukan": 5377,
      "eng": 5378,
      "thumb|": 5379,
      "▁bidiyon": 5380,
      "taccen": 5381,
      "▁canjin": 5382,
      "▁kimiyyar": 5383,
      "Ha": 5384,
      "ket": 5385,
      "▁faɗin": 5386,
      ".,": 5387,
      "9%": 5388,
      "m,": 5389,
      "▁hukuma": 5390,
      "bal": 5391,
      "▁Gudanar": 5392,
      "▁yaƙi": 5393,
      "▁Kha": 5394,
      "10.": 5395,
      "▁mam": 5396,
      "▁Bu": 5397,
      "▁ƙware": 5398,
      "▁umarnin": 5399,
      "-f": 5400,
      "ner": 5401,
      "bour": 5402,
      "▁Darak": 5403,
      "tanet": 5404,
      "iraliya": 5405,
      "sarautar": 5406,
      "zz": 5407,
      "zil": 5408,
      "▁saut": 5409,
      "▁(U": 5410,
      "▁sanarwar": 5411,
      "▁Idan": 5412,
      "▁rai": 5413,
      "tra": 5414,
      "▁bangaren": 5415,
      "yu": 5416,
      "urce": 5417,
      "▁Ham": 5418,
      "▁name=&quot;a": 5419,
      "▁ƙarfi": 5420,
      "dara": 5421,
      "▁loku": 5422,
      "e.": 5423,
      "▁Ara": 5424,
      "▁Cam": 5425,
      "].": 5426,
      "rid": 5427,
      "▁&quot;M": 5428,
      "▁Al-": 5429,
      "▁Sheikh": 5430,
      "▁hukumomin": 5431,
      "▁Janar": 5432,
      "ampion": 5433,
      "▁ƙarancin": 5434,
      "▁rike": 5435,
      "An": 5436,
      "▁茩": 5437,
      "▁Phi": 5438,
      "▁Ostiraliya": 5439,
      "▁shi.": 5440,
      "▁ma'aikata": 5441,
      "▁Abuja": 5442,
      "ucin": 5443,
      "▁Cent": 5444,
      "▁manufofin": 5445,
      "pdf": 5446,
      "oron": 5447,
      "lock": 5448,
      "tions": 5449,
      "▁jefa": 5450,
      "▁car": 5451,
      "▁me": 5452,
      "allar": 5453,
      "illar": 5454,
      "▁2016,": 5455,
      "ights": 5456,
      "kistan": 5457,
      "rans": 5458,
      "▁rubutun": 5459,
      "&quot;/&gt;\n": 5460,
      "CO": 5461,
      "▁War": 5462,
      "▁shawar": 5463,
      "ec": 5464,
      "▁yayi": 5465,
      "▁shi\n": 5466,
      "▁2021,": 5467,
      "▁zaɓi": 5468,
      "▁shari'ar": 5469,
      "AR": 5470,
      "▁rauni": 5471,
      "▁gaje": 5472,
      "&lt;/sup&gt;": 5473,
      "▁Vic": 5474,
      "▁yawanci": 5475,
      "▁bambanta": 5476,
      "▁alhakin": 5477,
      "▁waƙo": 5478,
      "▁Tra": 5479,
      "▁kasancewa": 5480,
      "▁hankalin": 5481,
      ");": 5482,
      "|thumb|": 5483,
      "▁Tar": 5484,
      "▁makarantun": 5485,
      ".jpg|": 5486,
      "bakar": 5487,
      "tunan": 5488,
      "▁jarida": 5489,
      "▁gyar": 5490,
      "ild": 5491,
      "▁Ex": 5492,
      "kra": 5493,
      "▁kwanaki": 5494,
      "▁taso": 5495,
      "▁ɗakin": 5496,
      "▁zargi": 5497,
      "shi,": 5498,
      "▁ƙasa,": 5499,
      "▁name=&quot;:1": 5500,
      "▁Soci": 5501,
      "▁dabar": 5502,
      "▁|website=": 5503,
      "ou": 5504,
      "2019": 5505,
      "--------": 5506,
      "▁su.": 5507,
      "▁gudummawa": 5508,
      "▁jami'ar": 5509,
      "▁2005": 5510,
      "▁doke": 5511,
      "▁Binciken": 5512,
      "▁faɗa": 5513,
      "▁ɓa": 5514,
      "▁rasu": 5515,
      "▁name=&quot;S": 5516,
      "▁al'adu": 5517,
      "wal": 5518,
      "etur": 5519,
      "language": 5520,
      "▁rita": 5521,
      "▁Mutanen": 5522,
      "▁Abdul": 5523,
      "ins": 5524,
      "erland": 5525,
      "utan": 5526,
      "ssara": 5527,
      "▁Cali": 5528,
      "▁darek": 5529,
      "com": 5530,
      "▁Shirin": 5531,
      "▁Ƙasa": 5532,
      "ston": 5533,
      "▁al'am": 5534,
      "▁Kenya": 5535,
      "▁ka'ido": 5536,
      "-w": 5537,
      "dem": 5538,
      "harar": 5539,
      "▁juyin": 5540,
      "duna": 5541,
      "▁canc": 5542,
      "▁Tarihi": 5543,
      "▁Kyautar": 5544,
      "Ta": 5545,
      "▁rukunin": 5546,
      "1/": 5547,
      "pt": 5548,
      "▁bazara": 5549,
      "ople": 5550,
      "▁fasahar": 5551,
      "▁kalmar": 5552,
      "ffi": 5553,
      "susun": 5554,
      "▁Black": 5555,
      "▁gefen": 5556,
      "AN": 5557,
      "▁hau": 5558,
      ".gov": 5559,
      "mis": 5560,
      "ric": 5561,
      "▁Yaƙin": 5562,
      "▁littatta": 5563,
      "▁matan": 5564,
      "▁School": 5565,
      "&amp;#x5": 5566,
      "▁Coun": 5567,
      "▁auren": 5568,
      "▁shafe": 5569,
      "▁fila": 5570,
      "▁31": 5571,
      "▁cuta": 5572,
      "▁shaf": 5573,
      "▁yaren": 5574,
      "forn": 5575,
      "▁bun": 5576,
      "news/": 5577,
      "-3": 5578,
      "CC": 5579,
      "▁Sarkin": 5580,
      "▁Ilimi": 5581,
      "2020": 5582,
      "▁shaidar": 5583,
      "▁jagorancin": 5584,
      "89": 5585,
      "▁kafofin": 5586,
      "],": 5587,
      "▁uk": 5588,
      "▁Bugu": 5589,
      "▁(in": 5590,
      "▁lamba": 5591,
      "gy": 5592,
      "▁Abin": 5593,
      "▁George": 5594,
      "▁Bay": 5595,
      "https://web.archive.org/web/": 5596,
      "▁anno": 5597,
      "▁tseren": 5598,
      "utu": 5599,
      "▁2015,": 5600,
      "ship": 5601,
      ".&lt;/ref&gt;\n": 5602,
      "AS": 5603,
      "hit": 5604,
      "my": 5605,
      "▁dangane": 5606,
      "▁masalla": 5607,
      "▁Isra'i": 5608,
      ".edu": 5609,
      "kk": 5610,
      "▁kwarar": 5611,
      "▁Asa": 5612,
      "▁Sw": 5613,
      "▁Ke": 5614,
      "▁matsalolin": 5615,
      "ange": 5616,
      "&quot;&gt;&lt;/ref&gt;&lt;ref": 5617,
      "86": 5618,
      "▁lokacin,": 5619,
      "sia": 5620,
      "▁makon": 5621,
      "▁wayar": 5622,
      "▁Cin": 5623,
      "▁Sauran": 5624,
      "▁sir": 5625,
      "▁com": 5626,
      "▁jig": 5627,
      "▁Afirka,": 5628,
      "▁sadarwa": 5629,
      "vel": 5630,
      "uni,": 5631,
      "suna": 5632,
      "bci": 5633,
      "▁uwan": 5634,
      "▁Kofin": 5635,
      "▁sanann": 5636,
      "▁Abubakar": 5637,
      "▁ɗalibai": 5638,
      "▁hama": 5639,
      "▁Jar": 5640,
      "▁Saboda": 5641,
      ".co.": 5642,
      "▁ƙoƙarin": 5643,
      "&quot;\n": 5644,
      "▁Mala": 5645,
      "▁tsaun": 5646,
      "▁Manchester": 5647,
      "▁ofishin": 5648,
      "▁masana'antar": 5649,
      "▁yad": 5650,
      "▁Dar": 5651,
      "▁Gra": 5652,
      "▁2017,": 5653,
      "FA": 5654,
      "▁Fayil": 5655,
      "▁Mataimakin": 5656,
      "uel": 5657,
      "▁Japan": 5658,
      "ie": 5659,
      "▁Alex": 5660,
      "▁kawar": 5661,
      "▁Del": 5662,
      "▁gudana": 5663,
      "▁firam": 5664,
      "oli": 5665,
      "▁ung": 5666,
      "▁kudaden": 5667,
      "▁zarafin": 5668,
      "Ka": 5669,
      "sub": 5670,
      "▁alama": 5671,
      "▁hari": 5672,
      "▁Tso": 5673,
      "▁tattaunawa": 5674,
      "yal": 5675,
      "▁na'": 5676,
      "▁naɗa": 5677,
      "▁ƙaddamar": 5678,
      "▁kwallo": 5679,
      "▁Californ": 5680,
      "irgin": 5681,
      "▁(L": 5682,
      "▁Gen": 5683,
      "▁2004": 5684,
      "lami": 5685,
      "▁saki": 5686,
      "▁Girka": 5687,
      "▁&quot;C": 5688,
      "ico": 5689,
      "▁James": 5690,
      "▁kau": 5691,
      "▁Her": 5692,
      "▁harshe": 5693,
      "day": 5694,
      "▁Yunin": 5695,
      "shekara": 5696,
      "▁Jamhuriyar": 5697,
      "▁jami'a": 5698,
      "des": 5699,
      "&quot;.\n": 5700,
      "▁kodayake": 5701,
      "ning": 5702,
      "▁hukunci": 5703,
      "▁Yahuda": 5704,
      "▁nah": 5705,
      "▁Sir": 5706,
      "▁gama": 5707,
      "▁2013,": 5708,
      "▁amsa": 5709,
      "▁tsare": 5710,
      "▁Wadannan": 5711,
      "45": 5712,
      "gaba": 5713,
      "▁[http://": 5714,
      "itoci": 5715,
      "bel": 5716,
      "ugabar": 5717,
      "-in": 5718,
      "▁ba.\n": 5719,
      "orts": 5720,
      "iman": 5721,
      "▁kiɗa": 5722,
      "▁Gabashin": 5723,
      "▁Premi": 5724,
      "▁ta'a": 5725,
      "▁name=&quot;:1&quot;": 5726,
      "▁kyauta": 5727,
      "▁Muhammadu": 5728,
      "▁jaridar": 5729,
      "75": 5730,
      "jallar": 5731,
      "▁tantan": 5732,
      "kh": 5733,
      "mi,": 5734,
      "sunan": 5735,
      "▁ƙauyen": 5736,
      "PA": 5737,
      "hael": 5738,
      "▁gabas": 5739,
      "ws": 5740,
      "wer": 5741,
      "▁sina": 5742,
      "▁Mul": 5743,
      "▁Pol": 5744,
      "}}&lt;/ref&gt;": 5745,
      "-C": 5746,
      ". ": 5747,
      "43": 5748,
      "▁fur": 5749,
      "▁Pakistan": 5750,
      "▁Fabrairun": 5751,
      "▁hijira": 5752,
      "Ya": 5753,
      "▁Land": 5754,
      "▁name=&quot;A": 5755,
      "▁mazauna": 5756,
      "ree": 5757,
      "▁Kwan": 5758,
      "imar": 5759,
      "▁takardar": 5760,
      "▁jami'in": 5761,
      "▁rundunar": 5762,
      "▁2014,": 5763,
      "ch,": 5764,
      "▁magung": 5765,
      "▁rigaka": 5766,
      "▁Fir": 5767,
      "ety": 5768,
      "▁sanyi": 5769,
      "tics": 5770,
      "▁Fayil:": 5771,
      "▁hul": 5772,
      "/a": 5773,
      "ng": 5774,
      "▁aga": 5775,
      "▁fetur": 5776,
      "▁Eli": 5777,
      "▁alamar": 5778,
      "▁lokuta": 5779,
      "port": 5780,
      "▁Qu": 5781,
      "Re": 5782,
      "▁tuh": 5783,
      "▁soke": 5784,
      "2)": 5785,
      "alth": 5786,
      "▁rushe": 5787,
      "▁karɓar": 5788,
      "ali": 5789,
      "▁rin": 5790,
      "ba,": 5791,
      "▁bayani": 5792,
      "▁UN": 5793,
      "▁zabi": 5794,
      "▁maganin": 5795,
      "&quot;,\n": 5796,
      "▁yawon": 5797,
      "▁wa'a": 5798,
      "▁Spa": 5799,
      "▁mumm": 5800,
      "▁rukuni": 5801,
      "65": 5802,
      "▁watsi": 5803,
      "urnal": 5804,
      "▁aini": 5805,
      "▁kwayoyin": 5806,
      "▁jam’": 5807,
      "0,000": 5808,
      "sco": 5809,
      "▁Dang": 5810,
      "▁50": 5811,
      "▁Sal": 5812,
      "▁Ofishin": 5813,
      "▁Anna": 5814,
      "▁Wata": 5815,
      "ney": 5816,
      "otball": 5817,
      "▁kuma,": 5818,
      "▁karuwar": 5819,
      "stit": 5820,
      "▁dalilin": 5821,
      "▁sararin": 5822,
      "▁Rich": 5823,
      "▁Champion": 5824,
      "▁zubar": 5825,
      "▁Victor": 5826,
      "▁(D": 5827,
      "▁(G": 5828,
      "▁(J": 5829,
      "▁Red": 5830,
      "m.": 5831,
      "▁Tan": 5832,
      "▁kananan": 5833,
      "▁Tatta": 5834,
      "dex": 5835,
      "▁dutse": 5836,
      "-wa": 5837,
      "u.": 5838,
      "▁layin": 5839,
      "▁2003": 5840,
      "▁2022,": 5841,
      "▁Australiya": 5842,
      "▁malamin": 5843,
      "▁mijin": 5844,
      "tsin": 5845,
      "▁laifuka": 5846,
      "▁Masana": 5847,
      "bun": 5848,
      "ola": 5849,
      "▁Sudan": 5850,
      "▁Bor": 5851,
      "▁King": 5852,
      "▁all": 5853,
      "▁ƙare": 5854,
      "cl": 5855,
      "▁et": 5856,
      "▁Sci": 5857,
      "▁kewaye": 5858,
      "28": 5859,
      "digar": 5860,
      "▁2010,": 5861,
      "▁&quot;B": 5862,
      "&lt;/span&gt;.&lt;/cite&gt;&lt;/ref&gt;": 5863,
      "▁ritaya": 5864,
      "'ido": 5865,
      "▁burin": 5866,
      "▁Chi": 5867,
      "1)": 5868,
      "▁shahara": 5869,
      "▁name=&quot;:3": 5870,
      "▁Green": 5871,
      "▁Sup": 5872,
      "sanci": 5873,
      "▁haih": 5874,
      "▁&lt;/ref&gt;": 5875,
      "liyar": 5876,
      "▁adana": 5877,
      "▁zumunta": 5878,
      "ks": 5879,
      "▁),": 5880,
      "▁barin": 5881,
      "▁ruwa,": 5882,
      "▁cibiyoyin": 5883,
      "▁Kal": 5884,
      "▁Gir": 5885,
      "▁karamar": 5886,
      "▁liki": 5887,
      "us,": 5888,
      "▁Sojojin": 5889,
      "=en": 5890,
      "▁pp.": 5891,
      "▁Kaduna": 5892,
      "xford": 5893,
      "wani": 5894,
      "▁kariya": 5895,
      "sea": 5896,
      "▁1990": 5897,
      "▁wakilci": 5898,
      "mawar": 5899,
      "▁Vol": 5900,
      "land,": 5901,
      "-s": 5902,
      "cco": 5903,
      "shirin": 5904,
      "▁2012,": 5905,
      "par": 5906,
      "ral": 5907,
      "▁en": 5908,
      "▁name=&quot;B": 5909,
      "2013": 5910,
      "▁nauyin": 5911,
      "ogle": 5912,
      "▁Umar": 5913,
      "▁Najeriya\n": 5914,
      "▁Najeriya.": 5915,
      "es.": 5916,
      "▁Paris": 5917,
      "▁gurɓa": 5918,
      "99": 5919,
      "zu,": 5920,
      "▁2011,": 5921,
      "try": 5922,
      "kka": 5923,
      "▁iyayen": 5924,
      "rop": 5925,
      "iyan": 5926,
      "celo": 5927,
      "▁Ukra": 5928,
      "▁Gabas": 5929,
      "▁waki": 5930,
      "▁Sarki": 5931,
      "▁Brazil": 5932,
      "▁zanga-zangar": 5933,
      "▁Isra'ila": 5934,
      "▁maki": 5935,
      "lag": 5936,
      "yim": 5937,
      "▁lardin": 5938,
      "▁martan": 5939,
      "gga": 5940,
      "▁need": 5941,
      "▁[1]": 5942,
      "yyana": 5943,
      "php": 5944,
      "▁imanin": 5945,
      "▁Iya": 5946,
      "▁We": 5947,
      "ye,": 5948,
      "▁dogon": 5949,
      "ght": 5950,
      "▁(I": 5951,
      "▁kasuwar": 5952,
      "▁al'ada": 5953,
      "bi,": 5954,
      "▁cimma": 5955,
      "▁Turan": 5956,
      "▁Mer": 5957,
      "▁Shari'a": 5958,
      "▁haramta": 5959,
      "BA": 5960,
      "Ra": 5961,
      "lor": 5962,
      "▁Bal": 5963,
      "▁yi,": 5964,
      "▁tunawa": 5965,
      "87": 5966,
      "dis": 5967,
      "tch": 5968,
      "’ar": 5969,
      "lama": 5970,
      "▁sunayen": 5971,
      "-gine": 5972,
      "-ka": 5973,
      "cent": 5974,
      "▁nasa": 5975,
      "▁Fr": 5976,
      "▁(T": 5977,
      "▁zafin": 5978,
      "▁FC": 5979,
      "▁matsala": 5980,
      "llahi": 5981,
      "▁Harkokin": 5982,
      "▁digirin": 5983,
      "\"\n": 5984,
      "▁horo": 5985,
      "▁fassara": 5986,
      "miyar": 5987,
      "▁ruwaito": 5988,
      "▁Agustan": 5989,
      "frica": 5990,
      "ten": 5991,
      "▁Lam": 5992,
      "▁&quot;P": 5993,
      "▁local": 5994,
      "uraron": 5995,
      "ce-rubu": 5996,
      "▁Sch": 5997,
      "▁Tala": 5998,
      "▁Birnin": 5999,
      "▁[https://web.archive.org/web/": 6000,
      "▁'ya'yan": 6001,
      "▁Legas": 6002,
      "▁albarkatun": 6003,
      "▁gug": 6004,
      "▁darektan": 6005,
      "▁sif": 6006,
      "▁kamuwa": 6007,
      "▁haɗu": 6008,
      "66": 6009,
      "▁1.": 6010,
      "▁cikinsu": 6011,
      "▁Raho": 6012,
      "▁malamai": 6013,
      "35": 6014,
      "▁sukar": 6015,
      "-B": 6016,
      "2]": 6017,
      "▁State": 6018,
      "▁ƙanƙ": 6019,
      "▁Ye": 6020,
      "▁Wiki": 6021,
      "▁Sashen": 6022,
      "▁hukumomi": 6023,
      "▁Muhalli": 6024,
      "▁kamfanonin": 6025,
      "▁izinin": 6026,
      "▁kud": 6027,
      "▁Haba": 6028,
      "▁bidiyo": 6029,
      "▁biyu.": 6030,
      "cadem": 6031,
      "▁yarjejen": 6032,
      "▁yunk": 6033,
      "t.": 6034,
      "▁kadan": 6035,
      "lop": 6036,
      "▁2,": 6037,
      "▁Hen": 6038,
      "▁tsawo": 6039,
      "▁ƙaramin": 6040,
      "▁dabbobi": 6041,
      "▁Sannan": 6042,
      "▁gan": 6043,
      "▁ɗauke": 6044,
      "▁Tarihin": 6045,
      "ich": 6046,
      "▁1999": 6047,
      "i:": 6048,
      "▁bana": 6049,
      "▁laka": 6050,
      "ɗaya": 6051,
      "▁Alha": 6052,
      "▁kasuwancin": 6053,
      "▁id=&quot;mw": 6054,
      "bta": 6055,
      "rest": 6056,
      "▁intanet": 6057,
      "▁sojoji": 6058,
      "▁abincin": 6059,
      "▁hoto": 6060,
      "▁fuskanci": 6061,
      "▁Australia": 6062,
      "-G": 6063,
      "▁raj": 6064,
      "▁Aljeriya": 6065,
      "▁iko": 6066,
      "▁kamfanoni": 6067,
      "▁il": 6068,
      "▁bish": 6069,
      "▁nahiyar": 6070,
      "▁it": 6071,
      "▁40": 6072,
      "▁karatunsa": 6073,
      "ongo": 6074,
      "▁Tekun": 6075,
      "graph": 6076,
      "▁wada": 6077,
      "▁2023,": 6078,
      "▁jawo": 6079,
      "▁mamaki": 6080,
      "▁fafutukar": 6081,
      "▁batutuwan": 6082,
      "-shekara": 6083,
      "▁darak": 6084,
      "▁masana'antu": 6085,
      "▁Misa": 6086,
      "▁sanin": 6087,
      "celona": 6088,
      "loli": 6089,
      "▁Fira": 6090,
      "▁name=&quot;C": 6091,
      "▁tsaf": 6092,
      "▁Alka": 6093,
      "▁yawa.": 6094,
      "▁Eng": 6095,
      "▁Premier": 6096,
      "ago": 6097,
      "▁Amin": 6098,
      "▁Americ": 6099,
      "▁Kafin": 6100,
      "sau": 6101,
      "▁Gr": 6102,
      "▁Ingili": 6103,
      "▁ex": 6104,
      "▁wahala": 6105,
      "▁farfesa": 6106,
      "▁if": 6107,
      "dina": 6108,
      "▁ƙarfin": 6109,
      "▁aikinta": 6110,
      "▁fahimtar": 6111,
      "▁jihohi": 6112,
      "▁&quot;The": 6113,
      "88": 6114,
      "ms": 6115,
      "▁Min": 6116,
      "▁(B": 6117,
      "file": 6118,
      "▁amfanin": 6119,
      "berg": 6120,
      "▁Amurka.": 6121,
      "▁gida,": 6122,
      "▁sauyin": 6123,
      "▁siyasar": 6124,
      "▁Cape": 6125,
      "▁gwajin": 6126,
      "▁North": 6127,
      "tis": 6128,
      "▁ashirin": 6129,
      "▁bada": 6130,
      "▁iyaka": 6131,
      "▁ɗauka": 6132,
      "son,": 6133,
      "▁carbon": 6134,
      "stitut": 6135,
      "▁Op": 6136,
      "ealand": 6137,
      "▁tafiyar": 6138,
      "▁karya": 6139,
      "▁iyali": 6140,
      "▁Olympics": 6141,
      "oshin": 6142,
      "▁sauri": 6143,
      "▁duniya.": 6144,
      "-M": 6145,
      "▁daina": 6146,
      "▁Mem": 6147,
      "▁\"A": 6148,
      "▁Colle": 6149,
      "ring": 6150,
      "▁Por": 6151,
      "-4": 6152,
      "▁gayya": 6153,
      "▁kasa,": 6154,
      "▁makamashi": 6155,
      "▁Charles": 6156,
      "▁Habasha": 6157,
      "ke,": 6158,
      "▁farfa": 6159,
      "▁cewa,": 6160,
      "▁ƙwayoyin": 6161,
      "▁fitowa": 6162,
      "%D8%": 6163,
      "uci": 6164,
      "▁’": 6165,
      "▁A.": 6166,
      "dio": 6167,
      "▁Zealand": 6168,
      "▁uku,": 6169,
      "kkya": 6170,
      "-P": 6171,
      "39": 6172,
      "unt": 6173,
      "um,": 6174,
      "▁alba": 6175,
      "▁News": 6176,
      "▁zagaye": 6177,
      "▁azaman": 6178,
      "▁Sanata": 6179,
      "▁sirri": 6180,
      "-m": 6181,
      "hi,": 6182,
      "▁mak": 6183,
      "▁Mista": 6184,
      "▁kasancewar": 6185,
      "▁jini": 6186,
      "▁Kasuwanci": 6187,
      "▁ainihin": 6188,
      "uis": 6189,
      "▁des": 6190,
      "bab": 6191,
      "▁Ts": 6192,
      "▁Jami'": 6193,
      "are-": 6194,
      "▁Real": 6195,
      "▁fasalin": 6196,
      "2021": 6197,
      "▁fataucin": 6198,
      "burg": 6199,
      "▁matukar": 6200,
      "ony": 6201,
      "▁danda": 6202,
      "▁mun": 6203,
      "▁yiwuwar": 6204,
      "▁jihohin": 6205,
      "dama": 6206,
      "▁Tho": 6207,
      "▁taimakon": 6208,
      "▁Madrid": 6209,
      "gram": 6210,
      "▁kungiyoyi": 6211,
      "▁jinsi": 6212,
      "▁koyarwa": 6213,
      "▁dutsen": 6214,
      "▁shugabar": 6215,
      "ery": 6216,
      "▁laifi": 6217,
      "▁wuta": 6218,
      "-10": 6219,
      "▁asibiti": 6220,
      "mith": 6221,
      "ume": 6222,
      "mall": 6223,
      "▁Rev": 6224,
      "▁tushe": 6225,
      "language=en": 6226,
      "▁Ahmed": 6227,
      "▁Abdullahi": 6228,
      "4)": 6229,
      "ents": 6230,
      "▁zira": 6231,
      "▁no": 6232,
      "▁name=&quot;N": 6233,
      "▁Washing": 6234,
      "▁Bri": 6235,
      "▁shekara-shekara": 6236,
      "bridge": 6237,
      "▁firamare": 6238,
      "▁rinja": 6239,
      "alsa": 6240,
      "▁2.": 6241,
      ".com.": 6242,
      "▁komawa": 6243,
      "en.": 6244,
      "▁kwakwa": 6245,
      "▁bambancin": 6246,
      "▁mukamin": 6247,
      "▁Ɗa": 6248,
      "-of": 6249,
      "ous": 6250,
      "▁azab": 6251,
      "▁Baya": 6252,
      "▁pa": 6253,
      "▁jama": 6254,
      "▁red": 6255,
      "▁Park": 6256,
      "▁halittu": 6257,
      "▁Town": 6258,
      "▁shafukan": 6259,
      "tit": 6260,
      "▁Mary": 6261,
      "▁tekun": 6262,
      "cyc": 6263,
      "5)": 6264,
      "▁naira": 6265,
      "▁zin": 6266,
      "▁Si": 6267,
      "uru": 6268,
      "yi,": 6269,
      "▁Women": 6270,
      "▁Paul": 6271,
      "▁hula": 6272,
      "▁gagga": 6273,
      "orn": 6274,
      "tian": 6275,
      "▁Oxford": 6276,
      "/http://www.": 6277,
      "100": 6278,
      "fara": 6279,
      "▁Publi": 6280,
      "▁laifin": 6281,
      "▁2002": 6282,
      "ssocia": 6283,
      "6)": 6284,
      "ste": 6285,
      "▁muhimman": 6286,
      "▁2009,": 6287,
      "ope": 6288,
      "▁1980": 6289,
      "pool": 6290,
      "▁fadada": 6291,
      "▁Bankin": 6292,
      "▁daɗe": 6293,
      "▁kisa": 6294,
      "&gt;\n": 6295,
      "▁Kare": 6296,
      "▁jawa": 6297,
      "▁Barcelona": 6298,
      "▁marubucin": 6299,
      "z,": 6300,
      "▁J.": 6301,
      "▁2007,": 6302,
      "div": 6303,
      "▁Val": 6304,
      "▁Rashin": 6305,
      "▁Musulmi": 6306,
      "ex": 6307,
      "▁shugaba": 6308,
      "▁Mah": 6309,
      "▁shigo": 6310,
      "▁gaba,": 6311,
      "bus": 6312,
      ".&lt;ref&gt;&lt;/ref&gt;&lt;ref&gt;&lt;/ref&gt;\n": 6313,
      "▁fafata": 6314,
      "▁gajeren": 6315,
      "▁kotu": 6316,
      "▁&quot;L": 6317,
      "barin": 6318,
      "▁par": 6319,
      "▁sanarwa": 6320,
      "▁ƙirƙirar": 6321,
      "▁Michael": 6322,
      "▁Jerin": 6323,
      "space": 6324,
      "-T": 6325,
      "▁hid": 6326,
      "▁Royal": 6327,
      "▁Chel": 6328,
      ";&quot;&gt;": 6329,
      "▁Oba": 6330,
      "▁Sarauniya": 6331,
      "▁Sene": 6332,
      ".&lt;ref&gt;&lt;/ref&gt;&lt;ref&gt;&lt;/ref&gt;": 6333,
      "▁al'ummomin": 6334,
      "▁ƙwararren": 6335,
      "yun": 6336,
      "kawa": 6337,
      "reet": 6338,
      "▁tallafi": 6339,
      "'o'i": 6340,
      ".&lt;/ref&gt;&lt;ref&gt;": 6341,
      "▁rahoto": 6342,
      "article": 6343,
      "▁Firayim": 6344,
      "tir": 6345,
      "▁dif": 6346,
      "▁Jami": 6347,
      "dep": 6348,
      "sman": 6349,
      "▁Kan": 6350,
      "▁Den": 6351,
      "▁FI": 6352,
      "▁farin": 6353,
      "▁karfi": 6354,
      "▁ƙarfafa": 6355,
      "▁Manu": 6356,
      "2023": 6357,
      "▁St.": 6358,
      "▁Ahmad": 6359,
      "▁karɓi": 6360,
      "Ar": 6361,
      "led": 6362,
      "▁Nij": 6363,
      "▁sabis": 6364,
      "▁Asiya": 6365,
      "▁janye": 6366,
      "▁lissafi": 6367,
      "▁Democratic": 6368,
      "34": 6369,
      "FF": 6370,
      "▁ch": 6371,
      "▁Air": 6372,
      "&lt;nowiki&gt;": 6373,
      "▁hanci": 6374,
      "shinan": 6375,
      "▁Jose": 6376,
      "▁haihuwa": 6377,
      "7)": 6378,
      "net": 6379,
      "stan": 6380,
      "▁Kor": 6381,
      "▁Tri": 6382,
      "▁Daular": 6383,
      "ters": 6384,
      "▁magani": 6385,
      "▁jagoranta": 6386,
      "table": 6387,
      "lian": 6388,
      "kuma": 6389,
      "▁asibitin": 6390,
      "'uwan": 6391,
      "ls": 6392,
      "lci": 6393,
      "▁salon": 6394,
      "▁yanzu,": 6395,
      "tanni": 6396,
      "igar": 6397,
      "▁Ver": 6398,
      "▁yarin": 6399,
      "▁membobin": 6400,
      "▁Scot": 6401,
      "▁jam’iyyar": 6402,
      "▁maga": 6403,
      "▁Ala": 6404,
      "▁gare": 6405,
      "▁dokoki": 6406,
      "▁tunani": 6407,
      "36": 6408,
      "diyya": 6409,
      "▁Glo": 6410,
      "▁karanta": 6411,
      "▁bangar": 6412,
      "▁gine-gine": 6413,
      "▁rabin": 6414,
      "▁Mor": 6415,
      "▁gane": 6416,
      "▁fas": 6417,
      "line-": 6418,
      "▁2008,": 6419,
      "▁Larabci": 6420,
      "▁Tsohon": 6421,
      "▁Yahudawa": 6422,
      ",\"": 6423,
      "kaci": 6424,
      "▁Mur": 6425,
      "ife": 6426,
      "▁Musulmai": 6427,
      "\t\t\t\t\t\t\t\t": 6428,
      "▁bukaci": 6429,
      "▁fina-finan": 6430,
      "▁sha'awa": 6431,
      "▁sashen": 6432,
      "karar": 6433,
      "te,": 6434,
      "▁labari": 6435,
      "▁that": 6436,
      "▁rika": 6437,
      "▁shafa": 6438,
      "▁mata,": 6439,
      "itocin": 6440,
      "▁gaza": 6441,
      "▁Kun": 6442,
      "▁Journal": 6443,
      "field": 6444,
      "edom": 6445,
      "▁shaharar": 6446,
      "▁Musa": 6447,
      "px|": 6448,
      "▁Alhaji": 6449,
      "▁Nijar": 6450,
      "-ma": 6451,
      "▁Fin": 6452,
      "▁&quot;D": 6453,
      "2022": 6454,
      "▁Phili": 6455,
      "▁Swed": 6456,
      "▁korona": 6457,
      "rence": 6458,
      "▁Society": 6459,
      "▁American": 6460,
      "cus": 6461,
      "gs": 6462,
      "kta": 6463,
      "▁af": 6464,
      "tain": 6465,
      "▁Az": 6466,
      "▁aiki,": 6467,
      "▁kayayyaki": 6468,
      "▁Aikin": 6469,
      "▁Res": 6470,
      "▁matakai": 6471,
      "de,": 6472,
      "fofi": 6473,
      "▁then": 6474,
      "▁Tarayya": 6475,
      "▁Peter": 6476,
      "dia": 6477,
      "ip": 6478,
      "▁Ash": 6479,
      "tho": 6480,
      "▁doi:": 6481,
      "erson": 6482,
      "eration": 6483,
      "▁haɗari": 6484,
      "bb": 6485,
      "his": 6486,
      "lish": 6487,
      "▁/&gt;&lt;ref": 6488,
      "▁birane": 6489,
      "▁1970": 6490,
      "▁Tu": 6491,
      "ump": 6492,
      "▁Saud": 6493,
      "▁style=&quot;w": 6494,
      "▁makarantu": 6495,
      "verpool": 6496,
      "▁umarni": 6497,
      "▁ta,": 6498,
      "▁hira": 6499,
      "▁kamu": 6500,
      "▁mataima": 6501,
      "D;": 6502,
      "▁Injin": 6503,
      "▁tantance": 6504,
      "tha": 6505,
      "▁Stan": 6506,
      "▁fashe": 6507,
      "tse": 6508,
      "▁taro": 6509,
      "55": 6510,
      "79": 6511,
      "US": 6512,
      "s\n": 6513,
      "▁Ama": 6514,
      "▁Ig": 6515,
      "idu": 6516,
      "fic": 6517,
      "▁&quot;T": 6518,
      "man,": 6519,
      "▁ ": 6520,
      "err": 6521,
      "▁mutumin": 6522,
      "▁Richard": 6523,
      "pro": 6524,
      "tus": 6525,
      "▁M.": 6526,
      "▁raga": 6527,
      "bout": 6528,
      "▁likita": 6529,
      "▁Franci": 6530,
      "3)": 6531,
      "t=": 6532,
      "ال": 6533,
      "▁dalibai": 6534,
      "▁ma'ana": 6535,
      "▁Cl": 6536,
      "▁Qa": 6537,
      "▁'ya'ya": 6538,
      "▁annobar": 6539,
      "44": 6540,
      "▁bautar": 6541,
      "▁Hon": 6542,
      "▁Human": 6543,
      "▁&quot;ma": 6544,
      "▁harin": 6545,
      "▁harkar": 6546,
      "▁dabarun": 6547,
      "8)": 6548,
      "▁tur": 6549,
      "utun": 6550,
      "warsa": 6551,
      "▁Mac": 6552,
      "▁Malay": 6553,
      "▁Wo": 6554,
      "▁fatan": 6555,
      "▁Robert": 6556,
      "▁sarki": 6557,
      "virus": 6558,
      "-L": 6559,
      "-k": 6560,
      "ria": 6561,
      "▁Ange": 6562,
      "print": 6563,
      "IN": 6564,
      "esti": 6565,
      "▁&lt;ref&gt;&quot;": 6566,
      "momi": 6567,
      "n,": 6568,
      "pha": 6569,
      "▁hare-": 6570,
      "uruwan": 6571,
      "▁kaluba": 6572,
      "▁Minista": 6573,
      "▁Larabawa": 6574,
      "▁Tattalin": 6575,
      "21": 6576,
      "AC": 6577,
      "Template": 6578,
      "▁duniyar": 6579,
      "cika": 6580,
      "▁Pri": 6581,
      "▁ma'anar": 6582,
      "▁Turk": 6583,
      "▁tsaunuka": 6584,
      "▁Cong": 6585,
      "▁2018.": 6586,
      "▁jama'a,": 6587,
      "AF": 6588,
      "▁malami": 6589,
      "▁gaya": 6590,
      "▁Kato": 6591,
      "ograph": 6592,
      "']": 6593,
      "7/": 6594,
      "[https://": 6595,
      "hen": 6596,
      "ny": 6597,
      "▁California": 6598,
      "▁Ingilishi": 6599,
      "ars": 6600,
      "▁Niger": 6601,
      "▁191": 6602,
      "▁Wal": 6603,
      "▁akai": 6604,
      "witter": 6605,
      "limate": 6606,
      "cs": 6607,
      "lace": 6608,
      "▁niyyar": 6609,
      "▁Wil": 6610,
      "▁nan,": 6611,
      "▁komai": 6612,
      "▁data-ve-ignore=&quot;&quot;&gt;[": 6613,
      "▁yiwuwa": 6614,
      "-the": 6615,
      "B;": 6616,
      "au": 6617,
      "gro": 6618,
      "index": 6619,
      "▁fo": 6620,
      "▁ƙidid": 6621,
      "uko": 6622,
      "▁Mal": 6623,
      "▁Tsaro": 6624,
      "▁manufar": 6625,
      "▁Times": 6626,
      "▁zura": 6627,
      "▁Du": 6628,
      "▁(1": 6629,
      "▁&quot;G": 6630,
      "}}&lt;/ref&gt;\n": 6631,
      "▁0.": 6632,
      "unda": 6633,
      "ur'": 6634,
      "▁Coast": 6635,
      "▁kwanan": 6636,
      "▁labaran": 6637,
      "-201": 6638,
      "__": 6639,
      "gent": 6640,
      "ghan": 6641,
      "▁layi": 6642,
      "▁hanyoyi": 6643,
      "▁karbi": 6644,
      "▁Sali": 6645,
      "▁gwagwarmayar": 6646,
      "▁martani": 6647,
      "Wa": 6648,
      "▁he": 6649,
      "▁kaddamar": 6650,
      "▁Ger": 6651,
      "▁muhimmanci": 6652,
      "▁matsayinsa": 6653,
      "▁karon": 6654,
      "▁rikici": 6655,
      "▁Group": 6656,
      "d.": 6657,
      "▁fam": 6658,
      "▁sayen": 6659,
      "▁iyalin": 6660,
      "▁Tunis": 6661,
      "▁dacewa": 6662,
      "▁ministan": 6663,
      "▁ac": 6664,
      "hel": 6665,
      "-12": 6666,
      "▁Portuga": 6667,
      "▁Dani": 6668,
      "imok": 6669,
      "▁Afrika": 6670,
      "▁rikicin": 6671,
      "▁mahaifinsa": 6672,
      "▁Ath": 6673,
      "▁karfin": 6674,
      "▁Dutsen": 6675,
      ".php": 6676,
      "▁ne\n": 6677,
      "▁Gundumar": 6678,
      "▁jayayya": 6679,
      "▁muhimmiyar": 6680,
      "''": 6681,
      "col": 6682,
      "▁asusun": 6683,
      "▁Sim": 6684,
      "▁Bea": 6685,
      "▁fili": 6686,
      "-03": 6687,
      "▁Liverpool": 6688,
      "ans": 6689,
      "▁wuya": 6690,
      "▁Alexand": 6691,
      "-re": 6692,
      "TA": 6693,
      "▁shiri": 6694,
      "▁Sy": 6695,
      "▁Star": 6696,
      "▁duniya\n": 6697,
      "▁2019.": 6698,
      "▁misali": 6699,
      "▁yunkurin": 6700,
      "mara": 6701,
      "r.": 6702,
      "▁ayyana": 6703,
      "▁Gwamnan": 6704,
      "▁iyakar": 6705,
      "▁raguwar": 6706,
      "▁name=&quot;auto": 6707,
      "▁zan": 6708,
      "▁jour": 6709,
      "▁ƙungiyoyi": 6710,
      "▁(O": 6711,
      "IC": 6712,
      "dad": 6713,
      "▁gasa": 6714,
      "▁Ele": 6715,
      "▁187": 6716,
      "get": 6717,
      "zza": 6718,
      "▁Suna": 6719,
      "▁Gand": 6720,
      "tter": 6721,
      "▁Maris,": 6722,
      "▁wariyar": 6723,
      "▁sarauta": 6724,
      "-9": 6725,
      "vard": 6726,
      "▁muke": 6727,
      "▁ƙari,": 6728,
      "▁muna": 6729,
      "▁rubuce-rubu": 6730,
      "enti": 6731,
      "▁Tam": 6732,
      "▁farar": 6733,
      "▁2006,": 6734,
      "vern": 6735,
      "▁Mex": 6736,
      "▁ƙoƙari": 6737,
      "▁Ukraine": 6738,
      "ele": 6739,
      "ushe": 6740,
      "▁asarar": 6741,
      "▁Isa": 6742,
      "▁bayanin": 6743,
      "▁2001": 6744,
      "ull": 6745,
      "▁lokaci,": 6746,
      "▁hasken": 6747,
      "del": 6748,
      "sy": 6749,
      "ors": 6750,
      "▁Islama": 6751,
      "▁inganci": 6752,
      "2024": 6753,
      "▁sabunta": 6754,
      "▁Time": 6755,
      "▁Mohammed": 6756,
      "▁Moro": 6757,
      "▁koya": 6758,
      "mandan": 6759,
      "▁bindiga": 6760,
      "▁nau'i": 6761,
      "▁ɗaliban": 6762,
      "▁data-ve-ignore=&quot;true&quot;&gt;[": 6763,
      "via": 6764,
      "▁bur": 6765,
      "▁Associa": 6766,
      "▁mujallar": 6767,
      "▁hukumance": 6768,
      "▁matarsa": 6769,
      "▁County": 6770,
      "cord": 6771,
      "idi": 6772,
      "▁Ang": 6773,
      "▁binne": 6774,
      "do,": 6775,
      "tsu": 6776,
      "▁waƙa": 6777,
      "▁sauka": 6778,
      "▁Al'a": 6779,
      "-bayan": 6780,
      "▁Turanci": 6781,
      "daga": 6782,
      "▁yaƙin": 6783,
      "▁kus": 6784,
      "▁yanayi,": 6785,
      "▁ma'aikatar": 6786,
      "▁kwakwal": 6787,
      "ting": 6788,
      "anne": 6789,
      "▁gin": 6790,
      "▁Win": 6791,
      "je-": 6792,
      "▁kamfen": 6793,
      "e-tsar": 6794,
      "▁samaniya": 6795,
      "world": 6796,
      "▁mahimman": 6797,
      "▁Bio": 6798,
      "ism": 6799,
      "▁Hak": 6800,
      "▁fice": 6801,
      "▁|url=https://www.": 6802,
      "▁Taron": 6803,
      "hite-": 6804,
      "▁2012.": 6805,
      "▁cinikin": 6806,
      "&amp;nbsp;\n": 6807,
      "▁rubutu": 6808,
      "&lt;/span&gt;.&lt;/cite&gt;&lt;/ref&gt;\n": 6809,
      "▁yarjejeniya": 6810,
      "▁kaya": 6811,
      "▁muha": 6812,
      "dones": 6813,
      "▁Guine": 6814,
      "▁Med": 6815,
      "▁2021.": 6816,
      "▁tsanani": 6817,
      "▁samfurin": 6818,
      "'un": 6819,
      "2/": 6820,
      "HO": 6821,
      "▁sace": 6822,
      "▁Hal": 6823,
      "▁Ruwa": 6824,
      "▁Pr": 6825,
      "faf": 6826,
      "angan": 6827,
      "-05": 6828,
      "▁Shekara": 6829,
      "▁Nuwamba,": 6830,
      "▁alamun": 6831,
      "▁waƙoƙin": 6832,
      "▁Dangane": 6833,
      "ju": 6834,
      "▁gashin": 6835,
      "▁Gam": 6836,
      "tel": 6837,
      "ɗaɗ": 6838,
      "▁Soma": 6839,
      "▁jagorantar": 6840,
      "▁House": 6841,
      "▁hotunan": 6842,
      "%D9%": 6843,
      "▁Nijeriya": 6844,
      "ni,": 6845,
      "ukin": 6846,
      "▁2017.": 6847,
      "▁name=&quot;M": 6848,
      "▁gabaɗaya": 6849,
      "▁2025": 6850,
      "▁Arz": 6851,
      "EN": 6852,
      "ix": 6853,
      "mm": 6854,
      "put": 6855,
      "▁kungiya": 6856,
      "▁hawa": 6857,
      "uk/": 6858,
      "santa": 6859,
      "▁sansanin": 6860,
      "poli": 6861,
      "▁girmama": 6862,
      "▁barazanar": 6863,
      "Sa": 6864,
      "fr": 6865,
      "gwa": 6866,
      "▁Ur": 6867,
      "▁ɗaya,": 6868,
      "▁Dokokin": 6869,
      ".ng": 6870,
      ".net": 6871,
      "▁malaman": 6872,
      "▁not": 6873,
      "goya": 6874,
      "-01": 6875,
      "▁Republi": 6876,
      "bri": 6877,
      "▁|language=en": 6878,
      "▁data-ve-ignore=&quot;true&quot;": 6879,
      "▁Hill": 6880,
      "▁Rights": 6881,
      "▁Saint": 6882,
      "ject": 6883,
      "▁tsira": 6884,
      "space:": 6885,
      "▁diflo": 6886,
      "hite": 6887,
      "vin": 6888,
      "▁Ƙar": 6889,
      "▁Afrilu,": 6890,
      "▁kirkiro": 6891,
      "▁minti": 6892,
      "▁Chelsea": 6893,
      "hite-space:": 6894,
      "ku,": 6895,
      "▁Law": 6896,
      "▁bugawa": 6897,
      "▁shirye-shirye": 6898,
      "ée": 6899,
      "▁ham": 6900,
      "le-": 6901,
      "▁Lin": 6902,
      "▁Il": 6903,
      "▁Wanda": 6904,
      "-5": 6905,
      "46": 6906,
      "zari": 6907,
      "▁uwa": 6908,
      "▁Fe": 6909,
      "▁lok": 6910,
      "tsina": 6911,
      "▁kyakkya": 6912,
      "-11": 6913,
      "-Fa": 6914,
      "bamban": 6915,
      "hiri": 6916,
      "ier": 6917,
      "▁dakin": 6918,
      "▁Sho": 6919,
      "cebook": 6920,
      "▁daraja": 6921,
      "▁mambobin": 6922,
      "95": 6923,
      "ise": 6924,
      "▁Yara": 6925,
      "▁Sama": 6926,
      "▁2022.": 6927,
      "▁class=&quot;no": 6928,
      "▁ɓangaren": 6929,
      "▁Kirista": 6930,
      "▁ISBN": 6931,
      "▁doi:10.": 6932,
      "▁Congress": 6933,
      "-o": 6934,
      "83": 6935,
      "▁Er": 6936,
      "www": 6937,
      "▁US": 6938,
      "▁girmamawa": 6939,
      "▁Satumba,": 6940,
      "▁Mahaifin": 6941,
      "▁Littafin": 6942,
      "rew": 6943,
      "&lt;/link": 6944,
      "▁ƙungiya": 6945,
      "▁Film": 6946,
      "▁Ol": 6947,
      "▁iƙ": 6948,
      "olar": 6949,
      "▁goyi": 6950,
      "▁jam'iy": 6951,
      "oronavirus": 6952,
      "zabeth": 6953,
      "▁class=&quot;noprint": 6954,
      "gan": 6955,
      "press": 6956,
      "tent": 6957,
      "▁&quot;H": 6958,
      "▁karfafa": 6959,
      "offin": 6960,
      "▁jiha": 6961,
      "▁janyo": 6962,
      "ce-riki": 6963,
      "▁Gidauniyar": 6964,
      "work": 6965,
      "emi": 6966,
      "▁Oktoba,": 6967,
      "▁Scotland": 6968,
      "win": 6969,
      "▁Academ": 6970,
      "ons": 6971,
      "ana,": 6972,
      "ko,": 6973,
      "▁Dakta": 6974,
      "▁bincika": 6975,
      "▁186": 6976,
      "laim": 6977,
      "▁kai,": 6978,
      "▁sayi": 6979,
      "▁jiya": 6980,
      "▁Disamba,": 6981,
      "▁rikice-riki": 6982,
      "▁Ak": 6983,
      "iri,": 6984,
      "▁Inline-": 6985,
      "▁Ray": 6986,
      "▁ingancin": 6987,
      "▁Super": 6988,
      "hite-space:nowrap": 6989,
      "▁Inline-Template": 6990,
      "bic": 6991,
      "▁http": 6992,
      "sty": 6993,
      "▁kunshi": 6994,
      "▁filayen": 6995,
      "▁Thomas": 6996,
      "▁journal": 6997,
      "cts": 6998,
      "▁da'a": 6999,
      "nam": 7000,
      "▁cike": 7001,
      "▁d'": 7002,
      "▁(&quot;": 7003,
      "▁baya-bayan": 7004,
      "▁Mayu,": 7005,
      "▁'Yancin": 7006,
      "ikar": 7007,
      "▁hun": 7008,
      "▁Mana": 7009,
      "▁Mil": 7010,
      "▁fararen": 7011,
      "▁ɗayan": 7012,
      "-08": 7013,
      "▁Yuli,": 7014,
      "▁gizon": 7015,
      "-D": 7016,
      "cer": 7017,
      "▁sta": 7018,
      "▁saurin": 7019,
      "▁Lim": 7020,
      "▁Pan": 7021,
      "▁&quot;F": 7022,
      "▁&quot;K": 7023,
      "▁fadar": 7024,
      "▁tuntu": 7025,
      "▁sauransu": 7026,
      "▁lauya": 7027,
      "▁kware": 7028,
      "▁fann": 7029,
      "▁Camp": 7030,
      "▁zakarun": 7031,
      "layyar": 7032,
      "▁cututtuka": 7033,
      "▁unguwar": 7034,
      "cul": 7035,
      "taf": 7036,
      "suf": 7037,
      "▁hasa": 7038,
      "▁1998": 7039,
      "▁motar": 7040,
      "▁daidaito": 7041,
      "▁bunkasa": 7042,
      "▁Saudiyya": 7043,
      "▁iƙirarin": 7044,
      "/201": 7045,
      "76": 7046,
      "▁App": 7047,
      "▁Yuni,": 7048,
      "▁shugabancin": 7049,
      "▁Street": 7050,
      "▁yaba": 7051,
      "▁kaɗa": 7052,
      "▁right": 7053,
      "▁Ira": 7054,
      "▁ɗari": 7055,
      "▁Waɗ": 7056,
      "▁gudu": 7057,
      "▁kamfani": 7058,
      "▁1960": 7059,
      "otuna": 7060,
      "▁kallo": 7061,
      "useum": 7062,
      "▁fitattun": 7063,
      "ttar": 7064,
      "well": 7065,
      "&gt;&lt;/nowiki&gt;": 7066,
      "▁baƙi": 7067,
      "▁kaɗan": 7068,
      "▁High": 7069,
      "imbab": 7070,
      "▁1994": 7071,
      "?id=": 7072,
      "▁ware": 7073,
      "or,": 7074,
      "lywood": 7075,
      "▁sosai,": 7076,
      "▁darajar": 7077,
      "▁wakilai": 7078,
      "wana": 7079,
      "▁musa": 7080,
      "velop": 7081,
      "▁manha": 7082,
      "▁Abubuwan": 7083,
      "▁Yanayi": 7084,
      "▁marubuci": 7085,
      "▁Katolika": 7086,
      "▁(E": 7087,
      "-07": 7088,
      "uhu": 7089,
      "▁Common": 7090,
      "▁style=&quot;white-space:nowrap": 7091,
      "▁Turkiyya": 7092,
      "▁huntur": 7093,
      "▁aba": 7094,
      "▁zuba": 7095,
      "▁Template": 7096,
      "▁Twitter": 7097,
      "iction": 7098,
      "▁3,": 7099,
      "▁name=&quot;:0&quot;&gt;&lt;/ref&gt;": 7100,
      "able": 7101,
      "▁Bincike": 7102,
      "D;&lt;/sup&gt;": 7103,
      "PP": 7104,
      "Yan": 7105,
      "gn": 7106,
      "▁suf": 7107,
      "▁adalci": 7108,
      "▁Gwamnati": 7109,
      ";&quot;&gt;&amp;#x5": 7110,
      "▁Maga": 7111,
      "▁kore": 7112,
      "▁iyakan": 7113,
      "▁makamai": 7114,
      "▁kurk": 7115,
      "ky": 7116,
      "▁kakan": 7117,
      "▁Sani": 7118,
      "▁gwam": 7119,
      "▁Pra": 7120,
      "▁&quot;N": 7121,
      "▁karancin": 7122,
      "desh": 7123,
      "&amp;amp;": 7124,
      "▁Islam": 7125,
      "▁Elizabeth": 7126,
      "mal": 7127,
      "▁bil": 7128,
      "▁2010.": 7129,
      "▁madadin": 7130,
      "fa,": 7131,
      "▁karbar": 7132,
      "▁Indones": 7133,
      "▁Janairu,": 7134,
      "▁gudummawar": 7135,
      "▁ajiye": 7136,
      "▁sanannen": 7137,
      "3%": 7138,
      "▁Bang": 7139,
      "▁(K": 7140,
      "▁name=&quot;P": 7141,
      "-06": 7142,
      "les/": 7143,
      "▁haɗarin": 7144,
      "▁tsere": 7145,
      "▁rediyo": 7146,
      "▁Koriya": 7147,
      "▁lokutan": 7148,
      "-to": 7149,
      "OR": 7150,
      "ɓɓ": 7151,
      "▁ce:": 7152,
      "▁Ire": 7153,
      "▁www": 7154,
      "▁2005,": 7155,
      "▁kasafin": 7156,
      "▁'yanci": 7157,
      "ital": 7158,
      "▁bankin": 7159,
      "▁sakatar": 7160,
      "▁haraji": 7161,
      "vision": 7162,
      "▁Hakanan": 7163,
      "▁Spain": 7164,
      "▁Joseph": 7165,
      "tle": 7166,
      "▁aji": 7167,
      "▁mika": 7168,
      "▁2015.": 7169,
      "▁fagen": 7170,
      "tsun": 7171,
      "▁1996": 7172,
      "▁Louis": 7173,
      "▁Poli": 7174,
      "49": 7175,
      "▁name=&quot;G": 7176,
      "▁Chic": 7177,
      "-09": 7178,
      "tical": 7179,
      "▁kulawa": 7180,
      "▁Senegal": 7181,
      "bit": 7182,
      "small": 7183,
      "▁BC": 7184,
      "fe-wa": 7185,
      "▁wakilin": 7186,
      "▁fahimci": 7187,
      "-gin": 7188,
      "ep": 7189,
      "vil": 7190,
      "▁2014.": 7191,
      "▁Babu": 7192,
      "google": 7193,
      "▁siyasa,": 7194,
      "ct&quot;": 7195,
      "▁Faransanci": 7196,
      "fe-walla": 7197,
      "karu": 7198,
      "teg": 7199,
      "▁978": 7200,
      "yana": 7201,
      "▁fari": 7202,
      "ofar": 7203,
      "▁Katsina": 7204,
      "▁data-ve-ignore=&quot;&quot;": 7205,
      "▁ajiyar": 7206,
      "cyclo": 7207,
      "▁un": 7208,
      "▁Kara": 7209,
      "▁iyaye": 7210,
      "▁Usman": 7211,
      "▁siyasan": 7212,
      "&lt;/span&gt;&lt;/nowiki&gt;": 7213,
      "▁Agusta,": 7214,
      "▁Portugal": 7215,
      "ds": 7216,
      "ftin": 7217,
      "ardian": 7218,
      "▁kwar": 7219,
      "▁bug": 7220,
      "▁ti": 7221,
      "rip": 7222,
      "▁harsunan": 7223,
      "▁soyayya": 7224,
      "▁ɗan'uwan": 7225,
      "▁Darakta": 7226,
      "▁Cambridge": 7227,
      "LA": 7228,
      "MA": 7229,
      "yuka": 7230,
      "ɓe": 7231,
      "ɓar": 7232,
      "inar": 7233,
      "▁Smith": 7234,
      "▁halayyar": 7235,
      "ukun": 7236,
      "▁ƙasa.": 7237,
      "&lt;/link&gt;": 7238,
      "DA": 7239,
      "▁ƙabil": 7240,
      "▁karu": 7241,
      "▁mutuwa": 7242,
      "tion,": 7243,
      "code": 7244,
      "▁Book": 7245,
      "▁lafiya,": 7246,
      "▁mijinta": 7247,
      "lie": 7248,
      "▁Fer": 7249,
      "▁name=&quot;W": 7250,
      "ages": 7251,
      "media": 7252,
      "▁halartar": 7253,
      "▁kayayyakin": 7254,
      "wa.\n": 7255,
      "▁rani": 7256,
      "▁2013.": 7257,
      "▁sandan": 7258,
      "▁1997": 7259,
      "▁Que": 7260,
      "tirag": 7261,
      "▁style=&quot;white-space:nowrap;&quot;&gt;&amp;#x5": 7262,
      "37": 7263,
      "gilar": 7264,
      "▁num": 7265,
      "▁TV": 7266,
      "▁History": 7267,
      "▁188": 7268,
      "’aika": 7269,
      "turn": 7270,
      "▁wallafe-walla": 7271,
      "▁Annabi": 7272,
      "estival": 7273,
      "▁akai-a": 7274,
      "32": 7275,
      "ac": 7276,
      "▁Abba": 7277,
      "▁basa": 7278,
      "▁Cup": 7279,
      "iss": 7280,
      "▁Ear": 7281,
      "▁tsare-tsar": 7282,
      "▁2020.": 7283,
      "▁gwaji": 7284,
      "▁ikirarin": 7285,
      "▁cocin": 7286,
      "▁mummunan": 7287,
      "_S": 7288,
      "irga": 7289,
      "▁Sul": 7290,
      "▁Yanayin": 7291,
      "▁gaske": 7292,
      "▁sadaukar": 7293,
      "▁tafkin": 7294,
      "5%": 7295,
      "RC": 7296,
      "hun": 7297,
      "▁Mel": 7298,
      "▁ciki,": 7299,
      "witz": 7300,
      "▁ƙanƙara": 7301,
      "cciyar": 7302,
      "▁titin": 7303,
      "en/": 7304,
      "▁kaka": 7305,
      "▁shekarar,": 7306,
      "▁farko.": 7307,
      "▁ka'ida": 7308,
      "▁zuciya": 7309,
      "▁Press,": 7310,
      "▁ziyarci": 7311,
      "▁magoya": 7312,
      "▁fya": 7313,
      "▁Sto": 7314,
      "lity": 7315,
      "▁rarra": 7316,
      "▁Ranar": 7317,
      "▁tsayi": 7318,
      ".&lt;ref&gt;https://": 7319,
      "-02": 7320,
      "references": 7321,
      "▁ambaliyar": 7322,
      "▁littattafai": 7323,
      "ere": 7324,
      "yr": 7325,
      "▁2016.": 7326,
      "▁source": 7327,
      "▁1992": 7328,
      "...": 7329,
      "▁Kwami": 7330,
      "▁ƙwararrun": 7331,
      "▁jimlar": 7332,
      "▁murabus": 7333,
      "3/": 7334,
      "▁masarautar": 7335,
      "ono": 7336,
      "iku": 7337,
      "lo,": 7338,
      "▁kwayar": 7339,
      "search": 7340,
      "rench": 7341,
      "▁Freedom": 7342,
      "▁gizo": 7343,
      "▁Aba": 7344,
      "▁(W": 7345,
      "▁&quot;E": 7346,
      "ement": 7347,
      "▁Art": 7348,
      "▁tsun": 7349,
      ".&lt;ref&gt;https://www.": 7350,
      "▁kujerar": 7351,
      "-ginen": 7352,
      "jiyar": 7353,
      "ving": 7354,
      "▁Abo": 7355,
      "wane": 7356,
      "▁&quot;W": 7357,
      "danci": 7358,
      "▁Patri": 7359,
      "ce-bamban": 7360,
      ".edu/": 7361,
      "38": 7362,
      "NA": 7363,
      "di,": 7364,
      "▁Mun": 7365,
      "▁(ma": 7366,
      "▁(ka": 7367,
      "▁kankara": 7368,
      "▁Edu": 7369,
      "▁Afirka.": 7370,
      "▁daidait": 7371,
      "▁dalilai": 7372,
      "▁Fabrairu,": 7373,
      "▁Science": 7374,
      "74": 7375,
      "ap": 7376,
      "hr": 7377,
      "▁duwa": 7378,
      "▁po": 7379,
      "▁3.": 7380,
      "▁Argent": 7381,
      "▁kwantirag": 7382,
      "▁kwangilar": 7383,
      "▁jam'iyya": 7384,
      "▁daban-daban,": 7385,
      "-n": 7386,
      "▁Muni": 7387,
      "▁ƙi": 7388,
      "▁Cre": 7389,
      "▁Yari": 7390,
      "&lt;ref&gt;&quot;": 7391,
      "▁kwashe": 7392,
      "▁Latin": 7393,
      "▁name=&quot;:4": 7394,
      "▁aro": 7395,
      "▁Los": 7396,
      "▁Satumbar": 7397,
      "▁zurfi": 7398,
      "_C": 7399,
      "▁蓷": 7400,
      "▁Met": 7401,
      "orth": 7402,
      "▁su\n": 7403,
      "▁(Ma": 7404,
      "ester": 7405,
      "▁reli": 7406,
      "▁ma'adin": 7407,
      "ye-sau": 7408,
      "▁ƴar": 7409,
      "▁izini": 7410,
      "FL": 7411,
      "▁u": 7412,
      "▁kwarin": 7413,
      "▁takama": 7414,
      "▁nesa": 7415,
      "▁Jagor": 7416,
      "▁Rom": 7417,
      "aria": 7418,
      "▁Em": 7419,
      "▁Eur": 7420,
      "▁karkara": 7421,
      "▁karamin": 7422,
      "▁Duniya,": 7423,
      "itish": 7424,
      "▁dangantakar": 7425,
      "Ro": 7426,
      "▁ال": 7427,
      "▁daular": 7428,
      "▁(2": 7429,
      "▁Net": 7430,
      "▁wasansa": 7431,
      "anema": 7432,
      "irai": 7433,
      "▁Zimbab": 7434,
      "▁sharar": 7435,
      "▁Tsibirin": 7436,
      "ution": 7437,
      "-04": 7438,
      "▁talauci": 7439,
      "-gwa": 7440,
      "▁Atlan": 7441,
      "▁Ɗaya": 7442,
      "▁Arziki": 7443,
      "-Fact&quot;": 7444,
      "▁Template-Fact&quot;": 7445,
      "▁sul": 7446,
      "▁10,": 7447,
      "▁(H": 7448,
      "▁Mayun": 7449,
      "cke": 7450,
      "▁op": 7451,
      "arke": 7452,
      "▁takun": 7453,
      "▁Sakatar": 7454,
      "▁ƙarfe": 7455,
      "▁haske": 7456,
      ")&quot;&gt;": 7457,
      "s&quot;": 7458,
      "tre": 7459,
      "lid": 7460,
      "lim": 7461,
      "orp": 7462,
      "▁nisa": 7463,
      "▁Des": 7464,
      "▁kocin": 7465,
      "▁ra'ayoyin": 7466,
      "▁Grand": 7467,
      "bor": 7468,
      "ink": 7469,
      "na,": 7470,
      "▁Mid": 7471,
      "&lt;/b": 7472,
      "ity,": 7473,
      "row": 7474,
      "▁Facebook": 7475,
      "▁nauyi": 7476,
      "car": 7477,
      "ore": 7478,
      "▁bata": 7479,
      "▁falsa": 7480,
      "back": 7481,
      "▁harsuna": 7482,
      "▁ciniki": 7483,
      "logical": 7484,
      "▁ka'idojin": 7485,
      "▁bala": 7486,
      "lea": 7487,
      "▁&quot;ba": 7488,
      "▁gwaje": 7489,
      "▁bambanci": 7490,
      "▁kiyasta": 7491,
      "▁masallacin": 7492,
      "▁College": 7493,
      "▁muhawara": 7494,
      "▁style=&quot;white-space:nowrap;&quot;&gt;&amp;#x5B;": 7495,
      "-N": 7496,
      "ive": 7497,
      "les,": 7498,
      "▁Hall": 7499,
      "▁tsoffin": 7500,
      "▁Harshen": 7501,
      "▁Kudu,": 7502,
      "▁mallaki": 7503,
      "'ida": 7504,
      "▁basu": 7505,
      "▁Bus": 7506,
      "▁Ib": 7507,
      "kina": 7508,
      "▁2004,": 7509,
      "▁jadda": 7510,
      "▁60": 7511,
      "1%": 7512,
      "▁el": 7513,
      "▁yo": 7514,
      "▁daɗin": 7515,
      "tia": 7516,
      "▁Ful": 7517,
      "▁ƙayya": 7518,
      "▁Afghan": 7519,
      "ts,": 7520,
      "▁jaka": 7521,
      "▁185": 7522,
      "▁takardun": 7523,
      "▁kwamf": 7524,
      "▁Faransa,": 7525,
      "▁gyaran": 7526,
      "ur'ani": 7527,
      "ges": 7528,
      "urt": 7529,
      "▁mil": 7530,
      "▁manema": 7531,
      "▁Dis": 7532,
      "▁kifi": 7533,
      "▁motsi": 7534,
      "▁daɗewa": 7535,
      "IV": 7536,
      "ici": 7537,
      "▁baƙar": 7538,
      "▁tsawa": 7539,
      "▁..": 7540,
      "▁imani": 7541,
      "▁Hanyar": 7542,
      "▁cututtukan": 7543,
      "ɗi,": 7544,
      "▁taur": 7545,
      "iya.": 7546,
      "▁Masa": 7547,
      "times": 7548,
      "▁Les": 7549,
      "to,": 7550,
      "▁2003,": 7551,
      "▁Kodayake": 7552,
      "▁sauƙi": 7553,
      "▁kwaikwayon": 7554,
      "▁dangi": 7555,
      "▁alaka": 7556,
      "▁tawaye": 7557,
      "▁Yanzu": 7558,
      "ISBN": 7559,
      "▁shawarwari": 7560,
      "▁rigakafin": 7561,
      "dam": 7562,
      "▁Cikin": 7563,
      "▁Masarautar": 7564,
      "▁Hel": 7565,
      "eter": 7566,
      "dindin": 7567,
      "▁Alli": 7568,
      "▁mawaƙa": 7569,
      "▁musulmi": 7570,
      "▁yaduwar": 7571,
      "▁agaji": 7572,
      "▁Waɗannan": 7573,
      "▁bugun": 7574,
      "-de": 7575,
      "MC": 7576,
      "ctic": 7577,
      "ux": 7578,
      "﻿a": 7579,
      "talla": 7580,
      "▁Mam": 7581,
      "▁yi\n": 7582,
      "▁1989": 7583,
      "▁Canjin": 7584,
      "▁rajista": 7585,
      "uje": 7586,
      "ville": 7587,
      "▁kora": 7588,
      "▁bashi": 7589,
      "▁Pla": 7590,
      "▁girgi": 7591,
      "▁Shehu": 7592,
      "▁buƙata": 7593,
      "▁Kamaru": 7594,
      "▁Adela": 7595,
      "darai": 7596,
      "▁Guinea": 7597,
      "DC": 7598,
      "This": 7599,
      "–19": 7600,
      "▁buk": 7601,
      "▁claim": 7602,
      "uri,": 7603,
      "▁fadi": 7604,
      "▁500": 7605,
      "▁more": 7606,
      "-H": 7607,
      "▁S.": 7608,
      "tary": 7609,
      "text": 7610,
      "▁Laha": 7611,
      "▁sauye-sau": 7612,
      "▁Jiha": 7613,
      "▁kullum": 7614,
      "▁gine-ginen": 7615,
      "▁Henry": 7616,
      "▁Afghanistan": 7617,
      "4/": 7618,
      "bbin": 7619,
      "▁bas": 7620,
      "▁dimok": 7621,
      "▁rasha": 7622,
      "ette": 7623,
      "▁al’": 7624,
      "▁Dali": 7625,
      "▁barazana": 7626,
      "1]\n": 7627,
      "▁My": 7628,
      "▁Tha": 7629,
      "ce.": 7630,
      "▁1991": 7631,
      "viron": 7632,
      "bir": 7633,
      "guna": 7634,
      "mit": 7635,
      "uw": 7636,
      "reen": 7637,
      "▁yaɗa": 7638,
      "udio": 7639,
      "than": 7640,
      "▁kasar\n": 7641,
      "▁reshen": 7642,
      "▁Cap": 7643,
      "viet": 7644,
      "▁kuri'a": 7645,
      "▁FIFA": 7646,
      "&amp;amp;quot;": 7647,
      "-ha": 7648,
      "Al": 7649,
      "VID": 7650,
      "uta,": 7651,
      "▁Mara": 7652,
      "▁gabar": 7653,
      "▁B.": 7654,
      "▁Prin": 7655,
      "▁&quot;I": 7656,
      "▁Maro": 7657,
      "▁Cocin": 7658,
      "▁Jama": 7659,
      "▁Yusuf": 7660,
      "zam": 7661,
      "▁Dig": 7662,
      "▁Ru": 7663,
      "▁Ibn": 7664,
      "tten": 7665,
      "▁haruf": 7666,
      "▁ilimi,": 7667,
      "nen": 7668,
      "quote": 7669,
      "▁Tin": 7670,
      "▁(wa": 7671,
      "▁Filin": 7672,
      "▁shafar": 7673,
      "▁Ango": 7674,
      "▁Al'": 7675,
      "anny": 7676,
      "▁ta'ad": 7677,
      "-sta": 7678,
      "77": 7679,
      "pre": 7680,
      "ple": 7681,
      "▁bita": 7682,
      "liyan": 7683,
      "aluba": 7684,
      "ine,": 7685,
      "▁dukan": 7686,
      "▁Alham": 7687,
      "▁al'amuran": 7688,
      "▁right|thumb|": 7689,
      "▁jaddada": 7690,
      "%2": 7691,
      "2&quot;&gt;&lt;/ref&gt;\n": 7692,
      "hy": 7693,
      "cific": 7694,
      "▁Gold": 7695,
      "ellow": 7696,
      "▁ambaci": 7697,
      "▁gefe": 7698,
      "▁www.": 7699,
      "▁gwaje-gwa": 7700,
      "sm": 7701,
      "▁ciya": 7702,
      "▁SA": 7703,
      "ukanta": 7704,
      "▁motoci": 7705,
      "wikipedia": 7706,
      "▁kudade": 7707,
      "je-can": 7708,
      "▁Argentina": 7709,
      "▁daki": 7710,
      "▁Neth": 7711,
      "shire": 7712,
      "▁Vo": 7713,
      "▁kasar,": 7714,
      "e-g": 7715,
      "vement": 7716,
      "▁tasowa": 7717,
      "▁Washington": 7718,
      "▁takamaiman": 7719,
      "▁nami": 7720,
      "shar": 7721,
      "▁zaɓa": 7722,
      "bio": 7723,
      "▁Rahoton": 7724,
      "cyclopedia": 7725,
      "NC": 7726,
      "▁tsu": 7727,
      "▁Domin": 7728,
      "▁Nan": 7729,
      "▁iba": 7730,
      "▁addu": 7731,
      "▁bukatun": 7732,
      "▁People": 7733,
      "▁tsafta": 7734,
      "-6": 7735,
      "La": 7736,
      "pal": 7737,
      "▁ado": 7738,
      "▁Tim": 7739,
      "▁zaba": 7740,
      "▁Jim": 7741,
      "▁karfe": 7742,
      "▁Sakamakon": 7743,
      "▁Martin": 7744,
      "▁2000,": 7745,
      "▁(PDF": 7746,
      "▁Champions": 7747,
      "▁kata": 7748,
      "▁mari": 7749,
      "▁Sau": 7750,
      "▁kwalejin": 7751,
      "▁soki": 7752,
      "tory": 7753,
      "▁Island": 7754,
      "▁Belgi": 7755,
      "▁raguwa": 7756,
      "▁da'awar": 7757,
      "-O": 7758,
      "96": 7759,
      "▁masara": 7760,
      "▁hed": 7761,
      "▁miya": 7762,
      "▁Bid": 7763,
      "▁wanke": 7764,
      "rish": 7765,
      "▁gark": 7766,
      "▁tsayawa": 7767,
      "▁Jaridar": 7768,
      "ON": 7769,
      "sch": 7770,
      "taba": 7771,
      "los": 7772,
      "▁ragu": 7773,
      "temp": 7774,
      "ia.": 7775,
      "▁35": 7776,
      ".org.": 7777,
      "▁haɗuwa": 7778,
      "▁kwantiragin": 7779,
      "▁Netherland": 7780,
      "'\n": 7781,
      "II": 7782,
      "Wiki": 7783,
      "sshen": 7784,
      "▁references": 7785,
      "▁Men": 7786,
      "▁(3": 7787,
      "▁shawo": 7788,
      "▁farawa": 7789,
      "▁cs1": 7790,
      "▁faɗaɗa": 7791,
      "▁magunguna": 7792,
      "FC": 7793,
      "olin": 7794,
      "▁Trans": 7795,
      "▁Soko": 7796,
      "▁ma'auni": 7797,
      "▁manufofi": 7798,
      ".[1]": 7799,
      "-K": 7800,
      ";\n": 7801,
      "▁matsin": 7802,
      "▁kadar": 7803,
      "▁karar": 7804,
      "▁Nas": 7805,
      "ult": 7806,
      "▁Hali": 7807,
      "pos": 7808,
      "▁River": 7809,
      "▁Frank": 7810,
      "sub&gt;": 7811,
      "'idodin": 7812,
      "▁’yan": 7813,
      "▁Sweden": 7814,
      "▁Ganduje": 7815,
      "AT": 7816,
      "tu,": 7817,
      "▁Cy": 7818,
      "oft": 7819,
      "▁gabata,": 7820,
      "▁iyalai": 7821,
      "▁yaran": 7822,
      "▁this": 7823,
      "▁Manyan": 7824,
      "▁Ilimin": 7825,
      "mission": 7826,
      "▁akai-akai": 7827,
      "play": 7828,
      "ƙon": 7829,
      "urr": 7830,
      "▁sauke": 7831,
      "▁His": 7832,
      "▁bushe": 7833,
      "ce-talla": 7834,
      "▁kuri'u": 7835,
      "▁harabar": 7836,
      "Jo": 7837,
      "▁st": 7838,
      "▁kwale": 7839,
      "▁ofis": 7840,
      "▁Institut": 7841,
      "▁Daily": 7842,
      "▁1993": 7843,
      "▁1995": 7844,
      "▁lambobin": 7845,
      "▁dindindin": 7846,
      "▁bambance-bamban": 7847,
      "▁Ɗan": 7848,
      "▁needs": 7849,
      "▁zinare": 7850,
      "▁gwamn": 7851,
      "ming": 7852,
      "▁Maza": 7853,
      "▁2011.": 7854,
      "▁matsayinta": 7855,
      "▁Sakandare": 7856,
      "▁jama'ar": 7857,
      "Le": 7858,
      "iew": 7859,
      "▁sig": 7860,
      "▁Mi": 7861,
      "▁name=&quot;T": 7862,
      "▁2008.": 7863,
      "▁mota": 7864,
      "▁No.": 7865,
      "▁Turai,": 7866,
      "▁Union": 7867,
      "▁title=&quot;This": 7868,
      "▁gyare-g": 7869,
      "▁Yarima": 7870,
      "oye": 7871,
      "▁tayar": 7872,
      "▁hotuna": 7873,
      "▁Sil": 7874,
      "▁Bi": 7875,
      "▁(ko": 7876,
      "▁per": 7877,
      "▁azabtar": 7878,
      "cci": 7879,
      "lus": 7880,
      "▁dafa": 7881,
      "▁akalla": 7882,
      "▁musanta": 7883,
      "year": 7884,
      "▁samarwa": 7885,
      "wiki/": 7886,
      "▁&lt;ref&gt;[http://www.": 7887,
      "https://web.archive.org/web/201": 7888,
      "qua": 7889,
      "▁C.": 7890,
      "▁French": 7891,
      "▁ratta": 7892,
      "▁sources.": 7893,
      "&quot;)": 7894,
      "▁Dok": 7895,
      "idth": 7896,
      "▁White": 7897,
      "top": 7898,
      "zuzz": 7899,
      "▁Soviet": 7900,
      "fore": 7901,
      "content": 7902,
      "▁jiki,": 7903,
      "▁Mutane": 7904,
      "▁sana'ar": 7905,
      "frican": 7906,
      "mw:": 7907,
      "▁gaggawa": 7908,
      "velopment": 7909,
      "gra": 7910,
      "ƙwal": 7911,
      "▁yajin": 7912,
      "▁Sea": 7913,
      "▁Jer": 7914,
      "be,": 7915,
      "▁kyau,": 7916,
      "▁Jack": 7917,
      "▁taimako": 7918,
      "▁Bello": 7919,
      "serva": 7920,
      "500": 7921,
      "8/": 7922,
      "cur": 7923,
      "▁maj": 7924,
      "umma": 7925,
      "▁name=&quot;H": 7926,
      "dire": 7927,
      "▁lita": 7928,
      ".org/wiki/": 7929,
      "▁dama,": 7930,
      "▁kiransa": 7931,
      "▁nisha": 7932,
      "▁sharhi": 7933,
      "▁batutuwa": 7934,
      "▁Trump": 7935,
      "▁gurɓataccen": 7936,
      "www.c": 7937,
      "▁reliable": 7938,
      "▁gyare-gyar": 7939,
      "cu": 7940,
      "▁us": 7941,
      "an.": 7942,
      "▁waya": 7943,
      "▁sub": 7944,
      "▁Kongo": 7945,
      "▁Lag": 7946,
      "▁IN": 7947,
      "go,": 7948,
      "▁Tex": 7949,
      "▁bukata": 7950,
      "▁COVID": 7951,
      "SN": 7952,
      "i\n": 7953,
      "rey": 7954,
      "bas": 7955,
      "▁Yawan": 7956,
      "▁Musamman": 7957,
      "▁name=&quot;:2&quot;": 7958,
      "▁itace": 7959,
      "▁baiwa": 7960,
      "▁&lt;nowiki&gt;&lt;": 7961,
      "google.com/": 7962,
      ")&quot;]": 7963,
      "-20": 7964,
      "-200": 7965,
      "47": 7966,
      "S.": 7967,
      "▁wai": 7968,
      "▁gadi": 7969,
      "▁ƙaluba": 7970,
      "▁Fi": 7971,
      "▁yaro": 7972,
      "▁Georg": 7973,
      "▁tattaunawar": 7974,
      "▁fitaccen": 7975,
      "▁abun": 7976,
      "▁20,": 7977,
      "▁&quot;Ma": 7978,
      "▁...": 7979,
      "ira,": 7980,
      "▁2024,": 7981,
      "▁Va": 7982,
      "▁ruwa.": 7983,
      "▁ka'idar": 7984,
      "▁dusar": 7985,
      "▁ƙwarewar": 7986,
      "lockquote": 7987,
      "▁hunturu": 7988,
      "Co": 7989,
      "▁Histor": 7990,
      "▁&quot;a": 7991,
      "cast": 7992,
      "▁18,": 7993,
      "onald": 7994,
      "forma": 7995,
      "▁You": 7996,
      "'o'in": 7997,
      "▁jigilar": 7998,
      "▁kurkuku": 7999
    },
    "merges": [
      [
        "a",
        "n"
      ],
      [
        "a",
        "r"
      ],
      [
        "d",
        "a"
      ],
      [
        "i",
        "n"
      ],
      [
        "▁",
        "da"
      ],
      [
        "▁",
        "k"
      ],
      [
        "t",
        ";"
      ],
      [
        "▁",
        "a"
      ],
      [
        "▁",
        "s"
      ],
      [
        "m",
        "a"
      ],
      [
        "t",
        "a"
      ],
      [
        "y",
        "a"
      ],
      [
        "w",
        "a"
      ],
      [
        "n",
        "a"
      ],
      [
        "▁",
        "b"
      ],
      [
        "▁",
        "na"
      ],
      [
        "▁",
        "ta"
      ],
      [
        "▁",
        "ma"
      ],
      [
        "k",
        "a"
      ],
      [
        "r",
        "e"
      ],
      [
        "s",
        "a"
      ],
      [
        "u",
        "n"
      ],
      [
        "g",
        "a"
      ],
      [
        "▁",
        "ya"
      ],
      [
        "▁",
        "c"
      ],
      [
        "▁",
        "A"
      ],
      [
        "o",
        "n"
      ],
      [
        "q",
        "u"
      ],
      [
        "qu",
        "o"
      ],
      [
        "quo",
        "t;"
      ],
      [
        "&",
        "quot;"
      ],
      [
        "a",
        "m"
      ],
      [
        "g",
        "t;"
      ],
      [
        "&",
        "gt;"
      ],
      [
        "▁s",
        "h"
      ],
      [
        "l",
        "t;"
      ],
      [
        "&",
        "lt;"
      ],
      [
        "▁",
        "t"
      ],
      [
        "i",
        "k"
      ],
      [
        "▁",
        "h"
      ],
      [
        "▁b",
        "a"
      ],
      [
        "e",
        "n"
      ],
      [
        "re",
        "f"
      ],
      [
        "l",
        "a"
      ],
      [
        "y",
        "an"
      ],
      [
        "▁",
        "wa"
      ],
      [
        "▁k",
        "a"
      ],
      [
        "e",
        "r"
      ],
      [
        "▁",
        "d"
      ],
      [
        "▁",
        "M"
      ],
      [
        "▁",
        "f"
      ],
      [
        "▁",
        "z"
      ],
      [
        "▁k",
        "u"
      ],
      [
        "i",
        "r"
      ],
      [
        "w",
        "an"
      ],
      [
        "▁",
        "S"
      ],
      [
        "ar",
        "a"
      ],
      [
        "ref",
        "&gt;"
      ],
      [
        "s",
        "h"
      ],
      [
        "▁",
        "g"
      ],
      [
        "l",
        "i"
      ],
      [
        "u",
        "r"
      ],
      [
        "▁",
        "r"
      ],
      [
        "2",
        "0"
      ],
      [
        "▁",
        "m"
      ],
      [
        "▁",
        "ga"
      ],
      [
        "y",
        "ar"
      ],
      [
        "i",
        "ya"
      ],
      [
        "ik",
        "in"
      ],
      [
        "b",
        "a"
      ],
      [
        "▁s",
        "a"
      ],
      [
        "o",
        "r"
      ],
      [
        "▁s",
        "u"
      ],
      [
        "▁",
        "1"
      ],
      [
        "▁",
        "n"
      ],
      [
        "s",
        "u"
      ],
      [
        "▁",
        "B"
      ],
      [
        "▁ku",
        "ma"
      ],
      [
        "▁",
        "K"
      ],
      [
        "y",
        "i"
      ],
      [
        "▁",
        "j"
      ],
      [
        "&lt;",
        "/"
      ],
      [
        "▁",
        "T"
      ],
      [
        "c",
        "e"
      ],
      [
        "▁",
        "ƙ"
      ],
      [
        "▁c",
        "ikin"
      ],
      [
        "▁",
        "20"
      ],
      [
        "▁",
        "wan"
      ],
      [
        "▁h",
        "a"
      ],
      [
        "k",
        "ar"
      ],
      [
        "c",
        "i"
      ],
      [
        "▁",
        "C"
      ],
      [
        "▁",
        "D"
      ],
      [
        "y",
        "in"
      ],
      [
        "▁",
        "("
      ],
      [
        "u",
        "t"
      ],
      [
        "&lt;/",
        "ref&gt;"
      ],
      [
        "u",
        "k"
      ],
      [
        "▁z",
        "a"
      ],
      [
        "w",
        "ar"
      ],
      [
        "i",
        "t"
      ],
      [
        "an",
        "a"
      ],
      [
        "u",
        "wa"
      ],
      [
        "l",
        "e"
      ],
      [
        "s",
        "ar"
      ],
      [
        "▁",
        "yan"
      ],
      [
        "▁",
        "N"
      ],
      [
        "c",
        "in"
      ],
      [
        ".",
        "\n"
      ],
      [
        "▁n",
        "e"
      ],
      [
        "i",
        "s"
      ],
      [
        "▁c",
        "e"
      ],
      [
        "l",
        "o"
      ],
      [
        "m",
        "e"
      ],
      [
        "k",
        "e"
      ],
      [
        "s",
        "an"
      ],
      [
        "u",
        "m"
      ],
      [
        "▁",
        "yi"
      ],
      [
        "▁M",
        "a"
      ],
      [
        "▁sh",
        "e"
      ],
      [
        "▁sh",
        "i"
      ],
      [
        "▁",
        "J"
      ],
      [
        "ar",
        "e"
      ],
      [
        "▁",
        "G"
      ],
      [
        "▁",
        "H"
      ],
      [
        "t",
        "i"
      ],
      [
        "▁",
        "L"
      ],
      [
        "i",
        "y"
      ],
      [
        "▁",
        "R"
      ],
      [
        "▁",
        "F"
      ],
      [
        "▁",
        "I"
      ],
      [
        "▁",
        "Y"
      ],
      [
        "▁k",
        "o"
      ],
      [
        "&lt;",
        "ref&gt;"
      ],
      [
        "b",
        "an"
      ],
      [
        "▁ma",
        "i"
      ],
      [
        "=",
        "&quot;"
      ],
      [
        "i",
        "d"
      ],
      [
        "▁da",
        "ga"
      ],
      [
        "▁",
        "P"
      ],
      [
        "▁1",
        "9"
      ],
      [
        "i",
        "yar"
      ],
      [
        "k",
        "in"
      ],
      [
        "a",
        "l"
      ],
      [
        "t",
        "ar"
      ],
      [
        "t",
        "an"
      ],
      [
        "h",
        "e"
      ],
      [
        "▁k",
        "e"
      ],
      [
        "o",
        "m"
      ],
      [
        "t",
        "sa"
      ],
      [
        "▁r",
        "a"
      ],
      [
        "r",
        "a"
      ],
      [
        "ik",
        "i"
      ],
      [
        "▁",
        "W"
      ],
      [
        "i",
        "l"
      ],
      [
        "f",
        "i"
      ],
      [
        "'",
        "a"
      ],
      [
        "t",
        "e"
      ],
      [
        "▁",
        "an"
      ],
      [
        "▁a",
        "ka"
      ],
      [
        "an",
        "i"
      ],
      [
        "▁s",
        "un"
      ],
      [
        "i",
        "m"
      ],
      [
        "f",
        "a"
      ],
      [
        "▁k",
        "an"
      ],
      [
        "b",
        "u"
      ],
      [
        "n",
        "an"
      ],
      [
        "h",
        "a"
      ],
      [
        "ar",
        "i"
      ],
      [
        "▁20",
        "1"
      ],
      [
        "u",
        "s"
      ],
      [
        "an",
        "ar"
      ],
      [
        "▁yan",
        "a"
      ],
      [
        "▁",
        "ɗ"
      ],
      [
        "e",
        "s"
      ],
      [
        "▁wan",
        "da"
      ],
      [
        "▁d",
        "on"
      ],
      [
        "▁s",
        "am"
      ],
      [
        "▁",
        "&quot;"
      ],
      [
        "▁ma",
        "tsa"
      ],
      [
        "u",
        "d"
      ],
      [
        "e",
        "d"
      ],
      [
        "f",
        "in"
      ],
      [
        "▁",
        "la"
      ],
      [
        "k",
        "o"
      ],
      [
        "▁a",
        "m"
      ],
      [
        "▁na",
        "me"
      ],
      [
        "▁",
        "in"
      ],
      [
        "k",
        "i"
      ],
      [
        "k",
        "an"
      ],
      [
        "c",
        "h"
      ],
      [
        "&lt;",
        "ref"
      ],
      [
        "▁",
        "*"
      ],
      [
        "▁she",
        "kar"
      ],
      [
        "r",
        "i"
      ],
      [
        "b",
        "o"
      ],
      [
        "▁name",
        "=&quot;"
      ],
      [
        "&lt;ref&gt;",
        "&lt;/ref&gt;"
      ],
      [
        "▁h",
        "an"
      ],
      [
        "▁z",
        "uwa"
      ],
      [
        "▁",
        "O"
      ],
      [
        "▁m",
        "u"
      ],
      [
        "t",
        "t"
      ],
      [
        "▁",
        "'"
      ],
      [
        "&quot;",
        "&gt;"
      ],
      [
        "▁sh",
        "a"
      ],
      [
        "▁su",
        "ka"
      ],
      [
        "▁",
        "E"
      ],
      [
        "▁ƙ",
        "a"
      ],
      [
        "▁f",
        "a"
      ],
      [
        "▁A",
        "n"
      ],
      [
        "e",
        "t"
      ],
      [
        "i",
        "g"
      ],
      [
        "▁",
        "lo"
      ],
      [
        "l",
        "in"
      ],
      [
        "▁matsa",
        "yin"
      ],
      [
        "k",
        "ara"
      ],
      [
        "u",
        "na"
      ],
      [
        "▁f",
        "ar"
      ],
      [
        "▁k",
        "ar"
      ],
      [
        "▁t",
        "sa"
      ],
      [
        "sh",
        "in"
      ],
      [
        "▁ma",
        "su"
      ],
      [
        "un",
        "g"
      ],
      [
        "s",
        "s"
      ],
      [
        "y",
        "e"
      ],
      [
        "m",
        "an"
      ],
      [
        "▁B",
        "a"
      ],
      [
        "▁t",
        "are"
      ],
      [
        "▁a",
        "l"
      ],
      [
        "▁ce",
        "wa"
      ],
      [
        "u",
        "ga"
      ],
      [
        "e",
        "l"
      ],
      [
        "sh",
        "e"
      ],
      [
        "▁lo",
        "ka"
      ],
      [
        "▁c",
        "i"
      ],
      [
        "▁",
        "w"
      ],
      [
        "▁",
        "i"
      ],
      [
        "o",
        "f"
      ],
      [
        "▁Y",
        "a"
      ],
      [
        "▁k",
        "am"
      ],
      [
        "▁N",
        "a"
      ],
      [
        "t",
        "o"
      ],
      [
        "▁",
        "2"
      ],
      [
        "▁m",
        "ut"
      ],
      [
        "i",
        "c"
      ],
      [
        "▁she",
        "kara"
      ],
      [
        "b",
        "in"
      ],
      [
        "▁S",
        "a"
      ],
      [
        "▁ga",
        "ba"
      ],
      [
        "▁ma",
        "ta"
      ],
      [
        "an",
        "g"
      ],
      [
        "i",
        "a"
      ],
      [
        "▁wan",
        "i"
      ],
      [
        "▁k",
        "wa"
      ],
      [
        "d",
        "in"
      ],
      [
        "b",
        "ar"
      ],
      [
        "0",
        "0"
      ],
      [
        "l",
        "la"
      ],
      [
        "▁ba",
        "yan"
      ],
      [
        "j",
        "a"
      ],
      [
        "▁",
        "iya"
      ],
      [
        "▁",
        "."
      ],
      [
        "sh",
        "i"
      ],
      [
        "▁su",
        "na"
      ],
      [
        "▁h",
        "ar"
      ],
      [
        "o",
        "l"
      ],
      [
        "s",
        "t"
      ],
      [
        "w",
        "w"
      ],
      [
        "▁s",
        "an"
      ],
      [
        "i",
        "da"
      ],
      [
        "i",
        ","
      ],
      [
        "r",
        "o"
      ],
      [
        "▁wa",
        "tan"
      ],
      [
        "▁wa",
        "san"
      ],
      [
        "s",
        "p"
      ],
      [
        "i",
        "f"
      ],
      [
        "▁shekar",
        "ar"
      ],
      [
        "▁loka",
        "cin"
      ],
      [
        "b",
        "i"
      ],
      [
        "▁r",
        "anar"
      ],
      [
        "▁",
        "of"
      ],
      [
        "/",
        "/"
      ],
      [
        "tt",
        "p"
      ],
      [
        "▁20",
        "0"
      ],
      [
        ":",
        "//"
      ],
      [
        "an",
        "e"
      ],
      [
        "▁",
        "U"
      ],
      [
        "a",
        "g"
      ],
      [
        "ti",
        "on"
      ],
      [
        "▁ɗ",
        "a"
      ],
      [
        "h",
        "ttp"
      ],
      [
        "j",
        "in"
      ],
      [
        "ar",
        "in"
      ],
      [
        "t",
        "h"
      ],
      [
        "e",
        "m"
      ],
      [
        "d",
        "i"
      ],
      [
        "▁b",
        "iy"
      ],
      [
        "▁wan",
        "nan"
      ],
      [
        "y",
        "o"
      ],
      [
        "an",
        "d"
      ],
      [
        "am",
        "i"
      ],
      [
        "h",
        "ar"
      ],
      [
        "▁A",
        "f"
      ],
      [
        "u",
        "l"
      ],
      [
        "wa",
        "m"
      ],
      [
        "▁",
        "-"
      ],
      [
        "u",
        "ka"
      ],
      [
        "▁I",
        "n"
      ],
      [
        "am",
        "p"
      ],
      [
        "san",
        "ce"
      ],
      [
        "ir",
        "in"
      ],
      [
        "▁D",
        "a"
      ],
      [
        "▁A",
        "m"
      ],
      [
        "z",
        "a"
      ],
      [
        "▁",
        "l"
      ],
      [
        "ur",
        "a"
      ],
      [
        "n",
        "o"
      ],
      [
        "in",
        "a"
      ],
      [
        "s",
        "o"
      ],
      [
        "▁T",
        "a"
      ],
      [
        "▁t",
        "he"
      ],
      [
        "▁",
        ".\n"
      ],
      [
        "▁ka",
        "sance"
      ],
      [
        "u",
        ","
      ],
      [
        "l",
        "l"
      ],
      [
        "n",
        "i"
      ],
      [
        "j",
        "er"
      ],
      [
        "an",
        "in"
      ],
      [
        "t",
        "s"
      ],
      [
        "▁ƙ",
        "ar"
      ],
      [
        "d",
        "da"
      ],
      [
        "t",
        "ta"
      ],
      [
        "d",
        "e"
      ],
      [
        "ir",
        "a"
      ],
      [
        "in",
        "e"
      ],
      [
        "▁far",
        "ko"
      ],
      [
        "an",
        "da"
      ],
      [
        "ung",
        "iyar"
      ],
      [
        "un",
        "iya"
      ],
      [
        "▁a",
        "iki"
      ],
      [
        "▁",
        "p"
      ],
      [
        "an",
        "ta"
      ],
      [
        "▁K",
        "a"
      ],
      [
        "▁j",
        "i"
      ],
      [
        "▁s",
        "o"
      ],
      [
        "j",
        "e"
      ],
      [
        "n",
        "in"
      ],
      [
        "▁am",
        "f"
      ],
      [
        "▁r",
        "u"
      ],
      [
        "&lt;/ref&gt;",
        "\n"
      ],
      [
        "h",
        "o"
      ],
      [
        "▁20",
        "2"
      ],
      [
        "sh",
        "en"
      ],
      [
        "m",
        "i"
      ],
      [
        "▁ka",
        "sa"
      ],
      [
        "▁",
        "&lt;ref"
      ],
      [
        "s",
        "e"
      ],
      [
        "▁",
        "["
      ],
      [
        "h",
        "i"
      ],
      [
        "▁f",
        "ara"
      ],
      [
        "u",
        "war"
      ],
      [
        "▁H",
        "a"
      ],
      [
        ")",
        ","
      ],
      [
        "▁biy",
        "u"
      ],
      [
        "▁za",
        "ma"
      ],
      [
        "▁d",
        "o"
      ],
      [
        "/",
        "&gt;"
      ],
      [
        "j",
        "i"
      ],
      [
        "g",
        "e"
      ],
      [
        "v",
        "e"
      ],
      [
        "t",
        "u"
      ],
      [
        "▁'",
        "yan"
      ],
      [
        "▁t",
        "sar"
      ],
      [
        "▁amf",
        "ani"
      ],
      [
        "jer",
        "iya"
      ],
      [
        "m",
        "ar"
      ],
      [
        "ɗ",
        "a"
      ],
      [
        "k",
        "wa"
      ],
      [
        "▁wa",
        "su"
      ],
      [
        "t",
        "un"
      ],
      [
        "id",
        "an"
      ],
      [
        ")",
        "."
      ],
      [
        "in",
        "g"
      ],
      [
        "ƙ",
        "a"
      ],
      [
        "uga",
        "ban"
      ],
      [
        "amp",
        ";"
      ],
      [
        "b",
        "ban"
      ],
      [
        "i",
        "b"
      ],
      [
        ".",
        "&lt;ref"
      ],
      [
        "1",
        "9"
      ],
      [
        "▁k",
        "ara"
      ],
      [
        "i",
        "ka"
      ],
      [
        "&lt;ref&gt;&lt;/ref&gt;",
        "\n"
      ],
      [
        "j",
        "en"
      ],
      [
        "▁ka",
        "i"
      ],
      [
        "▁",
        "3"
      ],
      [
        "en",
        "t"
      ],
      [
        "▁W",
        "a"
      ],
      [
        "▁ɗ",
        "an"
      ],
      [
        "▁d",
        "uk"
      ],
      [
        "▁",
        "V"
      ],
      [
        "e",
        "w"
      ],
      [
        "an",
        "nan"
      ],
      [
        "▁Na",
        "jeriya"
      ],
      [
        "▁in",
        "da"
      ],
      [
        "e",
        "v"
      ],
      [
        "&",
        "amp;"
      ],
      [
        "um",
        "ar"
      ],
      [
        "▁f",
        "i"
      ],
      [
        "e",
        "b"
      ],
      [
        "▁A",
        "l"
      ],
      [
        "d",
        "u"
      ],
      [
        ".",
        "c"
      ],
      [
        "▁",
        "Z"
      ],
      [
        "s",
        "://"
      ],
      [
        "w",
        "o"
      ],
      [
        "wam",
        "na"
      ],
      [
        "▁a",
        "ke"
      ],
      [
        "▁g",
        "ud"
      ],
      [
        "ut",
        "ar"
      ],
      [
        "o",
        "na"
      ],
      [
        "ami",
        "'"
      ],
      [
        "▁m",
        "an"
      ],
      [
        "▁L",
        "a"
      ],
      [
        "▁j",
        "a"
      ],
      [
        "t",
        "er"
      ],
      [
        "▁ƙa",
        "sa"
      ],
      [
        "▁han",
        "yar"
      ],
      [
        "b",
        "er"
      ],
      [
        "http",
        "s://"
      ],
      [
        "re",
        "n"
      ],
      [
        "s",
        ","
      ],
      [
        "f",
        "e"
      ],
      [
        "y",
        "yan"
      ],
      [
        "▁ya",
        "wa"
      ],
      [
        "▁",
        "="
      ],
      [
        "ja",
        "li"
      ],
      [
        "k",
        "on"
      ],
      [
        "ir",
        "ka"
      ],
      [
        "g",
        "o"
      ],
      [
        "z",
        "u"
      ],
      [
        "sp",
        "an"
      ],
      [
        "c",
        "a"
      ],
      [
        "i",
        "ma"
      ],
      [
        "▁",
        "yin"
      ],
      [
        "an",
        "tar"
      ],
      [
        "t",
        "on"
      ],
      [
        "▁",
        "/&gt;"
      ],
      [
        "i",
        "sa"
      ],
      [
        "▁a",
        "ikin"
      ],
      [
        "▁ka",
        "fa"
      ],
      [
        "▁S",
        "h"
      ],
      [
        "▁ba",
        "ya"
      ],
      [
        "▁ha",
        "if"
      ],
      [
        "▁t",
        "ana"
      ],
      [
        "▁b",
        "in"
      ],
      [
        "uk",
        "an"
      ],
      [
        "▁19",
        "9"
      ],
      [
        "▁F",
        "a"
      ],
      [
        "▁a",
        "bin"
      ],
      [
        "▁kam",
        "ar"
      ],
      [
        "▁",
        "\""
      ],
      [
        "▁M",
        "ar"
      ],
      [
        "▁M",
        "u"
      ],
      [
        "▁h",
        "uk"
      ],
      [
        "ur",
        "an"
      ],
      [
        "g",
        "i"
      ],
      [
        "w",
        "."
      ],
      [
        "▁z",
        "am"
      ],
      [
        "▁ba",
        "yyan"
      ],
      [
        "d",
        "o"
      ],
      [
        "▁za",
        "i"
      ],
      [
        "▁ha",
        "ka"
      ],
      [
        "▁wa",
        "ɗ"
      ],
      [
        "ir",
        "i"
      ],
      [
        "▁shi",
        "ga"
      ],
      [
        "▁am",
        "ma"
      ],
      [
        "y",
        "en"
      ],
      [
        "t",
        "in"
      ],
      [
        "▁name=&quot;",
        ":"
      ],
      [
        "bo",
        "da"
      ],
      [
        "ur",
        "ka"
      ],
      [
        "▁sh",
        "ugaban"
      ],
      [
        "▁n",
        "una"
      ],
      [
        "▁K",
        "o"
      ],
      [
        "▁ya",
        "wan"
      ],
      [
        "g",
        "in"
      ],
      [
        "iy",
        "o"
      ],
      [
        "an",
        "o"
      ],
      [
        "c",
        "o"
      ],
      [
        "▁R",
        "a"
      ],
      [
        "ww",
        "w."
      ],
      [
        "▁ka",
        "sar"
      ],
      [
        "▁Am",
        "urka"
      ],
      [
        "▁A",
        "r"
      ],
      [
        "▁Af",
        "irka"
      ],
      [
        "▁an",
        "d"
      ],
      [
        "er",
        "s"
      ],
      [
        "i",
        "ta"
      ],
      [
        "▁d",
        "an"
      ],
      [
        "▁",
        "ana"
      ],
      [
        "▁",
        ","
      ],
      [
        "▁bayyan",
        "a"
      ],
      [
        "▁ma",
        "g"
      ],
      [
        ".c",
        "om"
      ],
      [
        "▁ya",
        "dda"
      ],
      [
        "la",
        "ss"
      ],
      [
        "&quot;",
        ","
      ],
      [
        "u",
        "g"
      ],
      [
        "▁w",
        "ur"
      ],
      [
        "▁1",
        "8"
      ],
      [
        "om",
        "in"
      ],
      [
        "b",
        "e"
      ],
      [
        "▁k",
        "ya"
      ],
      [
        "c",
        "k"
      ],
      [
        "▁g",
        "wamna"
      ],
      [
        "jali",
        "sar"
      ],
      [
        "▁d",
        "uniya"
      ],
      [
        "kan",
        "in"
      ],
      [
        "▁shekar",
        "u"
      ],
      [
        "▁sa",
        "boda"
      ],
      [
        "▁t",
        "s"
      ],
      [
        "▁wa",
        "ta"
      ],
      [
        "▁",
        "yar"
      ],
      [
        "k",
        "u"
      ],
      [
        "▁i",
        "ta"
      ],
      [
        "▁t",
        "un"
      ],
      [
        "l",
        "ar"
      ],
      [
        "&quot;&gt;",
        "&lt;/ref&gt;"
      ],
      [
        "▁c",
        "lass"
      ],
      [
        "▁ba",
        "bban"
      ],
      [
        "▁f",
        "it"
      ],
      [
        "▁g",
        "ida"
      ],
      [
        "iy",
        "yar"
      ],
      [
        "▁r",
        "uwa"
      ],
      [
        "▁class",
        "=&quot;"
      ],
      [
        "▁S",
        "o"
      ],
      [
        "▁n",
        "an"
      ],
      [
        "20",
        "1"
      ],
      [
        "d",
        "ar"
      ],
      [
        "f",
        "iya"
      ],
      [
        "y",
        "ya"
      ],
      [
        "h",
        "im"
      ],
      [
        "&quot;",
        "."
      ],
      [
        "d",
        "an"
      ],
      [
        "▁C",
        "h"
      ],
      [
        "▁ma",
        "fi"
      ],
      [
        "kwa",
        "i"
      ],
      [
        "▁G",
        "a"
      ],
      [
        "▁T",
        "he"
      ],
      [
        "▁",
        "4"
      ],
      [
        "▁mut",
        "ane"
      ],
      [
        "ch",
        "i"
      ],
      [
        "ami'",
        "ar"
      ],
      [
        "u",
        "da"
      ],
      [
        "▁g",
        "ir"
      ],
      [
        "s",
        "."
      ],
      [
        "c",
        "ik"
      ],
      [
        "iy",
        "ya"
      ],
      [
        "w",
        "on"
      ],
      [
        "▁a",
        "bu"
      ],
      [
        "uk",
        "u"
      ],
      [
        "y",
        "y"
      ],
      [
        "or",
        "g"
      ],
      [
        "ev",
        "ed"
      ],
      [
        "▁sam",
        "u"
      ],
      [
        "ri",
        "eved"
      ],
      [
        "▁R",
        "et"
      ],
      [
        "no",
        "w"
      ],
      [
        "n",
        "e"
      ],
      [
        "o",
        "p"
      ],
      [
        ".",
        "&lt;ref&gt;"
      ],
      [
        "▁tsa",
        "kanin"
      ],
      [
        "▁Ret",
        "rieved"
      ],
      [
        "m",
        "ba"
      ],
      [
        "▁a",
        "da"
      ],
      [
        "ta",
        ","
      ],
      [
        "c",
        "ce"
      ],
      [
        "un",
        "i"
      ],
      [
        "▁ga",
        "me"
      ],
      [
        "▁",
        "&lt;ref&gt;&lt;/ref&gt;"
      ],
      [
        "un",
        "an"
      ],
      [
        "▁L",
        "e"
      ],
      [
        "u",
        "e"
      ],
      [
        "t",
        "y"
      ],
      [
        "▁c",
        "in"
      ],
      [
        "▁yan",
        "zu"
      ],
      [
        "h",
        "am"
      ],
      [
        "m",
        "in"
      ],
      [
        "▁sa",
        "u"
      ],
      [
        "ma",
        "'a"
      ],
      [
        "▁19",
        "8"
      ],
      [
        "▁",
        "5"
      ],
      [
        "s",
        "i"
      ],
      [
        "un",
        "d"
      ],
      [
        "▁ya",
        "ke"
      ],
      [
        "▁t",
        "o"
      ],
      [
        "▁sam",
        "un"
      ],
      [
        ")",
        "\n"
      ],
      [
        "▁ya",
        "yin"
      ],
      [
        "▁sa",
        "i"
      ],
      [
        "▁b",
        "uga"
      ],
      [
        "▁sam",
        "i"
      ],
      [
        "▁wa",
        "jen"
      ],
      [
        "▁da",
        "i"
      ],
      [
        "▁ma",
        "kar"
      ],
      [
        "sa",
        ","
      ],
      [
        "▁M",
        "o"
      ],
      [
        "wa",
        ","
      ],
      [
        "▁tsar",
        "in"
      ],
      [
        "▁sa",
        "ma"
      ],
      [
        "▁gud",
        "anar"
      ],
      [
        "▁ɗa",
        "ya"
      ],
      [
        "▁yan",
        "kin"
      ],
      [
        "▁sa",
        "ke"
      ],
      [
        "an",
        "ci"
      ],
      [
        "▁R",
        "o"
      ],
      [
        "-",
        "0"
      ],
      [
        "b",
        "ba"
      ],
      [
        "▁g",
        "o"
      ],
      [
        "ti",
        "c"
      ],
      [
        "ka",
        "ma"
      ],
      [
        "▁",
        "li"
      ],
      [
        "t",
        "or"
      ],
      [
        "ll",
        "on"
      ],
      [
        "▁",
        "re"
      ],
      [
        "▁k",
        "i"
      ],
      [
        "▁H",
        "ar"
      ],
      [
        "▁J",
        "ami'ar"
      ],
      [
        "▁sam",
        "ar"
      ],
      [
        "▁sh",
        "ine"
      ],
      [
        "▁l",
        "am"
      ],
      [
        "▁waɗ",
        "anda"
      ],
      [
        "▁i",
        "li"
      ],
      [
        "▁b",
        "ir"
      ],
      [
        "▁ji",
        "har"
      ],
      [
        "▁P",
        "a"
      ],
      [
        "-",
        "da"
      ],
      [
        "▁c",
        "an"
      ],
      [
        "▁ga",
        "sar"
      ],
      [
        "▁sh",
        "ir"
      ],
      [
        "ɓ",
        "a"
      ],
      [
        "▁",
        "Ƙ"
      ],
      [
        "▁han",
        "n"
      ],
      [
        "i",
        "li"
      ],
      [
        "h",
        "in"
      ],
      [
        "-",
        "1"
      ],
      [
        "j",
        "o"
      ],
      [
        "m",
        "man"
      ],
      [
        "▁",
        "uku"
      ],
      [
        "▁19",
        "7"
      ],
      [
        "l",
        "and"
      ],
      [
        "▁ƙa",
        "sar"
      ],
      [
        "▁N",
        "ew"
      ],
      [
        "▁J",
        "o"
      ],
      [
        ".com",
        "/"
      ],
      [
        "▁C",
        "o"
      ],
      [
        "▁ma",
        "'a"
      ],
      [
        "l",
        "y"
      ],
      [
        "sh",
        "a"
      ],
      [
        "an",
        "cin"
      ],
      [
        "http",
        "://"
      ],
      [
        "▁k",
        "wan"
      ],
      [
        "▁da",
        "ya"
      ],
      [
        "▁san",
        "ya"
      ],
      [
        "&quot;",
        "]"
      ],
      [
        "ar",
        "en"
      ],
      [
        "▁ka",
        "ma"
      ],
      [
        "▁",
        "ar"
      ],
      [
        "▁d",
        "in"
      ],
      [
        "▁j",
        "am"
      ],
      [
        "▁mu",
        "l"
      ],
      [
        ".",
        "org"
      ],
      [
        "▁J",
        "a"
      ],
      [
        "▁F",
        "ar"
      ],
      [
        "v",
        "er"
      ],
      [
        "▁ko",
        "ma"
      ],
      [
        "▁c",
        "iki"
      ],
      [
        "r",
        "an"
      ],
      [
        "f",
        "o"
      ],
      [
        "▁bin",
        "cik"
      ],
      [
        "▁b",
        "u"
      ],
      [
        "▁k",
        "ungiyar"
      ],
      [
        "war",
        "ar"
      ],
      [
        "ona",
        "l"
      ],
      [
        "ɗ",
        "in"
      ],
      [
        "▁a",
        "yy"
      ],
      [
        "▁R",
        "e"
      ],
      [
        "▁Ba",
        "yan"
      ],
      [
        "▁",
        "|"
      ],
      [
        "▁ka",
        "su"
      ],
      [
        "▁g",
        "uda"
      ],
      [
        "▁",
        "y"
      ],
      [
        "yo",
        "yin"
      ],
      [
        "▁sa",
        "uran"
      ],
      [
        "▁t",
        "ar"
      ],
      [
        "y",
        ","
      ],
      [
        "g",
        "ar"
      ],
      [
        "p",
        "h"
      ],
      [
        "▁J",
        "am"
      ],
      [
        "▁s",
        "iya"
      ],
      [
        "an",
        "an"
      ],
      [
        "o",
        "k"
      ],
      [
        "ko",
        "kin"
      ],
      [
        "▁han",
        "ka"
      ],
      [
        "it",
        "in"
      ],
      [
        "▁kam",
        "f"
      ],
      [
        "0",
        ","
      ],
      [
        "ce",
        "-"
      ],
      [
        "▁",
        "&lt;ref&gt;"
      ],
      [
        "-",
        "-"
      ],
      [
        "▁K",
        "ud"
      ],
      [
        "sa",
        "mman"
      ],
      [
        "▁B",
        "o"
      ],
      [
        "▁ha",
        "ɗa"
      ],
      [
        "e",
        "-"
      ],
      [
        ".",
        "&lt;ref&gt;&lt;/ref&gt;"
      ],
      [
        "ƙ",
        "in"
      ],
      [
        "▁C",
        "a"
      ],
      [
        "u",
        "ta"
      ],
      [
        "▁",
        "&lt;"
      ],
      [
        "ci",
        "te"
      ],
      [
        "us",
        "t"
      ],
      [
        "▁na",
        "u"
      ],
      [
        "ur",
        "i"
      ],
      [
        "l",
        "am"
      ],
      [
        "an",
        "en"
      ],
      [
        "h",
        "t"
      ],
      [
        "▁",
        "6"
      ],
      [
        "▁al",
        "'"
      ],
      [
        "▁mut",
        "um"
      ],
      [
        "or",
        "t"
      ],
      [
        "o",
        "d"
      ],
      [
        "▁ba",
        ","
      ],
      [
        "▁wa",
        "d"
      ],
      [
        "20",
        "0"
      ],
      [
        "u",
        "b"
      ],
      [
        "a",
        "i"
      ],
      [
        "c",
        "en"
      ],
      [
        "u",
        "kar"
      ],
      [
        "▁t",
        "ari"
      ],
      [
        "a",
        "d"
      ],
      [
        "▁j",
        "in"
      ],
      [
        "b",
        "on"
      ],
      [
        "s",
        "ara"
      ],
      [
        "▁g",
        "idan"
      ],
      [
        "▁ja",
        "ma'a"
      ],
      [
        "▁ta",
        "tta"
      ],
      [
        "▁19",
        "6"
      ],
      [
        "▁ra",
        "y"
      ],
      [
        "s",
        "ta"
      ],
      [
        "un",
        "in"
      ],
      [
        "u",
        "ba"
      ],
      [
        "▁ka",
        "yan"
      ],
      [
        "ag",
        "or"
      ],
      [
        "u",
        "bu"
      ],
      [
        "f",
        "or"
      ],
      [
        "▁man",
        "yan"
      ],
      [
        "p",
        "o"
      ],
      [
        "▁",
        "on"
      ],
      [
        "▁m",
        "o"
      ],
      [
        "▁D",
        "o"
      ],
      [
        "0",
        "."
      ],
      [
        "▁D",
        "uniya"
      ],
      [
        "▁ku",
        "la"
      ],
      [
        "▁t",
        "so"
      ],
      [
        "▁ba",
        "i"
      ],
      [
        "▁loka",
        "ci"
      ],
      [
        "▁d",
        "omin"
      ],
      [
        "e",
        ","
      ],
      [
        "▁gir",
        "ma"
      ],
      [
        "▁ra",
        "shin"
      ],
      [
        "w",
        "eb"
      ],
      [
        "1",
        ","
      ],
      [
        "▁wa",
        "sa"
      ],
      [
        "▁yana",
        "yi"
      ],
      [
        "▁mu",
        "samman"
      ],
      [
        "▁Ma",
        "jalisar"
      ],
      [
        "le",
        "s"
      ],
      [
        "▁a",
        "d"
      ],
      [
        "▁haif",
        "e"
      ],
      [
        "span",
        "&gt;"
      ],
      [
        "su",
        "l"
      ],
      [
        "\t",
        "\t"
      ],
      [
        "▁(",
        "19"
      ],
      [
        "▁j",
        "ir"
      ],
      [
        "&lt;/",
        "span&gt;"
      ],
      [
        "▁ƙ",
        "ungiyar"
      ],
      [
        "▁haif",
        "ar"
      ],
      [
        "'",
        "i"
      ],
      [
        "▁L",
        "o"
      ],
      [
        "u",
        "ma"
      ],
      [
        "ik",
        "wa"
      ],
      [
        "▁a",
        "sa"
      ],
      [
        "s",
        "on"
      ],
      [
        "h",
        "al"
      ],
      [
        "2",
        ","
      ],
      [
        "▁",
        "is"
      ],
      [
        ".org",
        "/"
      ],
      [
        "b",
        "ra"
      ],
      [
        "i",
        "on"
      ],
      [
        "ar",
        "y"
      ],
      [
        "▁",
        "7"
      ],
      [
        "▁",
        "irin"
      ],
      [
        "▁d",
        "e"
      ],
      [
        "▁b",
        "i"
      ],
      [
        "v",
        "i"
      ],
      [
        "▁c",
        "utar"
      ],
      [
        "ur",
        "in"
      ],
      [
        "▁P",
        "ar"
      ],
      [
        "▁",
        "idan"
      ],
      [
        "▁hanka",
        "li"
      ],
      [
        "▁Da",
        "ga"
      ],
      [
        "3",
        ","
      ],
      [
        "▁",
        "9"
      ],
      [
        "r",
        "om"
      ],
      [
        "it",
        "y"
      ],
      [
        "▁j",
        "agor"
      ],
      [
        "5",
        ","
      ],
      [
        "u",
        "p"
      ],
      [
        "https://",
        "www."
      ],
      [
        "iyo",
        "yin"
      ],
      [
        "▁ka",
        "fin"
      ],
      [
        "▁ta",
        "ka"
      ],
      [
        "e",
        "a"
      ],
      [
        ".",
        "&lt;ref&gt;&lt;/ref&gt;\n"
      ],
      [
        ".",
        "&lt;/ref&gt;"
      ],
      [
        "▁ƙ",
        "wa"
      ],
      [
        "4",
        ","
      ],
      [
        "an",
        "sa"
      ],
      [
        "▁k",
        "im"
      ],
      [
        "▁201",
        "9"
      ],
      [
        "▁kwa",
        "ikwa"
      ],
      [
        "'",
        "s"
      ],
      [
        "▁ha",
        "i"
      ],
      [
        "k",
        "en"
      ],
      [
        "in",
        "is"
      ],
      [
        "▁ta",
        "bba"
      ],
      [
        "▁ru",
        "bu"
      ],
      [
        "ma",
        "la"
      ],
      [
        "▁W",
        "annan"
      ],
      [
        "h",
        "on"
      ],
      [
        "▁ma",
        "za"
      ],
      [
        "&quot;&gt;",
        "&lt;/ref&gt;\n"
      ],
      [
        "▁jam",
        "'"
      ],
      [
        "▁ta",
        "ima"
      ],
      [
        "▁d",
        "ang"
      ],
      [
        "▁K",
        "wa"
      ],
      [
        "▁f",
        "im"
      ],
      [
        "▁Ma",
        "y"
      ],
      [
        "▁z",
        "ar"
      ],
      [
        "8",
        ","
      ],
      [
        "▁ka",
        "wa"
      ],
      [
        "r",
        "il"
      ],
      [
        "k",
        "iya"
      ],
      [
        "▁al'",
        "um"
      ],
      [
        "▁la",
        "fiya"
      ],
      [
        "bu",
        "wan"
      ],
      [
        "▁da",
        "ban"
      ],
      [
        "ti",
        "onal"
      ],
      [
        "▁am",
        "in"
      ],
      [
        "▁D",
        "e"
      ],
      [
        "▁ayy",
        "ukan"
      ],
      [
        "▁a",
        "kwai"
      ],
      [
        "▁r",
        "i"
      ],
      [
        "s",
        "sa"
      ],
      [
        "▁a",
        "la"
      ],
      [
        "ar",
        "ra"
      ],
      [
        "▁ka",
        "shi"
      ],
      [
        "▁A",
        "b"
      ],
      [
        "now",
        "iki"
      ],
      [
        "c",
        "he"
      ],
      [
        "▁yana",
        "yin"
      ],
      [
        "am",
        "ar"
      ],
      [
        "▁ta",
        "kar"
      ],
      [
        "u",
        "wan"
      ],
      [
        "▁da",
        "ida"
      ],
      [
        "▁fa",
        "sa"
      ],
      [
        "7",
        ","
      ],
      [
        "▁",
        "&lt;ref&gt;&lt;/ref&gt;\n"
      ],
      [
        "er",
        "a"
      ],
      [
        "▁ma",
        "sa"
      ],
      [
        "b",
        "en"
      ],
      [
        "u",
        "la"
      ],
      [
        "▁b",
        "an"
      ],
      [
        "s",
        "ana"
      ],
      [
        "6",
        ","
      ],
      [
        "w",
        "i"
      ],
      [
        "iy",
        "e"
      ],
      [
        "▁A",
        "na"
      ],
      [
        "▁20",
        "20"
      ],
      [
        "▁k",
        "ira"
      ],
      [
        "nowiki",
        "&gt;"
      ],
      [
        "▁za",
        "ɓ"
      ],
      [
        "f",
        "ar"
      ],
      [
        "ar",
        "d"
      ],
      [
        "▁f",
        "or"
      ],
      [
        "▁fit",
        "o"
      ],
      [
        "▁t",
        "ara"
      ],
      [
        "▁",
        "are"
      ],
      [
        "p",
        "p"
      ],
      [
        "u",
        "re"
      ],
      [
        "▁",
        "8"
      ],
      [
        "un",
        "e"
      ],
      [
        "ili",
        "yan"
      ],
      [
        "▁kawa",
        "i"
      ],
      [
        "t",
        "r"
      ],
      [
        "▁da",
        "ma"
      ],
      [
        "ƙ",
        "i"
      ],
      [
        "▁zam",
        "an"
      ],
      [
        "k",
[...]
