{
  "version": "1.0",
  "truncation": null,
  "padding": null,
  "added_tokens": [
    {
      "id": 0,
      "content": "<pad>",
      "single_word": false,
      "lstrip": false,
      "rstrip": false,
      "normalized": false,
      "special": true
    },
    {
      "id": 1,
      "content": "<unk>",
      "single_word": false,
      "lstrip": false,
      "rstrip": false,
      "normalized": false,
      "special": true
    },
    {
      "id": 2,
      "content": "<s>",
      "single_word": false,
      "lstrip": false,
      "rstrip": false,
      "normalized": false,
      "special": true
    },
    {
      "id": 3,
      "content": "</s>",
      "single_word": false,
      "lstrip": false,
      "rstrip": false,
      "normalized": false,
      "special": true
    }
  ],
  "normalizer": {
    "type": "NFC"
  },
  "pre_tokenizer": {
    "type": "Metaspace",
    "replacement": "▁",
    "prepend_scheme": "always",
    "split": true
  },
  "post_processor": null,
  "decoder": {
    "type": "Metaspace",
    "replacement": "▁",
    "prepend_scheme": "always",
    "split": true
  },
  "model": {
    "type": "BPE",
    "dropout": null,
    "unk_token": "<unk>",
    "continuing_subword_prefix": null,
    "end_of_word_suffix": null,
    "fuse_unk": false,
    "byte_fallback": false,
    "ignore_merges": false,
    "vocab": {
      "<pad>": 0,
      "<unk>": 1,
      "<s>": 2,
      "</s>": 3,
      "\t": 4,
      "\n": 5,
      "!": 6,
      "\"": 7,
      "#": 8,
      "$": 9,
      "%": 10,
      "&": 11,
      "'": 12,
      "(": 13,
      ")": 14,
      "*": 15,
      "+": 16,
      ",": 17,
      "-": 18,
      ".": 19,
      "/": 20,
      "0": 21,
      "1": 22,
      "2": 23,
      "3": 24,
      "4": 25,
      "5": 26,
      "6": 27,
      "7": 28,
      "8": 29,
      "9": 30,
      ":": 31,
      ";": 32,
      "<": 33,
      "=": 34,
      ">": 35,
      "?": 36,
      "@": 37,
      "A": 38,
      "B": 39,
      "C": 40,
      "D": 41,
      "E": 42,
      "F": 43,
      "G": 44,
      "H": 45,
      "I": 46,
      "J": 47,
      "K": 48,
      "L": 49,
      "M": 50,
      "N": 51,
      "O": 52,
      "P": 53,
      "Q": 54,
      "R": 55,
      "S": 56,
      "T": 57,
      "U": 58,
      "V": 59,
      "W": 60,
      "X": 61,
      "Y": 62,
      "Z": 63,
      "[": 64,
      "\\": 65,
      "]": 66,
      "_": 67,
      "`": 68,
      "a": 69,
      "b": 70,
      "c": 71,
      "d": 72,
      "e": 73,
      "f": 74,
      "g": 75,
      "h": 76,
      "i": 77,
      "j": 78,
      "k": 79,
      "l": 80,
      "m": 81,
      "n": 82,
      "o": 83,
      "p": 84,
      "q": 85,
      "r": 86,
      "s": 87,
      "t": 88,
      "u": 89,
      "v": 90,
      "w": 91,
      "x": 92,
      "y": 93,
      "z": 94,
      "{": 95,
      "|": 96,
      "}": 97,
      "": 98,
      " ": 99,
      "£": 100,
      "©": 101,
      "®": 102,
      "°": 103,
      "´": 104,
      "·": 105,
      "À": 106,
      "Á": 107,
      "È": 108,
      "É": 109,
      "Ì": 110,
      "Í": 111,
      "Ò": 112,
      "Ó": 113,
      "×": 114,
      "Ù": 115,
      "Ú": 116,
      "ß": 117,
      "à": 118,
      "á": 119,
      "â": 120,
      "ã": 121,
      "ä": 122,
      "å": 123,
      "æ": 124,
      "ç": 125,
      "è": 126,
      "é": 127,
      "ê": 128,
      "ì": 129,
      "í": 130,
      "î": 131,
      "ï": 132,
      "ñ": 133,
      "ò": 134,
      "ó": 135,
      "ô": 136,
      "ö": 137,
      "ø": 138,
      "ù": 139,
      "ú": 140,
      "ü": 141,
      "ý": 142,
      "ā": 143,
      "ē": 144,
      "ī": 145,
      "ı": 146,
      "ł": 147,
      "Ń": 148,
      "ń": 149,
      "ş": 150,
      "ū": 151,
      "ƴ": 152,
      "Ǹ": 153,
      "ǹ": 154,
      "ʹ": 155,
      "ʻ": 156,
      "ʿ": 157,
      "̀": 158,
      "́": 159,
      "̄": 160,
      "̇": 161,
      "̣": 162,
      "̧": 163,
      "͕": 164,
      "ъ": 165,
      "ы": 166,
      "э": 167,
      "ё": 168,
      "є": 169,
      "і": 170,
      "ї": 171,
      "ґ": 172,
      "ׁ": 173,
      "ה": 174,
      "ו": 175,
      "י": 176,
      "נ": 177,
      "פ": 178,
      "ש": 179,
      "ḥ": 180,
      "ḿ": 181,
      "Ṅ": 182,
      "ṅ": 183,
      "ṛ": 184,
      "ṣ": 185,
      "ṭ": 186,
      "Ẹ": 187,
      "Ị": 188,
      "ị": 189,
      "Ọ": 190,
      "ọ": 191,
      "Ụ": 192,
      "ụ": 193,
      "‎": 194,
      "‏": 195,
      "–": 196,
      "—": 197,
      "‘": 198,
      "’": 199,
      "“": 200,
      "”": 201,
      "„": 202,
      "•": 203,
      "…": 204,
      "₦": 205,
      "€": 206,
      "−": 207,
      "▁": 208,
      "■": 209,
      "▪": 210,
      "●": 211,
      "★": 212,
      "": 213,
      "﻿": 214,
      "▁n": 215,
      "▁a": 216,
      "▁na": 217,
      "▁m": 218,
      "▁i": 219,
      "▁e": 220,
      "▁o": 221,
      "dị": 222,
      "kw": 223,
      "▁ọ": 224,
      "ny": 225,
      "ka": 226,
      "ha": 227,
      "▁,": 228,
      "▁.": 229,
      "▁g": 230,
      "bụ": 231,
      "er": 232,
      "▁.\n": 233,
      "ke": 234,
      "he": 235,
      "▁na-": 236,
      "▁n’": 237,
      "ere": 238,
      "ra": 239,
      "ya": 240,
      "▁ndị": 241,
      "▁ya": 242,
      "▁bụ": 243,
      "gb": 244,
      "hụ": 245,
      "▁ha": 246,
      "▁ụ": 247,
      "ta": 248,
      "▁ka": 249,
      "hị": 250,
      "si": 251,
      "ma": 252,
      "rụ": 253,
      "me": 254,
      "▁ihe": 255,
      "kwu": 256,
      "▁ma": 257,
      "kp": 258,
      "we": 259,
      "▁any": 260,
      "nye": 261,
      "▁N": 262,
      "▁ga": 263,
      "wa": 264,
      "la": 265,
      "hi": 266,
      "ri": 267,
      "kwa": 268,
      "▁ahụ": 269,
      "ba": 270,
      "rị": 271,
      "zi": 272,
      "ji": 273,
      "ru": 274,
      "▁dị": 275,
      "▁ị": 276,
      "te": 277,
      "▁nke": 278,
      "▁anyị": 279,
      "▁O": 280,
      "ghị": 281,
      "▁J": 282,
      "▁ga-": 283,
      "▁A": 284,
      "le": 285,
      "bi": 286,
      "sị": 287,
      "na": 288,
      "tụ": 289,
      "dụ": 290,
      "▁M": 291,
      "zọ": 292,
      "▁c": 293,
      "▁u": 294,
      "be": 295,
      "pụ": 296,
      "tu": 297,
      "▁I": 298,
      "mụ": 299,
      "▁nw": 300,
      "▁onye": 301,
      "▁Ọ": 302,
      "▁mma": 303,
      "▁n'": 304,
      "ti": 305,
      "kọ": 306,
      "on": 307,
      "▁C": 308,
      "che": 309,
      "ne": 310,
      "rọ": 311,
      "▁ag": 312,
      "gbe": 313,
      "▁si": 314,
      "họ": 315,
      "va": 316,
      "nt": 317,
      "gba": 318,
      "lọ": 319,
      "▁eme": 320,
      "▁E": 321,
      "▁B": 322,
      "▁kwu": 323,
      "wu": 324,
      "ho": 325,
      "▁ike": 326,
      "▁Je": 327,
      "chị": 328,
      "nụ": 329,
      "▁ji": 330,
      "li": 331,
      "fọ": 332,
      "nwe": 333,
      "▁Jeho": 334,
      "▁Jehova": 335,
      "kụ": 336,
      "ara": 337,
      "▁mmadụ": 338,
      "bu": 339,
      "kwe": 340,
      "▁mere": 341,
      "▁aka": 342,
      "do": 343,
      "▁nwere": 344,
      "cha": 345,
      "▁gị": 346,
      "▁?": 347,
      "▁ebe": 348,
      "▁con": 349,
      "tent": 350,
      "▁content": 351,
      "▁content_": 352,
      "▁K": 353,
      "kwụ": 354,
      "▁me": 355,
      "▁“": 356,
      "so": 357,
      "▁Chi": 358,
      "▁otu": 359,
      "pụta": 360,
      "▁ezi": 361,
      "tọ": 362,
      "▁sị": 363,
      "▁?\n": 364,
      "▁anya": 365,
      "▁kwuru": 366,
      "▁S": 367,
      "▁”": 368,
      "tú": 369,
      "ro": 370,
      "▁obi": 371,
      "▁Chine": 372,
      "de": 373,
      "gbu": 374,
      "chi": 375,
      "▁Chineke": 376,
      "▁nwa": 377,
      "▁gba": 378,
      "nu": 379,
      "wee": 380,
      "▁ime": 381,
      "▁Ma": 382,
      "▁kp": 383,
      "▁mgbe": 384,
      "▁ụmụ": 385,
      "▁)": 386,
      "ile": 387,
      "ge": 388,
      "▁abụ": 389,
      "▁ụlọ": 390,
      "▁otú": 391,
      "wụ": 392,
      "nyere": 393,
      "▁:": 394,
      "▁ọzọ": 395,
      "▁G": 396,
      "iile": 397,
      "go": 398,
      ".\n": 399,
      "nyị": 400,
      "▁niile": 401,
      "aị": 402,
      "▁nọ": 403,
      "zu": 404,
      "di": 405,
      "sa": 406,
      "gha": 407,
      "gbo": 408,
      "nọ": 409,
      "▁”\n": 410,
      "ụrụ": 411,
      "da": 412,
      "▁maka": 413,
      "▁isi": 414,
      "lu": 415,
      "bo": 416,
      "rịa": 417,
      "re": 418,
      "hu": 419,
      "▁wee": 420,
      "▁Ji": 421,
      "▁Ndị": 422,
      "kpe": 423,
      "kpa": 424,
      "▁N’": 425,
      "bọ": 426,
      "▁H": 427,
      "▁bụrụ": 428,
      "mi": 429,
      "gwu": 430,
      "▁ọrụ": 431,
      "▁ihi": 432,
      "kwọ": 433,
      "ọrọ": 434,
      "▁iche": 435,
      "zọs": 436,
      "▁Jizọs": 437,
      "▁ny": 438,
      "bị": 439,
      "▁afọ": 440,
      "▁ozi": 441,
      "▁D": 442,
      "▁kwe": 443,
      "nị": 444,
      "kwụkwọ": 445,
      "tụtụ": 446,
      "▁okwu": 447,
      "▁oge": 448,
      "ala": 449,
      "▁aga": 450,
      "▁agba": 451,
      "se": 452,
      "▁ba": 453,
      "▁P": 454,
      "▁\"": 455,
      "▁bụ́": 456,
      "▁ụzọ": 457,
      "kwara": 458,
      "tara": 459,
      "sọ": 460,
      "ze": 461,
      "lee": 462,
      "ọọ": 463,
      "sịrị": 464,
      "▁unu": 465,
      "fe": 466,
      "▁chọ": 467,
      "▁na-a": 468,
      "ko": 469,
      "ga": 470,
      "▁ala": 471,
      "▁abụọ": 472,
      "▁adị": 473,
      "▁ọma": 474,
      "▁iri": 475,
      "▁s": 476,
      "nwụ": 477,
      "eti": 478,
      "▁mee": 479,
      "▁onwe": 480,
      "▁Ihe": 481,
      "▁ama": 482,
      "bịa": 483,
      "gw": 484,
      "▁ọtụtụ": 485,
      "▁Ka": 486,
      "wara": 487,
      "▁U": 488,
      "▁mba": 489,
      "▁ru": 490,
      "ku": 491,
      "▁Ha": 492,
      "hụrụ": 493,
      "pu": 494,
      "▁na-e": 495,
      "▁iji": 496,
      "▁nwe": 497,
      "▁akụ": 498,
      "st": 499,
      "▁enwe": 500,
      "teeti": 501,
      "▁n'i": 502,
      "▁Ụ": 503,
      "▁atụ": 504,
      "anyị": 505,
      "▁Onye": 506,
      "du": 507,
      "▁ndụ": 508,
      "▁’": 509,
      "▁T": 510,
      "bodo": 511,
      "fọdụ": 512,
      "tere": 513,
      "▁akwụkwọ": 514,
      "▁L": 515,
      "to": 516,
      "▁'": 517,
      "zụ": 518,
      "okwu": 519,
      "nwa": 520,
      "▁(": 521,
      "nya": 522,
      "▁ekwu": 523,
      "bọchị": 524,
      "▁kwesịrị": 525,
      "pụtara": 526,
      "▁-": 527,
      "\"\"": 528,
      "isi": 529,
      "pụrụ": 530,
      "bụl": 531,
      "▁eji": 532,
      "▁Olee": 533,
      "▁bi": 534,
      "▁bụla": 535,
      "▁ego": 536,
      "eri": 537,
      "▁ọnụ": 538,
      "ni": 539,
      "jụ": 540,
      "▁2": 541,
      "▁Na": 542,
      "▁Baị": 543,
      "▁Baịbụl": 544,
      "▁dịka": 545,
      "▁n'a": 546,
      "▁1": 547,
      "▁nakwa": 548,
      "▁steeti": 549,
      "nna": 550,
      "▁aha": 551,
      "▁‘": 552,
      "▁obodo": 553,
      "▁Mgbe": 554,
      "je": 555,
      "▁ụwa": 556,
      "▁F": 557,
      "▁agha": 558,
      "▁atọ": 559,
      "oke": 560,
      "▁R": 561,
      "▁banyere": 562,
      "▁bu": 563,
      "▁;": 564,
      "▁content_1": 565,
      "sụ": 566,
      "▁ụbọchị": 567,
      "▁Naị": 568,
      "gbọ": 569,
      "▁esi": 570,
      "chọ": 571,
      "lite": 572,
      "▁nyere": 573,
      "pa": 574,
      "▁ná": 575,
      "lụ": 576,
      "▁go": 577,
      "▁ụfọdụ": 578,
      "▁mkpa": 579,
      "kpọ": 580,
      "▁nwaanyị": 581,
      "miri": 582,
      "▁anọ": 583,
      "▁gwara": 584,
      "▁chọrọ": 585,
      "▁elu": 586,
      "jirịa": 587,
      "▁d": 588,
      "were": 589,
      "▁ọchị": 590,
      "▁Ị": 591,
      "gi": 592,
      "▁nso": 593,
      "ki": 594,
      "▁ana": 595,
      "▁Gị": 596,
      "mu": 597,
      "wo": 598,
      "▁egwu": 599,
      "▁mkp": 600,
      "tị": 601,
      "▁20": 602,
      "aka": 603,
      "sara": 604,
      "▁enye": 605,
      "yi": 606,
      "▁nwoke": 607,
      "▁ebi": 608,
      "▁mme": 609,
      "▁Naịjirịa": 610,
      "▁ruo": 611,
      "▁nye": 612,
      "▁arụ": 613,
      "▁Anyị": 614,
      "▁amụ": 615,
      "bere": 616,
      "▁ekwe": 617,
      "▁ikpe": 618,
      "▁so": 619,
      "▁iwu": 620,
      "chara": 621,
      "lị": 622,
      "raị": 623,
      "▁Gịnị": 624,
      "▁ụtọ": 625,
      "▁kọ": 626,
      "▁ebu": 627,
      "fu": 628,
      "▁hụrụ": 629,
      "▁ọkụ": 630,
      "▁di": 631,
      "▁mụ": 632,
      "gbakọ": 633,
      "hịa": 634,
      "▁onyeisi": 635,
      "▁kpọrọ": 636,
      "▁Igbo": 637,
      "▁ọg": 638,
      "siri": 639,
      "▁ọchịchị": 640,
      "▁tụ": 641,
      "▁aba": 642,
      "nyi": 643,
      "▁eziokwu": 644,
      "▁asa": 645,
      "▁ihu": 646,
      "▁à": 647,
      "▁gbasara": 648,
      "▁Y": 649,
      "ziri": 650,
      "kpu": 651,
      "▁gara": 652,
      "▁ọbụ": 653,
      "raịst": 654,
      "ju": 655,
      "▁Kraịst": 656,
      "▁uwe": 657,
      "gharị": 658,
      "ig": 659,
      "za": 660,
      "▁nwee": 661,
      "▁site": 662,
      "▁gha": 663,
      "▁mmụ": 664,
      "▁pụrụ": 665,
      "▁nwu": 666,
      "▁jiri": 667,
      "▁eche": 668,
      "▁mmiri": 669,
      "▁ng": 670,
      "rel": 671,
      "taa": 672,
      "▁ugbu": 673,
      "ozi": 674,
      "jọ": 675,
      "▁Nke": 676,
      "ee": 677,
      "▁adịghị": 678,
      "here": 679,
      "▁kpọ": 680,
      "▁eti": 681,
      "▁Iz": 682,
      "▁kwa": 683,
      "vi": 684,
      "▁Izrel": 685,
      "▁’\n": 686,
      "▁nna": 687,
      "▁n'o": 688,
      "▁we": 689,
      "\tN": 690,
      "▁mbụ": 691,
      "▁ọj": 692,
      "▁gbara": 693,
      "▁mara": 694,
      "▁ghara": 695,
      "lo": 696,
      "▁nwunye": 697,
      "▁ịna": 698,
      "kpo": 699,
      "▁ezigbo": 700,
      "▁agaghị": 701,
      "ọọme": 702,
      "mume": 703,
      "▁ga-a": 704,
      "▁mmụọ": 705,
      "jii": 706,
      "▁achọ": 707,
      "▁n'ụ": 708,
      "▁ok": 709,
      "▁ọjọọ": 710,
      "▁\"\"\"": 711,
      "▁\"\"\"\"": 712,
      "▁ele": 713,
      "eze": 714,
      "▁anụ": 715,
      "▁ụgbọ": 716,
      "▁ke": 717,
      "▁ọnwa": 718,
      "mp": 719,
      "zị": 720,
      "▁nsogbu": 721,
      "▁ga-e": 722,
      "zo": 723,
      "▁hụ": 724,
      "chie": 725,
      "▁ọgbakọ": 726,
      "ṅụ": 727,
      "▁Nwa": 728,
      "▁201": 729,
      "▁nsọ": 730,
      "chụ": 731,
      "▁ti": 732,
      "▁bịa": 733,
      "kọta": 734,
      "▁gaa": 735,
      "▁akpa": 736,
      "▁gbu": 737,
      "ghara": 738,
      "anị": 739,
      "▁Obi": 740,
      "▁eso": 741,
      "▁Dị": 742,
      "hie": 743,
      "▁W": 744,
      "▁Jo": 745,
      "nyo": 746,
      "▁eze": 747,
      "ọl": 748,
      "zie": 749,
      "an": 750,
      "▁tu": 751,
      "▁akwa": 752,
      "▁ntị": 753,
      "bara": 754,
      "▁sịrị": 755,
      "▁oke": 756,
      "▁ịna-": 757,
      "▁Otu": 758,
      "ja": 759,
      "▁ahụ́": 760,
      "▁Ju": 761,
      "uha": 762,
      "ria": 763,
      "ola": 764,
      "▁,\n": 765,
      "el": 766,
      "▁ukwu": 767,
      "nam": 768,
      "▁rụ": 769,
      "▁ọrịa": 770,
      "▁eru": 771,
      "or": 772,
      "▁ụdị": 773,
      "▁ụmụnna": 774,
      "▁naanị": 775,
      "▁taa": 776,
      "▁kwụ": 777,
      "▁anwụ": 778,
      "▁akpọ": 779,
      "▁ise": 780,
      "▁uru": 781,
      "▁ọnwụ": 782,
      "▁mgba": 783,
      "▁gọọme": 784,
      "kị": 785,
      "▁che": 786,
      "▁anaghị": 787,
      "kpere": 788,
      "nd": 789,
      "▁echi": 790,
      "▁kwuo": 791,
      "▁achị": 792,
      "▁Sa": 793,
      "ghi": 794,
      "ojii": 795,
      "▁Bi": 796,
      "▁Be": 797,
      "▁ọbụla": 798,
      "ọn": 799,
      "jà": 800,
      "ntị": 801,
      "litere": 802,
      "▁agụ": 803,
      "▁nri": 804,
      "rịrị": 805,
      "▁omume": 806,
      "▁ghọ": 807,
      "kpụ": 808,
      "▁tupu": 809,
      "mo": 810,
      "▁ole": 811,
      "▁ịhụ": 812,
      "▁agwa": 813,
      "gu": 814,
      "▁mkpụrụ": 815,
      "▁were": 816,
      "▁ọhụrụ": 817,
      "▁ajụ": 818,
      "▁n'ọ": 819,
      "▁Ya": 820,
      "▁bụghị": 821,
      "gide": 822,
      "▁kpa": 823,
      "▁Ala": 824,
      "▁oké": 825,
      "kere": 826,
      "ikpe": 827,
      "▁uweojii": 828,
      "▁mana": 829,
      "▁De": 830,
      "▁enweghị": 831,
      "doro": 832,
      "▁pụtara": 833,
      "nti": 834,
      "▁iwe": 835,
      "▁nche": 836,
      "▁ọka": 837,
      "▁19": 838,
      "▁ịgba": 839,
      "▁content_11": 840,
      "olu": 841,
      "kụkọ": 842,
      "▁osi": 843,
      "kwasị": 844,
      "bịara": 845,
      "bra": 846,
      "▁enyere": 847,
      "▁gwa": 848,
      "▁kacha": 849,
      "▁okpu": 850,
      "gụ": 851,
      "▁ibe": 852,
      "▁narị": 853,
      "nụlọ": 854,
      "ghachi": 855,
      "▁Pọl": 856,
      "mà": 857,
      "▁de": 858,
      "▁nkwa": 859,
      "▁azụ": 860,
      "mer": 861,
      "vanọ": 862,
      "▁akụkọ": 863,
      "su": 864,
      "▁asụ": 865,
      "pe": 866,
      "ọvanọ": 867,
      "▁ekpere": 868,
      "ce": 869,
      "▁ịbụ": 870,
      "▁ezinụlọ": 871,
      "▁Se": 872,
      "▁gosiri": 873,
      "▁gụ": 874,
      "▁content_10": 875,
      "▁uche": 876,
      "rịta": 877,
      "\tO": 878,
      "▁siri": 879,
      "▁la": 880,
      "▁Otú": 881,
      "▁Ba": 882,
      "▁pu": 883,
      "▁ọ̀": 884,
      "▁n'ime": 885,
      "ọrụ": 886,
      "nyeghị": 887,
      "▁nne": 888,
      "▁etiti": 889,
      "▁n'e": 890,
      "igwe": 891,
      "▁abụghị": 892,
      "▁egosi": 893,
      "ng": 894,
      "gwọ": 895,
      "▁dere": 896,
      "uhari": 897,
      "▁echiche": 898,
      "▁ì": 899,
      "▁ume": 900,
      "▁efe": 901,
      "▁malitere": 902,
      "▁kama": 903,
      "▁nwụrụ": 904,
      "▁puku": 905,
      "▁nzu": 906,
      "▁Na-": 907,
      "▁ò": 908,
      "▁malite": 909,
      "\tA": 910,
      "▁iko": 911,
      "hukwu": 912,
      "▁bụkwa": 913,
      "▁ịdị": 914,
      "▁abịa": 915,
      "▁eluigwe": 916,
      "kwere": 917,
      "▁bọ": 918,
      "mgbe": 919,
      "▁ntu": 920,
      "▁!": 921,
      "▁zu": 922,
      "ike": 923,
      "mme": 924,
      "▁inwe": 925,
      "tan": 926,
      "BC": 927,
      "▁akọ": 928,
      "▁Eze": 929,
      "▁da": 930,
      "▁Ebe": 931,
      "▁asị": 932,
      "▁ibu": 933,
      "▁content_9": 934,
      "▁ịma": 935,
      "▁Buhari": 936,
      "▁Anam": 937,
      "▁ikwu": 938,
      "▁ekpe": 939,
      "▁bịara": 940,
      "▁ugbua": 941,
      "dọ": 942,
      "▁etu": 943,
      "▁Che": 944,
      "dum": 945,
      "▁ugbo": 946,
      "▁asaa": 947,
      "beghị": 948,
      "eru": 949,
      "▁ntụ": 950,
      "ghọ": 951,
      "▁ọsọ": 952,
      "▁content_7": 953,
      "▁nweghị": 954,
      "▁akwụ": 955,
      "ela": 956,
      "▁Alaeze": 957,
      "▁ọmụ": 958,
      "▁gburu": 959,
      "nne": 960,
      "▁ewe": 961,
      "▁Ụlọ": 962,
      "gburu": 963,
      "▁BBC": 964,
      "▁j": 965,
      "ịka": 966,
      "meri": 967,
      "▁p": 968,
      "▁content_8": 969,
      "▁okwukwe": 970,
      "vid": 971,
      "▁kụ": 972,
      "▁content_3": 973,
      "▁ezu": 974,
      "▁amụma": 975,
      "▁mbọ": 976,
      "▁Le": 977,
      "nọdụ": 978,
      "liaka": 979,
      "ọla": 980,
      "▁eri": 981,
      "▁nje": 982,
      "▁ọgwụ": 983,
      "▁ruru": 984,
      "▁ọdị": 985,
      "▁agbanyeghị": 986,
      "▁ajụjụ": 987,
      "iwu": 988,
      "▁Si": 989,
      "▁Nai": 990,
      "▁ahịa": 991,
      "▁b": 992,
      "▁ome": 993,
      "▁ịna-e": 994,
      "bata": 995,
      "▁Z": 996,
      "jiria": 997,
      "▁isii": 998,
      "▁ụka": 999,
      "▁abalị": 1000,
      "▁enyi": 1001,
      "sọmp": 1002,
      "▁Anambra": 1003,
      "▁kpe": 1004,
      "sha": 1005,
      "▁Ke": 1006,
      "▁gosi": 1007,
      "▁content_4": 1008,
      "▁nnọ": 1009,
      "▁ekwesị": 1010,
      "ọbụ": 1011,
      "▁pa": 1012,
      "▁ohu": 1013,
      "▁Ụmụ": 1014,
      "▁tọ": 1015,
      "ọs": 1016,
      "no": 1017,
      "al": 1018,
      "th": 1019,
      "▁ọnọdụ": 1020,
      "▁eke": 1021,
      "àmà": 1022,
      "▁á": 1023,
      "▁maọbụ": 1024,
      "▁dịrị": 1025,
      "▁eto": 1026,
      "gwè": 1027,
      "▁Ga": 1028,
      "▁karịa": 1029,
      "▁Ro": 1030,
      "▁onyeisiala": 1031,
      "▁alụ": 1032,
      "▁na-eme": 1033,
      "▁nwụ": 1034,
      "▁Af": 1035,
      "▁nnu": 1036,
      "▁Nna": 1037,
      "▁bọọ": 1038,
      "▁ada": 1039,
      "▁ozu": 1040,
      "▁asụsụ": 1041,
      "mma": 1042,
      "▁Okwu": 1043,
      "▁N'": 1044,
      "▁mmanụ": 1045,
      "gwà": 1046,
      "▁dịghị": 1047,
      "▁nta": 1048,
      "regwu": 1049,
      "▁kwere": 1050,
      "kporo": 1051,
      "▁mụrụ": 1052,
      "▁mpa": 1053,
      "lie": 1054,
      "▁okenye": 1055,
      "▁content_6": 1056,
      "anya": 1057,
      "▁Devid": 1058,
      "▁buru": 1059,
      "▁egbu": 1060,
      "ou": 1061,
      "▁yi": 1062,
      "akwụkwọ": 1063,
      "▁gaghị": 1064,
      "nanya": 1065,
      "▁f": 1066,
      "▁ugboro": 1067,
      "▁ntuliaka": 1068,
      "▁bọọlụ": 1069,
      "▁le": 1070,
      "▁ukwuu": 1071,
      "karị": 1072,
      "ve": 1073,
      "▁Da": 1074,
      "chaa": 1075,
      "▁ụgwọ": 1076,
      "▁ya\n": 1077,
      "kike": 1078,
      "▁Ọtụtụ": 1079,
      "▁osisi": 1080,
      "▁Mana": 1081,
      "gwe": 1082,
      "▁ọcha": 1083,
      "▁izu": 1084,
      "nal": 1085,
      "▁ezie": 1086,
      "▁zi": 1087,
      "chiri": 1088,
      "ye": 1089,
      "▁ụlọọrụ": 1090,
      "▁ngwa": 1091,
      "▁àgwà": 1092,
      "▁karịrị": 1093,
      "▁ọkwa": 1094,
      "oo": 1095,
      "00": 1096,
      "kwà": 1097,
      "▁gịnị": 1098,
      "▁Iji": 1099,
      "mba": 1100,
      "koro": 1101,
      "▁content_5": 1102,
      "▁mmehie": 1103,
      "▁ri": 1104,
      "▁n'ụlọ": 1105,
      "▁ugwu": 1106,
      "▁nọrọ": 1107,
      "▁nd": 1108,
      "\tỌ": 1109,
      "▁Li": 1110,
      "mụta": 1111,
      "▁ehi": 1112,
      "azụ": 1113,
      "tion": 1114,
      "▁gbaa": 1115,
      "nta": 1116,
      "▁akụkụ": 1117,
      "▁!\n": 1118,
      "▁nwekwara": 1119,
      "▁gọọmentị": 1120,
      "rịọ": 1121,
      "chukwu": 1122,
      "▁aghọ": 1123,
      "▁Ndịàmà": 1124,
      "▁Akwụkwọ": 1125,
      "mọ": 1126,
      "▁n'afọ": 1127,
      "▁na-ekwu": 1128,
      "▁mechara": 1129,
      "▁meri": 1130,
      "kee": 1131,
      "▁ụgbọala": 1132,
      "▁eje": 1133,
      "▁ụkwụ": 1134,
      "▁nku": 1135,
      "il": 1136,
      "▁kwukwara": 1137,
      "▁asatọ": 1138,
      "gara": 1139,
      "▁ịga": 1140,
      "fufe": 1141,
      "▁be": 1142,
      "▁n'aka": 1143,
      "▁olee": 1144,
      "▁gọọmenti": 1145,
      "ita": 1146,
      "▁obere": 1147,
      "▁Setan": 1148,
      "oro": 1149,
      "▁atụrụ": 1150,
      "▁ọmụmụ": 1151,
      "▁nwanna": 1152,
      "kọrọ": 1153,
      "▁ju": 1154,
      "▁ede": 1155,
      "▁kpebi": 1156,
      "▁udo": 1157,
      "▁mpaghara": 1158,
      "▁;\n": 1159,
      "merịka": 1160,
      "▁nnọọ": 1161,
      "àjà": 1162,
      "chụàjà": 1163,
      "kiri": 1164,
      "▁mata": 1165,
      "rịka": 1166,
      "nwaanyị": 1167,
      "▁n'A": 1168,
      "▁amaghị": 1169,
      "▁ikike": 1170,
      "▁Mozi": 1171,
      "▁Mozis": 1172,
      "▁chere": 1173,
      "sta": 1174,
      "▁La": 1175,
      "▁àjà": 1176,
      "mị": 1177,
      "it": 1178,
      "alaba": 1179,
      "▁nnukwu": 1180,
      "▁content_2": 1181,
      "▁Juu": 1182,
      "sọmpi": 1183,
      "▁Ne": 1184,
      "lem": 1185,
      "▁tinyere": 1186,
      "▁inye": 1187,
      "ụka": 1188,
      "▁ụmụaka": 1189,
      "▁Pa": 1190,
      "▁ndi": 1191,
      "\tM": 1192,
      "PC": 1193,
      "▁Amerịka": 1194,
      "▁ziri": 1195,
      "\tI": 1196,
      "▁goolu": 1197,
      "▁Nwanna": 1198,
      "▁Onyeisi": 1199,
      "▁n'ihi": 1200,
      "▁Jeru": 1201,
      "▁2019": 1202,
      "▁kwụsị": 1203,
      "▁ìgwè": 1204,
      "tù": 1205,
      "▁doro": 1206,
      "▁kọwara": 1207,
      "▁ikpeazụ": 1208,
      "selem": 1209,
      "▁ebighị": 1210,
      "▁Jeruselem": 1211,
      "▁chọọ": 1212,
      "▁Fa": 1213,
      "▁Naijiria": 1214,
      "ter": 1215,
      "▁NA": 1216,
      "▁ọgụ": 1217,
      "gwa": 1218,
      "\tNdị": 1219,
      "▁chụ": 1220,
      "gwụ": 1221,
      "▁Re": 1222,
      "▁Lee": 1223,
      "▁olu": 1224,
      "▁nde": 1225,
      "bia": 1226,
      "▁nchekwa": 1227,
      "kwuo": 1228,
      "▁maara": 1229,
      "▁ịhụnanya": 1230,
      "▁dọ": 1231,
      "▁chi": 1232,
      "▁Maa": 1233,
      "▁Mi": 1234,
      "▁nweta": 1235,
      "▁Ụfọdụ": 1236,
      "▁pụta": 1237,
      "▁kemgbe": 1238,
      "▁njem": 1239,
      "▁dum": 1240,
      "▁ọbara": 1241,
      "dia": 1242,
      "\"\n": 1243,
      "▁ahụhụ": 1244,
      "▁Nig": 1245,
      "▁gọvanọ": 1246,
      "▁n'ihu": 1247,
      "▁ekwuola": 1248,
      "mere": 1249,
      "▁3": 1250,
      "▁nwata": 1251,
      "gwù": 1252,
      "soro": 1253,
      "▁họ": 1254,
      "▁jụrụ": 1255,
      "▁egwuregwu": 1256,
      "▁onyi": 1257,
      "▁ụlọikpe": 1258,
      "ver": 1259,
      "hà": 1260,
      "▁Mo": 1261,
      "▁Mba": 1262,
      "jere": 1263,
      "eria": 1264,
      "▁nzukọ": 1265,
      "▁bụrụkwa": 1266,
      "NY": 1267,
      "▁ohere": 1268,
      "▁nga": 1269,
      "▁nile": 1270,
      "▁Me": 1271,
      "▁ọla": 1272,
      "▁Bo": 1273,
      "▁ịkpa": 1274,
      "kè": 1275,
      "▁pụ": 1276,
      "▁ajọ": 1277,
      "▁ịna-a": 1278,
      "▁ịtụ": 1279,
      "zim": 1280,
      "▁Mma": 1281,
      "▁Jose": 1282,
      "▁ó": 1283,
      "▁Steeti": 1284,
      "godị": 1285,
      "kpara": 1286,
      "▁Tu": 1287,
      "pt": 1288,
      "son": 1289,
      "▁Ama": 1290,
      "pti": 1291,
      "fụ": 1292,
      "▁do": 1293,
      "ble": 1294,
      "▁iyi": 1295,
      "▁ọṅụ": 1296,
      "▁Pita": 1297,
      "ome": 1298,
      "sie": 1299,
      "▁ebubo": 1300,
      "▁ekwesịghị": 1301,
      "▁ndọrọ": 1302,
      "▁ewu": 1303,
      "▁ịrụ": 1304,
      "▁kere": 1305,
      "laị": 1306,
      "elu": 1307,
      "▁gụnyere": 1308,
      "ptizim": 1309,
      "▁V": 1310,
      "▁ù": 1311,
      "▁Pe": 1312,
      "▁Unu": 1313,
      "▁Gọvanọ": 1314,
      "▁mkpọrọ": 1315,
      "iri": 1316,
      "nwere": 1317,
      "▁to": 1318,
      "▁mkpe": 1319,
      "▁ọgba": 1320,
      "ọma": 1321,
      "▁onyinye": 1322,
      "uru": 1323,
      "▁ata": 1324,
      "in": 1325,
      "▁Ja": 1326,
      "▁metụ": 1327,
      "▁z": 1328,
      "▁Di": 1329,
      "▁Ada": 1330,
      "▁okpuru": 1331,
      "▁APC": 1332,
      "▁njọ": 1333,
      "dere": 1334,
      "▁jụ": 1335,
      "matụ": 1336,
      "▁chị": 1337,
      "▁ụmụnwaanyị": 1338,
      "ch": 1339,
      "ịa": 1340,
      "▁rụrụ": 1341,
      "nyocha": 1342,
      "▁achụ": 1343,
      "shi": 1344,
      "▁zuru": 1345,
      "▁Ijipt": 1346,
      "▁hà": 1347,
      "nugwu": 1348,
      "▁ụgha": 1349,
      "▁emekwa": 1350,
      "▁tụrụ": 1351,
      "▁Ò": 1352,
      "nwu": 1353,
      "▁Man": 1354,
      "ran": 1355,
      "▁nụrụ": 1356,
      "po": 1357,
      "ris": 1358,
      "▁Kọ": 1359,
      "▁kwesị": 1360,
      "▁ekwusa": 1361,
      "▁ngalaba": 1362,
      "naụ": 1363,
      "▁Ọ̀": 1364,
      "▁Ru": 1365,
      "nala": 1366,
      "▁Bible": 1367,
      "▁akụziri": 1368,
      "▁kọwa": 1369,
      "▁ochie": 1370,
      "▁bara": 1371,
      "▁se": 1372,
      "▁baptizim": 1373,
      "▁akpụ": 1374,
      "▁ofufe": 1375,
      "▁Su": 1376,
      "ụọ": 1377,
      "▁ito": 1378,
      "gharịa": 1379,
      "▁enweta": 1380,
      "ham": 1381,
      "▁dịkwa": 1382,
      "▁tinye": 1383,
      "ca": 1384,
      "▁zọ": 1385,
      "▁yiri": 1386,
      "▁Ta": 1387,
      "▁na-agba": 1388,
      "▁dara": 1389,
      "▁nkeji": 1390,
      "kwuru": 1391,
      "?\n": 1392,
      "▁ije": 1393,
      "▁nchụàjà": 1394,
      "▁ikom": 1395,
      ":\n": 1396,
      "▁Co": 1397,
      "▁akwado": 1398,
      "kọrịta": 1399,
      "▁ọdụ": 1400,
      "▁Uni": 1401,
      "ghe": 1402,
      "▁Afrịka": 1403,
      "▁okporo": 1404,
      "▁wu": 1405,
      "▁aṅụ": 1406,
      "▁of": 1407,
      "▁Kama": 1408,
      "▁ogo": 1409,
      "▁Onyenwe": 1410,
      "▁ùgwù": 1411,
      "▁Maazị": 1412,
      "▁soro": 1413,
      "▁okpukpe": 1414,
      "▁Nigeria": 1415,
      "fa": 1416,
      "gige": 1417,
      "HE": 1418,
      "▁ege": 1419,
      "ry": 1420,
      "▁nwanne": 1421,
      "bụrụ": 1422,
      "▁202": 1423,
      "▁nkị": 1424,
      "▁ọkpụ": 1425,
      "▁ya.\n": 1426,
      "▁nji": 1427,
      "▁Nsọ": 1428,
      "▁gbuo": 1429,
      "▁n'ihe": 1430,
      "▁mfe": 1431,
      "wakpo": 1432,
      "▁:\n": 1433,
      "▁Dịka": 1434,
      "▁Ike": 1435,
      "kpụrụ": 1436,
      "▁Ọka": 1437,
      "les": 1438,
      "▁oli": 1439,
      "▁Cheta": 1440,
      "▁Bekee": 1441,
      "▁biri": 1442,
      "▁ga-ama": 1443,
      "▁ori": 1444,
      "omi": 1445,
      "6\t": 1446,
      "▁Josef": 1447,
      "▁ile": 1448,
      "▁isiokwu": 1449,
      "▁nle": 1450,
      "▁ụkọ": 1451,
      "nihu": 1452,
      "▁mmemme": 1453,
      "▁Ozi": 1454,
      "▁ejere": 1455,
      "▁gu": 1456,
      "▁ozugbo": 1457,
      "sịa": 1458,
      "▁atụmatụ": 1459,
      "▁rụọ": 1460,
      "▁amụta": 1461,
      "▁meere": 1462,
      "▁ghọta": 1463,
      "DP": 1464,
      "ịrị": 1465,
      "▁Mmadụ": 1466,
      "▁ahọ": 1467,
      "▁lee": 1468,
      "▁dị́": 1469,
      "▁Imo": 1470,
      "▁anyanwụ": 1471,
      "▁te": 1472,
      "▁okè": 1473,
      "buru": 1474,
      "gosi": 1475,
      "ci": 1476,
      "▁a\n": 1477,
      "▁Ti": 1478,
      "mọdụ": 1479,
      "▁ọha": 1480,
      "▁n'ala": 1481,
      "▁òtù": 1482,
      "sh": 1483,
      "▁gawa": 1484,
      "▁ha\n": 1485,
      "2\t": 1486,
      "▁itoolu": 1487,
      "fere": 1488,
      "▁akp": 1489,
      "mihe": 1490,
      "iche": 1491,
      "▁edu": 1492,
      "▁elekọta": 1493,
      "\tN'": 1494,
      "fee": 1495,
      "▁ND": 1496,
      "▁Juda": 1497,
      "▁emere": 1498,
      "▁í": 1499,
      "▁ndịozi": 1500,
      "ahụ": 1501,
      "▁asọmpi": 1502,
      "▁apụ": 1503,
      "▁ubi": 1504,
      "1\t": 1505,
      "▁Iwu": 1506,
      "▁pati": 1507,
      "▁nkiri": 1508,
      "ster": 1509,
      "kịrị": 1510,
      "▁gburugburu": 1511,
      "leanya": 1512,
      "wụwa": 1513,
      "▁Cha": 1514,
      "▁hapụ": 1515,
      "▁ụjọ": 1516,
      "9\t": 1517,
      "▁inyere": 1518,
      "▁ana-": 1519,
      "\tIhe": 1520,
      "woke": 1521,
      "▁Isi": 1522,
      "▁Akụkọ": 1523,
      "▁So": 1524,
      "kwuu": 1525,
      "shọ": 1526,
      "▁Fi": 1527,
      "maka": 1528,
      "▁ịnọ": 1529,
      "▁ọbụna": 1530,
      "▁sie": 1531,
      "▁Kanu": 1532,
      "ER": 1533,
      "▁ahụ\n": 1534,
      "per": 1535,
      "▁oche": 1536,
      "▁Ị̀": 1537,
      "lere": 1538,
      "▁oyi": 1539,
      "▁ebube": 1540,
      "▁ntụkwasị": 1541,
      "▁4": 1542,
      "▁Eme": 1543,
      "ll": 1544,
      "▁meekwa": 1545,
      "▁ịkwa": 1546,
      "▁Ar": 1547,
      "▁ndụmọdụ": 1548,
      "taakụkọ": 1549,
      "▁ịmụta": 1550,
      "▁ịghọ": 1551,
      "▁ga-eme": 1552,
      "▁ịmata": 1553,
      "▁etinye": 1554,
      "▁mi": 1555,
      "▁maa": 1556,
      "▁usoro": 1557,
      "▁Fe": 1558,
      "ikwuu": 1559,
      "onal": 1560,
      "zde": 1561,
      "▁mkpu": 1562,
      "hapụ": 1563,
      "▁nway": 1564,
      "▁kachasị": 1565,
      "▁bidoro": 1566,
      "8\t": 1567,
      "0\t": 1568,
      "▁ara": 1569,
      "▁amamihe": 1570,
      "▁PDP": 1571,
      "▁olileanya": 1572,
      "saa": 1573,
      "▁pụọ": 1574,
      "tụrụ": 1575,
      "▁NA-": 1576,
      "pi": 1577,
      "▁Ezi": 1578,
      "▁ụlọikwuu": 1579,
      "▁na-ahụ": 1580,
      "▁kụzi": 1581,
      "7\t": 1582,
      "▁Ca": 1583,
      "4\t": 1584,
      "▁ntaakụkọ": 1585,
      "▁He": 1586,
      "▁akwụsị": 1587,
      "▁nka": 1588,
      "wọ": 1589,
      "▁onyeozi": 1590,
      "ty": 1591,
      "▁Ri": 1592,
      "▁amalite": 1593,
      "▁akọwa": 1594,
      "kà": 1595,
      "▁5": 1596,
      "kwá": 1597,
      "▁mmanya": 1598,
      "logo": 1599,
      "▁iti": 1600,
      "▁ịkpọ": 1601,
      "\tAkụkọ": 1602,
      "▁ịkwụ": 1603,
      "▁n'ụbọchị": 1604,
      "▁obiọma": 1605,
      "▁gọ": 1606,
      "kpuru": 1607,
      "▁tọrọ": 1608,
      "▁ekele": 1609,
      "▁kpọọ": 1610,
      "'\n": 1611,
      "▁We": 1612,
      "\tOnye": 1613,
      "▁No": 1614,
      "▁chọpụtara": 1615,
      "▁naghị": 1616,
      "▁ojii": 1617,
      "▁ụtụtụ": 1618,
      "▁abara": 1619,
      "▁oriri": 1620,
      "woro": 1621,
      "debe": 1622,
      "▁ngagharị": 1623,
      "▁In": 1624,
      "fi": 1625,
      "▁ọhịa": 1626,
      "▁mmasị": 1627,
      "▁IHE": 1628,
      "kọtara": 1629,
      "hè": 1630,
      "3\t": 1631,
      "▁je": 1632,
      "manụ": 1633,
      "▁Adam": 1634,
      "▁nwereike": 1635,
      "▁umeala": 1636,
      "ERE": 1637,
      "gbochi": 1638,
      "▁achọghị": 1639,
      "▁Aba": 1640,
      "▁guzo": 1641,
      "▁nwayọọ": 1642,
      "egwu": 1643,
      "ted": 1644,
      "omeiwu": 1645,
      "▁aza": 1646,
      "▁v": 1647,
      "▁Ọkpara": 1648,
      "▁NDỊ": 1649,
      "ten": 1650,
      "▁agbata": 1651,
      "mọn": 1652,
      "▁ya,": 1653,
      "▁du": 1654,
      "ocha": 1655,
      "▁Anya": 1656,
      "▁ANY": 1657,
      "gọs": 1658,
      "▁mụtara": 1659,
      "jo": 1660,
      "▁Jọn": 1661,
      "▁iro": 1662,
      "taghị": 1663,
      "▁iso": 1664,
      "rè": 1665,
      "▁ibi": 1666,
      "▁Osi": 1667,
      "▁apụta": 1668,
      "▁ịchọ": 1669,
      "▁Onyeisiala": 1670,
      "▁Muha": 1671,
      "▁iru": 1672,
      "▁ókè": 1673,
      "▁n'otu": 1674,
      "▁ogologo": 1675,
      "hadum": 1676,
      "▁akụzi": 1677,
      "▁ogbu": 1678,
      "▁lụ": 1679,
      "▁ọkacha": 1680,
      "▁enyemaka": 1681,
      "kwaghị": 1682,
      "▁ụgbọelu": 1683,
      "for": 1684,
      "▁Bri": 1685,
      "▁mbi": 1686,
      "▁Enugwu": 1687,
      "chite": 1688,
      "▁kpebiri": 1689,
      "▁ga-amasị": 1690,
      "bre": 1691,
      "▁ebo": 1692,
      "▁efu": 1693,
      "▁za": 1694,
      "▁ogige": 1695,
      "man": 1696,
      "▁n'ebe": 1697,
      "▁merie": 1698,
      "▁egbe": 1699,
      "▁ebere": 1700,
      "▁wa": 1701,
      "mara": 1702,
      "▁banye": 1703,
      "▁Tru": 1704,
      "sti": 1705,
      "▁ọtọ": 1706,
      "▁ahụ.\n": 1707,
      "▁juru": 1708,
      "▁meriri": 1709,
      "5\t": 1710,
      "▁ịgwa": 1711,
      "▁gbo": 1712,
      "▁To": 1713,
      "▁inweta": 1714,
      "gbọghọ": 1715,
      "am": 1716,
      "dio": 1717,
      "▁Aka": 1718,
      "▁kọrọ": 1719,
      "▁nkịtị": 1720,
      "▁rị": 1721,
      "▁nwetara": 1722,
      "ck": 1723,
      "▁anụmanụ": 1724,
      "berede": 1725,
      "biri": 1726,
      "▁\"\n": 1727,
      "▁awa": 1728,
      "▁ọdịnihu": 1729,
      "▁nkume": 1730,
      "liri": 1731,
      "▁ịgụ": 1732,
      "▁Chukwu": 1733,
      "gọ": 1734,
      "lọn": 1735,
      "▁mgbasa": 1736,
      "▁bụkwanụ": 1737,
      "▁hi": 1738,
      "▁megide": 1739,
      "▁kpatara": 1740,
      "era": 1741,
      "▁mezu": 1742,
      "▁nyeere": 1743,
      "▁igbu": 1744,
      "▁ntọ": 1745,
      "▁mkpebi": 1746,
      "▁ụra": 1747,
      "▁Abu": 1748,
      "▁nkwu": 1749,
      "▁mberede": 1750,
      "▁ha.\n": 1751,
      "▁chọpụta": 1752,
      "bà": 1753,
      "▁Muhamma": 1754,
      "sote": 1755,
      "kwala": 1756,
      "▁abụrụ": 1757,
      "gidere": 1758,
      "▁nanị": 1759,
      "▁zụ": 1760,
      "▁mgbakọ": 1761,
      "▁lọ": 1762,
      "▁Ebre": 1763,
      "▁Ebreham": 1764,
      "▁nkụ": 1765,
      "aram": 1766,
      "▁mgb": 1767,
      "▁Fran": 1768,
      "▁ahapụ": 1769,
      "▁ụkọchukwu": 1770,
      "▁azọ": 1771,
      "▁nwụọ": 1772,
      "▁Nnam": 1773,
      "rik": 1774,
      "▁Ugbu": 1775,
      "chịchị": 1776,
      "▁a.\n": 1777,
      "bie": 1778,
      "ssi": 1779,
      "nyịnya": 1780,
      "ana": 1781,
      "▁para": 1782,
      "▁osimiri": 1783,
      ".\"\n": 1784,
      "▁Ea": 1785,
      "gbuo": 1786,
      "▁ahị": 1787,
      "▁/": 1788,
      "▁ịmụ": 1789,
      "▁agụụ": 1790,
      "KW": 1791,
      "▁ahụike": 1792,
      "▁n'oge": 1793,
      "▁n'E": 1794,
      "▁hapụrụ": 1795,
      "etiti": 1796,
      "MA": 1797,
      "▁mụta": 1798,
      "▁kpara": 1799,
      "▁Haram": 1800,
      "▁akara": 1801,
      "▁kwesiri": 1802,
      "▁zara": 1803,
      "▁15": 1804,
      "▁Wil": 1805,
      "▁metụtara": 1806,
      "naụlọ": 1807,
      "▁ere": 1808,
      "▁nụ": 1809,
      "▁fọ": 1810,
      "ndọrọ": 1811,
      "▁ìhè": 1812,
      "lata": 1813,
      "▁agwọ": 1814,
      "gra": 1815,
      "▁ofe": 1816,
      "▁Go": 1817,
      "▁adịrị": 1818,
      "kịta": 1819,
      "▁igwe": 1820,
      "▁karị": 1821,
      "kwanụ": 1822,
      "▁alaeze": 1823,
      "▁ṅụ": 1824,
      "▁mer": 1825,
      "▁Mu": 1826,
      "▁Oge": 1827,
      "▁agbalị": 1828,
      "▁n'obodo": 1829,
      "▁United": 1830,
      "▁t": 1831,
      "▁Ịlaị": 1832,
      "▁Gi": 1833,
      "mkpa": 1834,
      "▁arịọ": 1835,
      "biga": 1836,
      "▁Al": 1837,
      "▁Nzu": 1838,
      "▁ife": 1839,
      "▁Sọl": 1840,
      "▁Boko": 1841,
      "▁ịghọta": 1842,
      "▁re": 1843,
      "▁mmeri": 1844,
      "ero": 1845,
      "▁tere": 1846,
      "pob": 1847,
      "co": 1848,
      "▁asọ": 1849,
      "▁l": 1850,
      "▁Meri": 1851,
      "▁nkuzi": 1852,
      "▁sa": 1853,
      "▁ekweghị": 1854,
      "▁Ge": 1855,
      "▁arịrị": 1856,
      "▁She": 1857,
      "▁Mee": 1858,
      "ment": 1859,
      "▁a,": 1860,
      "▁ịnyịnya": 1861,
      "kwasịrị": 1862,
      "▁nto": 1863,
      "▁Ko": 1864,
      "edo": 1865,
      "vaị": 1866,
      "ity": 1867,
      "▁Tupu": 1868,
      "▁n'okpuru": 1869,
      "▁Trump": 1870,
      "▁Te": 1871,
      "shal": 1872,
      "agha": 1873,
      "▁6": 1874,
      "▁ụmụnne": 1875,
      "▁àmà": 1876,
      "▁ewere": 1877,
      "sea": 1878,
      "▁ku": 1879,
      "ghịkwa": 1880,
      "▁)\n": 1881,
      "▁7": 1882,
      "▁akpọrọ": 1883,
      "ọzi": 1884,
      "▁mụọ": 1885,
      "KE": 1886,
      "▁onyo": 1887,
      "▁Ade": 1888,
      "▁emezu": 1889,
      "senal": 1890,
      "▁wepụtara": 1891,
      "▁ANYỊ": 1892,
      "▁n'u": 1893,
      "▁ndọrọndọrọ": 1894,
      "▁Muhammadu": 1895,
      "lik": 1896,
      "▁ghọọ": 1897,
      "▁arịa": 1898,
      "▁cheta": 1899,
      "▁Yu": 1900,
      "ss": 1901,
      "▁ndu": 1902,
      "▁ese": 1903,
      "▁omenala": 1904,
      "afọ": 1905,
      "▁echeta": 1906,
      "▁Ekwe": 1907,
      "▁Legọs": 1908,
      "▁amị": 1909,
      "▁ghọtara": 1910,
      "▁ikwe": 1911,
      "▁emeela": 1912,
      "▁dee": 1913,
      "▁ta": 1914,
      "▁laa": 1915,
      "yo": 1916,
      "▁Ni": 1917,
      "land": 1918,
      "tional": 1919,
      "muel": 1920,
      "▁Ugwu": 1921,
      "▁200": 1922,
      "ootu": 1923,
      "▁ọda": 1924,
      "▁Bu": 1925,
      "▁bo": 1926,
      "▁rịọ": 1927,
      "kwute": 1928,
      "▁aghọta": 1929,
      "▁Nnamdi": 1930,
      "▁na\n": 1931,
      "▁emume": 1932,
      "chiela": 1933,
      "▁izi": 1934,
      "▁ịchị": 1935,
      "▁Oke": 1936,
      "ar": 1937,
      "▁kpụ": 1938,
      "▁okoro": 1939,
      "▁Nzukọ": 1940,
      "ṅomi": 1941,
      "gharịrị": 1942,
      "ber": 1943,
      "▁kasị": 1944,
      "▁ntoro": 1945,
      "wi": 1946,
      "▁vootu": 1947,
      "chu": 1948,
      "▁bido": 1949,
      "▁edo": 1950,
      "▁gaara": 1951,
      "wit": 1952,
      "▁—": 1953,
      "▁Hi": 1954,
      "▁Samuel": 1955,
      "▁ohi": 1956,
      "▁ọwụwa": 1957,
      "▁sitere": 1958,
      "▁Ana": 1959,
      "▁Ho": 1960,
      "▁njikere": 1961,
      "rà": 1962,
      "▁sọ": 1963,
      "▁ịlụ": 1964,
      "▁Jọ": 1965,
      "chester": 1966,
      "▁kpu": 1967,
      "▁Aha": 1968,
      "▁Ọrụ": 1969,
      "▁baara": 1970,
      "▁Arsenal": 1971,
      "▁gbalị": 1972,
      "▁midia": 1973,
      "▁Ipob": 1974,
      "▁ịta": 1975,
      "▁Obia": 1976,
      "▁n'isi": 1977,
      "▁k": 1978,
      "balị": 1979,
      "▁fọrọ": 1980,
      "zụzụ": 1981,
      "bụgba": 1982,
      "warị": 1983,
      "tụta": 1984,
      "▁ọlaedo": 1985,
      "▁ọgbọ": 1986,
      "▁cha": 1987,
      "má": 1988,
      "rus": 1989,
      "▁agbanwe": 1990,
      "▁achịcha": 1991,
      "AR": 1992,
      "▁Okoro": 1993,
      "lsea": 1994,
      "puta": 1995,
      "▁mkparịta": 1996,
      "▁Nwaanyị": 1997,
      "▁ọhụ": 1998,
      "▁jụọ": 1999,
      "▁soshal": 2000,
      "▁Gọọme": 2001,
      "▁laghachi": 2002,
      "họta": 2003,
      "▁alaka": 2004,
      "▁Rom": 2005,
      "▁onyonyo": 2006,
      "▁erubere": 2007,
      "GB": 2008,
      "NE": 2009,
      "sì": 2010,
      "tiku": 2011,
      "pụtala": 2012,
      "▁wụ": 2013,
      "▁gachara": 2014,
      "fra": 2015,
      "▁Abụ": 2016,
      "▁ogbe": 2017,
      "ọgwụ": 2018,
      "▁ịba": 2019,
      "chapụ": 2020,
      "▁ngw": 2021,
      "chaghị": 2022,
      "kwo": 2023,
      "▁Moha": 2024,
      "▁weere": 2025,
      "▁ákwà": 2026,
      "▁adọ": 2027,
      "▁nlekọta": 2028,
      "▁Ra": 2029,
      "▁kọwaa": 2030,
      "▁ịjụ": 2031,
      "▁amata": 2032,
      "▁Fili": 2033,
      "daị": 2034,
      "▁anabata": 2035,
      "▁lụrụ": 2036,
      "▁Mụ": 2037,
      "sọmpị": 2038,
      "▁agbọghọ": 2039,
      "▁Aị": 2040,
      "▁ụnya": 2041,
      "rọn": 2042,
      "▁ọgbụgba": 2043,
      "▁Babị": 2044,
      "▁ọsụ": 2045,
      "▁Bia": 2046,
      "▁rie": 2047,
      "▁Babịlọn": 2048,
      "▁gụrụ": 2049,
      "▁n'okwu": 2050,
      "▁ụda": 2051,
      "con": 2052,
      "▁Manchester": 2053,
      "chitere": 2054,
      "▁ghọrọ": 2055,
      "▁Super": 2056,
      "▁Nọ": 2057,
      "▁Ok": 2058,
      "▁Obianọ": 2059,
      "▁City": 2060,
      "▁na-aga": 2061,
      "mmed": 2062,
      "pị": 2063,
      "▁ezinaụlọ": 2064,
      "▁jide": 2065,
      "▁mmekọ": 2066,
      "▁Ime": 2067,
      "▁Ọnụ": 2068,
      "▁omeiwu": 2069,
      "▁makana": 2070,
      "merụ": 2071,
      "▁oku": 2072,
      "▁nyocha": 2073,
      "wka": 2074,
      "▁mahadum": 2075,
      "▁Sọ": 2076,
      "▁mama": 2077,
      "▁sụ": 2078,
      "zịrị": 2079,
      "nda": 2080,
      "▁nu": 2081,
      "tate": 2082,
      "▁kweere": 2083,
      "dịrị": 2084,
      "tel": 2085,
      "èrè": 2086,
      "ịra": 2087,
      "▁Chelsea": 2088,
      "iwe": 2089,
      "▁Iv": 2090,
      "akụ": 2091,
      "kọwa": 2092,
      "oto": 2093,
      "▁Ndi": 2094,
      "▁Dọ": 2095,
      "virus": 2096,
      "▁ákwá": 2097,
      "ịnị": 2098,
      "▁ịkụ": 2099,
      "▁nnyocha": 2100,
      "▁gbanwe": 2101,
      "orona": 2102,
      "▁acha": 2103,
      "▁osote": 2104,
      "▁nghọta": 2105,
      "▁Uche": 2106,
      "ahịa": 2107,
      "▁ịnụ": 2108,
      "nec": 2109,
      "▁gị:\n": 2110,
      "▁Taa": 2111,
      "pịa": 2112,
      "▁ọzụzụ": 2113,
      "ZI": 2114,
      "▁ahụ,": 2115,
      "▁doo": 2116,
      "▁ámá": 2117,
      "der": 2118,
      "▁zo": 2119,
      "▁ire": 2120,
      "▁na-akpọ": 2121,
      "▁Ònye": 2122,
      "▁ọhụụ": 2123,
      "▁Atiku": 2124,
      "▁ụmụakwụkwọ": 2125,
      "▁ọmụma": 2126,
      "hn": 2127,
      "▁gụọ": 2128,
      "▁Ịlaịja": 2129,
      "▁kee": 2130,
      "▁ịna-eme": 2131,
      "▁Okorocha": 2132,
      "▁ụlọomeiwu": 2133,
      "▁Naịjiria": 2134,
      "▁199": 2135,
      "▁itinye": 2136,
      "daịs": 2137,
      "niel": 2138,
      "▁Ki": 2139,
      "▁amasị": 2140,
      "▁Jona": 2141,
      "▁Saụ": 2142,
      "agu": 2143,
      "ụwa": 2144,
      "▁ụlọakwụkwọ": 2145,
      "ME": 2146,
      "▁Nwo": 2147,
      "▁Ab": 2148,
      "guzo": 2149,
      "▁ahịhịa": 2150,
      "FC": 2151,
      "ol": 2152,
      "▁ide": 2153,
      "▁uju": 2154,
      "▁agwụ": 2155,
      "▁Afri": 2156,
      "▁Biafra": 2157,
      "cy": 2158,
      "eme": 2159,
      "▁icheiche": 2160,
      "▁Eag": 2161,
      "▁2018": 2162,
      "▁Com": 2163,
      "Ha": 2164,
      "▁Ch": 2165,
      "▁Ga-": 2166,
      "kọb": 2167,
      "▁ekpebi": 2168,
      "▁ọdachi": 2169,
      "pọ": 2170,
      "oronavirus": 2171,
      "▁mpụ": 2172,
      "idi": 2173,
      "▁Sou": 2174,
      "iko": 2175,
      "▁ụkpụrụ": 2176,
      "▁oleekwa": 2177,
      "▁n'ọnụ": 2178,
      "ool": 2179,
      "▁naịra": 2180,
      "nan": 2181,
      "gbè": 2182,
      "▁Jekọb": 2183,
      "beghi": 2184,
      "▁amara": 2185,
      "▁À": 2186,
      "▁and": 2187,
      "▁Nne": 2188,
      "▁Zi": 2189,
      "▁okorobịa": 2190,
      "dan": 2191,
      "▁gw": 2192,
      "▁John": 2193,
      "▁chee": 2194,
      "▁8": 2195,
      "gos": 2196,
      "sure": 2197,
      "▁mwakpo": 2198,
      "▁n'etiti": 2199,
      "▁mesịa": 2200,
      "▁ọnwụnwa": 2201,
      "A-": 2202,
      "pool": 2203,
      "verpool": 2204,
      "ebe": 2205,
      "▁tara": 2206,
      "▁ememme": 2207,
      "▁Inec": 2208,
      "rụrụ": 2209,
      "▁amaokwu": 2210,
      "▁Ụmụnna": 2211,
      "aa": 2212,
      "chere": 2213,
      "▁[": 2214,
      "▁Ọnwụ": 2215,
      "▁zaa": 2216,
      "▁n'I": 2217,
      "▁bụrụgodị": 2218,
      "▁è": 2219,
      "▁Saị": 2220,
      "goro": 2221,
      "▁ikwusa": 2222,
      "▁nchọ": 2223,
      "▁ejiri": 2224,
      "kwado": 2225,
      "▁bata": 2226,
      "▁bekee": 2227,
      "20": 2228,
      "▁Nwoke": 2229,
      "oni": 2230,
      "▁Eagles": 2231,
      "▁Ukwu": 2232,
      "▁ebibi": 2233,
      "▁wakporo": 2234,
      "▁ịzụ": 2235,
      "▁mmekọrịta": 2236,
      "▁ịda": 2237,
      "shia": 2238,
      "▁Lu": 2239,
      "▁9": 2240,
      "▁ihere": 2241,
      "one": 2242,
      "▁agbụrụ": 2243,
      "gboro": 2244,
      "▁nkwado": 2245,
      "000": 2246,
      "▁na-achọ": 2247,
      "▁Naịjirịa\n": 2248,
      "▁emee": 2249,
      "▁butere": 2250,
      "▁akpata": 2251,
      "mịiko": 2252,
      "▁rịọrọ": 2253,
      "HO": 2254,
      "▁kọọrọ": 2255,
      "▁Ze": 2256,
      "furu": 2257,
      "▁Saụt": 2258,
      "▁gwụ": 2259,
      "ntane": 2260,
      "kwaara": 2261,
      "▁]": 2262,
      "▁emeri": 2263,
      "▁ode": 2264,
      "▁nkwusa": 2265,
      "▁ọzọ\n": 2266,
      "▁igosi": 2267,
      "▁aṅụrị": 2268,
      "▁Noa": 2269,
      "nsu": 2270,
      "▁OT": 2271,
      "▁Naijirịa": 2272,
      "▁ite": 2273,
      "▁Con": 2274,
      "▁ga-eji": 2275,
      "▁ofesi": 2276,
      "▁Mohammed": 2277,
      "▁ọfụ": 2278,
      "▁papa": 2279,
      "▁tụnyere": 2280,
      "▁inyo": 2281,
      "▁Shi": 2282,
      "▁mmalite": 2283,
      "dri": 2284,
      "▁aja": 2285,
      "▁ịchụ": 2286,
      "▁akwanyere": 2287,
      "▁n'ọnwa": 2288,
      "jiji": 2289,
      "▁ezughị": 2290,
      "▁ọfụma": 2291,
      "WE": 2292,
      "▁Nche": 2293,
      "▁kpọku": 2294,
      "▁Daniel": 2295,
      "▁foto": 2296,
      "▁Or": 2297,
      "▁tụọ": 2298,
      "mpi": 2299,
      "▁kamgbe": 2300,
      "▁omeko": 2301,
      "▁aghara": 2302,
      "▁abata": 2303,
      "rai": 2304,
      "▁Ụlọikpe": 2305,
      "HI": 2306,
      "▁Ì": 2307,
      "▁KA": 2308,
      "▁ọmịiko": 2309,
      "▁ụlọụka": 2310,
      "ndo": 2311,
      "▁nkwe": 2312,
      "▁GA-": 2313,
      "\tMana": 2314,
      "witter": 2315,
      "▁ogbenye": 2316,
      "▁ú": 2317,
      "▁ọdọ": 2318,
      "▁agadi": 2319,
      "▁Kemgbe": 2320,
      "mmụta": 2321,
      "▁Briten": 2322,
      "▁mkpọ": 2323,
      "hụghọ": 2324,
      "neze": 2325,
      "▁Hib": 2326,
      "A\n": 2327,
      "▁ịbịa": 2328,
      "▁Fero": 2329,
      "▁ịna-eche": 2330,
      "\tNke": 2331,
      "▁Job": 2332,
      "▁191": 2333,
      "▁Liverpool": 2334,
      "ague": 2335,
      "batara": 2336,
      "▁Ebo": 2337,
      "▁chụọ": 2338,
      "▁mgbede": 2339,
      "▁mmụta": 2340,
      "▁ọkà": 2341,
      "▁eju": 2342,
      "▁Peter": 2343,
      "▁nzọ": 2344,
      "▁ụta": 2345,
      "rọs": 2346,
      "▁Mar": 2347,
      "jị": 2348,
      "▁nwaa": 2349,
      "▁anwụọla": 2350,
      "▁leba": 2351,
      "fo": 2352,
      "rie": 2353,
      "▁ugo": 2354,
      "▁aghụghọ": 2355,
      "▁ana-a": 2356,
      "kù": 2357,
      "▁mwu": 2358,
      "▁agọzi": 2359,
      "▁obibi": 2360,
      "ọcha": 2361,
      "▁eyi": 2362,
      "kọọ": 2363,
      "▁emetụ": 2364,
      "▁nọkwa": 2365,
      "saya": 2366,
      "▁steeti\n": 2367,
      "▁ngagharịiwe": 2368,
      "▁n'ị": 2369,
      "▁gị\n": 2370,
      "ul": 2371,
      "▁ekwentị": 2372,
      "▁mekwara": 2373,
      "▁kpebie": 2374,
      "▁kwụsịrị": 2375,
      "ly": 2376,
      "▁mechaa": 2377,
      "hazi": 2378,
      "▁Ahụ": 2379,
      "▁ịkwụsị": 2380,
      "▁fọdụ": 2381,
      "▁Pre": 2382,
      "▁fe": 2383,
      "▁anwa": 2384,
      "▁daa": 2385,
      "▁gịnịkwa": 2386,
      "▁inyom": 2387,
      "▁bụbu": 2388,
      "▁Iko": 2389,
      "▁họpụtara": 2390,
      "▁kụziiri": 2391,
      "▁emeghị": 2392,
      "▁n'asọmpi": 2393,
      "▁2020": 2394,
      "▁ụtụ": 2395,
      "▁Katọ": 2396,
      "▁Ben": 2397,
      "ur": 2398,
      "▁ra": 2399,
      "▁jikwa": 2400,
      "▁nzuzo": 2401,
      "▁mezuo": 2402,
      "mike": 2403,
      "▁gbanwee": 2404,
      "▁zie": 2405,
      "▁na-abịa": 2406,
      "▁paragra": 2407,
      "▁boro": 2408,
      "▁Gu": 2409,
      "▁paragraf": 2410,
      "ụzọ": 2411,
      "▁El": 2412,
      "▁aghaghị": 2413,
      "▁kwado": 2414,
      "▁Ụwa": 2415,
      "▁kwesịkwara": 2416,
      "▁kwụrụ": 2417,
      "▁ụlọọgwụ": 2418,
      "▁11": 2419,
      "▁awụ": 2420,
      "▁Oko": 2421,
      "▁arụrụ": 2422,
      "▁dọkịta": 2423,
      "▁South": 2424,
      "▁nabata": 2425,
      "▁arịrịọ": 2426,
      "▁Ụzọ": 2427,
      "▁apụghị": 2428,
      "san": 2429,
      "▁erughị": 2430,
      "TA": 2431,
      "▁ọbịa": 2432,
      "▁dịịrị": 2433,
      "▁na-arụ": 2434,
      "BI": 2435,
      "▁ọgara": 2436,
      "▁Betel": 2437,
      "▁chọọchị": 2438,
      "cto": 2439,
      "▁Po": 2440,
      "họpụta": 2441,
      "▁ncheta": 2442,
      "▁Vi": 2443,
      "▁Ekwensu": 2444,
      "▁Eji": 2445,
      "▁ugbua,": 2446,
      "▁ọgụgụ": 2447,
      "▁katọ": 2448,
      "▁kpere": 2449,
      "▁kpee": 2450,
      "gwo": 2451,
      "▁n'abalị": 2452,
      "▁mkpagbu": 2453,
      "▁ezo": 2454,
      "onwe": 2455,
      "nter": 2456,
      "▁aṅ": 2457,
      "turu": 2458,
      "▁emebi": 2459,
      "▁kara": 2460,
      "▁ịchụàjà": 2461,
      "▁na-enye": 2462,
      "▁ọ́": 2463,
      "▁Abia": 2464,
      "▁na-ebu": 2465,
      "▁enwere": 2466,
      "▁abanye": 2467,
      "▁ezumike": 2468,
      "▁edebe": 2469,
      "▁ọgaranya": 2470,
      "rd": 2471,
      "▁ígwè": 2472,
      "shọna": 2473,
      "▁enyo": 2474,
      "nugu": 2475,
      "▁Fada": 2476,
      "jeri": 2477,
      "▁nkwà": 2478,
      "tuo": 2479,
      "▁na-eche": 2480,
      "wer": 2481,
      "▁agbara": 2482,
      "▁mbà": 2483,
      "▁merenụ": 2484,
      "ab": 2485,
      "ld": 2486,
      "▁gbata": 2487,
      "▁na-achị": 2488,
      "▁n'ike": 2489,
      "▁ụnyaahụ": 2490,
      "▁emeli": 2491,
      "▁ejighị": 2492,
      "▁ngwụ": 2493,
      "▁Ee": 2494,
      "▁ndidi": 2495,
      "tha": 2496,
      "lọmọn": 2497,
      "▁ezighị": 2498,
      "▁Sọlọmọn": 2499,
      "▁Abuja": 2500,
      "▁dụ": 2501,
      "▁ahụkwa": 2502,
      "▁League": 2503,
      "RỤ": 2504,
      "oche": 2505,
      "▁kpọm": 2506,
      "nyụ": 2507,
      "▁jijiji": 2508,
      "▁amụrụ": 2509,
      "▁nkata": 2510,
      "maya": 2511,
      "▁arụsị": 2512,
      "▁n'ụzọ": 2513,
      "▁mwute": 2514,
      "nwoke": 2515,
      "▁Erọn": 2516,
      "▁10": 2517,
      "▁omekome": 2518,
      "▁dọrọ": 2519,
      "▁otuto": 2520,
      "▁tụ̀": 2521,
      "▁wepụ": 2522,
      "▁Biko": 2523,
      "naụba": 2524,
      "sii": 2525,
      "▁ịzọ": 2526,
      "▁Pro": 2527,
      "▁enyela": 2528,
      "▁Uzo": 2529,
      "▁Nor": 2530,
      "▁eweta": 2531,
      "▁n'Enugwu": 2532,
      "mụọ": 2533,
      "nigwe": 2534,
      "mdi": 2535,
      "kata": 2536,
      "▁zutere": 2537,
      "▁Hibru": 2538,
      "ton": 2539,
      "▁Ai": 2540,
      "▁Ọzọ": 2541,
      "▁Bụ": 2542,
      "▁zigara": 2543,
      "▁Ozu": 2544,
      "▁2015": 2545,
      "▁n'elu": 2546,
      "ngwa": 2547,
      "SS": 2548,
      "lia": 2549,
      "miti": 2550,
      "▁akụ̀": 2551,
      "▁AK": 2552,
      "wokwa": 2553,
      "\tOnyeisi": 2554,
      "▁Osimiri": 2555,
      "▁n'O": 2556,
      "kwem": 2557,
      "▁Ụbọchị": 2558,
      "▁ga-esi": 2559,
      "▁Wa": 2560,
      "\tOtu": 2561,
      "makwụkwọ": 2562,
      "▁kwetara": 2563,
      "▁12": 2564,
      "▁eburu": 2565,
      "ọgụ": 2566,
      "▁ifufe": 2567,
      "▁ịṅụ": 2568,
      "pụla": 2569,
      "▁kweta": 2570,
      "nista": 2571,
      "▁n'ahụ": 2572,
      "▁emegide": 2573,
      "▁GỊ": 2574,
      "▁Katọlik": 2575,
      "▁ọlụ": 2576,
      "▁Oba": 2577,
      "▁ọdịmma": 2578,
      "▁akaebe": 2579,
      "min": 2580,
      "▁ọkaiwu": 2581,
      "▁Ikpe": 2582,
      "▁ọkara": 2583,
      "▁2017": 2584,
      "▁iku": 2585,
      "mas": 2586,
      "▁content_119": 2587,
      "pen": 2588,
      "▁ọdịnala": 2589,
      "▁Bel": 2590,
      "baka": 2591,
      "▁nwanyị": 2592,
      "▁mmekọahụ": 2593,
      "gre": 2594,
      "▁Bar": 2595,
      "▁Rocha": 2596,
      "▁oti": 2597,
      "▁Jọs": 2598,
      "▁akụnaụba": 2599,
      "▁ndú": 2600,
      "nuche": 2601,
      "▁Chegodị": 2602,
      "sho": 2603,
      "ther": 2604,
      "Ka": 2605,
      "rt": 2606,
      "▁Au": 2607,
      "▁gbasa": 2608,
      "▁akpọlite": 2609,
      "▁Willie": 2610,
      "wanye": 2611,
      "▁State": 2612,
      "▁\"A": 2613,
      "lona": 2614,
      "▁nwatakịrị": 2615,
      "▁Abi": 2616,
      "tọde": 2617,
      "▁Maka": 2618,
      "▁ehihie": 2619,
      "▁eduzi": 2620,
      "▁mkparịtaụka": 2621,
      "kit": 2622,
      "▁ọkọ": 2623,
      "▁Agba": 2624,
      "▁Ife": 2625,
      "▁na-atụ": 2626,
      "▁ebido": 2627,
      "yọ": 2628,
      "▁Ọma": 2629,
      "▁kwụọ": 2630,
      "▁lụọ": 2631,
      "▁Rochas": 2632,
      "SI": 2633,
      "▁ịhapụ": 2634,
      "▁agafe": 2635,
      "▁ọkachasị": 2636,
      "▁rue": 2637,
      "putara": 2638,
      "▁asọmpị": 2639,
      "▁ntorobịa": 2640,
      "anyi": 2641,
      "fre": 2642,
      "▁ijeri": 2643,
      "gaara": 2644,
      "▁tụlee": 2645,
      "▁Livaị": 2646,
      "▁sekit": 2647,
      "▁nrụrụ": 2648,
      "▁ọgwụgwụ": 2649,
      "▁na-ekwuru": 2650,
      "nce": 2651,
      "▁arị": 2652,
      "▁Mmụọ": 2653,
      "▁echefu": 2654,
      "▁kụrụ": 2655,
      "ntanet": 2656,
      "ira": 2657,
      "▁esiri": 2658,
      "ano": 2659,
      "▁chetara": 2660,
      "▁kpọmkwem": 2661,
      "cho": 2662,
      "▁nda": 2663,
      "▁ọba": 2664,
      "▁merụrụ": 2665,
      "waa": 2666,
      "▁mgbanwe": 2667,
      "▁mgbidi": 2668,
      "▁nchọpụta": 2669,
      "hụa": 2670,
      "▁chụrụ": 2671,
      "▁jidere": 2672,
      "nue": 2673,
      "kwaghịm": 2674,
      "▁ha,": 2675,
      "▁na-enwe": 2676,
      "àrà": 2677,
      "▁zitere": 2678,
      "us": 2679,
      "kwù": 2680,
      "rù": 2681,
      "▁batara": 2682,
      "▁w": 2683,
      "▁nchị": 2684,
      "▁Grik": 2685,
      "▁13": 2686,
      "nobi": 2687,
      "▁ógbè": 2688,
      "mmiri": 2689,
      "▁baa": 2690,
      "▁ad": 2691,
      "▁magburu": 2692,
      "zụga": 2693,
      "▁bịaara": 2694,
      "▁ịgbanwe": 2695,
      "▁18": 2696,
      "ehi": 2697,
      "ph": 2698,
      "▁Ide": 2699,
      "▁'\n": 2700,
      "▁OTÚ": 2701,
      "▁Ụdị": 2702,
      "▁ejije": 2703,
      "▁n'akwụkwọ": 2704,
      "▁\"\"\"\"\n": 2705,
      "▁N'okwu": 2706,
      "▁igbe": 2707,
      "ARA": 2708,
      "▁ngwụcha": 2709,
      "ns": 2710,
      "kwaa": 2711,
      "▁Sha": 2712,
      "kara": 2713,
      "nyeghi": 2714,
      "nụba": 2715,
      "nia": 2716,
      "zịza": 2717,
      "▁n'ọrụ": 2718,
      "ziaka": 2719,
      "▁n'agba": 2720,
      "▁anọghị": 2721,
      "▁elekere": 2722,
      "▁tiri": 2723,
      "▁Mbaka": 2724,
      "▁ọlaọcha": 2725,
      "egwuregwu": 2726,
      "▁icheta": 2727,
      "▁ozizi": 2728,
      "zaya": 2729,
      "▁jirikwa": 2730,
      "▁echebe": 2731,
      "galaba": 2732,
      "Ụlọ": 2733,
      "▁echegbu": 2734,
      "▁odeakwụkwọ": 2735,
      "▁nrọ": 2736,
      "▁Oha": 2737,
      "▁JE": 2738,
      "▁emeso": 2739,
      "▁agbaghara": 2740,
      "▁adaba": 2741,
      "▁ịsị": 2742,
      "▁ebute": 2743,
      "▁nkụzi": 2744,
      "▁Twitter": 2745,
      "▁Za": 2746,
      "▁kụziere": 2747,
      "▁ogbugbu": 2748,
      "▁idi": 2749,
      "▁Gba": 2750,
      "▁coronavirus": 2751,
      "lic": 2752,
      "▁atụle": 2753,
      "▁wezụga": 2754,
      "19": 2755,
      "▁Awka": 2756,
      "tụbeghị": 2757,
      "LE": 2758,
      "▁wepụta": 2759,
      "▁gọzie": 2760,
      "▁nsure": 2761,
      "erọ": 2762,
      "▁lọta": 2763,
      "lla": 2764,
      "▁emecha": 2765,
      "▁mej": 2766,
      "▁gbaara": 2767,
      "▁na-akwado": 2768,
      "▁14": 2769,
      "Lee": 2770,
      "gh": 2771,
      "up": 2772,
      "mishọna": 2773,
      "▁Òtù": 2774,
      "madu": 2775,
      "buja": 2776,
      "▁ekpu": 2777,
      "▁bilie": 2778,
      "▁ànyị": 2779,
      "▁Satọde": 2780,
      "▁mkpesa": 2781,
      "▁mgbochi": 2782,
      "▁NW": 2783,
      "▁Timo": 2784,
      "▁Jọshụa": 2785,
      "qu": 2786,
      "▁Ndụ": 2787,
      "gun": 2788,
      "FCC": 2789,
      "ncy": 2790,
      "▁Mme": 2791,
      "▁Fari": 2792,
      "kaya": 2793,
      "▁ịnwụ": 2794,
      "▁ụmụnwoke": 2795,
      "▁n'obi": 2796,
      "▁content_97": 2797,
      "HOV": 2798,
      "▁Ozugbo": 2799,
      "▁JEHOV": 2800,
      "kan": 2801,
      "hab": 2802,
      "▁masịrị": 2803,
      "▁gafere": 2804,
      "▁ebum": 2805,
      "mokwu": 2806,
      "▁Enugu": 2807,
      "\tNa": 2808,
      "GA": 2809,
      "▁ịrị": 2810,
      "▁alụmdi": 2811,
      "▁Gọọmentị": 2812,
      "▁Farisii": 2813,
      "ime": 2814,
      "▁oji": 2815,
      "kapa": 2816,
      "ral": 2817,
      "nyeere": 2818,
      "▁ọlị": 2819,
      "▁n'Abuja": 2820,
      "KWU": 2821,
      "ruru": 2822,
      "▁akụnụba": 2823,
      "▁content_108": 2824,
      "▁ọkachamara": 2825,
      "gbọelu": 2826,
      "▁gboo": 2827,
      "▁nọgide": 2828,
      "fuo": 2829,
      "▁New": 2830,
      "▁Ebonyi": 2831,
      "sse": 2832,
      "▁ndịda": 2833,
      "▁ịsụ": 2834,
      "▁akọrọ": 2835,
      "▁ọdịda": 2836,
      "▁Chris": 2837,
      "▁mpụtara": 2838,
      "▁ị̀": 2839,
      "ọọla": 2840,
      "▁òkù": 2841,
      "bakar": 2842,
      "▁na-eji": 2843,
      "▁zụọ": 2844,
      "drid": 2845,
      "__": 2846,
      "▁dina": 2847,
      "▁kwadoro": 2848,
      "▁gwakwara": 2849,
      "▁ikpebi": 2850,
      "riakụ": 2851,
      "ine": 2852,
      "ms": 2853,
      "od": 2854,
      "Ụmụ": 2855,
      "▁Onyeàmà": 2856,
      "▁nweekwa": 2857,
      "▁Benue": 2858,
      "▁fọdụrụ": 2859,
      "ction": 2860,
      "▁ụsụ": 2861,
      "▁na-ama": 2862,
      "▁mmetụta": 2863,
      "vemba": 2864,
      "dioha": 2865,
      "ịnịsta": 2866,
      "▁Jere": 2867,
      "mpe": 2868,
      "▁too": 2869,
      "▁sịkwa": 2870,
      "▁Lagos": 2871,
      "▁ana-e": 2872,
      "▁ogbunigwe": 2873,
      "▁Igwe": 2874,
      "▁akụrụ": 2875,
      "▁ejide": 2876,
      "▁ili": 2877,
      "nezde": 2878,
      "▁ahazi": 2879,
      "ọnde": 2880,
      "▁in": 2881,
      "▁n'anya": 2882,
      "▁họọrọ": 2883,
      "n-": 2884,
      "nga": 2885,
      "zere": 2886,
      "banye": 2887,
      "▁ki": 2888,
      "▁iju": 2889,
      "▁Madrid": 2890,
      "▁'A": 2891,
      "▁ewepụta": 2892,
      "Che": 2893,
      "▁Mere": 2894,
      "▁nyekwara": 2895,
      "▁naira": 2896,
      "▁chịrị": 2897,
      "ts": 2898,
      "▁gafee": 2899,
      "▁Obodo": 2900,
      "tic": 2901,
      "▁\"N": 2902,
      "▁biko": 2903,
      "tee": 2904,
      "▁196": 2905,
      "▁Oké": 2906,
      "▁nrụrụaka": 2907,
      "▁Agha": 2908,
      "▁Elu": 2909,
      "▁San": 2910,
      "toba": 2911,
      "ghere": 2912,
      "▁ekpo": 2913,
      "▁na-akpa": 2914,
      "▁azụ̀": 2915,
      "meria": 2916,
      "▁@": 2917,
      "las": 2918,
      "▁Timoti": 2919,
      "kpọrọ": 2920,
      "▁Gha": 2921,
      "▁kwenyere": 2922,
      "▁dike": 2923,
      "▁òkè": 2924,
      "▁Site": 2925,
      "▁mgbasaozi": 2926,
      "gbụ": 2927,
      "▁ịdọ": 2928,
      "▁emepụta": 2929,
      "▁Jiri": 2930,
      "akaa": 2931,
      "▁content_38": 2932,
      "NYE": 2933,
      "▁akpụkpọ": 2934,
      "▁ṅụọ": 2935,
      "ada": 2936,
      "▁EME": 2937,
      "ford": 2938,
      "stia": 2939,
      "▁Sameria": 2940,
      "▁195": 2941,
      "▁content_115": 2942,
      "▁ọgbaghara": 2943,
      "▁Africa": 2944,
      "▁ụsụụ": 2945,
      "▁Olu": 2946,
      "nada": 2947,
      "▁Inter": 2948,
      "▁adịkwa": 2949,
      "▁Filistia": 2950,
      "ley": 2951,
      "▁sikwa": 2952,
      "▁enweghi": 2953,
      "▁ejikwa": 2954,
      "▁lat": 2955,
      "▁Ọkaakaa": 2956,
      "▁Ele": 2957,
      "▁content_118": 2958,
      "▁content_107": 2959,
      "▁dịghịkwa": 2960,
      "▁jupụtara": 2961,
      "ọgụgụ": 2962,
      "LA": 2963,
      "▁JI": 2964,
      "▁rutere": 2965,
      "▁riri": 2966,
      "▁zụrụ": 2967,
      "\".\n": 2968,
      "▁mgbu": 2969,
      "▁ụbụrụ": 2970,
      "mita": 2971,
      "HỤ": 2972,
      "▁Sara": 2973,
      "▁Tọ": 2974,
      "▁họpụta": 2975,
      "▁paradaịs": 2976,
      "▁ịkụziri": 2977,
      "▁aṅaa": 2978,
      "ky": 2979,
      "▁Nye": 2980,
      "hia": 2981,
      "▁achọpụta": 2982,
      "▁ibute": 2983,
      "yen": 2984,
      "▁Anyanwụ": 2985,
      "▁JEHOVA": 2986,
      "▁fee": 2987,
      "▁National": 2988,
      "▁tụkwasịrị": 2989,
      "▁content_73": 2990,
      "▁Ná": 2991,
      "gwuru": 2992,
      "▁agbasa": 2993,
      "▁mbara": 2994,
      "▁na-ele": 2995,
      "▁dọla": 2996,
      "▁ọchịehi": 2997,
      "▁zọpụta": 2998,
      "▁Ndigbo": 2999,
      "obi": 3000,
      "▁jọ": 3001,
      "▁ụma": 3002,
      "▁Agụ": 3003,
      "▁kpụrụ": 3004,
      "▁mgbapụta": 3005,
      "▁nchịkọta": 3006,
      "▁nabatara": 3007,
      "▁MMA": 3008,
      "ghachiri": 3009,
      "▁content_76": 3010,
      "ego": 3011,
      "nma": 3012,
      "▁alọ": 3013,
      "▁17": 3014,
      "▁198": 3015,
      "▁lawa": 3016,
      "▁nzube": 3017,
      "▁ngwá": 3018,
      "oma": 3019,
      "▁owu": 3020,
      "mahụ": 3021,
      "▁Ekwere": 3022,
      "▁mbaụwa": 3023,
      "▁16": 3024,
      "▁content_111": 3025,
      "▁egbuola": 3026,
      "▁bibie": 3027,
      "▁content_106": 3028,
      "otu": 3029,
      "▁kwara": 3030,
      "ribe": 3031,
      "▁ọchịchọ": 3032,
      "▁kelere": 3033,
      "▁n'ọkwa": 3034,
      "▁vaị": 3035,
      "▁enyocha": 3036,
      "▁akatọ": 3037,
      "▁Ihedioha": 3038,
      "▁Abubakar": 3039,
      "▁vaịn": 3040,
      "tala": 3041,
      "▁Niile": 3042,
      "zuru": 3043,
      "▁content_117": 3044,
      "HỊ": 3045,
      "▁na-eti": 3046,
      "▁gbanwere": 3047,
      "gwú": 3048,
      "▁content_110": 3049,
      "ad": 3050,
      "▁Emma": 3051,
      "▁jikọrọ": 3052,
      "duna": 3053,
      "▁ga-agba": 3054,
      "▁Mesaya": 3055,
      "▁Fu": 3056,
      "▁mmepe": 3057,
      "▁Premi": 3058,
      "mitii": 3059,
      "▁nzụ": 3060,
      "▁nson": 3061,
      "▁CHI": 3062,
      "▁ụlọakụ": 3063,
      "▁onweghị": 3064,
      "▁Ncheta": 3065,
      "▁ho": 3066,
      "▁ule": 3067,
      "▁mgbaghara": 3068,
      "▁osikapa": 3069,
      "),": 3070,
      "▁eguzo": 3071,
      "▁maghị": 3072,
      "▁Eke": 3073,
      "semba": 3074,
      "▁content_37": 3075,
      "▁nsonso": 3076,
      "ruo": 3077,
      "▁izuụka": 3078,
      "▁esemokwu": 3079,
      "▁gbalịa": 3080,
      "▁Filip": 3081,
      "▁azịza": 3082,
      "▁ilu": 3083,
      "▁edi": 3084,
      "▁tụkwasị": 3085,
      "▁ísì": 3086,
      "▁EFCC": 3087,
      "▁maazị": 3088,
      "ihe": 3089,
      "▁ọga": 3090,
      "▁ụba": 3091,
      "▁Bro": 3092,
      "nụwarị": 3093,
      "▁agaghịkwa": 3094,
      "▁Bet": 3095,
      "▁2019\n": 3096,
      "▁Mmiri": 3097,
      "▁Is": 3098,
      "▁Ịhụ": 3099,
      "sia": 3100,
      "▁And": 3101,
      "lili": 3102,
      "kpando": 3103,
      "▁Anambara": 3104,
      "▁Etu": 3105,
      "▁Mata": 3106,
      "▁CHINE": 3107,
      "22": 3108,
      "▁CHINEKE": 3109,
      "nsa": 3110,
      "▁gee": 3111,
      "rịnt": 3112,
      "▁mmadu": 3113,
      "▁Naịjirịa.\n": 3114,
      "▁n'ụlọikpe": 3115,
      "▁mejọrọ": 3116,
      "▁arọ": 3117,
      "sis": 3118,
      "▁Uma": 3119,
      "gidi": 3120,
      "▁họrọ": 3121,
      "▁Kọrịnt": 3122,
      "▁kwesịghị": 3123,
      "nahụ": 3124,
      "ghachị": 3125,
      "▁mpako": 3126,
      "▁ịrịba": 3127,
      "▁mbu": 3128,
      "▁egwú": 3129,
      "zik": 3130,
      "gwé": 3131,
      "▁wetara": 3132,
      "▁nkwekọrịta": 3133,
      "▁matara": 3134,
      "gbuola": 3135,
      "▁gbago": 3136,
      "▁Naanị": 3137,
      "jamin": 3138,
      "▁atụghị": 3139,
      "▁eleba": 3140,
      "▁Paul": 3141,
      "▁okporoụzọ": 3142,
      "ibe": 3143,
      "▁Kaduna": 3144,
      "▁abaghị": 3145,
      "▁weta": 3146,
      "▁erite": 3147,
      "▁toro": 3148,
      "▁nkịta": 3149,
      "▁ib": 3150,
      "dịghị": 3151,
      "▁An": 3152,
      "wunye": 3153,
      "▁isiala": 3154,
      "▁ga-abụ": 3155,
      "▁ụdịrị": 3156,
      "▁kilo": 3157,
      ")\n": 3158,
      "BỤ": 3159,
      "▁Ngalaba": 3160,
      "▁lara": 3161,
      "▁Disemba": 3162,
      "▁Gọọmenti": 3163,
      "▁BA": 3164,
      "▁eruo": 3165,
      "▁ọṅụṅụ": 3166,
      "lereanya": 3167,
      "KP": 3168,
      "naya": 3169,
      "▁kwusaa": 3170,
      "▁DSS": 3171,
      "▁Para": 3172,
      "▁ọgwụgwọ": 3173,
      "▁pe": 3174,
      "▁Afọ": 3175,
      "kụkụ": 3176,
      "▁akasi": 3177,
      "▁akpali": 3178,
      "▁kpakpando": 3179,
      "▁197": 3180,
      "▁alụkwaghịm": 3181,
      "▁Rut": 3182,
      "▁Emeka": 3183,
      "Dịka": 3184,
      "temba": 3185,
      "▁nzuzu": 3186,
      "▁ntụziaka": 3187,
      "ụlọ": 3188,
      "▁na-ere": 3189,
      "▁Esta": 3190,
      "▁BỤ": 3191,
      "▁2013": 3192,
      "▁nkwụ": 3193,
      "med": 3194,
      "▁ahụghị": 3195,
      "▁jere": 3196,
      "▁nleta": 3197,
      "▁n'Imo": 3198,
      "▁Benjamin": 3199,
      "▁nketa": 3200,
      "▁kpo": 3201,
      "▁nweghi": 3202,
      "▁content_113": 3203,
      "▁debe": 3204,
      "▁sayen": 3205,
      "▁Commi": 3206,
      "▁akwọ": 3207,
      "▁imere": 3208,
      "▁Ije": 3209,
      "data": 3210,
      "▁akọnuche": 3211,
      "▁dapụtara": 3212,
      "▁content_36": 3213,
      "▁olulu": 3214,
      "▁Ah": 3215,
      "▁\"Ọ": 3216,
      "▁pụrụiche": 3217,
      "▁n'ụwa": 3218,
      "▁bịakwute": 3219,
      "▁Abaribe": 3220,
      "▁ijere": 3221,
      "▁gasịrị": 3222,
      "▁China": 3223,
      "▁Do": 3224,
      "▁Ịntanet": 3225,
      "▁Kenan": 3226,
      "alth": 3227,
      "▁mezuru": 3228,
      "▁agb": 3229,
      "▁Ndịozi": 3230,
      "pan": 3231,
      "▁content_114": 3232,
      "▁gbochie": 3233,
      "▁asọpụrụ": 3234,
      "NEC": 3235,
      "ctor": 3236,
      "ZỌ": 3237,
      "td": 3238,
      "▁gakwara": 3239,
      "▁content_93": 3240,
      "▁content_83": 3241,
      "▁ígwé": 3242,
      "▁Ekweremadu": 3243,
      "ong": 3244,
      "▁ga-enye": 3245,
      "▁Sam": 3246,
      "▁content_45": 3247,
      "▁Tuzde": 3248,
      "-O": 3249,
      "▁agbaala": 3250,
      "yin": 3251,
      "▁content_99": 3252,
      "▁fere": 3253,
      "▁ịtụkwasị": 3254,
      "RI": 3255,
      "▁nkà": 3256,
      "▁nlereanya": 3257,
      "▁ige": 3258,
      "▁hazie": 3259,
      "▁gakwuru": 3260,
      "▁megidere": 3261,
      "▁DỊ": 3262,
      "▁atụkwasị": 3263,
      "▁eleghị": 3264,
      "▁gwọọ": 3265,
      "',": 3266,
      "TỤ": 3267,
      "▁content_100": 3268,
      "▁content_101": 3269,
      "▁content_74": 3270,
      "▁content_80": 3271,
      "than": 3272,
      "▁SI": 3273,
      "▁na-azọ": 3274,
      "▁onyeisioche": 3275,
      "▁ọgọ": 3276,
      "▁content_112": 3277,
      "▁content_43": 3278,
      "▁vi": 3279,
      "ers": 3280,
      "▁OBI": 3281,
      "▁Chu": 3282,
      "▁Eli": 3283,
      "ree": 3284,
      "▁Lọ": 3285,
      "SỊ": 3286,
      "▁mpi": 3287,
      "ban": 3288,
      "bit": 3289,
      "▁nwetere": 3290,
      "orld": 3291,
      "▁content_47": 3292,
      "▁wutere": 3293,
      "▁Nọvemba": 3294,
      "▁ikpere": 3295,
      "▁echere": 3296,
      "▁ịza": 3297,
      "eeji": 3298,
      "gwurugwu": 3299,
      "▁ko": 3300,
      "▁ịka": 3301,
      "▁MA": 3302,
      "▁sokwa": 3303,
      "▁kpọpụta": 3304,
      "▁2014": 3305,
      "▁2016": 3306,
      "▁194": 3307,
      "▁content_103": 3308,
      "▁pase": 3309,
      "Cheta": 3310,
      "▁eku": 3311,
      "▁Oriakụ": 3312,
      "▁Ale": 3313,
      "national": 3314,
      "nweghị": 3315,
      "▁St": 3316,
      "▁taa\n": 3317,
      "▁content_105": 3318,
      "▁Kedụ": 3319,
      "▁Premier": 3320,
      "ssa": 3321,
      "ukwu": 3322,
      "lam": 3323,
      "bido": 3324,
      "▁ekwuru": 3325,
      "▁bute": 3326,
      "▁bà": 3327,
      "▁Wenezde": 3328,
      "▁jee": 3329,
      "▁abịara": 3330,
      "▁merela": 3331,
      "▁enyekwa": 3332,
      "▁content_96": 3333,
      "▁n'Anam": 3334,
      "já": 3335,
      "kwutere": 3336,
      "▁Ce": 3337,
      "▁\"O": 3338,
      "stra": 3339,
      "▁ugbua\n": 3340,
      "▁ọkpụkpụ": 3341,
      "ndụ": 3342,
      "▁ahu": 3343,
      "▁eṅomi": 3344,
      "rea": 3345,
      "▁ewepụ": 3346,
      "▁nzọpụta": 3347,
      "▁kilomita": 3348,
      "▁gere": 3349,
      "▁Egwu": 3350,
      "sogbu": 3351,
      "▁Sera": 3352,
      "▁ọchịchịrị": 3353,
      "▁kpọlitere": 3354,
      "▁kelee": 3355,
      "▁Galili": 3356,
      "ves": 3357,
      "▁ṅ": 3358,
      "▁bụ\n": 3359,
      "▁ịkọ": 3360,
      "nuel": 3361,
      "kịnta": 3362,
      "▁Ọkammụta": 3363,
      "▁ikuku": 3364,
      "▁ọkwá": 3365,
      "▁Obere": 3366,
      "netọ": 3367,
      "▁Kwa": 3368,
      "▁mebiri": 3369,
      "▁content_46": 3370,
      "ssion": 3371,
      "▁é": 3372,
      "▁kpaa": 3373,
      "▁ntụliaka": 3374,
      "▁content_35": 3375,
      "▁Ghana": 3376,
      "DỤ": 3377,
      "un": 3378,
      "▁Aga": 3379,
      "▁chịa": 3380,
      "▁gbaghara": 3381,
      "▁ìsì": 3382,
      "▁content_67": 3383,
      "▁Aịzik": 3384,
      "▁ebumnobi": 3385,
      "▁Jeremaya": 3386,
      "im": 3387,
      "tsha": 3388,
      "zara": 3389,
      "▁Ome": 3390,
      "▁sikwuo": 3391,
      "▁aka\n": 3392,
      "▁nyefee": 3393,
      "▁depụtara": 3394,
      "▁kubit": 3395,
      "nyela": 3396,
      "tụla": 3397,
      "▁kwupụtara": 3398,
      "▁Jọdan": 3399,
      "sanjo": 3400,
      "RU": 3401,
      "asị": 3402,
      "pee": 3403,
      "um": 3404,
      "▁nara": 3405,
      "lin": 3406,
      "▁mmadụ\n": 3407,
      "▁sonyere": 3408,
      "onald": 3409,
      "▁na-eru": 3410,
      "ons": 3411,
      "▁Jenụwarị": 3412,
      "▁Ser": 3413,
      "ort": 3414,
      "▁content_84": 3415,
      "▁Va": 3416,
      "cia": 3417,
      "▁the": 3418,
      "tten": 3419,
      "▁enwu": 3420,
      "▁tie": 3421,
      "▁degaara": 3422,
      "▁Kenya": 3423,
      "▁nwụchiri": 3424,
      "▁Paradaịs": 3425,
      "ịna": 3426,
      "▁bụzị": 3427,
      "wore": 3428,
      "▁enyefe": 3429,
      "▁ga-anọ": 3430,
      "▁ájá": 3431,
      "op": 3432,
      "him": 3433,
      "▁Mon": 3434,
      "▁Ọbụ": 3435,
      "▁nọchiri": 3436,
      "▁Pla": 3437,
      "▁èz": 3438,
      "▁mgbọ": 3439,
      "▁bụzi": 3440,
      "▁ịla": 3441,
      "▁content_104": 3442,
      "▁n'ezi": 3443,
      "▁ope": 3444,
      "▁ihe\n": 3445,
      "jụjụ": 3446,
      "▁anwụọ": 3447,
      "▁content_98": 3448,
      "▁Nnewi": 3449,
      "my": 3450,
      "let": 3451,
      "▁INEC": 3452,
      "▁ụmụafọ": 3453,
      "▁abụkwa": 3454,
      "▁Obiano": 3455,
      "▁jeere": 3456,
      "▁mbilite": 3457,
      "by": 3458,
      "ktoba": 3459,
      "tti": 3460,
      "▁nọgidere": 3461,
      "▁kpọọrọ": 3462,
      "▁kpọlite": 3463,
      "WA": 3464,
      "▁Ọnị": 3465,
      "▁Gee": 3466,
      "▁Hu": 3467,
      "▁echebara": 3468,
      "▁Abdu": 3469,
      "▁1914": 3470,
      "▁nkwàdo": 3471,
      "▁napụta": 3472,
      "▁Ọchịchị": 3473,
      "▁mecha": 3474,
      "zute": 3475,
      "ren": 3476,
      "▁Dan": 3477,
      "▁su": 3478,
      "▁Hana": 3479,
      "▁na-efe": 3480,
      "▁ịchọpụta": 3481,
      "▁Dọkịta": 3482,
      "-A": 3483,
      "▁ndịagha": 3484,
      "▁Utd": 3485,
      "▁n'ọchịchị": 3486,
      "ngland": 3487,
      "▁2021": 3488,
      "rere": 3489,
      "▁Agu": 3490,
      "▁MGB": 3491,
      "▁gbapụ": 3492,
      "▁content_109": 3493,
      "▁content_95": 3494,
      "▁content_58": 3495,
      "▁Ịhụnanya": 3496,
      "tus": 3497,
      "▁peeji": 3498,
      "ttenham": 3499,
      "▁èzí": 3500,
      "▁AP": 3501,
      "▁US": 3502,
      "▁Tụ": 3503,
      "▁bie": 3504,
      "▁nyekwa": 3505,
      "▁Igbo\n": 3506,
      "kwàlite": 3507,
      "▁Par": 3508,
      "▁ebili": 3509,
      "▁2023": 3510,
      "mkpam": 3511,
      "▁sayensị": 3512,
      "AN": 3513,
      "oko": 3514,
      "▁Mmụta": 3515,
      "mụma": 3516,
      "▁chọkwara": 3517,
      "▁kwaa": 3518,
      "▁chebe": 3519,
      "▁content_116": 3520,
      "▁jị": 3521,
      "SC": 3522,
      "▁Ọkụ": 3523,
      "gasị": 3524,
      "▁Julaị": 3525,
      "brahim": 3526,
      "▁content_75": 3527,
      "▁content_79": 3528,
      "▁content_89": 3529,
      "can": 3530,
      "▁Mahadum": 3531,
      "▁na-egosi": 3532,
      "▁content_71": 3533,
      "▁ewute": 3534,
      "▁Ruo": 3535,
      "▁Saraki": 3536,
      "▁nzụkọ": 3537,
      "▁ikpo": 3538,
      "▁ịcha": 3539,
      "▁Ara": 3540,
      "naị": 3541,
      "▁Fal": 3542,
      "celona": 3543,
      "▁wuru": 3544,
      "▁ocheeze": 3545,
      "▁Nwosu": 3546,
      "▁Uzodi": 3547,
      "ok": 3548,
      "▁enu": 3549,
      "▁jikọtara": 3550,
      "▁Donald": 3551,
      "▁content_68": 3552,
      "▁David": 3553,
      "▁emerụ": 3554,
      "▁Oka": 3555,
      "▁ụmụnwa": 3556,
      "▁asatara": 3557,
      "▁kpamkpam": 3558,
      "lied": 3559,
      "▁ritere": 3560,
      "▁hibere": 3561,
      "▁erughịrị": 3562,
      "ọk": 3563,
      "ọchịchị": 3564,
      "▁Ameri": 3565,
      "liam": 3566,
      "▁Gwa": 3567,
      "mini": 3568,
      "▁Pri": 3569,
      "gal": 3570,
      "▁ọnụọgụgụ": 3571,
      "▁Laza": 3572,
      "▁egbochi": 3573,
      "mes": 3574,
      "▁Nga": 3575,
      "▁Kwe": 3576,
      "▁zoro": 3577,
      "▁akụrụngwa": 3578,
      "dy": 3579,
      "▁eko": 3580,
      "▁Nwunye": 3581,
      "▁Pọ": 3582,
      "▁sere": 3583,
      "▁steeti.\n": 3584,
      "▁ebule": 3585,
      "▁anwụrụ": 3586,
      "▁dabara": 3587,
      "▁apụtaghị": 3588,
      "ct": 3589,
      "▁gwu": 3590,
      "tela": 3591,
      "pụụrụ": 3592,
      "igh": 3593,
      "▁content_82": 3594,
      "▁North": 3595,
      "▁Lazarọs": 3596,
      "dọn": 3597,
      "kaị": 3598,
      "▁Ant": 3599,
      "▁Chọ": 3600,
      "▁ngọzi": 3601,
      "▁nsọpụrụ": 3602,
      "▁ọhaneze": 3603,
      "▁Sowore": 3604,
      "▁mbido": 3605,
      "▁Obasanjo": 3606,
      "▁Ehab": 3607,
      "▁Bịa": 3608,
      "▁n'akụkụ": 3609,
      "vin": 3610,
      "▁nwụchi": 3611,
      "▁n'akara": 3612,
      "▁ịrịọ": 3613,
      "▁emewo": 3614,
      "▁Heze": 3615,
      "▁Rọs": 3616,
      "▁bịakwutere": 3617,
      "▁content_91": 3618,
      "▁content_34": 3619,
      "▁Gaa": 3620,
      "▁chụpụ": 3621,
      "▁Japan": 3622,
      "▁koro": 3623,
      "rin": 3624,
      "▁anyị\n": 3625,
      "beere": 3626,
      "▁chọta": 3627,
      "▁meela": 3628,
      "▁content_102": 3629,
      "▁Char": 3630,
      "MỤ": 3631,
      "▁ndo": 3632,
      "▁Ep": 3633,
      "kụba": 3634,
      "▁Gra": 3635,
      "▁na-anọ": 3636,
      "▁Har": 3637,
      "▁content_78": 3638,
      "▁2019.\n": 3639,
      "▁zọrọ": 3640,
      "▁akwara": 3641,
      "▁nweela": 3642,
      "▁azụma": 3643,
      "▁content_86": 3644,
      "▁content_39": 3645,
      "▁ahọrọ": 3646,
      ",000": 3647,
      "▁lere": 3648,
      "▁nza": 3649,
      "▁nnwere": 3650,
      "▁oko": 3651,
      "weojii": 3652,
      "▁nwedịrị": 3653,
      "▁Siria": 3654,
      "▁zọọ": 3655,
      "▁amalitela": 3656,
      "▁Barcelona": 3657,
      "▁ndagwurugwu": 3658,
      "▁kansa": 3659,
      "▁chaa": 3660,
      "▁katọrọ": 3661,
      "▁Hezekaya": 3662,
      "mon": 3663,
      "▁Enyi": 3664,
      "▁ọzọ.\n": 3665,
      "kiti": 3666,
      "▁anwụchiela": 3667,
      "▁agụmakwụkwọ": 3668,
      "▁zuo": 3669,
      "▁content_48": 3670,
      "▁yie": 3671,
      "▁Maachị": 3672,
      "dara": 3673,
      "▁nkọwa": 3674,
      "▁Del": 3675,
      "▁Minista": 3676,
      "▁Champi": 3677,
      "lly": 3678,
      "▁Jonathan": 3679,
      "dne": 3680,
      "nke": 3681,
      "ọnụ": 3682,
      "▁iwere": 3683,
      "▁machiri": 3684,
      "▁Of": 3685,
      "▁siere": 3686,
      "▁mkpamkpa": 3687,
      "▁nturu": 3688,
      "▁Ụlọọrụ": 3689,
      "▁njehie": 3690,
      "▁gaghịkwa": 3691,
      "▁ọdụm": 3692,
      "▁Ozizi": 3693,
      "▁Tottenham": 3694,
      "▁International": 3695,
      "▁opekata": 3696,
      "▁okpo": 3697,
      "kasị": 3698,
      "▁mesịrị": 3699,
      "▁sara": 3700,
      "▁enwekwa": 3701,
      "▁ibuso": 3702,
      "▁Jama": 3703,
      "\tOnyeisiala": 3704,
      "RỊ": 3705,
      "lle": 3706,
      "mbodo": 3707,
      "wn": 3708,
      "▁nhọpụta": 3709,
      "▁na-eri": 3710,
      "rịcha": 3711,
      "▁Ibrahim": 3712,
      "▁kpata": 3713,
      "▁India": 3714,
      "▁mgbere": 3715,
      "▁n'uju": 3716,
      "▁ịbanye": 3717,
      "▁Aịzaya": 3718,
      "▁odo": 3719,
      "▁M̀": 3720,
      "▁Ibe": 3721,
      "▁Ọktoba": 3722,
      "▁agbụ": 3723,
      "▁The": 3724,
      "▁Real": 3725,
      "▁ntọala": 3726,
      "gwoju": 3727,
      "▁akpara": 3728,
      "▁Kwu": 3729,
      "book": 3730,
      "▁Oleekwa": 3731,
      "nin": 3732,
      "▁Shehu": 3733,
      "▁Okon": 3734,
      "▁saa": 3735,
      "▁Ola": 3736,
      "onụ": 3737,
      "▁mechie": 3738,
      "▁sị,": 3739,
      "▁ọzọ,": 3740,
      "▁onweghi": 3741,
      "▁Ude": 3742,
      "▁arụkọ": 3743,
      "▁iburu": 3744,
      "dọm": 3745,
      "▁Riva": 3746,
      "▁irubere": 3747,
      "▁Rọshịa": 3748,
      "ON": 3749,
      "▁ude": 3750,
      "▁Bra": 3751,
      "▁nyefere": 3752,
      "▁ọkaikpe": 3753,
      "▁n'egwu": 3754,
      "▁30": 3755,
      "▁Isiokwu": 3756,
      "▁úgwù": 3757,
      "azu": 3758,
      "▁ee": 3759,
      "▁opi": 3760,
      "▁nyo": 3761,
      "▁kụọ": 3762,
      "▁ntakịrị": 3763,
      "tions": 3764,
      "▁Face": 3765,
      "▁Moab": 3766,
      "▁Ifeanyi": 3767,
      "▁latrik": 3768,
      "▁jọgburu": 3769,
      "bel": 3770,
      "▁gbatara": 3771,
      "▁Udo": 3772,
      "sụgharị": 3773,
      "▁azọpụta": 3774,
      "▁Falcon": 3775,
      "ñụ": 3776,
      "▁haziri": 3777,
      "▁ekweta": 3778,
      "▁metụta": 3779,
      "▁kọwaara": 3780,
      "▁Yuro": 3781,
      "tho": 3782,
      "▁nnụ": 3783,
      "▁iṅomi": 3784,
      "▁n'Ọ": 3785,
      "▁Cou": 3786,
      "▁emenụ": 3787,
      "▁kwuru\n": 3788,
      "hua": 3789,
      "▁'S": 3790,
      "ghete": 3791,
      "▁merụọ": 3792,
      "uro": 3793,
      "rimara": 3794,
      "▁uhie": 3795,
      "▁n'ụtụtụ": 3796,
      "▁content_88": 3797,
      "▁God": 3798,
      "▁Alex": 3799,
      "ama": 3800,
      "sso": 3801,
      "▁Adi": 3802,
      "▁n'aha": 3803,
      "▁ọkụkọ": 3804,
      "▁erube": 3805,
      "▁tee": 3806,
      "▁Luk": 3807,
      "▁imeri": 3808,
      "mel": 3809,
      "rịtara": 3810,
      "▁Jems": 3811,
      "tọrọ": 3812,
      "▁dọọ": 3813,
      "▁Were": 3814,
      "▁content_92": 3815,
      "▁n'Awka": 3816,
      "kpụrụkpụ": 3817,
      "▁West": 3818,
      "▁MGBE": 3819,
      "▁Pu": 3820,
      "▁ejiji": 3821,
      "sụsụ": 3822,
      "▁ekwesi": 3823,
      "▁Sep": 3824,
      "▁content_87": 3825,
      "▁kụziri": 3826,
      "▁natara": 3827,
      "gbọrọ": 3828,
      "▁Nsogbu": 3829,
      "▁Ọgbakọ": 3830,
      "▁anọgide": 3831,
      "Gọọme": 3832,
      "is": 3833,
      "ọna": 3834,
      "▁Nkwa": 3835,
      "bas": 3836,
      "▁Asiri": 3837,
      "▁Ọgọ": 3838,
      "▁nọdụ": 3839,
      "▁nkwanye": 3840,
      "▁content_94": 3841,
      "▁gọziri": 3842,
      "au": 3843,
      "▁iguzo": 3844,
      "maa": 3845,
      "▁Iwe": 3846,
      "▁Buru": 3847,
      "▁imezu": 3848,
      "▁ekwughị": 3849,
      "gbọala": 3850,
      "▁pịa": 3851,
      "▁content_23": 3852,
      "▁content_26": 3853,
      "▁Asiria": 3854,
      "▁buso": 3855,
      "▁content_12": 3856,
      "▁content_63": 3857,
      "▁Ezigbo": 3858,
      "▁William": 3859,
      "▁iteghete": 3860,
      "▁MMADỤ": 3861,
      "▁Emmanuel": 3862,
      "1\tỌ": 3863,
      "nde": 3864,
      "pere": 3865,
      "ụgbọelu": 3866,
      "▁Ku": 3867,
      "▁Kano": 3868,
      "▁Ume": 3869,
      "▁tọọrọ": 3870,
      "▁kpuchie": 3871,
      "6\tỌ": 3872,
      "bwe": 3873,
      "▁afụ": 3874,
      "▁mmerụ": 3875,
      "▁dimkpa": 3876,
      "▁World": 3877,
      "▁ònye": 3878,
      "▁ziga": 3879,
      "mbabwe": 3880,
      "▁ejegharị": 3881,
      "ọbịa": 3882,
      "▁000": 3883,
      "▁mị": 3884,
      "▁Paị": 3885,
      "nis": 3886,
      "▁content_77": 3887,
      "▁laghachiri": 3888,
      "▁sụgharịrị": 3889,
      "▁APGA": 3890,
      "a,": 3891,
      "ziere": 3892,
      "puru": 3893,
      "▁buo": 3894,
      "▁asambodo": 3895,
      "▁ga-akwụ": 3896,
      "▁ga-ezute": 3897,
      "▁eriri": 3898,
      "▁content_59": 3899,
      "▁ókèala": 3900,
      "▁na-ebute": 3901,
      "▁Falcons": 3902,
      "'.\n": 3903,
      "▁nkọ": 3904,
      "▁imi": 3905,
      "▁Ole": 3906,
      "▁Mike": 3907,
      "▁emegbu": 3908,
      "▁Herọ": 3909,
      "▁na-azụ": 3910,
      "▁Uru": 3911,
      "▁(N": 3912,
      "erian": 3913,
      "▁kpọtụrụ": 3914,
      "\tNwa": 3915,
      "▁dọọrọ": 3916,
      "▁ọganihu": 3917,
      "Ke": 3918,
      "▁anyi": 3919,
      "▁co": 3920,
      "▁Ọrịa": 3921,
      "▁Ọwụwa": 3922,
      "▁siiri": 3923,
      "▁EZI": 3924,
      "gabe": 3925,
      "▁oyiyi": 3926,
      "▁NWERE": 3927,
      "▁Rivas": 3928,
      "▁li": 3929,
      "▁Ger": 3930,
      "▁anọchite": 3931,
      "▁Kọmishọna": 3932,
      "▁wakpo": 3933,
      "▁Ny": 3934,
      "▁mewe": 3935,
      "▁ijide": 3936,
      "sto": 3937,
      "▁ọjị": 3938,
      "▁ga-enwe": 3939,
      "mozu": 3940,
      "▁leta": 3941,
      "▁Zimbabwe": 3942,
      "▁Commission": 3943,
      "-E": 3944,
      "Buhari": 3945,
      "ọm": 3946,
      "▁a:": 3947,
      "▁Ali": 3948,
      "▁Gọ": 3949,
      "▁ọmarịcha": 3950,
      "▁Umu": 3951,
      "▁n'izu": 3952,
      "▁kọpa": 3953,
      "▁ga-aga": 3954,
      "▁kpam": 3955,
      "▁Bay": 3956,
      "▁for": 3957,
      "▁Herọd": 3958,
      "2\n": 3959,
      "ut": 3960,
      "▁nk": 3961,
      "▁Onwe": 3962,
      "▁Ste": 3963,
      "▁content_65": 3964,
      "▁content_27": 3965,
      "▁etinyela": 3966,
      "BỤL": 3967,
      "6\tA": 3968,
      "kza": 3969,
      "rò": 3970,
      "▁irè": 3971,
      "▁Mọ": 3972,
      "▁Ebu": 3973,
      "▁akarị": 3974,
      "▁alaghachi": 3975,
      "▁Kalu": 3976,
      "▁kọm": 3977,
      "▁content_85": 3978,
      "▁Gilied": 3979,
      "▁gbalịrị": 3980,
      "ỊBỤL": 3981,
      "▁ịme": 3982,
      "▁IKE": 3983,
      "zuo": 3984,
      "▁HA": 3985,
      "▁nweere": 3986,
      "▁content_30": 3987,
      "▁Gar": 3988,
      "▁content_61": 3989,
      "▁Air": 3990,
      "▁BAỊBỤL": 3991,
      "CHE": 3992,
      "▁O.": 3993,
      "▁Mkpụrụ": 3994,
      "▁egosipụta": 3995,
      "▁zite": 3996,
      "▁ekere": 3997,
      "▁ọny": 3998,
      "boam": 3999,
      "▁erukwa": 4000,
      "▁eruola": 4001,
      "▁N'a": 4002,
      "▁ịnọgide": 4003,
      "▁guzoro": 4004,
      "▁abụrụla": 4005,
      "▁ndọ": 4006,
      "▁A.": 4007,
      "▁Bor": 4008,
      "▁abụọ\n": 4009,
      "▁content_64": 4010,
      "▁chụpụrụ": 4011,
      "bert": 4012,
      "▁Ọgọst": 4013,
      "cu": 4014,
      "nsi": 4015,
      "▁ọkpụrụkpụ": 4016,
      "sime": 4017,
      "▁agbasi": 4018,
      "fta": 4019,
      "rch": 4020,
      "▁ntara": 4021,
      "kwazịrị": 4022,
      "▁ike\n": 4023,
      "ret": 4024,
      "▁chọghị": 4025,
      "▁atụgharị": 4026,
      "▁adịghịkwa": 4027,
      "▁ọkammụta": 4028,
      "▁Chee": 4029,
      "▁nnọchite": 4030,
      "▁content_55": 4031,
      "gboroja": 4032,
      "lli": 4033,
      "▁awakpo": 4034,
      "▁Oye": 4035,
      "▁MERE": 4036,
      "▁emesi": 4037,
      "▁imebi": 4038,
      "▁UK": 4039,
      "▁enwee": 4040,
      "▁Ye": 4041,
      "▁ghaghị": 4042,
      "▁content_42": 4043,
      "▁Juun": 4044,
      "▁Mugabe": 4045,
      "▁Facebook": 4046,
      "▁nnụnụ": 4047,
      "wala": 4048,
      "riri": 4049,
      "▁Em": 4050,
      "▁kwuwe": 4051,
      "dozi": 4052,
      "▁Malite": 4053,
      "▁nọ́": 4054,
      "▁agaa": 4055,
      "▁na-ebo": 4056,
      "▁'C": 4057,
      "▁anata": 4058,
      "▁193": 4059,
      "▁content_57": 4060,
      "▁Chaịna": 4061,
      "▁Ememme": 4062,
      "gress": 4063,
      "▁hoo": 4064,
      "▁Paịlet": 4065,
      "kzaky": 4066,
      "1\tA": 4067,
      "nba": 4068,
      "▁È": 4069,
      "▁nsị": 4070,
      "▁Abịa": 4071,
      "pụisi": 4072,
      "tum": 4073,
      "▁agara": 4074,
      "▁tọhapụ": 4075,
      "▁na-ekwuchitere": 4076,
      "▁chiri": 4077,
      "▁15\n": 4078,
      "mahụhụ": 4079,
      "▁Delta": 4080,
      "cra": 4081,
      "ls": 4082,
      "▁mechiri": 4083,
      "▁kwadebe": 4084,
      "▁chebara": 4085,
      "▁Bishọ": 4086,
      "▁ntutu": 4087,
      "▁metụrụ": 4088,
      "\tN'egwuregwu": 4089,
      "\",": 4090,
      "a-": 4091,
      "▁ọna": 4092,
      "wela": 4093,
      "▁Mgba": 4094,
      "▁Eti": 4095,
      "▁Judia": 4096,
      "8\tA": 4097,
      "ner": 4098,
      "▁ncha": 4099,
      "▁ogidi": 4100,
      "▁Izu": 4101,
      "kọs": 4102,
      "▁Edo": 4103,
      "▁amaala": 4104,
      "▁ebipụta": 4105,
      "▁agaghịzi": 4106,
      "▁nnọkọ": 4107,
      "▁content_54": 4108,
      "▁agbalịsi": 4109,
      "▁kpọkuo": 4110,
      "▁úkwù": 4111,
      "▁igbochi": 4112,
      "▁ụbọ": 4113,
      "nahụrụ": 4114,
      "▁Cor": 4115,
      "▁abụba": 4116,
      "▁'N": 4117,
      "wood": 4118,
      "▁content_44": 4119,
      "▁Gana": 4120,
      "▁Joseph": 4121,
      "▁tebụl": 4122,
      "▁Abụọ": 4123,
      "▁opekatampe": 4124,
      ",\n": 4125,
      "GHỊ": 4126,
      "NWE": 4127,
      "▁Oli": 4128,
      "▁mebie": 4129,
      "▁na-aka": 4130,
      "▁ga-adị": 4131,
      "▁akpọku": 4132,
      "▁nchegbu": 4133,
      "▁content_69": 4134,
      "▁Ọkaikpe": 4135,
      "▁Hope": 4136,
      "DC": 4137,
      "▁nrị": 4138,
      "▁Ajụjụ": 4139,
      "▁kwuputara": 4140,
      "▁meso": 4141,
      "▁gbawara": 4142,
      "▁na-egbu": 4143,
      "▁25": 4144,
      "jukwu": 4145,
      "kịrịka": 4146,
      "▁content_90": 4147,
      "ood": 4148,
      "▁mbibi": 4149,
      "▁edozi": 4150,
      "kwuuru": 4151,
      "▁Tra": 4152,
      "▁Tọzde": 4153,
      "▁Ahmed": 4154,
      "ace": 4155,
      "▁lie": 4156,
      "▁Fraị": 4157,
      "▁nnupụisi": 4158,
      "▁achụpụ": 4159,
      "▁Univer": 4160,
      "▁Congress": 4161,
      "-1": 4162,
      "don": 4163,
      "▁mbịara": 4164,
      "▁ete": 4165,
      "▁n’\n": 4166,
      "▁Mọnde": 4167,
      "▁Ban": 4168,
      "▁Mala": 4169,
      "▁Bana": 4170,
      "▁Buhari\n": 4171,
      "▁Lib": 4172,
      "▁gwụrụ": 4173,
      "▁El-": 4174,
      "-I": 4175,
      "1\tNdị": 4176,
      "8\tỌ": 4177,
      "ụkwụ": 4178,
      "▁ob": 4179,
      "▁Akwa": 4180,
      "▁Spen": 4181,
      "▁ekwurịta": 4182,
      "▁Yo": 4183,
      "▁akpagbu": 4184,
      "▁chegharịa": 4185,
      "▁jupụta": 4186,
      "▁33": 4187,
      "onia": 4188,
      "▁Umahi": 4189,
      "▁Fraịde": 4190,
      "okoro": 4191,
      "▁ọkpara": 4192,
      "lani": 4193,
      "▁AHỤ": 4194,
      "▁Ọ́": 4195,
      "▁anya\n": 4196,
      "sọs": 4197,
      "▁state": 4198,
      "▁fim": 4199,
      "▁n'ụlọọrụ": 4200,
      "▁Neomi": 4201,
      "▁njirimara": 4202,
      "▁hiwere": 4203,
      "▁ntọrị": 4204,
      "pp": 4205,
      "▁ngosi": 4206,
      "tụmatụ": 4207,
      "▁Ebi": 4208,
      "▁Eche": 4209,
      "nist": 4210,
      "▁n'ogige": 4211,
      "▁Demo": 4212,
      "▁alụso": 4213,
      "cial": 4214,
      "▁Charles": 4215,
      "5\tỌ": 4216,
      "ff": 4217,
      "▁ajị": 4218,
      "hem": 4219,
      "bal": 4220,
      "neti": 4221,
      "lọtọ": 4222,
      "▁\"E": 4223,
      "▁n'ezie": 4224,
      "▁ntaramahụhụ": 4225,
      "es": 4226,
      "ice": 4227,
      "gbi": 4228,
      "hiere": 4229,
      "▁Iri": 4230,
      "gency": 4231,
      "▁Kanada": 4232,
      "▁na-esi": 4233,
      "▁n'asọmpị": 4234,
      "▁ntụrụ": 4235,
      "▁content_33": 4236,
      "▁content_49": 4237,
      "pọb": 4238,
      "▁n'Anambra": 4239,
      "▁Nwere": 4240,
      "▁AS": 4241,
      "▁Efe": 4242,
      "▁akacha": 4243,
      "▁Madu": 4244,
      "▁\"I": 4245,
      "▁atọgbu": 4246,
      "▁Rị": 4247,
      "▁content_18": 4248,
      "▁kwanyere": 4249,
      "▁kele": 4250,
      "ọngọ": 4251,
      "▁ahọpụta": 4252,
      "▁France": 4253,
      "▁emo": 4254,
      "lek": 4255,
      "▁Ind": 4256,
      "mụmụ": 4257,
      "▁Ọst": 4258,
      "họrọ": 4259,
      "▁sị:": 4260,
      "▁esighị": 4261,
      "▁arụsi": 4262,
      "▁nrite": 4263,
      "▁ntachi": 4264,
      "▁content_51": 4265,
      "sonụ": 4266,
      "▁ilekọta": 4267,
      "▁ṅụrịa": 4268,
      "▁Okoye": 4269,
      "▁korona": 4270,
      "▁Champions": 4271,
      "BA": 4272,
      "bri": 4273,
      "▁emepe": 4274,
      "▁n'azụ": 4275,
      "▁Naịjirịa,": 4276,
      "▁bịaru": 4277,
      "▁Johnson": 4278,
      "▁Banabas": 4279,
      "HA": 4280,
      "ks": 4281,
      "mber": 4282,
      "tri": 4283,
      "▁nata": 4284,
      "▁ịkọrọ": 4285,
      "▁Ojukwu": 4286,
      "▁Mkpa": 4287,
      "chel": 4288,
      "▁chọwa": 4289,
      "▁na-ana": 4290,
      "▁steeti,": 4291,
      "▁Jos": 4292,
      "▁akwụna": 4293,
      "ntakịrị": 4294,
      "nbajo": 4295,
      "aghara": 4296,
      "▁ekwo": 4297,
      "kọchukwu": 4298,
      "ongwo": 4299,
      "gazi": 4300,
      "▁adịla": 4301,
      "▁biliri": 4302,
      "▁n'ahịa": 4303,
      "▁content_14": 4304,
      "▁abịaru": 4305,
      "▁Peop": 4306,
      "▁nupụrụ": 4307,
      "▁Christi": 4308,
      "▁Yurop": 4309,
      "ivi": 4310,
      "▁mpe": 4311,
      "▁ewee": 4312,
      "▁sịga": 4313,
      "▁gbagburu": 4314,
      "▁kweghị": 4315,
      "chool": 4316,
      "▁Party": 4317,
      "▁Septemba": 4318,
      "4\tA": 4319,
      "4\tỌ": 4320,
      "9\tỌ": 4321,
      "sp": 4322,
      "▁ụnụ": 4323,
      "rịị": 4324,
      "▁onyenwe": 4325,
      "▁enyekwara": 4326,
      "▁ekwela": 4327,
      "▁ngọngọ": 4328,
      "▁ịgbalị": 4329,
      "our": 4330,
      "▁Feder": 4331,
      "▁mkpọtụ": 4332,
      "▁Ohaneze": 4333,
      "llywood": 4334,
      "▁nká": 4335,
      "NA": 4336,
      "ir": 4337,
      "ugo": 4338,
      "rak": 4339,
      "buka": 4340,
      "den": 4341,
      "▁gbada": 4342,
      "▁rute": 4343,
      "▁anọchi": 4344,
      "juo": 4345,
      "▁iwepụta": 4346,
      "▁wuo": 4347,
      "▁lọghachi": 4348,
      "▁ahịrị": 4349,
      "cal": 4350,
      "▁nha": 4351,
      "▁nhazi": 4352,
      "kwazie": 4353,
      "▁gbapụta": 4354,
      "▁na-ada": 4355,
      "▁mkpị": 4356,
      "▁ọbụghị": 4357,
      "▁ekpenta": 4358,
      "▁ileta": 4359,
      "▁ịkwado": 4360,
      "▁Okeke": 4361,
      "shop": 4362,
      "ron": 4363,
      "▁efere": 4364,
      "▁haa": 4365,
      "▁ọrụ\n": 4366,
      "▁24": 4367,
      "▁ná\n": 4368,
      "▁anara": 4369,
      "▁ịnabata": 4370,
      "▁zipụrụ": 4371,
      "fat": 4372,
      "▁bànyere": 4373,
      "▁azụmahịa": 4374,
      "▁Coronavirus": 4375,
      "▁amadi": 4376,
      "▁lekọta": 4377,
      "▁belata": 4378,
      "▁akwụsịghị": 4379,
      "▁Orji": 4380,
      "tàrà": 4381,
      "ịrịka": 4382,
      "ụfụ": 4383,
      "▁onwu": 4384,
      "▁Akọ": 4385,
      "▁ọkaibe": 4386,
      "▁ịgbaghara": 4387,
      "▁content_81": 4388,
      "▁content_66": 4389,
      "▁njikọ": 4390,
      "▁duru": 4391,
      "▁Indone": 4392,
      "▁Q": 4393,
      "▁rere": 4394,
      "▁nsụgharị": 4395,
      "sity": 4396,
      "▁n'ozi": 4397,
      "▁emetụta": 4398,
      "▁Kris": 4399,
      "▁n'ekwe": 4400,
      "cis": 4401,
      "▁Solo": 4402,
      "ndu": 4403,
      "▁aro": 4404,
      "▁idu": 4405,
      "▁esonụ": 4406,
      "▁ose": 4407,
      "▁ọchụ": 4408,
      "▁ụgbụ": 4409,
      "▁kaa": 4410,
      "▁Nnu": 4411,
      "▁Achọ": 4412,
      "▁Ifre": 4413,
      "▁emehie": 4414,
      "▁Lo": 4415,
      "▁esikwa": 4416,
      "▁echekwa": 4417,
      "▁hụkwara": 4418,
      "▁agwala": 4419,
      "▁Ebel": 4420,
      "▁Niger": 4421,
      "opi": 4422,
      "▁Nri": 4423,
      "▁Sị": 4424,
      "▁gbala": 4425,
      "▁kpụọ": 4426,
      "▁dozie": 4427,
      "gram": 4428,
      "▁Ịlaịsha": 4429,
      "▁Jamanị": 4430,
      "▁Ifrem": 4431,
      "she": 4432,
      "nyekwara": 4433,
      "▁dịkwuo": 4434,
      "▁Ogu": 4435,
      "▁ONYE": 4436,
      "lọm": 4437,
      "▁bipụtara": 4438,
      "▁mmegbu": 4439,
      "▁arụpụta": 4440,
      "▁echetara": 4441,
      "▁karịchaa": 4442,
      "▁karịsịa": 4443,
      "▁ejirila": 4444,
      "▁Iden": 4445,
      "-e": 4446,
      "9\tO": 4447,
      "9\tNdị": 4448,
      "tt": 4449,
      "▁abọ": 4450,
      "▁Amụma": 4451,
      "tis": 4452,
      "▁Bru": 4453,
      "▁Solu": 4454,
      "▁imeụlọ": 4455,
      "▁Maịka": 4456,
      "▁Pi": 4457,
      "▁Pụrụ": 4458,
      "▁1\n": 4459,
      "▁Baba": 4460,
      "▁ọgbara": 4461,
      "▁Febụ": 4462,
      "▁nupụụrụ": 4463,
      "▁Fulani": 4464,
      "▁Ngabiga": 4465,
      "AC": 4466,
      "stọ": 4467,
      "òrò": 4468,
      "▁nya": 4469,
      "▁awara": 4470,
      "▁Ilaị": 4471,
      "chaara": 4472,
      "▁na-ewe": 4473,
      "▁'E": 4474,
      "▁echichi": 4475,
      "▁rite": 4476,
      "▁kpebisiri": 4477,
      "▁ịna-akpa": 4478,
      "FCON": 4479,
      "WU": 4480,
      "uba": 4481,
      "▁agọ": 4482,
      "▁kwusa": 4483,
      "▁Mati": 4484,
      "▁ichebara": 4485,
      "▁anapụta": 4486,
      "vice": 4487,
      "▁Mbaụwa": 4488,
      "▁Zekara": 4489,
      "____": 4490,
      "▁ndokwa": 4491,
      "▁Zekaraya": 4492,
      "0\tỌ": 4493,
      "▁ọkpọ": 4494,
      "natan": 4495,
      "res": 4496,
      "▁23": 4497,
      "▁kpọpụtara": 4498,
      "▁Ken": 4499,
      "▁ntoroọbịa": 4500,
      "▁Ànyị": 4501,
      "▁ịchafụ": 4502,
      "6\tO": 4503,
      "BN": 4504,
      "rg": 4505,
      "tà": 4506,
      "▁izere": 4507,
      "▁Ogbu": 4508,
      "▁Akịrịka": 4509,
      "▁ch": 4510,
      "▁bụ́\n": 4511,
      "▁ọnụma": 4512,
      "▁kọọ": 4513,
      "▁Legos": 4514,
      "▁gosipụta": 4515,
      "▁content_28": 4516,
      "▁Chri": 4517,
      "▁Satọdee": 4518,
      "▁Cent": 4519,
      "▁Amerika": 4520,
      "ihi": 4521,
      "▁ọbọ": 4522,
      "▁yanwa": 4523,
      "▁bụụrụ": 4524,
      "▁makwa": 4525,
      "▁Jeri": 4526,
      "▁Atụrụ": 4527,
      "hony": 4528,
      "lian": 4529,
      "▁Gụọ": 4530,
      "▁aga\n": 4531,
      "▁Uk": 4532,
      "▁ekwuo": 4533,
      "▁tụgharịa": 4534,
      "▁akwamozu": 4535,
      "▁kwuo,": 4536,
      "▁ọkọlọtọ": 4537,
      "▁Uzodinma": 4538,
      "▁Garba": 4539,
      "▁mbịaram": 4540,
      "BE": 4541,
      "Za": 4542,
      "Ụfọdụ": 4543,
      "▁ṅomi": 4544,
      "▁gawara": 4545,
      "lan": 4546,
      "▁Akụ": 4547,
      "▁Gbalị": 4548,
      "▁Ugo": 4549,
      "▁wepụrụ": 4550,
      "▁akwadebe": 4551,
      "▁Lion": 4552,
      "▁n'Af": 4553,
      "teetị": 4554,
      "▁kọmputa": 4555,
      "ah": 4556,
      "t-": 4557,
      "▁eli": 4558,
      "▁Ọmụmụ": 4559,
      "▁anyaụfụ": 4560,
      "▁adịru": 4561,
      "▁content_52": 4562,
      "▁ịna-agba": 4563,
      "▁ngwongwo": 4564,
      "▁Church": 4565,
      "9\tA": 4566,
      "zù": 4567,
      "▁mịnịsta": 4568,
      "▁Ad": 4569,
      "▁Am": 4570,
      "▁Iche": 4571,
      "▁chọtara": 4572,
      "▁Kasị": 4573,
      "▁ịgbara": 4574,
      "▁ewetara": 4575,
      "▁ezuru": 4576,
      "▁content_25": 4577,
      "▁Rev": 4578,
      "▁Union": 4579,
      "▁Jọnatan": 4580,
      "4\tO": 4581,
      "Gịnị": 4582,
      "▁NY": 4583,
      "▁Ọdị": 4584,
      "ghaara": 4585,
      "▁esoro": 4586,
      "▁kpasu": 4587,
      "▁Nebuka": 4588,
      "▁Osinbajo": 4589,
      "▁ree": 4590,
      "▁AKA": 4591,
      "▁Febụwarị": 4592,
      "win": 4593,
      "hapụrụ": 4594,
      "▁bụbụ": 4595,
      "▁Mer": 4596,
      "chael": 4597,
      "ghari": 4598,
      "▁\"M": 4599,
      "nive": 4600,
      "sun": 4601,
      "▁content_62": 4602,
      "▁tozuru": 4603,
      "car": 4604,
      "▁Ninive": 4605,
      "▁Jọji": 4606,
      "▁pasentị": 4607,
      "▁Sta": 4608,
      "▁Sala": 4609,
      "▁nọnyeere": 4610,
      "▁agaala": 4611,
      "▁okpukpere": 4612,
      "illa": 4613,
      "▁pụkwara": 4614,
      "▁zere": 4615,
      "▁ibibi": 4616,
      "▁Frank": 4617,
      "▁zoo": 4618,
      "▁ntụrụndụ": 4619,
      "▁ṅomie": 4620,
      "'s": 4621,
      "▁ọtụ": 4622,
      "▁gaje": 4623,
      "zil": 4624,
      "▁dịgasị": 4625,
      "▁Ego": 4626,
      "▁niile\n": 4627,
      "▁n'ogo": 4628,
      "▁pị": 4629,
      "▁ezute": 4630,
      "▁zụta": 4631,
      "▁Aisha": 4632,
      "▁obí": 4633,
      "cou": 4634,
      "▁gafe": 4635,
      "▁mewo": 4636,
      "kola": 4637,
      "▁amanye": 4638,
      "▁okpukpu": 4639,
      "▁njedebe": 4640,
      "▁Nigerian": 4641,
      "▁owuwe": 4642,
      "▁ụmụnwanyị": 4643,
      "Gee": 4644,
      "ofor": 4645,
      "▁School": 4646,
      "▁Mak": 4647,
      "▁kwekọrọ": 4648,
      "▁agagharị": 4649,
      "▁mmechi": 4650,
      "▁ebuli": 4651,
      "▁Ụmụaka": 4652,
      "▁N'o": 4653,
      "▁ngwaahịa": 4654,
      "▁Adamu": 4655,
      "▁oriọna": 4656,
      "▁Eziokwu": 4657,
      "gressi": 4658,
      "▁Soludo": 4659,
      "-N": 4660,
      "▁kwọ": 4661,
      "▁ize": 4662,
      "▁ọwa": 4663,
      "▁ụfụ": 4664,
      "▁Asa": 4665,
      "lehem": 4666,
      "▁Mbụ": 4667,
      "▁21": 4668,
      "▁dika": 4669,
      "juru": 4670,
      "▁gwaziri": 4671,
      "▁ekewa": 4672,
      "▁tinyekwara": 4673,
      "▁Francis": 4674,
      "▁Niu": 4675,
      "pịakọta": 4676,
      "raide": 4677,
      "▁Betlehem": 4678,
      "7\tỌ": 4679,
      "HỌ": 4680,
      "gụrụ": 4681,
      "▁furu": 4682,
      "rube": 4683,
      "roup": 4684,
      "▁ụmụa": 4685,
      "▁adịgide": 4686,
      "▁sụọ": 4687,
      "▁Nwata": 4688,
      "▁tọgbọrọ": 4689,
      "▁Feb": 4690,
      "▁African": 4691,
      "▁alọta": 4692,
      "▁na-etinye": 4693,
      "▁Brazil": 4694,
      "ration": 4695,
      "▁OLE": 4696,
      "▁Id": 4697,
      "day": 4698,
      "▁Fraide": 4699,
      "▁buuru": 4700,
      "▁n'okporo": 4701,
      "uharị": 4702,
      "▁anaghịkwa": 4703,
      "ngs": 4704,
      "▁content_32": 4705,
      "▁Nnabu": 4706,
      "mọnwụ": 4707,
      "▁ndina": 4708,
      "▁Frans": 4709,
      "KWA": 4710,
      "▁dụọ": 4711,
      "▁Monde": 4712,
      "3\tA": 4713,
      "para": 4714,
      "▁Mịnịsta": 4715,
      "▁Ekwu": 4716,
      "dent": 4717,
      "▁binyere": 4718,
      "▁YA": 4719,
      "▁nzute": 4720,
      "▁ugbua.\n": 4721,
      "▁content_56": 4722,
      "▁Steeti\n": 4723,
      "▁redio": 4724,
      "▁Jeriko": 4725,
      "3\tỌ": 4726,
      "DỊ": 4727,
      "▁Anụ": 4728,
      "chaala": 4729,
      "▁agbakwa": 4730,
      "▁(\n": 4731,
      "▁agwaetiti": 4732,
      "▁Papa": 4733,
      "▁gunyere": 4734,
      "▁minista": 4735,
      "▁East": 4736,
      "▁Anthony": 4737,
      "▁Borno": 4738,
      "▁onwunwe": 4739,
      "7\tA": 4740,
      "▁adụ": 4741,
      "▁Ekpere": 4742,
      "▁Chie": 4743,
      "gedọn": 4744,
      "▁akwụkwọ\n": 4745,
      "▁hụkwa": 4746,
      "▁asụgharị": 4747,
      "▁content_72": 4748,
      "▁Judas": 4749,
      "▁vs": 4750,
      "▁arụrụala": 4751,
      "ọchị": 4752,
      "▁el": 4753,
      "madị": 4754,
      "kpi": 4755,
      "▁OZI": 4756,
      "▁AFCON": 4757,
      "▁nwara": 4758,
      "▁agbawa": 4759,
      "▁ekwupụta": 4760,
      "▁kọmitii": 4761,
      "▁ebuso": 4762,
      "▁Igbo,": 4763,
      "▁ga-ebu": 4764,
      "▁Progressi": 4765,
      "pọblik": 4766,
      "a\n": 4767,
      "en": 4768,
      "nor": 4769,
      "▁Nwee": 4770,
      "rita": 4771,
      "▁Ode": 4772,
      "▁kwuburu": 4773,
      "▁na-ajụ": 4774,
      "▁'I": 4775,
      "▁2012": 4776,
      "▁ịmalite": 4777,
      "▁ịna-enwe": 4778,
      "▁nwụchie": 4779,
      "▁Okwukwe": 4780,
      "▁Davi": 4781,
      "▁ịkpata": 4782,
      "▁Tesa": 4783,
      "▁mkpịsị": 4784,
      "-a": 4785,
      "sà": 4786,
      "tta": 4787,
      "yọn": 4788,
      "kel": 4789,
      "▁kasie": 4790,
      "sina": 4791,
      "mede": 4792,
      "kwusa": 4793,
      "riti": 4794,
      "▁Anti": 4795,
      "▁Esa": 4796,
      "▁Chineke\n": 4797,
      "▁agbaso": 4798,
      "▁adịkwu": 4799,
      "▁'B": 4800,
      "▁amụọ": 4801,
      "▁echeghị": 4802,
      "▁Joe": 4803,
      "▁depụta": 4804,
      "▁omebe": 4805,
      "▁mgbọrọ": 4806,
      "▁Eliza": 4807,
      "▁Ọbụna": 4808,
      "▁Democra": 4809,
      "▁Ọstre": 4810,
      ").\n": 4811,
      "3\tNdị": 4812,
      "8\tNdị": 4813,
      "ite": 4814,
      "ife": 4815,
      "▁Mou": 4816,
      "▁aga,": 4817,
      "fesi": 4818,
      "▁UN": 4819,
      "▁Lon": 4820,
      "▁mmegide": 4821,
      "▁ozuzo": 4822,
      "▁Amagedọn": 4823,
      "▁na-agbara": 4824,
      "▁Bur": 4825,
      "▁University": 4826,
      "▁Matiu": 4827,
      "5\tA": 4828,
      "sere": 4829,
      "zaị": 4830,
      "haala": 4831,
      "▁Ndu": 4832,
      "▁AN": 4833,
      "kọba": 4834,
      "▁Euro": 4835,
      "▁ọzọkwa": 4836,
      "▁ozigbo": 4837,
      "▁sí": 4838,
      "▁Uwa": 4839,
      "▁Ụjọ": 4840,
      "▁sonye": 4841,
      "▁ga-eso": 4842,
      "▁content_70": 4843,
      "lonaịka": 4844,
      "▁Mọde": 4845,
      "▁Tesalonaịka": 4846,
      "5\tO": 4847,
      "echi": 4848,
      "nge": 4849,
      "ọpụ": 4850,
      "ỤRỤ": 4851,
      "▁Ngwa": 4852,
      "▁Kwụ": 4853,
      "debere": 4854,
      "▁na-enyocha": 4855,
      "▁You": 4856,
      "▁Robert": 4857,
      "▁content_50": 4858,
      "▁River": 4859,
      "▁kpọkuru": 4860,
      "▁otiegwu": 4861,
      "▁Lọt": 4862,
      "▁Mọdekaị": 4863,
      "▁$": 4864,
      "▁wit": 4865,
      "▁esure": 4866,
      "▁ọkwọ": 4867,
      "len": 4868,
      "▁Ọgọs": 4869,
      "▁mmachi": 4870,
      "▁nwaafọ": 4871,
      "▁aga.\n": 4872,
      "▁ọma\n": 4873,
      "▁na-ewu": 4874,
      "▁content_17": 4875,
      "▁Michael": 4876,
      "▁Russe": 4877,
      "ghee": 4878,
      "▁Geor": 4879,
      "▁klas": 4880,
      "▁emeriela": 4881,
      "▁ekpuchi": 4882,
      "▁akatọọla": 4883,
      "▁Efesọs": 4884,
      "ID": 4885,
      "▁ekw": 4886,
      "▁ọsị": 4887,
      "jiri": 4888,
      "▁Atọ": 4889,
      "▁Iran": 4890,
      "▁Buharị": 4891,
      "▁gbasaa": 4892,
      "sapụ": 4893,
      "▁ichefu": 4894,
      "▁okwute": 4895,
      "▁26": 4896,
      "▁28": 4897,
      "▁mgbalị": 4898,
      "▁sirila": 4899,
      "▁tọọ": 4900,
      "▁agwụla": 4901,
      "emeka": 4902,
      "▁vidio": 4903,
      "Zakzaky": 4904,
      "onye": 4905,
      "▁rọ": 4906,
      "▁ja": 4907,
      "▁ogbi": 4908,
      "erena": 4909,
      "▁Oni": 4910,
      "▁emezi": 4911,
      "▁Kri": 4912,
      "▁Sti": 4913,
      "▁agabiga": 4914,
      "▁na-eyi": 4915,
      "▁enyeghị": 4916,
      "▁kachanụ": 4917,
      "▁jụụ": 4918,
      "▁Kọmitii": 4919,
      "▁ọdọụgbọelu": 4920,
      "▁Victor": 4921,
      "▁Williams": 4922,
      "▁Idris": 4923,
      "▁Russell": 4924,
      "2\tA": 4925,
      "3\tO": 4926,
      "chụrụ": 4927,
      "▁ịbata": 4928,
      "▁Cup": 4929,
      "họm": 4930,
      "▁Sọnde": 4931,
      "▁content_19": 4932,
      "▁ọkụ\n": 4933,
      "▁ngụ": 4934,
      "mero": 4935,
      "▁Ụmụnwaanyị": 4936,
      "anyanwụ": 4937,
      "▁ọgbaaghara": 4938,
      "ard": 4939,
      "▁gwọrọ": 4940,
      "▁ṅụrụ": 4941,
      "▁Service": 4942,
      "icester": 4943,
      "▁mgbọrọgwụ": 4944,
      "1\tO": 4945,
      "PO": 4946,
      "tali": 4947,
      "▁NKE": 4948,
      "▁ịhazi": 4949,
      "▁abụrịrị": 4950,
      "▁nọọ": 4951,
      "▁agbanyeghi": 4952,
      "▁Nwachukwu": 4953,
      "▁Alakụba": 4954,
      "▁Afịrịka": 4955,
      "▁Manase": 4956,
      "▁nkwenye": 4957,
      "gazin": 4958,
      "▁London": 4959,
      "2\tO": 4960,
      "7\tNdị": 4961,
      "rk": 4962,
      "▁ogwu": 4963,
      "kwuoro": 4964,
      "▁Osote": 4965,
      "▁Jero": 4966,
      "▁Ag": 4967,
      "▁All": 4968,
      "leke": 4969,
      "▁kwurịta": 4970,
      "▁rubere": 4971,
      "▁n'igwe": 4972,
      "▁Naza": 4973,
      "▁content_15": 4974,
      "▁Igbokwe": 4975,
      "lop": 4976,
      "▁akpatara": 4977,
      "▁n'ọgbakọ": 4978,
      "▁nweghịkwa": 4979,
      "▁Nyere": 4980,
      "▁Gbalịa": 4981,
      "4\tNdị": 4982,
      "iz": 4983,
      "ina": 4984,
      "▁h": 4985,
      "▁inyocha": 4986,
      "▁Nwe": 4987,
      "▁ịkọwa": 4988,
      "▁Onwu": 4989,
      "bigara": 4990,
      "▁mepụtara": 4991,
      "dun": 4992,
      "▁Nations": 4993,
      "▁kpọta": 4994,
      "▁debere": 4995,
      "▁ikwesị": 4996,
      "▁sụgharịa": 4997,
      "▁OTU": 4998,
      "▁Stivin": 4999,
      "s'": 5000,
      "▁ogbo": 5001,
      "▁Nji": 5002,
      "▁Aku": 5003,
      "▁mepụta": 5004,
      "mili": 5005,
      "▁anọrọ": 5006,
      "▁kewa": 5007,
      "▁Josaya": 5008,
      "ital": 5009,
      "▁adọrọ": 5010,
      "0\tA": 5011,
      "▁Agency": 5012,
      "onu": 5013,
      "▁akaghị": 5014,
      "▁anyaukwu": 5015,
      "▁Spa": 5016,
      "▁100": 5017,
      "▁abali": 5018,
      "▁marakwa": 5019,
      "▁eleta": 5020,
      "▁akpọkwa": 5021,
      "bram": 5022,
      "▁pọ": 5023,
      "▁content_41": 5024,
      "▁egbughị": 5025,
      "ven": 5026,
      "▁content_53": 5027,
      "▁setị": 5028,
      "▁Health": 5029,
      "▁ikweta": 5030,
      "▁ụnyahụ": 5031,
      "dge": 5032,
      "et": 5033,
      "ịdị": 5034,
      "▁rịa": 5035,
      "▁ụkwara": 5036,
      "▁Ang": 5037,
      "▁Ebram": 5038,
      "▁KWE": 5039,
      "▁Sy": 5040,
      "▁ụmụntakịrị": 5041,
      "▁'P": 5042,
      "▁achọta": 5043,
      "▁Alaka": 5044,
      "▁iwepụ": 5045,
      "▁192": 5046,
      "▁zute": 5047,
      "▁ịmara": 5048,
      "▁ịtụnanya": 5049,
      "▁akpịrị": 5050,
      "▁ana-eme": 5051,
      "▁OLEE": 5052,
      "Etu": 5053,
      "menti": 5054,
      "▁machi": 5055,
      "▁Aki": 5056,
      "gbata": 5057,
      "▁gbakwara": 5058,
      "▁'O": 5059,
      "▁ga-ewe": 5060,
      "▁agwaghị": 5061,
      "▁Zam": 5062,
      "▁content_40": 5063,
      "▁Dọkịnta": 5064,
      "▁Àgwà": 5065,
      "▁Wat": 5066,
      "Ụlọikpe": 5067,
      "2\tỌ": 5068,
      "Ebe": 5069,
      "KỌ": 5070,
      "olụ": 5071,
      "▁obo": 5072,
      "pụkwa": 5073,
      "tive": 5074,
      "▁na-arịa": 5075,
      "▁n'ọgbọ": 5076,
      "▁efegharị": 5077,
      "▁n'ụlọomeiwu": 5078,
      "stagram": 5079,
      "▁Femi": 5080,
      "▁pena": 5081,
      "Gọọmentị": 5082,
      "opia": 5083,
      "ụbọchị": 5084,
      "▁mpịakọta": 5085,
      "nyèrè": 5086,
      "gbà": 5087,
      "wan": 5088,
      "ben": 5089,
      "▁mepere": 5090,
      "▁ruuru": 5091,
      "▁dakwasịrị": 5092,
      "▁dayọ": 5093,
      "▁gosikwara": 5094,
      "▁n'ụlọọgwụ": 5095,
      "▁aghọọ": 5096,
      "kirikiri": 5097,
      "▁oyibo": 5098,
      "▁Saịmọn": 5099,
      "▁otiti": 5100,
      "▁Brother": 5101,
      "ssocia": 5102,
      "simesi": 5103,
      "▁Ọstrelia": 5104,
      "ogo": 5105,
      "▁adi": 5106,
      "teau": 5107,
      "▁ọchịagha": 5108,
      "▁anaghịzi": 5109,
      "▁ọbụla\n": 5110,
      "▁akwadoghị": 5111,
      "▁Car": 5112,
      "raine": 5113,
      "▁Yemi": 5114,
      "▁Nnukwu": 5115,
      "EE": 5116,
      "s\n": 5117,
      "ńụ": 5118,
      "▁kwà": 5119,
      "▁ichi": 5120,
      "▁Are": 5121,
      "▁Iti": 5122,
      "▁mma\n": 5123,
      "chịrị": 5124,
      "▁Mada": 5125,
      "▁nọchitere": 5126,
      "▁na-eso": 5127,
      "▁anụnụ": 5128,
      "▁malitekwara": 5129,
      "▁Leicester": 5130,
      "▁Mikel": 5131,
      "▁Nazaret": 5132,
      "7\tO": 5133,
      "nw": 5134,
      "▁a:\n": 5135,
      "▁afa": 5136,
      "▁apị": 5137,
      "▁ụnwụ": 5138,
      "▁ụzụ": 5139,
      "▁magazin": 5140,
      "▁ịpụta": 5141,
      "▁Anwụ": 5142,
      "▁na-akwa": 5143,
      "tor": 5144,
      "▁29": 5145,
      "▁asataghị": 5146,
      "▁gharakwa": 5147,
      "▁content_31": 5148,
      "shan": 5149,
      "▁aghọtaghị": 5150,
      "cie": 5151,
      "▁guzosie": 5152,
      "▁lọtara": 5153,
      "▁Eprel": 5154,
      "dneza": 5155,
      "▁Nebukadneza": 5156,
      "cer": 5157,
      "m-": 5158,
      "▁egbo": 5159,
      "▁ka\n": 5160,
      "▁Nya": 5161,
      "▁Associa": 5162,
      "▁Kp": 5163,
      "▁na-abụ": 5164,
      "▁Tho": 5165,
      "▁(A": 5166,
      "▁2011": 5167,
      "▁Wol": 5168,
      "▁ọhụrụ\n": 5169,
      "▁po": 5170,
      "▁N'otu": 5171,
      "mịrị": 5172,
      "▁onyinyo": 5173,
      "▁Nollywood": 5174,
      "ata": 5175,
      "tro": 5176,
      "▁oghere": 5177,
      "▁katara": 5178,
      "▁anyụ": 5179,
      "ruegwu": 5180,
      "naeze": 5181,
      "▁emekọ": 5182,
      "▁ESI": 5183,
      "▁Jehọ": 5184,
      "▁Jefta": 5185,
      "nọn": 5186,
      "▁isiri": 5187,
      "▁na-agụ": 5188,
      "▁na-akọwa": 5189,
      "▁ekwukwa": 5190,
      "▁content_13": 5191,
      "▁kenyere": 5192,
      "▁content_22": 5193,
      "▁content_24": 5194,
      "verton": 5195,
      "▁ogogo": 5196,
      "▁Elizabe": 5197,
      "▁Ọgọstụ": 5198,
      "6\tM": 5199,
      "▁m̀": 5200,
      "▁egburu": 5201,
      "hen": 5202,
      "madụ": 5203,
      "▁gabiga": 5204,
      "▁ỌMA": 5205,
      "▁n'U": 5206,
      "▁kpuru": 5207,
      "gani": 5208,
      "▁adịbeghị": 5209,
      "▁(I": 5210,
      "▁Yọk": 5211,
      "▁taa.\n": 5212,
      "▁achịkọta": 5213,
      "▁Bishop": 5214,
      "▁n'ele": 5215,
      "▁Pati": 5216,
      "▁ịchọta": 5217,
      "▁Nwodo": 5218,
      "▁iberi": 5219,
      "▁n'egwuregwu": 5220,
      "▁Indoneshia": 5221,
      "6\tNdị": 5222,
      "nc": 5223,
      "▁kè": 5224,
      "▁al": 5225,
      "▁mà": 5226,
      "▁mbe": 5227,
      "▁mmọnwụ": 5228,
      "men": 5229,
      "ril": 5230,
      "▁Azi": 5231,
      "bidoro": 5232,
      "▁emechi": 5233,
      "▁kwusara": 5234,
      "▁ụlọahịa": 5235,
      "▁na-akụ": 5236,
      "▁27": 5237,
      "▁jw": 5238,
      "▁eketa": 5239,
      "▁okpuruọchịchị": 5240,
      "▁Ọkaiwu": 5241,
      "▁1999": 5242,
      "▁eguzosi": 5243,
      "8\tO": 5244,
      "JI": 5245,
      "lai": 5246,
      "kọbara": 5247,
      "▁gbakọrọ": 5248,
      "▁May": 5249,
      "gel": 5250,
      "▁niile.\n": 5251,
      "▁ekwuchitere": 5252,
      "▁weghara": 5253,
      "▁gwakwa": 5254,
      "▁abịakwute": 5255,
      "▁Nọt": 5256,
      "▁dụrụ": 5257,
      "▁Zayọn": 5258,
      "'A": 5259,
      "blic": 5260,
      "gy": 5261,
      "▁kwù": 5262,
      "▁odi": 5263,
      "ram": 5264,
      "▁Onu": 5265,
      "▁Amọn": 5266,
      "naala": 5267,
      "▁uchu": 5268,
      "▁emekarị": 5269,
      "▁KP": 5270,
      "sompi": 5271,
      "dian": 5272,
      "kpebi": 5273,
      "▁Ụkọchukwu": 5274,
      "▁bibiri": 5275,
      "▁content_16": 5276,
      "▁kọmishọna": 5277,
      "▁chewe": 5278,
      "▁agụsi": 5279,
      "▁Ikpeazu": 5280,
      "▁nturuugo": 5281,
      "2,": 5282,
      "5\tNdị": 5283,
      "▁bị": 5284,
      "▁ndị\n": 5285,
      "gbon": 5286,
      "nara": 5287,
      "▁Ọgba": 5288,
      "nes": 5289,
      "red": 5290,
      "▁chọkwuru": 5291,
      "▁ọnụ\n": 5292,
      "▁erubeghị": 5293,
      "▁chịburu": 5294,
      "▁Ripọblik": 5295,
      "▁nduzi": 5296,
      "▁Ahụ́": 5297,
      "▁Ejiofor": 5298,
      "▁na-amasị": 5299,
      "▁Libya": 5300,
      "▁n'ekwentị": 5301,
      "▁Ukraine": 5302,
      ",\"": 5303,
      "0\n": 5304,
      "ps": 5305,
      "▁ọkpa": 5306,
      "nyò": 5307,
      "tain": 5308,
      "▁machie": 5309,
      "▁ememe": 5310,
      "▁Ed": 5311,
      "salọm": 5312,
      "bour": 5313,
      "huru": 5314,
      "raịt": 5315,
      "▁WHO": 5316,
      "▁Joab": 5317,
      "▁gosipụtara": 5318,
      "▁izute": 5319,
      "▁James": 5320,
      "▁Kogi": 5321,
      "▁Absalọm": 5322,
      "▁égbè": 5323,
      "IT": 5324,
      "Re": 5325,
      "m\n": 5326,
      "om": 5327,
      "▁nrụ": 5328,
      "▁igba": 5329,
      "▁ekiri": 5330,
      "▁ogwe": 5331,
      "▁Omo": 5332,
      "▁Big": 5333,
      "▁ikele": 5334,
      "▁mere\n": 5335,
      "▁agbamakwụkwọ": 5336,
      "▁mụụrụ": 5337,
      "juju": 5338,
      "ang": 5339,
      "mọkụ": 5340,
      "▁Chukwuma": 5341,
      "▁Musa": 5342,
      "▁Agụmba": 5343,
      "▁gbagoo": 5344,
      "▁na-efegharị": 5345,
      "monwe": 5346,
      "▁nti": 5347,
      "▁emi": 5348,
      "▁ụlo": 5349,
      "rity": 5350,
      "▁ahụla": 5351,
      "▁Omume": 5352,
      "▁Aja": 5353,
      "araba": 5354,
      "▁Serena": 5355,
      "▁enweela": 5356,
      "▁atọ\n": 5357,
      "chọpụta": 5358,
      "▁kedụ": 5359,
      "▁egosila": 5360,
      "▁ịna-ele": 5361,
      "shafat": 5362,
      "▁Sunda": 5363,
      "▁Federal": 5364,
      "▁Jọjia": 5365,
      "meroon": 5366,
      "monwealth": 5367,
      "2\tNdị": 5368,
      "FF": 5369,
      "LC": 5370,
      "RỌ": 5371,
      "WỤ": 5372,
      "az": 5373,
      "▁nà": 5374,
      "▁napụtara": 5375,
      "▁m\n": 5376,
      "▁emer": 5377,
      "▁Ami": 5378,
      "kọrịtara": 5379,
      "▁Enwe": 5380,
      "▁kwuchara": 5381,
      "▁Dk": 5382,
      "gas": 5383,
      "▁'M": 5384,
      "▁mmepụta": 5385,
      "▁ọghọm": 5386,
      "▁nsọtụ": 5387,
      "▁mgbaasị": 5388,
      "▁kpaliri": 5389,
      "▁egbuke": 5390,
      "▁zipụ": 5391,
      "▁content_20": 5392,
      "▁chọọkwa": 5393,
      "▁Mian": 5394,
      "▁mkpuchi": 5395,
      "ssia": 5396,
      "▁anwansi": 5397,
      "▁agbịdị": 5398,
      "▁Agaghị": 5399,
      "▁mechakwara": 5400,
      "▁Davido": 5401,
      "gz": 5402,
      "ndi": 5403,
      "▁ụdọ": 5404,
      "sili": 5405,
      "▁sila": 5406,
      "▁emela": 5407,
      "▁\"ọ": 5408,
      "▁Haba": 5409,
      "▁2019,": 5410,
      "▁ịzọpụta": 5411,
      "8\tM": 5412,
      "KA": 5413,
      "elụ": 5414,
      "▁Kpọ": 5415,
      "▁abụo": 5416,
      "▁na-akwụ": 5417,
      "▁achọpụtala": 5418,
      "▁akpọtụ": 5419,
      "▁Banyere": 5420,
      "velop": 5421,
      "▁Amaechi": 5422,
      "▁ịna-echegbu": 5423,
      "▁Plateau": 5424,
      "▁George": 5425,
      "▁KWESỊ": 5426,
      "NỤ": 5427,
      "▁Ù": 5428,
      "▁he": 5429,
      "▁idebe": 5430,
      "▁Okpu": 5431,
      "kọk": 5432,
      "nụzụ": 5433,
      "▁meghị": 5434,
      "▁Chima": 5435,
      "▁Chioma": 5436,
      "▁Mama": 5437,
      "▁mmebi": 5438,
      "zor": 5439,
      "▁kpachara": 5440,
      "▁Ezinụlọ": 5441,
      "▁gbatagbata": 5442,
      "▁Ọzọkwa": 5443,
      "llahi": 5444,
      "▁Kwesịrị": 5445,
      "briel": 5446,
      "▁Democratic": 5447,
      "▁penariti": 5448,
      "velopment": 5449,
      "nchọ": 5450,
      "ịl": 5451,
      "▁imerụ": 5452,
      "laya": 5453,
      "runa": 5454,
      "▁Mara": 5455,
      "▁Mor": 5456,
      "▁agbago": 5457,
      "tarachi": 5458,
      "▁Onyema": 5459,
      "▁Fo": 5460,
      "▁sooro": 5461,
      "▁Wike": 5462,
      "rịtaụka": 5463,
      "▁ntụnye": 5464,
      "▁edemede": 5465,
      "▁Nehe": 5466,
      "▁agbataobi": 5467,
      "▁Chukwuemeka": 5468,
      "▁nghọtahie": 5469,
      "▁Ọnịcha": 5470,
      "▁iguzosi": 5471,
      "▁Jeroboam": 5472,
      "▁n'elekere": 5473,
      "▁Sunday": 5474,
      "\"A": 5475,
      "0\tO": 5476,
      "wà": 5477,
      "▁ase": 5478,
      "▁imegide": 5479,
      "▁abụbụ": 5480,
      "▁iche\n": 5481,
      "▁Tan": 5482,
      "▁tụba": 5483,
      "▁rụtụrụ": 5484,
      "▁mgbagwoju": 5485,
      "▁kamakwa": 5486,
      "▁Peace": 5487,
      "▁idemmiri": 5488,
      "▁\"Anyị": 5489,
      "▁agbidi": 5490,
      "▁obosara": 5491,
      "-anyanwụ": 5492,
      "pha": 5493,
      "pho": 5494,
      "yị": 5495,
      "▁Á": 5496,
      "▁liri": 5497,
      "▁ịtọ": 5498,
      "▁Jụọ": 5499,
      "▁ỌZỌ": 5500,
      "sala": 5501,
      "▁Hụ": 5502,
      "ston": 5503,
      "toyin": 5504,
      "▁ego\n": 5505,
      "nie": 5506,
      "worị": 5507,
      "▁Nwan": 5508,
      "▁Bilie": 5509,
      "▁ọdịdị": 5510,
      "▁ga-amalite": 5511,
      "▁Ugbua": 5512,
      "▁twitter": 5513,
      "▁Hosp": 5514,
      "▁Ahụhụ": 5515,
      "▁okooko": 5516,
      "-U": 5517,
      "BBC": 5518,
      "IV": 5519,
      "oji": 5520,
      "▁abu": 5521,
      "▁nari": 5522,
      "▁igbo": 5523,
      "nyekwa": 5524,
      "▁Ex": 5525,
      "▁Everton": 5526,
      "▁Bre": 5527,
      "▁nwete": 5528,
      "▁mụwara": 5529,
      "▁kepu": 5530,
      "▁dabeere": 5531,
      "▁na-emepụta": 5532,
      "▁Minist": 5533,
      "▁eduhie": 5534,
      "▁ịkwalite": 5535,
      "▁fewe": 5536,
      "▁mbịarambịa": 5537,
      "▁Association": 5538,
      "▁Habakọk": 5539,
      "fara": 5540,
      "▁ekwere": 5541,
      "▁ojuju": 5542,
      "ka\n": 5543,
      "hee": 5544,
      "gbere": 5545,
      "ward": 5546,
      "▁Odi": 5547,
      "▁ube": 5548,
      "▁Idọm": 5549,
      "▁Ebere": 5550,
      "▁sịkwara": 5551,
      "▁gbawa": 5552,
      "▁Jim": 5553,
      "▁n'asụsụ": 5554,
      "▁Naịra": 5555,
      "▁ebughị": 5556,
      "▁mụwa": 5557,
      "▁asaala": 5558,
      "ell": 5559,
      "▁Development": 5560,
      "▁Baptizim": 5561,
      "kwàrà": 5562,
      "▁Naijiria\n": 5563,
      "▁Boaz": 5564,
      "gharịala": 5565,
      "▁Organi": 5566,
      "jịrịa": 5567,
      "▁Guine": 5568,
      "▁People": 5569,
      "▁Qu": 5570,
      "court": 5571,
      "ndị": 5572,
      "▁&": 5573,
      "▁X": 5574,
      "▁no": 5575,
      "▁inu": 5576,
      "▁egboro": 5577,
      "▁NI": 5578,
      "▁gabigara": 5579,
      "▁ịkwàlite": 5580,
      "▁OKWU": 5581,
      "lent": 5582,
      "chebe": 5583,
      "▁abụọ,": 5584,
      "▁Uweojii": 5585,
      "kun": 5586,
      "▁n'ọdọ": 5587,
      "▁daba": 5588,
      "▁nwụnahụrụ": 5589,
      "▁content_29": 5590,
      "▁Steeti.\n": 5591,
      "▁nchọnchọ": 5592,
      "▁Ọnịtsha": 5593,
      "▁Bank": 5594,
      "toyinbo": 5595,
      "0\tNdị": 5596,
      "7\tM": 5597,
      "GE": 5598,
      "NỊ": 5599,
      "fè": 5600,
      "stan": 5601,
      "▁kw": 5602,
      "▁ISI": 5603,
      "bulu": 5604,
      "▁kpocha": 5605,
      "▁ichekwa": 5606,
      "▁adịgboroja": 5607,
      "▁kwalite": 5608,
      "▁egosikwa": 5609,
      "▁content_21": 5610,
      "▁akpọọla": 5611,
      "▁nyochaa": 5612,
      "▁ọnatarachi": 5613,
      "▁Christian": 5614,
      "▁Hospital": 5615,
      "port": 5616,
      "▁napụ": 5617,
      "▁miri": 5618,
      "hat": 5619,
      "ern": 5620,
      "▁gakwuuru": 5621,
      "▁Cle": 5622,
      "▁Eri": 5623,
      "sola": 5624,
      "▁buliri": 5625,
      "▁Ịgba": 5626,
      "▁ọchịchị\n": 5627,
      "▁tigbuo": 5628,
      "▁esoghị": 5629,
      "ghachite": 5630,
      "▁Boy": 5631,
      "omentị": 5632,
      "▁Heman": 5633,
      "▁Koria": 5634,
      "GBA": 5635,
      "GBO": 5636,
      "▁Abdullahi": 5637,
      "▁Okafor": 5638,
      "Kedụ": 5639,
      "▁El-Zakzaky": 5640,
      "▁Joshua": 5641,
      "POB": 5642,
      "▁Mianmaa": 5643,
      "hr": 5644,
      "leri": 5645,
      "ora": 5646,
      "▁#": 5647,
      "▁ge": 5648,
      "key": 5649,
      "▁Ngo": 5650,
      "▁ịgwọ": 5651,
      "▁Eshia": 5652,
      "▁kwupụta": 5653,
      "liki": 5654,
      "▁Chidi": 5655,
      "nubu": 5656,
      "▁Group": 5657,
      "bok": 5658,
      "▁Du": 5659,
      "▁Ute": 5660,
      "kuzi": 5661,
      "▁T.": 5662,
      "▁22": 5663,
      "▁bulie": 5664,
      "muni": 5665,
      "▁Day": 5666,
      "▁Ribe": 5667,
      "▁2007": 5668,
      "pịta": 5669,
      "▁GỊNỊ": 5670,
      "▁adọọla": 5671,
      "tholic": 5672,
      "▁nnọchiteanya": 5673,
      "▁Kwụsị": 5674,
      "por": 5675,
      "the": 5676,
      "yu": 5677,
      "▁ịpụ": 5678,
      "▁Adị": 5679,
      "naka": 5680,
      "▁Jehova\n": 5681,
      "chasị": 5682,
      "som": 5683,
      "▁agakwa": 5684,
      "▁na-eke": 5685,
      "▁akụ́": 5686,
      "▁n'iwu": 5687,
      "▁Gịnịzi": 5688,
      "▁Road": 5689,
      "▁content_60": 5690,
      "▁pụtaghị": 5691,
      "▁Kọpị": 5692,
      "tụrụla": 5693,
      "▁nkasi": 5694,
      "▁ịmụrụ": 5695,
      "▁Dọmini": 5696,
      "▁ọnyà": 5697,
      "▁Akọpịta": 5698,
      "▁Krismas": 5699,
      "▁Kọpịtara": 5700,
      "1\tM": 5701,
      "3\n": 5702,
      "zụrụ": 5703,
      "▁IM": 5704,
      "▁HIV": 5705,
      "▁chọsiri": 5706,
      "▁na-adị": 5707,
      "nnaya": 5708,
      "▁ebiri": 5709,
      "▁akparịta": 5710,
      "▁Jun": 5711,
      "ntaịl": 5712,
      "▁dọkịnta": 5713,
      "▁dochie": 5714,
      "▁eboro": 5715,
      "▁Kim": 5716,
      "▁gbasaara": 5717,
      "▁Dọminikan": 5718,
      "-19": 5719,
      "mb": 5720,
      "▁ikpu": 5721,
      "▁izo": 5722,
      "▁Ogun": 5723,
      "▁AC": 5724,
      "▁Jentaịl": 5725,
      "▁aka,": 5726,
      "▁meworo": 5727,
      "▁Maria": 5728,
      "▁Good": 5729,
      "godi": 5730,
      "▁Ihe\n": 5731,
      "▁Ịma": 5732,
      "▁rụpụtara": 5733,
      "▁debara": 5734,
      "▁ekpebie": 5735,
      "▁adaala": 5736,
      "▁Paris": 5737,
      "▁dọtara": 5738,
      "▁Peshia": 5739,
      "▁ọbụnadị": 5740,
      "▁Inno": 5741,
      "▁isonye": 5742,
      "dera": 5743,
      "▁ngo": 5744,
      "▁dị\n": 5745,
      "▁nkea": 5746,
      "▁Isọ": 5747,
      "tin": 5748,
      "▁emefu": 5749,
      "rew": 5750,
      "▁abụọ.\n": 5751,
      "▁kpọkwara": 5752,
      "▁agụnye": 5753,
      "▁bụghịkwa": 5754,
      "▁Siza": 5755,
      "▁Fatoyinbo": 5756,
      "NYERE": 5757,
      "fiel": 5758,
      "▁ntorobia": 5759,
      "▁Febrụ": 5760,
      "▁Wolves": 5761,
      "9\tM": 5762,
      "Chi": 5763,
      "Ya": 5764,
      "ai": 5765,
      "ruba": 5766,
      "▁ịnwe": 5767,
      "▁Okpa": 5768,
      "▁Ash": 5769,
      "▁gbapụrụ": 5770,
      "▁ụlọo": 5771,
      "▁Haruna": 5772,
      "▁n'iyi": 5773,
      "▁Oleekwanụ": 5774,
      "▁FR": 5775,
      "▁ga-achị": 5776,
      "cent": 5777,
      "▁tọgbọ": 5778,
      "▁ekesa": 5779,
      "▁N'ime": 5780,
      "▁fada": 5781,
      "▁ịkpatara": 5782,
      "rans": 5783,
      "▁Tinubu": 5784,
      "shọn": 5785,
      "conomi": 5786,
      "▁idina": 5787,
      "rinho": 5788,
      "▁gbadaa": 5789,
      "▁okpukperechi": 5790,
      "▁Chief": 5791,
      "▁Nehemaya": 5792,
      "pù": 5793,
      "▁Okike": 5794,
      "▁Ani": 5795,
      "nọk": 5796,
      "▁Ham": 5797,
      "ning": 5798,
      "▁mkpara": 5799,
      "▁gụchara": 5800,
      "▁asịkwa": 5801,
      "erubere": 5802,
      "▁Nebal": 5803,
      "▁Rehab": 5804,
      "▁pụghị": 5805,
      "▁Villa": 5806,
      "▁teela": 5807,
      "▁Catholic": 5808,
      "▁Chọọchị": 5809,
      "1\tIhe": 5810,
      "6\tIhe": 5811,
      "nno": 5812,
      "▁ngwọ": 5813,
      "▁ịche": 5814,
      "▁ịhọrọ": 5815,
      "▁Akpa": 5816,
      "▁jizi": 5817,
      "bịbịa": 5818,
      "▁Oleezi": 5819,
      "▁egwu\n": 5820,
      "▁kwaga": 5821,
      "▁ezigbote": 5822,
      "▁ga-ahụ": 5823,
      "▁Nwanne": 5824,
      "▁aghọkwa": 5825,
      "▁achụm": 5826,
      "▁wusiri": 5827,
      "▁Okezie": 5828,
      "▁Poli": 5829,
      "▁ebidola": 5830,
      "▁kwùrù": 5831,
      "Gọvanọ": 5832,
      "SO": 5833,
      "mgba": 5834,
      "ré": 5835,
      "▁Mgbakọ": 5836,
      "▁ezisa": 5837,
      "stle": 5838,
      "▁Ụtọ": 5839,
      "tịn": 5840,
      "▁n'oche": 5841,
      "▁eleghara": 5842,
      "eruo": 5843,
      "▁bụrụkwanụ": 5844,
      "▁ANYA": 5845,
      "▁Filipaị": 5846,
      "▁KWESỊRỊ": 5847,
      "AF": 5848,
      "rì": 5849,
      "▁igwu": 5850,
      "▁igu": 5851,
      "sisi": 5852,
      "lah": 5853,
      "▁ahụmahụ": 5854,
      "▁Iba": 5855,
      "▁Ọnwa": 5856,
      "gbanyeghị": 5857,
      "▁emebu": 5858,
      "▁megharịa": 5859,
      "▁Chibok": 5860,
      "sasị": 5861,
      "▁isi\n": 5862,
      "mic": 5863,
      "▁agakwuru": 5864,
      "pute": 5865,
      "▁mkparị": 5866,
      "▁enweghịkwa": 5867,
      "▁maọbụrụ": 5868,
      "▁Ronal": 5869,
      "▁Rohr": 5870,
      "▁inyefe": 5871,
      "▁sekọ": 5872,
      "▁talent": 5873,
      "ncil": 5874,
      "▁Ribeka": 5875,
      "1\n": 5876,
      "5\n": 5877,
      "Da": 5878,
      "LỌ": 5879,
      "PỤ": 5880,
      "ise": 5881,
      "tra": 5882,
      "▁echu": 5883,
      "▁org": 5884,
      "▁Ọgụ": 5885,
      "▁Cro": 5886,
      "▁Hà": 5887,
      "▁adịchaghị": 5888,
      "▁shu": 5889,
      "▁rubeere": 5890,
      "▁'F": 5891,
      "▁turu": 5892,
      "▁jọrọ": 5893,
      "▁Siera": 5894,
      "▁chụọrọ": 5895,
      "biam": 5896,
      "ship": 5897,
      "fia": 5898,
      "▁Bukola": 5899,
      "▁Election": 5900,
      "▁Madagas": 5901,
      "2\tM": 5902,
      "6\n": 5903,
      "6\tN": 5904,
      "ele": 5905,
      "gala": 5906,
      "ugbo": 5907,
      "▁abị": 5908,
      "▁ụkwa": 5909,
      "▁Nje": 5910,
      "▁ahụta": 5911,
      "▁ịhọpụta": 5912,
      "▁Mmeri": 5913,
      "▁MKP": 5914,
      "▁Ihu": 5915,
      "▁ỤMỤ": 5916,
      "▁ejima": 5917,
      "▁mmezu": 5918,
      "▁mmefu": 5919,
      "▁dakwasị": 5920,
      "▁gbochiri": 5921,
      "▁sọọ": 5922,
      "▁Saịlas": 5923,
      "▁Antiọk": 5924,
      "3\tIhe": 5925,
      "7\tIhe": 5926,
      "o-": 5927,
      "▁esere": 5928,
      "▁ote": 5929,
      "▁ọta": 5930,
      "▁ịsa": 5931,
      "▁Ono": 5932,
      "▁Ogbon": 5933,
      "▁Aya": 5934,
      "line": 5935,
      "▁mmadụ,": 5936,
      "▁n'ama": 5937,
      "▁Ịdị": 5938,
      "kiel": 5939,
      "ozie": 5940,
      "▁hụla": 5941,
      "ntikọ": 5942,
      "▁bọolụ": 5943,
      "▁zukọtara": 5944,
      "▁ịlụso": 5945,
      "drin": 5946,
      "▁arịọla": 5947,
      "▁content_976\t": 5948,
      "▁kpataara": 5949,
      "field": 5950,
      "▁Febrụwarị": 5951,
      "▁shuga": 5952,
      "4\tM": 5953,
      "Di": 5954,
      "TO": 5955,
      "▁mwụ": 5956,
      "▁ọkwụ": 5957,
      "▁Nsu": 5958,
      "latara": 5959,
      "▁nkewa": 5960,
      "▁Anọ": 5961,
      "▁Mbọ": 5962,
      "▁Ọhụrụ": 5963,
      "kwesili": 5964,
      "▁gbaga": 5965,
      "▁gbachara": 5966,
      "ghalo": 5967,
      "▁agbala": 5968,
      "ses": 5969,
      "giri": 5970,
      "▁kpọtara": 5971,
      "▁akpọ\n": 5972,
      "nneth": 5973,
      "▁mkpegharị": 5974,
      "indo": 5975,
      "▁Russia": 5976,
      "▁ewerela": 5977,
      "▁nzọụkwụ": 5978,
      "▁Mmemme": 5979,
      "▁Brown": 5980,
      "▁n'Afrịka": 5981,
      "▁ekworo": 5982,
      "\"N": 5983,
      "uter": 5984,
      "▁idozi": 5985,
      "▁eghe": 5986,
      "▁ụrọ": 5987,
      "way": 5988,
      "ring": 5989,
      "▁IME": 5990,
      "▁Eha": 5991,
      "▁gbasie": 5992,
      "bom": 5993,
      "▁kwesi": 5994,
      "▁atụla": 5995,
      "▁FC": 5996,
      "▁For": 5997,
      "▁atọrọ": 5998,
      "▁bunye": 5999,
      "▁kwagara": 6000,
      "▁ịnata": 6001,
      "▁mgbaba": 6002,
      "▁Ya\n": 6003,
      "▁uweojii\n": 6004,
      "▁ntụpọ": 6005,
      "▁N'aka": 6006,
      "▁n'ụlọụka": 6007,
      "▁ndekọ": 6008,
      "ARS": 6009,
      "▁enupụrụ": 6010,
      "▁akparala": 6011,
      "FA": 6012,
      "gọn": 6013,
      "jọọ": 6014,
      "ọnwa": 6015,
      "▁okirikiri": 6016,
      "▁ndịọrụ": 6017,
      "mar": 6018,
      "▁ahụrụ": 6019,
      "jie": 6020,
      "▁anyịnwa": 6021,
      "▁utu": 6022,
      "▁Iju": 6023,
      "▁CO": 6024,
      "▁Maị": 6025,
      "diọn": 6026,
      "▁agawa": 6027,
      "▁Taị": 6028,
      "▁esila": 6029,
      "▁2000": 6030,
      "▁bịaruo": 6031,
      "▁chefuo": 6032,
      "▁dapụ": 6033,
      "▁Kele": 6034,
      "▁ghọtakwuo": 6035,
      "▁irube": 6036,
      "▁Ekwela": 6037,
      "▁Commonwealth": 6038,
      "▁dinara": 6039,
      "▁ibé": 6040,
      "▁Etiti": 6041,
      "▁Jehọshafat": 6042,
      "1\tN'": 6043,
      "ation": 6044,
      "▁achụrụ": 6045,
      "kau": 6046,
      "hedrin": 6047,
      "ta\n": 6048,
      "la\n": 6049,
      "▁dịtụ": 6050,
      "▁ịwa": 6051,
      "▁Inọk": 6052,
      "▁Jehoya": 6053,
      "▁mehiere": 6054,
      "▁Gere": 6055,
      "dad": 6056,
      "bọt": 6057,
      "▁kwekọrịtara": 6058,
      "▁Per": 6059,
      "▁adịm": 6060,
      "▁Fr": 6061,
      "▁atọ.\n": 6062,
      "▁Ịngland": 6063,
      "▁egwuri": 6064,
      "▁kpọchiri": 6065,
      "▁elekwasị": 6066,
      "▁akpọpụta": 6067,
      "▁Secon": 6068,
      "▁pro": 6069,
      "▁ịkpachara": 6070,
      "▁zọpụtara": 6071,
      "▁Gidiọn": 6072,
      "erọb": 6073,
      "▁Sanhedrin": 6074,
      "▁kèl": 6075,
      "▁Ngozi": 6076,
      "nse": 6077,
      "xi": 6078,
      "melek": 6079,
      "▁ịra": 6080,
      "▁nkebi": 6081,
      "▁Odu": 6082,
      "▁Ish": 6083,
      "▁IPOB": 6084,
      "▁CBN": 6085,
      "▁sineti": 6086,
      "▁En": 6087,
      "▁mehie": 6088,
      "kolo": 6089,
      "▁atọhapụ": 6090,
      "kiwe": 6091,
      "▁ịnara": 6092,
      "▁bí": 6093,
      "not": 6094,
      "▁alụbeghị": 6095,
      "▁N'afọ": 6096,
      "▁Labour": 6097,
      "▁Rechel": 6098,
      "▁ataala": 6099,
      "▁egeghị": 6100,
      "GBU": 6101,
      "▁na-elekọta": 6102,
      "neral": 6103,
      "▁Mourinho": 6104,
      "conomic": 6105,
      "8\n": 6106,
      "CHI": 6107,
      "GO": 6108,
      "thi": 6109,
      "▁obe": 6110,
      "▁Nu": 6111,
      "negal": 6112,
      "▁Ber": 6113,
      "▁meziri": 6114,
      "▁obi\n": 6115,
      "sty": 6116,
      "▁Flo": 6117,
      "▁kpọkọta": 6118,
      "▁kpọkù": 6119,
      "▁Benin": 6120,
      "▁degara": 6121,
      "sus": 6122,
      "▁ntụlị": 6123,
      "▁egbugbere": 6124,
      "▁fig": 6125,
      "▁n'ụlọakwụkwọ": 6126,
      "▁aghọrọ": 6127,
      "▁Pentikọ": 6128,
      "▁Ruben": 6129,
      "▁Tiwa": 6130,
      "▁arahụ": 6131,
      "▁Nnamdị": 6132,
      "yode": 6133,
      "que": 6134,
      "▁na-anọchite": 6135,
      "4\tIhe": 6136,
      "6\tN'": 6137,
      "9\tIhe": 6138,
      "ani": 6139,
      "dò": 6140,
      "▁asịrị": 6141,
      "▁mwe": 6142,
      "▁ekp": 6143,
      "▁kamel": 6144,
      "sing": 6145,
      "▁Bala": 6146,
      "▁ezigara": 6147,
      "ghapụ": 6148,
      "segun": 6149,
      "▁na-ata": 6150,
      "▁Lan": 6151,
      "▁ekwenti": 6152,
      "▁ekwetaghị": 6153,
      "▁ga-azọ": 6154,
      "▁achịkwa": 6155,
      "6\tE": 6156,
      "▁60": 6157,
      "▁Abigel": 6158,
      "okorobịa": 6159,
      "▁Azikiwe": 6160,
      "8\tIhe": 6161,
      "9\tN": 6162,
      "SA": 6163,
      "egbu": 6164,
      "pchi": 6165,
      "▁ezere": 6166,
      "▁ọfọ": 6167,
      "▁ọzara": 6168,
      "ket": 6169,
      "▁kagburu": 6170,
      "▁ịsọ": 6171,
      "▁ịkpụ": 6172,
      "teghị": 6173,
      "▁Ighalo": 6174,
      "net": 6175,
      "▁jisie": 6176,
      "▁Her": 6177,
      "▁Kal": 6178,
      "▁n'anwụ": 6179,
      "▁anọkarị": 6180,
      "▁mkpiri": 6181,
      "▁eleda": 6182,
      "zịkwa": 6183,
      "▁rụwa": 6184,
      "▁ịgbaso": 6185,
      "shaị": 6186,
      "▁50": 6187,
      "▁ahapụla": 6188,
      "▁trak": 6189,
      "▁Allah": 6190,
      "▁amarakwa": 6191,
      "▁Ìgwè": 6192,
      "▁1919": 6193,
      "▁ụtụisi": 6194,
      "▁AKỤ": 6195,
      "▁JIZỌ": 6196,
      "▁Adichie": 6197,
      "▁Guinea": 6198,
      "▁Clement": 6199,
      "▁Pentikọst": 6200,
      "▁JIZỌS": 6201,
      "EC": 6202,
      "ger": 6203,
      "odun": 6204,
      "▁hu": 6205,
      "▁Ado": 6206,
      "▁emeghe": 6207,
      "▁Echi": 6208,
      "tọs": 6209,
      "▁imesi": 6210,
      "bonyi": 6211,
      "▁na-agwa": 6212,
      "ganda": 6213,
      "▁sụrụ": 6214,
      "▁sọrọ": 6215,
      "▁TV": 6216,
      "▁Tọọ": 6217,
      "▁2010": 6218,
      "▁Belam": 6219,
      "▁werekwa": 6220,
      "▁gụnyèrè": 6221,
      "▁Zu": 6222,
      "▁adabere": 6223,
      "▁ngwaagha": 6224,
      "▁ndepụta": 6225,
      "▁ịtụgharị": 6226,
      "▁Instagram": 6227,
      "fis": 6228,
      "KWỤ": 6229,
      "▁sọsọ": 6230,
      "▁2015\n": 6231,
      "▁Council": 6232,
      "▁cherọb": 6233,
      "▁Europe": 6234,
      "▁FRSC": 6235,
      "8\tAkụkọ": 6236,
      "PP": 6237,
      "ole": 6238,
      "▁ido": 6239,
      "yat": 6240,
      "▁ịlọ": 6241,
      "▁Onyi": 6242,
      "▁Ọkpọ": 6243,
      "kọt": 6244,
      "chabeghị": 6245,
      "▁mezie": 6246,
      "▁anya.\n": 6247,
      "▁kwuru.\n": 6248,
      "▁bụrụhaala": 6249,
      "▁Don": 6250,
      "▁n'akpa": 6251,
      "▁ga-akpọ": 6252,
      "▁achọkwa": 6253,
      "▁tiivi": 6254,
      "elsa": 6255,
      "▁akpọnwụ": 6256,
      "▁Babi": 6257,
      "eruru": 6258,
      "▁Lai": 6259,
      "▁kọwakwara": 6260,
      "▁Ikechukwu": 6261,
      "▁naghịkwa": 6262,
      "KWE": 6263,
      "ntanetị": 6264,
      "Ụmụnwaanyị": 6265,
      "▁Rivers": 6266,
      "▁Zamfara": 6267,
      "1\tN": 6268,
      "3\tN": 6269,
      "5\tN": 6270,
      "6\tAkụkọ": 6271,
      "Jo": 6272,
      "ekwa": 6273,
      "int": 6274,
      "ser": 6275,
      "▁wara": 6276,
      "▁agbọ": 6277,
      "har": 6278,
      "▁gbà": 6279,
      "▁NLC": 6280,
      "▁ịhe": 6281,
      "▁Asụsụ": 6282,
      "sịn": 6283,
      "▁Ọgwụ": 6284,
      "▁Cu": 6285,
      "▁Cy": 6286,
      "▁Cri": 6287,
      "▁emebeghị": 6288,
      "▁Ekiti": 6289,
      "▁jighị": 6290,
      "liọs": 6291,
      "▁mere,": 6292,
      "▁Gola": 6293,
      "sed": 6294,
      "▁mbata": 6295,
      "kubu": 6296,
      "▁nwebeghị": 6297,
      "▁Taraba": 6298,
      "raịm": 6299,
      "▁dibia": 6300,
      "▁kwuokwa": 6301,
      "▁deba": 6302,
      "▁abịanụ": 6303,
      "▁Ụlọomeiwu": 6304,
      "▁nwụchara": 6305,
      "stal": 6306,
      "▁chiburu": 6307,
      "▁Amaghị": 6308,
      "▁Kọwaa": 6309,
      "▁Ruther": 6310,
      "▁jewe": 6311,
      "▁Gini": 6312,
      "akụkụ": 6313,
      "▁coronavirus\n": 6314,
      "▁\"Ndị": 6315,
      "▁edina": 6316,
      "▁Bishọp": 6317,
      "a-nyị": 6318,
      "▁Rutherford": 6319,
      "1\tAkụkọ": 6320,
      "4\n": 6321,
      "5\tIhe": 6322,
      "TỌ": 6323,
      "ker": 6324,
      "nte": 6325,
      "▁ahia": 6326,
      "▁ibo": 6327,
      "▁ez": 6328,
      "nyụọ": 6329,
      "▁ụkpa": 6330,
      "▁ufe": 6331,
      "pụnụ": 6332,
      "▁Ibi": 6333,
      "▁gbagbuo": 6334,
      "▁imepụta": 6335,
      "▁Mah": 6336,
      "▁Mazi": 6337,
      "saara": 6338,
      "▁ichebe": 6339,
      "▁FA": 6340,
      "▁Naịjịrịa": 6341,
      "▁tụgharịrị": 6342,
      "▁cheba": 6343,
      "▁Kenneth": 6344,
      "▁Damas": 6345,
      "▁Dapchi": 6346,
      "yetti": 6347,
      "▁Taya": 6348,
      "▁ibido": 6349,
      "▁n'agbanyeghị": 6350,
      "▁dinaa": 6351,
      "▁Offu": 6352,
      "▁okpomọkụ": 6353,
      "▁Bayern": 6354,
      "▁Mercy": 6355,
      "▁manyere": 6356,
      "▁Ngige": 6357,
      "▁dịbu": 6358,
      "▁Dr": 6359,
      "▁agakwaghị": 6360,
      "▁agbada": 6361,
      "▁\"C": 6362,
      "▁mbada": 6363,
      "▁Naịj": 6364,
      "▁kpọtụ": 6365,
      "▁achọsi": 6366,
      "ghiri": 6367,
      "▁okpueze": 6368,
      "▁gụpụtara": 6369,
      "ghọta": 6370,
      "▁bọọlụ\n": 6371,
      "1\tE": 6372,
      "▁Kanu\n": 6373,
      "▁dunyere": 6374,
      "▁apụtala": 6375,
      "▁n'usoro": 6376,
      "▁chara": 6377,
      "▁2018\n": 6378,
      "▁katọọ": 6379,
      "▁Olusegun": 6380,
      "▁Bayelsa": 6381,
      "▁kaadị": 6382,
      "▁jaa": 6383,
      "▁traktị": 6384,
      "5\tAkụkọ": 6385,
      "7\n": 6386,
      "ast": 6387,
      "gere": 6388,
      "lva": 6389,
      "▁0": 6390,
      "▁atu": 6391,
      "▁esu": 6392,
      "▁dịzi": 6393,
      "▁KWU": 6394,
      "▁ọrụ.\n": 6395,
      "▁steetị": 6396,
      "etinye": 6397,
      "kuru": 6398,
      "▁buga": 6399,
      "▁ketara": 6400,
      "▁esonye": 6401,
      "▁Yakubu": 6402,
      "▁zukọrọ": 6403,
      "▁omenaala": 6404,
      "▁kpebisie": 6405,
      "▁enwetala": 6406,
      "▁Canada": 6407,
      "▁Britain": 6408,
      "▁hiwe": 6409,
      "▁Okechukwu": 6410,
      "▁ngwọrọ": 6411,
      "▁Kings": 6412,
      "▁Power": 6413,
      "▁windo": 6414,
      "▁ekpughe": 6415,
      "▁Abdul": 6416,
      "ight": 6417,
      "▁Solomọn": 6418,
      "▁Onitsha": 6419,
      "▁Ọkpọka": 6420,
      "3\tM": 6421,
      "fị": 6422,
      "iti": 6423,
      "sò": 6424,
      "ịta": 6425,
      "▁y": 6426,
      "▁okwe": 6427,
      "▁nkeọma": 6428,
      "▁Osun": 6429,
      "▁AG": 6430,
      "▁Anyi": 6431,
      "▁Inwe": 6432,
      "▁sina": 6433,
      "chapụrụ": 6434,
      "sation": 6435,
      "▁kwenye": 6436,
      "▁na-arịọ": 6437,
      "▁na-ekwe": 6438,
      "▁'G": 6439,
      "▁'T": 6440,
      "▁atọkwa": 6441,
      "▁anọ\n": 6442,
      "▁ruokwa": 6443,
      "▁dibịa": 6444,
      "▁etiela": 6445,
      "rial": 6446,
      "▁nkwari": 6447,
      "▁abịaghị": 6448,
      "▁akwụwa": 6449,
      "▁N'egwuregwu": 6450,
      "▁31": 6451,
      "▁Cos": 6452,
      "▁Soko": 6453,
      "▁ọdachị": 6454,
      "▁midia\n": 6455,
      "▁nwaada": 6456,
      "▁Gbasara": 6457,
      "▁Nyako": 6458,
      "▁Damaskọs": 6459,
      "7\tN'": 6460,
      "RA": 6461,
      "as": 6462,
      "mkpọrọ": 6463,
      "obodo": 6464,
      "ura": 6465,
      "▁ima": 6466,
      "▁hanwa": 6467,
      "sin": 6468,
      "jide": 6469,
      "▁nkenke": 6470,
      "▁ure": 6471,
      "▁mmaji": 6472,
      "tia": 6473,
      "▁Emer": 6474,
      "▁Bọ": 6475,
      "▁Jezi": 6476,
      "▁metọrọ": 6477,
      "▁eziga": 6478,
      "▁Swi": 6479,
      "luck": 6480,
      "mila": 6481,
      "▁nwechara": 6482,
      "▁(1": 6483,
      "▁ọnụnọ": 6484,
      "▁anapụ": 6485,
      "▁ọbụbụ": 6486,
      "▁ntabi": 6487,
      "yemi": 6488,
      "▁Regi": 6489,
      "▁sụgharị": 6490,
      "▁2020\n": 6491,
      "werri": 6492,
      "▁ọkọchị": 6493,
      "▁Umar": 6494,
      "▁Tụlee": 6495,
      "▁linin": 6496,
      "tumtum": 6497,
      "▁mwụda": 6498,
      "▁ntụlịaka": 6499,
      "-2": 6500,
      "3\tN'": 6501,
      "ahia": 6502,
      "olo": 6503,
      "▁akị": 6504,
      "▁m,": 6505,
      "▁bụdị": 6506,
      "▁NFF": 6507,
      "zighị": 6508,
      "teta": 6509,
      "▁Abra": 6510,
      "▁chu": 6511,
      "▁Ibiam": 6512,
      "▁n'onwe": 6513,
      "▁emesapụ": 6514,
      "lis": 6515,
      "buola": 6516,
      "▁mebi": 6517,
      "▁nọ\n": 6518,
      "▁agbarụ": 6519,
      "▁agbapụta": 6520,
      "▁enwekwu": 6521,
      "▁agha\n": 6522,
      "▁dgz": 6523,
      "▁tụlere": 6524,
      "▁chegodị": 6525,
      "▁dekwara": 6526,
      "▁n'Abia": 6527,
      "▁Patri": 6528,
      "▁gọomentị": 6529,
      "▁duzie": 6530,
      "▁Gover": 6531,
      "▁Sọdọm": 6532,
      "▁ekpebiela": 6533,
      "n-dị": 6534,
      "▁Omeiwu": 6535,
      "▁Harry": 6536,
      "▁ọnyá": 6537,
      "▁mesoo": 6538,
      "▁Thomas": 6539,
      "▁Okpukpe": 6540,
      "▁mbadamba": 6541,
      "▁Jezibel": 6542,
      "igbo": 6543,
      "mpa": 6544,
      "wè": 6545,
      "▁lo": 6546,
      "▁yo": 6547,
      "rama": 6548,
      "▁ịbara": 6549,
      "tes": 6550,
      "▁Oshi": 6551,
      "▁Mkpu": 6552,
      "kwụnye": 6553,
      "▁Port": 6554,
      "▁Uba": 6555,
      "▁na-ebe": 6556,
      "▁na-enyere": 6557,
      "▁nwuru": 6558,
      "▁akpasu": 6559,
      "▁ịna-erubere": 6560,
      "▁ajụọ": 6561,
      "▁n'ọnọdụ": 6562,
      "▁Ezekwesili": 6563,
      "nous": 6564,
      "▁Miyetti": 6565,
      "▁Mbaise": 6566,
      "▁ịtụle": 6567,
      "▁APC\n": 6568,
      "▁Ọkafọ": 6569,
      "▁ijuanya": 6570,
      "▁Bet-": 6571,
      "▁Ọdịda": 6572,
      "▁Babilọn": 6573,
      "\"Ọ": 6574,
      "▁nee": 6575,
      "▁NN": 6576,
      "▁Ntụ": 6577,
      "▁ịkwọ": 6578,
      "▁Ohu": 6579,
      "pụpụ": 6580,
      "▁emegharị": 6581,
      "▁kwuziri": 6582,
      "▁meghere": 6583,
      "▁anya,": 6584,
      "nus": 6585,
      "▁Mai": 6586,
      "▁Ndịda": 6587,
      "mie": 6588,
      "mina": 6589,
      "▁she": 6590,
      "▁amachiela": 6591,
      "erima": 6592,
      "▁esikwu": 6593,
      "part": 6594,
      "kpuo": 6595,
      "▁Wal": 6596,
      "▁adakwasị": 6597,
      "▁lekwasị": 6598,
      "▁pụtakwara": 6599,
      "▁ngaghari": 6600,
      "▁ótù": 6601,
      "cation": 6602,
      "▁Adeleke": 6603,
      "▁Anaghị": 6604,
      "▁agbanweela": 6605,
      "▁ịbịaru": 6606,
      "▁Ejike": 6607,
      "▁Bụ́": 6608,
      "▁Okonkwo": 6609,
      "▁bịarutere": 6610,
      "▁ahịrịokwu": 6611,
      "▁Kpọrọ": 6612,
      "▁Ùnu": 6613,
      "▁achụmnta": 6614,
      "▁Golayat": 6615,
      "▁fu": 6616,
      "▁ndịa": 6617,
      "siisi": 6618,
      "▁masị": 6619,
      "baị": 6620,
      "▁OGE": 6621,
      "▁emeta": 6622,
      "▁Bụrụ": 6623,
      "▁gịnwa": 6624,
      "▁nwaanyị\n": 6625,
      "▁diri": 6626,
      "▁gharịị": 6627,
      "▁akparị": 6628,
      "▁anwụnta": 6629,
      "▁agụpụta": 6630,
      "mou": 6631,
      "▁gụwa": 6632,
      "▁akwụghị": 6633,
      "oot": 6634,
      "▁ịna-aga": 6635,
      "castle": 6636,
      "▁Cameroon": 6637,
      "▁akwụsịla": 6638,
      "▁Akanu": 6639,
      "▁Yusu": 6640,
      "wich": 6641,
      "▁anabataghị": 6642,
      "▁ụtarị": 6643,
      "▁alọghachi": 6644,
      "▁nkọcha": 6645,
      "▁Ronaldo": 6646,
      "0\tM": 6647,
      "7\tN": 6648,
      "TI": 6649,
      "dọrọ": 6650,
      "knụzụ": 6651,
      "mọs": 6652,
      "pre": 6653,
      "ọnọ": 6654,
      "—ọ": 6655,
      "▁gi": 6656,
      "▁ịkwà": 6657,
      "▁Atụmatụ": 6658,
      "▁Bara": 6659,
      "▁Bles": 6660,
      "▁kwukwa": 6661,
      "▁anyasị": 6662,
      "rịala": 6663,
      "▁okwu\n": 6664,
      "▁na-aba": 6665,
      "▁adịkwaghị": 6666,
      "▁rube": 6667,
      "kuku": 6668,
      "▁ejikarị": 6669,
      "▁bugara": 6670,
      "▁nwuchiri": 6671,
      "▁gharazie": 6672,
      "▁tum": 6673,
      "▁n'emume": 6674,
      "▁Naija": 6675,
      "▁Amerịka\n": 6676,
      "▁chịwa": 6677,
      "▁chịkọta": 6678,
      "▁40": 6679,
      "4\tE": 6680,
      "▁Inde": 6681,
      "▁Ugwuanyi": 6682,
      "▁nnwereonwe": 6683,
      "▁Itiopia": 6684,
      "▁Kaldia": 6685,
      "▁ezé": 6686,
      "4\tN": 6687,
      "ctu": 6688,
      "▁oka": 6689,
      "▁ọbịbịa": 6690,
      "kem": 6691,
      "lack": 6692,
      "zia": 6693,
      "▁ga-eri": 6694,
      "▁Asọmpi": 6695,
      "▁Atụla": 6696,
      "timi": 6697,
      "ney": 6698,
      "▁emenye": 6699,
      "kwụsị": 6700,
      "del": 6701,
      "deine": 6702,
      "ọrọla": 6703,
      "▁na-acha": 6704,
      "▁na-alụ": 6705,
      "gan": 6706,
      "▁ekwukarị": 6707,
      "pani": 6708,
      "yim": 6709,
      "▁ruola": 6710,
      "▁chegharịrị": 6711,
      "▁nchebe": 6712,
      "▁Senegal": 6713,
      "▁ntuliaka\n": 6714,
      "▁chụsa": 6715,
      "▁Reho": 6716,
      "irie": 6717,
      "▁NDỤ": 6718,
      "0\tE": 6719,
      "▁lụso": 6720,
      "▁chetaara": 6721,
      "ries": 6722,
      "Ụlọọrụ": 6723,
      "KPE": 6724,
      "▁nwụchikọrọ": 6725,
      "▁Yoruba": 6726,
      "▁neetị": 6727,
      "VC": 6728,
      "llo": 6729,
      "mbo": 6730,
      "ngo": 6731,
      "ùrù": 6732,
      "▁Ó": 6733,
      "▁Ṅ": 6734,
      "▁ịwụ": 6735,
      "▁Agwa": 6736,
      "▁Iy": 6737,
      "▁ỌRỤ": 6738,
      "chikọ": 6739,
      "rest": 6740,
      "▁agbachi": 6741,
      "▁\"S": 6742,
      "▁na-akọ": 6743,
      "▁na-ahazi": 6744,
      "▁irite": 6745,
      "▁Ụka": 6746,
      "▁bipụta": 6747,
      "▁Fren": 6748,
      "kim": 6749,
      "▁mmekpa": 6750,
      "▁kọmiti": 6751,
      "▁uweoji": 6752,
      "▁ga-enyere": 6753,
      "zienụ": 6754,
      "▁Sinetọ": 6755,
      "▁N'ihi": 6756,
      "▁zigaara": 6757,
      "00\t": 6758,
      "▁Afrịka\n": 6759,
      "▁Hen": 6760,
      "▁2009": 6761,
      "▁Austra": 6762,
      "▁Idemili": 6763,
      "▁n'Anambara": 6764,
      "▁gbalaga": 6765,
      "▁Centre": 6766,
      "▁kpasuo": 6767,
      "fesi,": 6768,
      "▁kpochapụ": 6769,
      "▁Goodluck": 6770,
      "▁mkpirikpi": 6771,
      "2\tIhe": 6772,
      "CHỊ": 6773,
      "bon": 6774,
      "ihu": 6775,
      "odo": 6776,
      "pta": 6777,
      "phen": 6778,
      "yọs": 6779,
      "▁napụrụ": 6780,
      "▁mpụta": 6781,
      "▁ikwere": 6782,
      "▁ọñụ": 6783,
      "katara": 6784,
      "▁NWE": 6785,
      "▁Os": 6786,
      "▁AB": 6787,
      "▁Abe": 6788,
      "▁Achebe": 6789,
      "bili": 6790,
      "▁udu": 6791,
      "▁kwusiri": 6792,
      "bughị": 6793,
      "▁gbachiri": 6794,
      "▁ọrụugbo": 6795,
      "nịa": 6796,
      "▁Phi": 6797,
      "gworo": 6798,
      "▁na-ekpe": 6799,
      "▁nweziri": 6800,
      "nyanwụ": 6801,
      "▁ebikwa": 6802,
      "▁arụkwa": 6803,
      "▁arụkwaghịm": 6804,
      "▁kwatara": 6805,
      "▁Juven": 6806,
      "▁agwakwa": 6807,
      "▁n'ọkụ": 6808,
      "▁Simi": 6809,
      "ill": 6810,
      "▁Midian": 6811,
      "▁ngabiga": 6812,
      "▁atachi": 6813,
      "▁zọgbuo": 6814,
      "▁nduru": 6815,
      "yinka": 6816,
      "▁Enyinnaya": 6817,
      "▁Kwuo": 6818,
      "________": 6819,
      "▁kèlèrè": 6820,
      "▁ekperima": 6821,
      "5\tM": 6822,
      "EMA": 6823,
      "ash": 6824,
      "ik": 6825,
      "▁bere": 6826,
      "▁akwu": 6827,
      "▁ikiri": 6828,
      "rah": 6829,
      "▁dịla": 6830,
      "▁At": 6831,
      "▁Mela": 6832,
      "▁Ez": 6833,
      "▁mesie": 6834,
      "putere": 6835,
      "▁Ịna": 6836,
      "guri": 6837,
      "ntine": 6838,
      "▁enyerela": 6839,
      "ngwụ": 6840,
      "▁Dave": 6841,
      "▁Nebọt": 6842,
      "▁Sudan": 6843,
      "2\tE": 6844,
      "stin": 6845,
      "▁zụtara": 6846,
      "▁n'Enugu": 6847,
      "▁satara": 6848,
      "▁2017\n": 6849,
      "▁Grace": 6850,
      "▁nzaghachi": 6851,
      "▁ziteere": 6852,
      "▁agaraghị": 6853,
      "▁\"Ihe": 6854,
      "▁nọọsụ": 6855,
      "▁Ministry": 6856,
      "uterọnọ": 6857,
      "▁Kingsley": 6858,
      "uterọnọmi": 6859,
      "3\tAkụkọ": 6860,
      "bè": 6861,
      "nisi": 6862,
      "▁Ata": 6863,
      "▁Achị": 6864,
      "▁Ikwu": 6865,
      "▁nwèrè": 6866,
      "gbaghara": 6867,
      "▁ikekwe": 6868,
      "▁Shu": 6869,
      "▁kwee": 6870,
      "▁\"a": 6871,
      "▁n'ikpe": 6872,
      "▁esite": 6873,
      "▁kwadebere": 6874,
      "▁nchegharị": 6875,
      "▁laba": 6876,
      "▁abịakwasị": 6877,
      "▁dada": 6878,
      "▁ekpegara": 6879,
      "vid-19": 6880,
      "▁kụzie": 6881,
      "▁Leban": 6882,
      "▁lebara": 6883,
      "▁adọgbu": 6884,
      "▁mpụga": 6885,
      "▁Andrew": 6886,
      "▁Udemba": 6887,
      "▁Alexan": 6888,
      "▁Germa": 6889,
      "▁Gernot": 6890,
      "▁ekeresimesi": 6891,
      "▁Salah": 6892,
      "▁Progressives": 6893,
      "▁abịala": 6894,
      "▁Rehoboam": 6895,
      "2\tN": 6896,
      "5\tN'": 6897,
      "JỤ": 6898,
      "▁ifo": 6899,
      "▁bụcha": 6900,
      "▁ịkpọrọ": 6901,
      "▁ịgbà": 6902,
      "▁Ari": 6903,
      "▁Ihi": 6904,
      "van": 6905,
      "▁Enwere": 6906,
      "▁Bera": 6907,
      "▁aka.\n": 6908,
      "▁gị,": 6909,
      "▁meju": 6910,
      "▁Mau": 6911,
      "▁Dike": 6912,
      "▁agbazi": 6913,
      "▁agbagbuola": 6914,
      "▁alakụba": 6915,
      "▁ejikere": 6916,
      "▁bia": 6917,
      "▁bibi": 6918,
      "▁hụghị": 6919,
      "▁akpachara": 6920,
      "▁nweghịzi": 6921,
      "▁pịrị": 6922,
      "▁ịna-ekwu": 6923,
      "▁Gad": 6924,
      "▁inyeaka": 6925,
      "▁32": 6926,
      "▁ùnu": 6927,
      "▁2022\n": 6928,
      "▁eduga": 6929,
      "▁Osisi": 6930,
      "▁ọwụwa-anyanwụ": 6931,
      "▁gwụla": 6932,
      "fred": 6933,
      "▁nyochara": 6934,
      "▁N'oge": 6935,
      "▁ụmụagbọghọ": 6936,
      "▁Juventus": 6937,
      "4\tAkụkọ": 6938,
      "SG": 6939,
      "irọs": 6940,
      "klin": 6941,
      "mbe": 6942,
      "mmy": 6943,
      "trik": 6944,
      "ụn": 6945,
      "▁nhụ": 6946,
      "▁onwere": 6947,
      "▁ọnye": 6948,
      "kele": 6949,
      "wal": 6950,
      "▁Obe": 6951,
      "tine": 6952,
      "ongo": 6953,
      "▁mepee": 6954,
      "▁Mac": 6955,
      "gote": 6956,
      "ding": 6957,
      "▁kwetere": 6958,
      "▁alaala": 6959,
      "public": 6960,
      "▁na-ede": 6961,
      "▁abacha": 6962,
      "nambra": 6963,
      "▁rụchaa": 6964,
      "▁erute": 6965,
      "▁chekwa": 6966,
      "ndọn": 6967,
      "▁Saut": 6968,
      "▁n'ọdị": 6969,
      "▁Sia": 6970,
      "mmadu": 6971,
      "▁nganga": 6972,
      "omen": 6973,
      "▁see": 6974,
      "▁45": 6975,
      "▁Muni": 6976,
      "▁General": 6977,
      "▁Legọs\n": 6978,
      "▁kpuchiri": 6979,
      "▁ịzụta": 6980,
      "▁rara": 6981,
      "ctoral": 6982,
      "▁Bello": 6983,
      "▁Lọndọn": 6984,
      "▁Prima": 6985,
      "▁Okonjo": 6986,
      "▁Stephen": 6987,
      "▁Bruklin": 6988,
      "▁Central": 6989,
      "▁n'okporoụzọ": 6990,
      "▁igurube": 6991,
      "9\tAkụkọ": 6992,
      "ILE": 6993,
      "nk": 6994,
      "ona": 6995,
      "ỌỌ": 6996,
      "takwa": 6997,
      "▁Amọ": 6998,
      "▁“\n": 6999,
      "▁gbakọtara": 7000,
      "▁ime\n": 7001,
      "▁agbaji": 7002,
      "▁agbapụ": 7003,
      "▁irighiri": 7004,
      "▁na-eto": 7005,
      "▁'a": 7006,
      "▁n'akwa": 7007,
      "▁Ịtụ": 7008,
      "▁Nkebi": 7009,
      "▁kpọchie": 7010,
      "▁bịakwara": 7011,
      "▁Joel": 7012,
      "▁ajụla": 7013,
      "▁bọl": 7014,
      "▁n'ụlọakụ": 7015,
      "▁Onyeisioche": 7016,
      "▁Maazi": 7017,
      "▁Milan": 7018,
      "▁Tim": 7019,
      "▁ịkwanyere": 7020,
      "▁Arteta": 7021,
      "▁nwayọ": 7022,
      "▁duhie": 7023,
      "▁akụzikwara": 7024,
      "▁n'Ebonyi": 7025,
      "▁Shaị": 7026,
      "▁Tuzdee": 7027,
      "▁Bishọọpụ": 7028,
      "▁Edochie": 7029,
      "▁Christ": 7030,
      "zaịa": 7031,
      "▁Sokoto": 7032,
      "▁shekel": 7033,
      "7\tAkụkọ": 7034,
      "▁apa": 7035,
      "▁ọfis": 7036,
      "▁mabu": 7037,
      "▁Nchọpụta": 7038,
      "ribu": 7039,
      "rum": 7040,
      "▁nke\n": 7041,
      "▁Ahi": 7042,
      "▁Ekere": 7043,
      "▁Kpa": 7044,
      "fety": 7045,
      "▁na-apụta": 7046,
      "▁amachaghị": 7047,
      "▁nwekwuo": 7048,
      "▁atụ̀": 7049,
      "duguri": 7050,
      "▁ndụ\n": 7051,
      "▁Fer": 7052,
      "▁egwu,": 7053,
      "▁Igbo.\n": 7054,
      "▁ga-ebido": 7055,
      "▁Obi\n": 7056,
      "▁akọcha": 7057,
      "▁ezume": 7058,
      "▁ezukọ": 7059,
      "▁N'ozi": 7060,
      "▁aghọọla": 7061,
      "▁Colle": 7062,
      "ghen": 7063,
      "gọzi": 7064,
      "▁ịtachi": 7065,
      "▁ụnyaahụ.\n": 7066,
      "▁Agbanyeghị": 7067,
      "▁2021\n": 7068,
      "▁machibidoro": 7069,
      "ciety": 7070,
      "▁Blessing": 7071,
      "▁Iyke": 7072,
      "▁Amọraịt": 7073,
      "2\tAkụkọ": 7074,
      "9\tN'": 7075,
      "Li": 7076,
      "ZA": 7077,
      "chà": 7078,
      "gị": 7079,
      "geria": 7080,
      "n'": 7081,
      "onyo": 7082,
      "▁tan": 7083,
      "▁inwere": 7084,
      "tam": 7085,
      "▁Nzọ": 7086,
      "▁Nwụ": 7087,
      "▁AF": 7088,
      "le\n": 7089,
      "tuliaka": 7090,
      "▁Igbe": 7091,
      "▁EU": 7092,
      "lighị": 7093,
      "▁mmadụ.\n": 7094,
      "buike": 7095,
      "▁Kụ": 7096,
      "▁nwafọ": 7097,
      "gement": 7098,
      "genous": 7099,
      "▁abụkarị": 7100,
      "▁nọghị": 7101,
      "rency": 7102,
      "▁ọrụ,": 7103,
      "▁agbaghị": 7104,
      "▁na-achụ": 7105,
      "▁n'agha": 7106,
      "▁Naịsan": 7107,
      "igeria": 7108,
      "heresa": 7109,
      "▁kwalie": 7110,
      "▁kewara": 7111,
      "▁Nwaada": 7112,
      "chụkwụ": 7113,
      "▁akwalite": 7114,
      "▁Sau": 7115,
      "▁nwụọla": 7116,
      "▁Law": 7117,
      "▁Neta": 7118,
      "▁Netan": 7119,
      "▁Messi": 7120,
      "▁Amaokwu": 7121,
      "▁Amamihe": 7122,
      "▁Ikekwe": 7123,
      "▁ileba": 7124,
      "8\tE": 7125,
      "▁Allian": 7126,
      "▁Ndidi": 7127,
      "▁ọfụma\n": 7128,
      "▁Ebola": 7129,
      "▁ekwesighị": 7130,
      "maatụ": 7131,
      "\tN'egwuregwu,\n": 7132,
      "▁ọsịsọ": 7133,
      "▁Watford": 7134,
      "▁adigboroja": 7135,
      "▁French": 7136,
      "Tu": 7137,
      "gwara": 7138,
      "▁on": 7139,
      "▁NC": 7140,
      "bali": 7141,
      "ball": 7142,
      "▁Oru": 7143,
      "▁Ona": 7144,
      "▁Enye": 7145,
      "▁ike.\n": 7146,
      "▁nwakpo": 7147,
      "▁gbapụtara": 7148,
      "▁Uwe": 7149,
      "kuo": 7150,
      "▁na-ese": 7151,
      "▁atụnye": 7152,
      "▁kpọnye": 7153,
      "ork": 7154,
      "▁ibuli": 7155,
      "▁tọgburu": 7156,
      "▁tọhapụrụ": 7157,
      "vement": 7158,
      "fai": 7159,
      "▁Art": 7160,
      "▁amịrị": 7161,
      "▁kpụpụ": 7162,
      "▁wụrụ": 7163,
      "▁Communi": 7164,
      "▁Congo": 7165,
      "▁ọkàikpe": 7166,
      "▁nwaanyi": 7167,
      "▁Norwich": 7168,
      "▁Augu": 7169,
      "tical": 7170,
      "▁Eluigwe": 7171,
      "▁ekpochapụ": 7172,
      "▁Wenezdee": 7173,
      "▁Uzodimma": 7174,
      "▁Gaanụ": 7175,
      "Gọọmenti": 7176,
      "▁Fraịdee": 7177,
      "▁Achọrọ": 7178,
      "▁Sịnetọ": 7179,
      "▁rọrọ": 7180,
      "▁Munich": 7181,
      "bì": 7182,
      "vo": 7183,
      "xit": 7184,
      "▁anwu": 7185,
      "▁ya.": 7186,
      "▁madụ": 7187,
      "ziiri": 7188,
      "▁ONWE": 7189,
      "▁Onno": 7190,
      "▁unyi": 7191,
      "pụtemba": 7192,
      "▁Ọnọdụ": 7193,
      "▁Emi": 7194,
      "bubo": 7195,
      "▁mere.\n": 7196,
      "▁Krai": 7197,
      "▁Stan": 7198,
      "chibido": 7199,
      "bọn": 7200,
      "▁bụrụzie": 7201,
      "mimi": 7202,
      "alace": 7203,
      "tom": 7204,
      "▁ejighi": 7205,
      "▁ọnụahịa": 7206,
      "▁Gịnịkwa": 7207,
      "▁mbụ,": 7208,
      "▁achọrọ": 7209,
      "zịkwara": 7210,
      "▁ga-ekwu": 7211,
      "▁Whi": 7212,
      "▁ọrịa\n": 7213,
      "▁ghọọrọ": 7214,
      "▁Debo": 7215,
      "▁nkwarụ": 7216,
      "▁Keya": 7217,
      "▁Boris": 7218,
      "▁ogoogo": 7219,
      "▁sorokwa": 7220,
      "▁Society": 7221,
      "▁Afrika": 7222,
      "▁nwaagbọghọ": 7223,
      "▁raara": 7224,
      "▁abanyela": 7225,
      "▁ekoghị": 7226,
      "▁Tọọzde": 7227,
      "▁Alliance": 7228,
      "4\tN'": 7229,
      "6,": 7230,
      "▁tụtụ": 7231,
      "▁ne": 7232,
      "▁gwọ": 7233,
      "tal": 7234,
      "▁kata": 7235,
      "▁kasiri": 7236,
      "magwa": 7237,
      "▁NÁ": 7238,
      "▁Amo": 7239,
      "▁ubu": 7240,
      "kọm": 7241,
      "▁Elie": 7242,
      "chịte": 7243,
      "▁mekwa": 7244,
      "▁mesiri": 7245,
      "▁meghee": 7246,
      "▁gbanye": 7247,
      "▁ichegbu": 7248,
      "▁na-atọ": 7249,
      "▁Ugboro": 7250,
      "▁enwebeghị": 7251,
      "▁Tha": 7252,
      "▁bishọ": 7253,
      "▁Frita": 7254,
      "▁bunyere": 7255,
      "▁content_120": 7256,
      "woo": 7257,
      "▁mkpụ": 7258,
      "▁nyefe": 7259,
      "▁kpọkọtara": 7260,
      "zịa": 7261,
      "▁gaasị": 7262,
      "▁rụchara": 7263,
      "ord": 7264,
      "ory": 7265,
      "▁tupuu": 7266,
      "nger": 7267,
      "▁Listra": 7268,
      "▁bee": 7269,
      "▁Moses": 7270,
      "fas": 7271,
      "▁2022": 7272,
      "▁Oziọma": 7273,
      "▁Ezikiel": 7274,
      "3\tE": 7275,
      "▁Fransị": 7276,
      "▁Goolu": 7277,
      "▁90": 7278,
      "▁Shia": 7279,
      "pendent": 7280,
      "▁Gbaa": 7281,
      "▁Newcastle": 7282,
      "▁Ange": 7283,
      "▁ịkasi": 7284,
      "▁\"Onye": 7285,
      "▁gwuo": 7286,
      "▁Ebube": 7287,
      "▁Cheedị": 7288,
      "llion": 7289,
      "▁ụbọchi": 7290,
      "▁n'ogogo": 7291,
      "▁Spain": 7292,
      "▁dayọsis": 7293,
      "▁Onyinye": 7294,
      "▁Onnoghen": 7295,
      "▁Fritaụn": 7296,
      "DO": 7297,
      "PDP": 7298,
      "are": 7299,
      "ational": 7300,
      "nso": 7301,
      "shị": 7302,
      "tter": 7303,
      "▁nchara": 7304,
      "▁nchere": 7305,
      "▁mèrè": 7306,
      "▁ofu": 7307,
      "▁ndịisi": 7308,
      "hịrị": 7309,
      "meya": 7310,
      "▁ahụkwu": 7311,
      "▁dịghachi": 7312,
      "▁Osa": 7313,
      "▁ga-etinye": 7314,
      "▁Mc": 7315,
      "▁Moro": 7316,
      "▁nwè": 7317,
      "▁Enweghị": 7318,
      "▁jikere": 7319,
      "▁Kha": 7320,
      "▁mezịrị": 7321,
      "▁Steetị": 7322,
      "▁gbana": 7323,
      "▁gbanyere": 7324,
      "wụsa": 7325,
      "hur": 7326,
      "▁agbaa": 7327,
      "▁PSG": 7328,
      "▁amadị": 7329,
      "bịam": 7330,
      "▁na-enyo": 7331,
      "▁Trans": 7332,
      "nic": 7333,
      "▁egwuruegwu": 7334,
      "▁Biodun": 7335,
      "▁ọbụla.\n": 7336,
      "meru": 7337,
      "▁akwụrụ": 7338,
      "▁bro": 7339,
      "▁Dakolo": 7340,
      "▁Management": 7341,
      "▁Medi": 7342,
      "▁achụọla": 7343,
      "▁tebulu": 7344,
      "peration": 7345,
      "▁ịkwadebe": 7346,
      "▁Hosia": 7347,
      "▁Hibrọn": 7348,
      "▁ejupụta": 7349,
      "▁na-enweta": 7350,
      "▁Ndụmọdụ": 7351,
      "▁ana-eche": 7352,
      "▁2016\n": 7353,
      "▁Kwuru": 7354,
      "▁Organisation": 7355,
      "deration": 7356,
      "partment": 7357,
      "▁Yusuf": 7358,
      "▁Simiọn": 7359,
      "▁Melaye": 7360,
      "0\tAkụkọ": 7361,
      "Ru": 7362,
      "kka": 7363,
      "ndịrị": 7364,
      "nkuzi": 7365,
      "▁kwàlite": 7366,
      "▁apịa": 7367,
      "▁mita": 7368,
      "▁ọnaụ": 7369,
      "haneze": 7370,
      "▁ụgụrụ": 7371,
      "taị": 7372,
      "▁Nta": 7373,
      "▁Aston": 7374,
      "▁mma,": 7375,
      "▁emejọ": 7376,
      "▁imezi": 7377,
      "▁na-anụ": 7378,
      "kin": 7379,
      "▁mkpi": 7380,
      "▁àkwà": 7381,
      "▁Nkeji": 7382,
      "▁mgbawa": 7383,
      "▁Safety": 7384,
      "▁iweta": 7385,
      "▁Sineti": 7386,
      "▁ahịa\n": 7387,
      "▁dịrịkwa": 7388,
      "▁adaa": 7389,
      "▁Dabiri": 7390,
      "mịshọna": 7391,
      "▁gụnyere:": 7392,
      "manda": 7393,
      "▁Togo": 7394,
      "▁Gosi": 7395,
      "▁Shikem": 7396,
      "▁ịbịakwute": 7397,
      "▁Ọma\n": 7398,
      "▁ebumnuche": 7399,
      "▁Godwin": 7400,
      "▁Umeh": 7401,
      "▁ga-akwụsị": 7402,
      "▁Nnabuihe": 7403,
      "▁Arebia": 7404,
      "▁AKỤZI": 7405,
      "▁yok": 7406,
      "▁ọnaụtụ": 7407,
      "-M": 7408,
      "phi": 7409,
      "▁oghe": 7410,
      "▁omimi": 7411,
      "▁ọnọ": 7412,
      "▁gọrọ": 7413,
      "▁makwaara": 7414,
      "zianya": 7415,
      "▁Ogo": 7416,
      "tụdịghị": 7417,
      "▁ulọ": 7418,
      "▁Izi": 7419,
      "▁Ile": 7420,
      "nto": 7421,
      "gbanyeghi": 7422,
      "▁eme\n": 7423,
      "▁emekwara": 7424,
      "▁Ezu": 7425,
      "▁Elaya": 7426,
      "ling": 7427,
      "▁Mary": 7428,
      "▁Gan": 7429,
      "▁GBA": 7430,
      "din": 7431,
      "▁Jihu": 7432,
      "▁nyụọ": 7433,
      "send": 7434,
      "▁Uhie": 7435,
      "▁Ụgbọ": 7436,
      "jetị": 7437,
      "▁Fri": 7438,
      "▁tụnye": 7439,
      "▁eziokwu\n": 7440,
      "▁echegharị": 7441,
      "▁ịnapụta": 7442,
      "▁hụkwuo": 7443,
      "▁akwagharị": 7444,
      "▁akpọghị": 7445,
      "▁Sava": 7446,
      "mole": 7447,
      "▁ịgbasa": 7448,
      "▁Sesa": 7449,
      "▁n'ehi": 7450,
      "▁ntuziaka": 7451,
      "▁kụpụrụ": 7452,
      "▁patị": 7453,
      "▁onyeisiala\n": 7454,
      "▁ntamu": 7455,
      "▁ọgbatumtum": 7456,
      "▁nlezianya": 7457,
      "9\tE": 7458,
      "▁ịmatakwu": 7459,
      "▁Shekau": 7460,
      "▁Korea": 7461,
      "chutu": 7462,
      "▁Shiol": 7463,
      "▁na-achịkọta": 7464,
      "▁adres": 7465,
      "▁mbuli": 7466,
      "▁n'ezinaụlọ": 7467,
      "▁nhata": 7468,
      "▁iberiibe": 7469,
      "▁sọọsọ": 7470,
      "-iche": 7471,
      "0\tIhe": 7472,
      "8\tN'": 7473,
      "Ihe": 7474,
      "egbe": 7475,
      "ezu": 7476,
      "ụgbọala": 7477,
      "hara": 7478,
      "▁ya.\"\n": 7479,
      "▁hazi": 7480,
      "ric": 7481,
      "▁Atụ": 7482,
      "▁Aro": 7483,
      "lei": 7484,
      "▁MEE": 7485,
      "▁Ibom": 7486,
      "▁Ọọ": 7487,
      "▁Bọma": 7488,
      "▁gbasiri": 7489,
      "▁gbaghaara": 7490,
      "▁Mased": 7491,
      "▁Por": 7492,
      "▁Fou": 7493,
      "▁Ịgụ": 7494,
      "ful": 7495,
      "▁ịnapụ": 7496,
      "▁ga-abịa": 7497,
      "▁Wi": 7498,
      "▁akọwara": 7499,
      "▁alụghị": 7500,
      "▁N'akụkụ": 7501,
      "yele": 7502,
      "▁ịgafe": 7503,
      "▁n'Aba": 7504,
      "▁ịna-adị": 7505,
      "▁nkeji\n": 7506,
      "▁ilekwasị": 7507,
      "▁aramara": 7508,
      "▁ịkpọlite": 7509,
      "ARỊ": 7510,
      "▁ịchụpụ": 7511,
      "▁omekoome": 7512,
      "▁fọdụzie": 7513,
      "▁Uzor": 7514,
      "▁n'Enugwu\n": 7515,
      "lican": 7516,
      "▁Electoral": 7517,
      "▁Harcourt": 7518,
      "▁Emọs": 7519,
      "▁Nnabuife": 7520,
      "▁Progressive": 7521,
      "▁Krisend": 7522,
      "▁KWURU": 7523,
      "▁Abraham": 7524,
      "▁College": 7525,
      "▁Masedonia": 7526,
      "▁Krisendọm": 7527,
      "fer": 7528,
      "gè": 7529,
      "▁egere": 7530,
      "▁ihe.\n": 7531,
      "▁Nnia": 7532,
      "baa": 7533,
      "rula": 7534,
      "▁Oki": 7535,
      "▁Cla": 7536,
      "▁England": 7537,
      "▁ENWE": 7538,
      "▁EBE": 7539,
      "kụta": 7540,
      "▁Kpe": 7541,
      "▁mechi": 7542,
      "tọọ": 7543,
      "▁Chinedu": 7544,
      "▁gbagara": 7545,
      "▁kporo": 7546,
      "▁Gris": 7547,
      "▁niile,": 7548,
      "▁Hụrụ": 7549,
      "▁iche-iche": 7550,
      "▁agbagọ": 7551,
      "▁ala\n": 7552,
      "▁URU": 7553,
      "▁'W": 7554,
      "▁ejizi": 7555,
      "▁biara": 7556,
      "▁goro": 7557,
      "▁welitere": 7558,
      "mpton": 7559,
      "▁ga-ele": 7560,
      "▁mgbaru": 7561,
      "▁enweghịzi": 7562,
      "▁umengwụ": 7563,
      "▁ịna-efe": 7564,
      "▁ịna-ekwusa": 7565,
      "▁Republic": 7566,
      "▁ịna-agụ": 7567,
      "▁Ve": 7568,
      "▁Adama": 7569,
      "risti": 7570,
      "▁amụtala": 7571,
      "7\tE": 7572,
      "tens": 7573,
      "▁Mmehie": 7574,
      "▁ịsụgharị": 7575,
      "▁Samsịn": 7576,
      "▁Weregodị": 7577,
      "▁Burundi": 7578,
      "\tN'egwuregwu\n": 7579,
      "▁kpasuru": 7580,
      "▁Nzọpụta": 7581,
      "3,": 7582,
      "UU": 7583,
      "ali": 7584,
      "iro": 7585,
      "kra": 7586,
      "rá": 7587,
      "tte": 7588,
      "uper": 7589,
      "▁aku": 7590,
      "▁mgbo": 7591,
      "▁onu": 7592,
      "▁ọzo": 7593,
      "sikwa": 7594,
      "▁Azụ": 7595,
      "▁AKWỤ": 7596,
      "biọn": 7597,
      "nachi": 7598,
      "▁Cry": 7599,
      "▁ebelata": 7600,
      "▁Mach": 7601,
      "▁nọbu": 7602,
      "▁Praịm": 7603,
      "▁\"B": 7604,
      "▁Usoro": 7605,
      "▁Ly": 7606,
      "▁Nazi": 7607,
      "▁obodo\n": 7608,
      "▁Foto": 7609,
      "lịa": 7610,
      "▁bịakwasị": 7611,
      "oland": 7612,
      "▁taa,": 7613,
      "▁mgbaaka": 7614,
      "moko": 7615,
      "▁kpawa": 7616,
      "▁siriri": 7617,
      "▁bọrọ": 7618,
      "▁etolite": 7619,
      "▁n'Amerịka": 7620,
      "▁34": 7621,
      "▁ịrụsi": 7622,
      "nwunye": 7623,
      "▁oliv": 7624,
      "▁ibipụta": 7625,
      "▁Shef": 7626,
      "▁ANYỊ\n": 7627,
      "▁Saịrọs": 7628,
      "▁Presi": 7629,
      "▁Pope": 7630,
      "▁Tụkwasị": 7631,
      "▁2023\n": 7632,
      "▁n'izuụka": 7633,
      "▁NYSC": 7634,
      "▁KPỌ": 7635,
      "▁Germany": 7636,
      "meyang": 7637,
      "-S": 7638,
      "TARA": 7639,
      "fịa": 7640,
      "nji": 7641,
      "vel": 7642,
      "▁hie": 7643,
      "▁ikpa": 7644,
      "▁ọnyụ": 7645,
      "karịrị": 7646,
      "mad": 7647,
      "▁manye": 7648,
      "lation": 7649,
      "▁Ogidi": 7650,
      "▁Idi": 7651,
      "▁emekpa": 7652,
      "▁Kirie": 7653,
      "▁ezipụ": 7654,
      "▁gbadata": 7655,
      "▁agbamume": 7656,
      "▁agbahapụ": 7657,
      "▁Palace": 7658,
      "▁na-asị": 7659,
      "▁amabeghị": 7660,
      "▁Theresa": 7661,
      "▁'Re": 7662,
      "▁(C": 7663,
      "▁n'akụkọ": 7664,
      "▁Naịl": 7665,
      "sarawa": 7666,
      "▁arụzi": 7667,
      "lịkan": 7668,
      "▁die": 7669,
      "▁YA\n": 7670,
      "juanya": 7671,
      "▁kpọwa": 7672,
      "▁War": 7673,
      "▁ewepụtala": 7674,
      "▁Sir": 7675,
      "▁etozu": 7676,
      "▁Roma": 7677,
      "▁Dayọ": 7678,
      "▁ịna-atụ": 7679,
      "▁Bridge": 7680,
      "▁merụ": 7681,
      "▁Korịa": 7682,
      "▁Adesina": 7683,
      "▁Auba": 7684,
      "ght": 7685,
      "▁eleru": 7686,
      "angers": 7687,
      "▁NIILE": 7688,
      "▁Regina": 7689,
      "▁Saudi": 7690,
      "4\tI": 7691,
      "RO": 7692,
      "ZU": 7693,
      "fù": 7694,
      "gbụrụ": 7695,
      "id": 7696,
      "kno": 7697,
      "mbọ": 7698,
      "▁kiri": 7699,
      "kana": 7700,
      "▁ịnwa": 7701,
      "▁A\n": 7702,
      "ongworo": 7703,
      "▁metara": 7704,
      "▁ezite": 7705,
      "▁SARS": 7706,
      "desh": 7707,
      "▁ụmụazụ": 7708,
      "▁High": 7709,
      "▁baghị": 7710,
      "▁Uganda": 7711,
      "▁n'atụmatụ": 7712,
      "▁n'abali": 7713,
      "▁anọkwa": 7714,
      "▁mbụ\n": 7715,
      "▁Women": 7716,
      "▁ise\n": 7717,
      "▁kpalie": 7718,
      "▁Sepụtemba": 7719,
      "▁ngwangwa": 7720,
      "▁chụwa": 7721,
      "▁ewuli": 7722,
      "shiba": 7723,
      "▁ileghara": 7724,
      "▁apụnara": 7725,
      "▁azaghị": 7726,
      "▁ANYA\n": 7727,
      "▁Enugwu\n": 7728,
      "▁Mụta": 7729,
      "▁Abna": 7730,
      "▁Ortom": 7731,
      "▁nkwụcha": 7732,
      "▁nletaghachi": 7733,
      "▁ịlaghachi": 7734,
      "▁Bịanụ": 7735,
      "▁Elizabet": 7736,
      "▁Dkta": 7737,
      "▁Nwankwo": 7738,
      "▁otele": 7739,
      "?\"": 7740,
      "OKWU": 7741,
      "oha": 7742,
      "▁ọpụpụ": 7743,
      "kepu": 7744,
      "yan": 7745,
      "kwube": 7746,
      "▁ịnye": 7747,
      "▁ịwakpo": 7748,
      "▁Obo": 7749,
      "▁Aw": 7750,
      "nak": 7751,
      "▁Ingland": 7752,
      "▁emechaa": 7753,
      "▁Es": 7754,
      "▁Ede": 7755,
      "▁Egbu": 7756,
      "▁Kya": 7757,
      "▁Sho": 7758,
      "▁Mali": 7759,
      "▁Glo": 7760,
      "aịjirịa": 7761,
      "zuzu": 7762,
      "daya": 7763,
      "lue": 7764,
      "aland": 7765,
      "▁anọnyere": 7766,
      "▁Nkem": 7767,
      "▁elebara": 7768,
      "▁n'ọrịa": 7769,
      "▁gụpụta": 7770,
      "▁n'efu": 7771,
      "▁malitekwa": 7772,
      "▁Lekwa": 7773,
      "▁Sis": 7774,
      "▁nwụsịrị": 7775,
      "▁adapụta": 7776,
      "▁Pau": 7777,
      "▁ịna-akwa": 7778,
      "▁Chetakwa": 7779,
      "▁lụchara": 7780,
      "ders": 7781,
      "▁Biafra\n": 7782,
      "▁Saịnaị": 7783,
      "▁Zede": 7784,
      "▁n'agbanyeghi": 7785,
      "▁Vale": 7786,
      "▁ga-enweta": 7787,
      "▁Rịba": 7788,
      "▁Anglican": 7789,
      "▁Innoson": 7790,
      "▁Maiduguri": 7791,
      "▁Berak": 7792,
      "▁Kraist": 7793,
      "▁Elieza": 7794,
      "▁Aubameyang": 7795,
      "0\tN": 7796,
      "8\tN": 7797,
      "9\n": 7798,
      "9\tMana": 7799,
      "Le": 7800,
      "Tru": 7801,
      "oge": 7802,
      "éré": 7803,
      "▁nro": 7804,
      "▁nko": 7805,
      "▁asompi": 7806,
      "▁ọjọ": 7807,
      "hụụ": 7808,
      "▁N﻿": 7809,
      "lamic": 7810,
      "▁dịgide": 7811,
      "▁Owere": 7812,
      "▁mma.\n": 7813,
      "▁agụrụ": 7814,
      "nusi": 7815,
      "nuba": 7816,
      "▁nọzi": 7817,
      "gasịrị": 7818,
      "▁ekwusi": 7819,
      "▁tụụrụ": 7820,
      "▁Obie": 7821,
      "▁n'ọnwụ": 7822,
      "▁zukọta": 7823,
      "▁Leba": 7824,
      "▁Leah": 7825,
      "▁Simon": 7826,
      "▁gosikwa": 7827,
      "▁Ụmụakwụkwọ": 7828,
      "▁Rotimi": 7829,
      "▁lekwasịrị": 7830,
      "▁juputara": 7831,
      "▁Movement": 7832,
      "▁ịna-arụ": 7833,
      "▁Amara": 7834,
      "▁amụtakwu": 7835,
      "▁apụọla": 7836,
      "▁nkiri\n": 7837,
      "▁Fini": 7838,
      "▁Novemba": 7839,
      "▁Indi": 7840,
      "▁hibe": 7841,
      "▁Gebriel": 7842,
      "▁NWA": 7843,
      "\tNwaanyị": 7844,
      "▁NYERE": 7845,
      "▁ANPC": 7846,
      "▁Omoyele": 7847,
      "▁Ibadan": 7848,
      "▁Powerful": 7849,
      "▁Savage": 7850,
      "▁Zedekaya": 7851,
      "5,": 7852,
      "CHA": 7853,
      "FE": 7854,
      "aku": 7855,
      "e-": 7856,
      "s,": 7857,
      "ọkụ": 7858,
      "kaa": 7859,
      "▁gbọ": 7860,
      "▁ihe,": 7861,
      "laa": 7862,
      "▁dịbeghị": 7863,
      "▁ịghara": 7864,
      "▁Open": 7865,
      "▁Awa": 7866,
      "ness": 7867,
      "▁emekwu": 7868,
      "▁jibu": 7869,
      "▁Gil": 7870,
      "sanya": 7871,
      "dary": 7872,
      "▁Họ": 7873,
      "▁Hou": 7874,
      "▁\"e": 7875,
      "▁na-arị": 7876,
      "▁ọma.\n": 7877,
      "▁nwekwa": 7878,
      "▁atụsi": 7879,
      "▁atụkwa": 7880,
      "dusii": 7881,
      "▁Foot": 7882,
      "▁mkpanaka": 7883,
      "▁mụnwa": 7884,
      "▁ga-atụ": 7885,
      "▁eruwo": 7886,
      "▁taa:\n": 7887,
      "▁Sadusii": 7888,
      "▁azụta": 7889,
      "▁eweda": 7890,
      "▁nwụchị": 7891,
      "▁leghara": 7892,
      "▁nọrọkwa": 7893,
      "▁chịm": 7894,
      "▁chịkọbara": 7895,
      "posi": 7896,
      "▁amụtaghị": 7897,
      "9\tHa": 7898,
      "▁Meenụ": 7899,
      "▁Kora": 7900,
      "▁agafeela": 7901,
      "▁Pọta": 7902,
      "▁akparamagwa": 7903,
      "▁Court": 7904,
      "▁kwusaara": 7905,
      "▁Elizabeth": 7906,
      "▁Echiche": 7907,
      "▁Australia": 7908,
      "▁Arthur": 7909,
      "▁Sesaria": 7910,
      "'N": 7911,
      "50": 7912,
      "her": 7913,
      "osisi": 7914,
      "ymar": 7915,
      "▁nchụ": 7916,
      "▁ekike": 7917,
      "▁oriakụ": 7918,
      "▁bụru": 7919,
      "sikwara": 7920,
      "▁manụ": 7921,
      "▁ịmị": 7922,
      "▁Ondo": 7923,
      "▁Ac": 7924,
      "▁Awo": 7925,
      "▁ADỊ": 7926,
      "▁Ọhịa": 7927,
      "gbara": 7928,
      "hole": 7929,
      "▁Jesus": 7930,
      "kụziri": 7931,
      "▁Knor": 7932,
      "▁gbarụrụ": 7933,
      "▁gbawaa": 7934,
      "die": 7935,
      "▁Haị": 7936,
      "▁PVC": 7937,
      "nwụrụ": 7938,
      "gwọọ": 7939,
      "▁atụmaatụ": 7940,
      "▁ekwuwo": 7941,
      "▁RU": 7942,
      "king": 7943,
      "▁ekweghi": 7944,
      "▁ọkụ,": 7945,
      "▁ọkụ.\n": 7946,
      "▁ọchịchị.\n": 7947,
      "▁ọbụrụ": 7948,
      "▁gbarala": 7949,
      "▁ga-ebi": 7950,
      "▁tuuru": 7951,
      "▁chekwaa": 7952,
      "▁izugbe": 7953,
      "▁Tunisi": 7954,
      "▁teghị": 7955,
      "▁teknụzụ": 7956,
      "▁n'okpuruọchịchị": 7957,
      "▁kuru": 7958,
      "▁Yufre": 7959,
      "▁tata": 7960,
      "▁King": 7961,
      "▁gwongworo": 7962,
      "▁igosipụta": 7963,
      "▁ebutela": 7964,
      "▁Airport": 7965,
      "▁Maduka": 7966,
      "▁ịgbalịsi": 7967,
      "trol": 7968,
      "▁N'egwuregwu,": 7969,
      "Trump": 7970,
      "▁Knorr": 7971,
      "▁Yufretis": 7972,
      "2\tN'": 7973,
      "DA": 7974,
      "efa": 7975,
      "mah": 7976,
      "megwu": 7977,
      "▁Ntị": 7978,
      "▁ganị": 7979,
      "▁gachaa": 7980,
      "rịk": 7981,
      "▁Ofufe": 7982,
      "▁Isa": 7983,
      "▁Ọsọ": 7984,
      "kọpta": 7985,
      "lim": 7986,
      "list": 7987,
      "▁nọchie": 7988,
      "▁Kapani": 7989,
      "▁ỤTỌ": 7990,
      "▁Ter": 7991,
      "▁ego,": 7992,
      "▁nyerela": 7993,
      "▁ebipụ": 7994,
      "▁ekwesiri": 7995,
      "▁adịghịzi": 7996,
      "▁kpọga": 7997,
      "▁kpọbata": 7998,
      "▁etinyere": 7999
    },
    "merges": [
      [
        "▁",
        "n"
      ],
      [
        "▁",
        "a"
      ],
      [
        "▁n",
        "a"
      ],
      [
        "▁",
        "m"
      ],
      [
        "▁",
        "i"
      ],
      [
        "▁",
        "e"
      ],
      [
        "▁",
        "o"
      ],
      [
        "d",
        "ị"
      ],
      [
        "k",
        "w"
      ],
      [
        "▁",
        "ọ"
      ],
      [
        "n",
        "y"
      ],
      [
        "k",
        "a"
      ],
      [
        "h",
        "a"
      ],
      [
        "▁",
        ","
      ],
      [
        "▁",
        "."
      ],
      [
        "▁",
        "g"
      ],
      [
        "b",
        "ụ"
      ],
      [
        "e",
        "r"
      ],
      [
        "▁.",
        "\n"
      ],
      [
        "k",
        "e"
      ],
      [
        "h",
        "e"
      ],
      [
        "▁na",
        "-"
      ],
      [
        "▁n",
        "’"
      ],
      [
        "er",
        "e"
      ],
      [
        "r",
        "a"
      ],
      [
        "y",
        "a"
      ],
      [
        "▁n",
        "dị"
      ],
      [
        "▁",
        "ya"
      ],
      [
        "▁",
        "bụ"
      ],
      [
        "g",
        "b"
      ],
      [
        "h",
        "ụ"
      ],
      [
        "▁",
        "ha"
      ],
      [
        "▁",
        "ụ"
      ],
      [
        "t",
        "a"
      ],
      [
        "▁",
        "ka"
      ],
      [
        "h",
        "ị"
      ],
      [
        "s",
        "i"
      ],
      [
        "m",
        "a"
      ],
      [
        "r",
        "ụ"
      ],
      [
        "m",
        "e"
      ],
      [
        "▁i",
        "he"
      ],
      [
        "kw",
        "u"
      ],
      [
        "▁m",
        "a"
      ],
      [
        "k",
        "p"
      ],
      [
        "w",
        "e"
      ],
      [
        "▁a",
        "ny"
      ],
      [
        "ny",
        "e"
      ],
      [
        "▁",
        "N"
      ],
      [
        "▁g",
        "a"
      ],
      [
        "w",
        "a"
      ],
      [
        "l",
        "a"
      ],
      [
        "h",
        "i"
      ],
      [
        "r",
        "i"
      ],
      [
        "kw",
        "a"
      ],
      [
        "▁a",
        "hụ"
      ],
      [
        "b",
        "a"
      ],
      [
        "r",
        "ị"
      ],
      [
        "z",
        "i"
      ],
      [
        "j",
        "i"
      ],
      [
        "r",
        "u"
      ],
      [
        "▁",
        "dị"
      ],
      [
        "▁",
        "ị"
      ],
      [
        "t",
        "e"
      ],
      [
        "▁n",
        "ke"
      ],
      [
        "▁any",
        "ị"
      ],
      [
        "▁",
        "O"
      ],
      [
        "g",
        "hị"
      ],
      [
        "▁",
        "J"
      ],
      [
        "▁ga",
        "-"
      ],
      [
        "▁",
        "A"
      ],
      [
        "l",
        "e"
      ],
      [
        "b",
        "i"
      ],
      [
        "s",
        "ị"
      ],
      [
        "n",
        "a"
      ],
      [
        "t",
        "ụ"
      ],
      [
        "d",
        "ụ"
      ],
      [
        "▁",
        "M"
      ],
      [
        "z",
        "ọ"
      ],
      [
        "▁",
        "c"
      ],
      [
        "▁",
        "u"
      ],
      [
        "b",
        "e"
      ],
      [
        "p",
        "ụ"
      ],
      [
        "t",
        "u"
      ],
      [
        "▁",
        "I"
      ],
      [
        "m",
        "ụ"
      ],
      [
        "▁n",
        "w"
      ],
      [
        "▁o",
        "nye"
      ],
      [
        "▁",
        "Ọ"
      ],
      [
        "▁m",
        "ma"
      ],
      [
        "▁n",
        "'"
      ],
      [
        "t",
        "i"
      ],
      [
        "k",
        "ọ"
      ],
      [
        "o",
        "n"
      ],
      [
        "▁",
        "C"
      ],
      [
        "c",
        "he"
      ],
      [
        "n",
        "e"
      ],
      [
        "r",
        "ọ"
      ],
      [
        "▁a",
        "g"
      ],
      [
        "gb",
        "e"
      ],
      [
        "▁",
        "si"
      ],
      [
        "h",
        "ọ"
      ],
      [
        "v",
        "a"
      ],
      [
        "n",
        "t"
      ],
      [
        "gb",
        "a"
      ],
      [
        "l",
        "ọ"
      ],
      [
        "▁e",
        "me"
      ],
      [
        "▁",
        "E"
      ],
      [
        "▁",
        "B"
      ],
      [
        "▁",
        "kwu"
      ],
      [
        "w",
        "u"
      ],
      [
        "h",
        "o"
      ],
      [
        "▁i",
        "ke"
      ],
      [
        "▁J",
        "e"
      ],
      [
        "c",
        "hị"
      ],
      [
        "n",
        "ụ"
      ],
      [
        "▁",
        "ji"
      ],
      [
        "l",
        "i"
      ],
      [
        "f",
        "ọ"
      ],
      [
        "n",
        "we"
      ],
      [
        "▁Je",
        "ho"
      ],
      [
        "▁Jeho",
        "va"
      ],
      [
        "k",
        "ụ"
      ],
      [
        "a",
        "ra"
      ],
      [
        "▁mma",
        "dụ"
      ],
      [
        "b",
        "u"
      ],
      [
        "kw",
        "e"
      ],
      [
        "▁m",
        "ere"
      ],
      [
        "▁a",
        "ka"
      ],
      [
        "d",
        "o"
      ],
      [
        "▁nw",
        "ere"
      ],
      [
        "c",
        "ha"
      ],
      [
        "▁g",
        "ị"
      ],
      [
        "▁",
        "?"
      ],
      [
        "▁e",
        "be"
      ],
      [
        "▁c",
        "on"
      ],
      [
        "te",
        "nt"
      ],
      [
        "▁con",
        "tent"
      ],
      [
        "▁content",
        "_"
      ],
      [
        "▁",
        "K"
      ],
      [
        "kw",
        "ụ"
      ],
      [
        "▁m",
        "e"
      ],
      [
        "▁",
        "“"
      ],
      [
        "s",
        "o"
      ],
      [
        "▁C",
        "hi"
      ],
      [
        "▁o",
        "tu"
      ],
      [
        "pụ",
        "ta"
      ],
      [
        "▁e",
        "zi"
      ],
      [
        "t",
        "ọ"
      ],
      [
        "▁",
        "sị"
      ],
      [
        "▁?",
        "\n"
      ],
      [
        "▁any",
        "a"
      ],
      [
        "▁kwu",
        "ru"
      ],
      [
        "▁",
        "S"
      ],
      [
        "▁",
        "”"
      ],
      [
        "t",
        "ú"
      ],
      [
        "r",
        "o"
      ],
      [
        "▁o",
        "bi"
      ],
      [
        "▁Chi",
        "ne"
      ],
      [
        "d",
        "e"
      ],
      [
        "gb",
        "u"
      ],
      [
        "c",
        "hi"
      ],
      [
        "▁Chine",
        "ke"
      ],
      [
        "▁n",
        "wa"
      ],
      [
        "▁g",
        "ba"
      ],
      [
        "n",
        "u"
      ],
      [
        "we",
        "e"
      ],
      [
        "▁i",
        "me"
      ],
      [
        "▁M",
        "a"
      ],
      [
        "▁",
        "kp"
      ],
      [
        "▁m",
        "gbe"
      ],
      [
        "▁ụ",
        "mụ"
      ],
      [
        "▁",
        ")"
      ],
      [
        "i",
        "le"
      ],
      [
        "g",
        "e"
      ],
      [
        "▁a",
        "bụ"
      ],
      [
        "▁ụ",
        "lọ"
      ],
      [
        "▁o",
        "tú"
      ],
      [
        "w",
        "ụ"
      ],
      [
        "ny",
        "ere"
      ],
      [
        "▁",
        ":"
      ],
      [
        "▁ọ",
        "zọ"
      ],
      [
        "▁",
        "G"
      ],
      [
        "i",
        "ile"
      ],
      [
        "g",
        "o"
      ],
      [
        ".",
        "\n"
      ],
      [
        "ny",
        "ị"
      ],
      [
        "▁n",
        "iile"
      ],
      [
        "a",
        "ị"
      ],
      [
        "▁n",
        "ọ"
      ],
      [
        "z",
        "u"
      ],
      [
        "d",
        "i"
      ],
      [
        "s",
        "a"
      ],
      [
        "g",
        "ha"
      ],
      [
        "gb",
        "o"
      ],
      [
        "n",
        "ọ"
      ],
      [
        "▁”",
        "\n"
      ],
      [
        "ụ",
        "rụ"
      ],
      [
        "d",
        "a"
      ],
      [
        "▁ma",
        "ka"
      ],
      [
        "▁i",
        "si"
      ],
      [
        "l",
        "u"
      ],
      [
        "b",
        "o"
      ],
      [
        "rị",
        "a"
      ],
      [
        "r",
        "e"
      ],
      [
        "h",
        "u"
      ],
      [
        "▁",
        "wee"
      ],
      [
        "▁J",
        "i"
      ],
      [
        "▁N",
        "dị"
      ],
      [
        "kp",
        "e"
      ],
      [
        "kp",
        "a"
      ],
      [
        "▁N",
        "’"
      ],
      [
        "b",
        "ọ"
      ],
      [
        "▁",
        "H"
      ],
      [
        "▁bụ",
        "rụ"
      ],
      [
        "m",
        "i"
      ],
      [
        "g",
        "wu"
      ],
      [
        "▁ọ",
        "rụ"
      ],
      [
        "▁i",
        "hi"
      ],
      [
        "kw",
        "ọ"
      ],
      [
        "ọ",
        "rọ"
      ],
      [
        "▁i",
        "che"
      ],
      [
        "zọ",
        "s"
      ],
      [
        "▁Ji",
        "zọs"
      ],
      [
        "▁n",
        "y"
      ],
      [
        "b",
        "ị"
      ],
      [
        "▁a",
        "fọ"
      ],
      [
        "▁o",
        "zi"
      ],
      [
        "▁",
        "D"
      ],
      [
        "▁",
        "kwe"
      ],
      [
        "n",
        "ị"
      ],
      [
        "kwụ",
        "kwọ"
      ],
      [
        "tụ",
        "tụ"
      ],
      [
        "▁o",
        "kwu"
      ],
      [
        "▁o",
        "ge"
      ],
      [
        "a",
        "la"
      ],
      [
        "▁ag",
        "a"
      ],
      [
        "▁a",
        "gba"
      ],
      [
        "s",
        "e"
      ],
      [
        "▁",
        "ba"
      ],
      [
        "▁",
        "P"
      ],
      [
        "▁",
        "\""
      ],
      [
        "▁bụ",
        "́"
      ],
      [
        "▁ụ",
        "zọ"
      ],
      [
        "kwa",
        "ra"
      ],
      [
        "ta",
        "ra"
      ],
      [
        "s",
        "ọ"
      ],
      [
        "z",
        "e"
      ],
      [
        "le",
        "e"
      ],
      [
        "ọ",
        "ọ"
      ],
      [
        "sị",
        "rị"
      ],
      [
        "▁u",
        "nu"
      ],
      [
        "f",
        "e"
      ],
      [
        "▁c",
        "họ"
      ],
      [
        "▁na-",
        "a"
      ],
      [
        "k",
        "o"
      ],
      [
        "g",
        "a"
      ],
      [
        "▁a",
        "la"
      ],
      [
        "▁abụ",
        "ọ"
      ],
      [
        "▁a",
        "dị"
      ],
      [
        "▁ọ",
        "ma"
      ],
      [
        "▁i",
        "ri"
      ],
      [
        "▁",
        "s"
      ],
      [
        "n",
        "wụ"
      ],
      [
        "e",
        "ti"
      ],
      [
        "▁me",
        "e"
      ],
      [
        "▁o",
        "nwe"
      ],
      [
        "▁I",
        "he"
      ],
      [
        "▁a",
        "ma"
      ],
      [
        "bị",
        "a"
      ],
      [
        "g",
        "w"
      ],
      [
        "▁ọ",
        "tụtụ"
      ],
      [
        "▁K",
        "a"
      ],
      [
        "wa",
        "ra"
      ],
      [
        "▁",
        "U"
      ],
      [
        "▁m",
        "ba"
      ],
      [
        "▁",
        "ru"
      ],
      [
        "k",
        "u"
      ],
      [
        "▁H",
        "a"
      ],
      [
        "hụ",
        "rụ"
      ],
      [
        "p",
        "u"
      ],
      [
        "▁na-",
        "e"
      ],
      [
        "▁i",
        "ji"
      ],
      [
        "▁n",
        "we"
      ],
      [
        "▁a",
        "kụ"
      ],
      [
        "s",
        "t"
      ],
      [
        "▁e",
        "nwe"
      ],
      [
        "te",
        "eti"
      ],
      [
        "▁n'",
        "i"
      ],
      [
        "▁",
        "Ụ"
      ],
      [
        "▁a",
        "tụ"
      ],
      [
        "a",
        "nyị"
      ],
      [
        "▁O",
        "nye"
      ],
      [
        "d",
        "u"
      ],
      [
        "▁n",
        "dụ"
      ],
      [
        "▁",
        "’"
      ],
      [
        "▁",
        "T"
      ],
      [
        "bo",
        "do"
      ],
      [
        "fọ",
        "dụ"
      ],
      [
        "t",
        "ere"
      ],
      [
        "▁a",
        "kwụkwọ"
      ],
      [
        "▁",
        "L"
      ],
      [
        "t",
        "o"
      ],
      [
        "▁",
        "'"
      ],
      [
        "z",
        "ụ"
      ],
      [
        "o",
        "kwu"
      ],
      [
        "n",
        "wa"
      ],
      [
        "▁",
        "("
      ],
      [
        "ny",
        "a"
      ],
      [
        "▁e",
        "kwu"
      ],
      [
        "bọ",
        "chị"
      ],
      [
        "▁kwe",
        "sịrị"
      ],
      [
        "pụta",
        "ra"
      ],
      [
        "▁",
        "-"
      ],
      [
        "\"",
        "\""
      ],
      [
        "i",
        "si"
      ],
      [
        "pụ",
        "rụ"
      ],
      [
        "bụ",
        "l"
      ],
      [
        "▁e",
        "ji"
      ],
      [
        "▁O",
        "lee"
      ],
      [
        "▁",
        "bi"
      ],
      [
        "▁bụ",
        "la"
      ],
      [
        "▁e",
        "go"
      ],
      [
        "er",
        "i"
      ],
      [
        "▁ọ",
        "nụ"
      ],
      [
        "n",
        "i"
      ],
      [
        "j",
        "ụ"
      ],
      [
        "▁",
        "2"
      ],
      [
        "▁N",
        "a"
      ],
      [
        "▁B",
        "aị"
      ],
      [
        "▁Baị",
        "bụl"
      ],
      [
        "▁dị",
        "ka"
      ],
      [
        "▁n'",
        "a"
      ],
      [
        "▁",
        "1"
      ],
      [
        "▁na",
        "kwa"
      ],
      [
        "▁s",
        "teeti"
      ],
      [
        "n",
        "na"
      ],
      [
        "▁a",
        "ha"
      ],
      [
        "▁",
        "‘"
      ],
      [
        "▁o",
        "bodo"
      ],
      [
        "▁M",
        "gbe"
      ],
      [
        "j",
        "e"
      ],
      [
        "▁ụ",
        "wa"
      ],
      [
        "▁",
        "F"
      ],
      [
        "▁ag",
        "ha"
      ],
      [
        "▁a",
        "tọ"
      ],
      [
        "o",
        "ke"
      ],
      [
        "▁",
        "R"
      ],
      [
        "▁ba",
        "nyere"
      ],
      [
        "▁",
        "bu"
      ],
      [
        "▁",
        ";"
      ],
      [
        "▁content_",
        "1"
      ],
      [
        "s",
        "ụ"
      ],
      [
        "▁ụ",
        "bọchị"
      ],
      [
        "▁N",
        "aị"
      ],
      [
        "gb",
        "ọ"
      ],
      [
        "▁e",
        "si"
      ],
      [
        "c",
        "họ"
      ],
      [
        "li",
        "te"
      ],
      [
        "▁ny",
        "ere"
      ],
      [
        "p",
        "a"
      ],
      [
        "▁n",
        "á"
      ],
      [
        "l",
        "ụ"
      ],
      [
        "▁g",
        "o"
      ],
      [
        "▁ụ",
        "fọdụ"
      ],
      [
        "▁m",
        "kpa"
      ],
      [
        "kp",
        "ọ"
      ],
      [
        "▁nwa",
        "anyị"
      ],
      [
        "mi",
        "ri"
      ],
      [
        "▁a",
        "nọ"
      ],
      [
        "▁g",
        "wara"
      ],
      [
        "▁chọ",
        "rọ"
      ],
      [
        "▁e",
        "lu"
      ],
      [
        "ji",
        "rịa"
      ],
      [
        "▁",
        "d"
      ],
      [
        "w",
        "ere"
      ],
      [
        "▁ọ",
        "chị"
      ],
      [
        "▁",
        "Ị"
      ],
      [
        "g",
        "i"
      ],
      [
        "▁n",
        "so"
      ],
      [
        "k",
        "i"
      ],
      [
        "▁a",
        "na"
      ],
      [
        "▁G",
        "ị"
      ],
      [
        "m",
        "u"
      ],
      [
        "w",
        "o"
      ],
      [
        "▁e",
        "gwu"
      ],
      [
        "▁m",
        "kp"
      ],
      [
        "t",
        "ị"
      ],
      [
        "▁2",
        "0"
      ],
      [
        "a",
        "ka"
      ],
      [
        "s",
        "ara"
      ],
      [
        "▁e",
        "nye"
      ],
      [
        "y",
        "i"
      ],
      [
        "▁nw",
        "oke"
      ],
      [
        "▁e",
        "bi"
      ],
      [
        "▁m",
        "me"
      ],
      [
        "▁Naị",
        "jirịa"
      ],
      [
        "▁ru",
        "o"
      ],
      [
        "▁ny",
        "e"
      ],
      [
        "▁a",
        "rụ"
      ],
      [
        "▁A",
        "nyị"
      ],
      [
        "▁a",
        "mụ"
      ],
      [
        "b",
        "ere"
      ],
      [
        "▁e",
        "kwe"
      ],
      [
        "▁i",
        "kpe"
      ],
      [
        "▁",
        "so"
      ],
      [
        "▁i",
        "wu"
      ],
      [
        "cha",
        "ra"
      ],
      [
        "l",
        "ị"
      ],
      [
        "ra",
        "ị"
      ],
      [
        "▁Gị",
        "nị"
      ],
      [
        "▁ụ",
        "tọ"
      ],
      [
        "▁",
        "kọ"
      ],
      [
        "▁e",
        "bu"
      ],
      [
        "f",
        "u"
      ],
      [
        "▁",
        "hụrụ"
      ],
      [
        "▁ọ",
        "kụ"
      ],
      [
        "▁",
        "di"
      ],
      [
        "▁m",
        "ụ"
      ],
      [
        "gba",
        "kọ"
      ],
      [
        "hị",
        "a"
      ],
      [
        "▁onye",
        "isi"
      ],
      [
        "▁kp",
        "ọrọ"
      ],
      [
        "▁I",
        "gbo"
      ],
      [
        "▁ọ",
        "g"
      ],
      [
        "si",
        "ri"
      ],
      [
        "▁ọchị",
        "chị"
      ],
      [
        "▁",
        "tụ"
      ],
      [
        "▁a",
        "ba"
      ],
      [
        "ny",
        "i"
      ],
      [
        "▁ezi",
        "okwu"
      ],
      [
        "▁a",
        "sa"
      ],
      [
        "▁i",
        "hu"
      ],
      [
        "▁",
        "à"
      ],
      [
        "▁gba",
        "sara"
      ],
      [
        "▁",
        "Y"
      ],
      [
        "zi",
        "ri"
      ],
      [
        "kp",
        "u"
      ],
      [
        "▁ga",
        "ra"
      ],
      [
        "▁ọ",
        "bụ"
      ],
      [
        "raị",
        "st"
      ],
      [
        "j",
        "u"
      ],
      [
        "▁K",
        "raịst"
      ],
      [
        "▁u",
        "we"
      ],
      [
        "gha",
        "rị"
      ],
      [
        "i",
        "g"
      ],
      [
        "z",
        "a"
      ],
      [
        "▁n",
        "wee"
      ],
      [
        "▁si",
        "te"
      ],
      [
        "▁g",
        "ha"
      ],
      [
        "▁m",
        "mụ"
      ],
      [
        "▁",
        "pụrụ"
      ],
      [
        "▁nw",
        "u"
      ],
      [
        "▁ji",
        "ri"
      ],
      [
        "▁e",
        "che"
      ],
      [
        "▁m",
        "miri"
      ],
      [
        "▁n",
        "g"
      ],
      [
        "re",
        "l"
      ],
      [
        "ta",
        "a"
      ],
      [
        "▁u",
        "gbu"
      ],
      [
        "o",
        "zi"
      ],
      [
        "j",
        "ọ"
      ],
      [
        "▁N",
        "ke"
      ],
      [
        "e",
        "e"
      ],
      [
        "▁adị",
        "ghị"
      ],
      [
        "h",
        "ere"
      ],
      [
        "▁kp",
        "ọ"
      ],
      [
        "▁e",
        "ti"
      ],
      [
        "▁I",
        "z"
      ],
      [
        "▁",
        "kwa"
      ],
      [
        "v",
        "i"
      ],
      [
        "▁Iz",
        "rel"
      ],
      [
        "▁’",
        "\n"
      ],
      [
        "▁n",
        "na"
      ],
      [
        "▁n'",
        "o"
      ],
      [
        "▁",
        "we"
      ],
      [
        "\t",
        "N"
      ],
      [
        "▁m",
        "bụ"
      ],
      [
        "▁ọ",
        "j"
      ],
      [
        "▁gba",
        "ra"
      ],
      [
        "▁ma",
        "ra"
      ],
      [
        "▁gha",
        "ra"
      ],
      [
        "l",
        "o"
      ],
      [
        "▁nwu",
        "nye"
      ],
      [
        "▁ị",
        "na"
      ],
      [
        "kp",
        "o"
      ],
      [
        "▁ezi",
        "gbo"
      ],
      [
        "▁aga",
        "ghị"
      ],
      [
        "ọọ",
        "me"
      ],
      [
        "mu",
        "me"
      ],
      [
        "▁ga-",
        "a"
      ],
      [
        "▁mmụ",
        "ọ"
      ],
      [
        "ji",
        "i"
      ],
      [
        "▁a",
        "chọ"
      ],
      [
        "▁n'",
        "ụ"
      ],
      [
        "▁o",
        "k"
      ],
      [
        "▁ọj",
        "ọọ"
      ],
      [
        "▁\"",
        "\"\""
      ],
      [
        "▁\"\"\"",
        "\""
      ],
      [
        "▁e",
        "le"
      ],
      [
        "e",
        "ze"
      ],
      [
        "▁a",
        "nụ"
      ],
      [
        "▁ụ",
        "gbọ"
      ],
      [
        "▁",
        "ke"
      ],
      [
        "▁ọ",
        "nwa"
      ],
      [
        "m",
        "p"
      ],
      [
        "z",
        "ị"
      ],
      [
        "▁nso",
        "gbu"
      ],
      [
        "▁ga-",
        "e"
      ],
      [
        "z",
        "o"
      ],
      [
        "▁",
        "hụ"
      ],
      [
        "chi",
        "e"
      ],
      [
        "▁ọ",
        "gbakọ"
      ],
      [
        "ṅ",
        "ụ"
      ],
      [
        "▁N",
        "wa"
      ],
      [
        "▁20",
        "1"
      ],
      [
        "▁n",
        "sọ"
      ],
      [
        "c",
        "hụ"
      ],
      [
        "▁",
        "ti"
      ],
      [
        "▁",
        "bịa"
      ],
      [
        "kọ",
        "ta"
      ],
      [
        "▁ga",
        "a"
      ],
      [
        "▁a",
        "kpa"
      ],
      [
        "▁g",
        "bu"
      ],
      [
        "gha",
        "ra"
      ],
      [
        "a",
        "nị"
      ],
      [
        "▁O",
        "bi"
      ],
      [
        "▁e",
        "so"
      ],
      [
        "▁D",
        "ị"
      ],
      [
        "hi",
        "e"
      ],
      [
        "▁",
        "W"
      ],
      [
        "▁J",
        "o"
      ],
      [
        "ny",
        "o"
      ],
      [
        "▁e",
        "ze"
      ],
      [
        "ọ",
        "l"
      ],
      [
        "zi",
        "e"
      ],
      [
        "a",
        "n"
      ],
      [
        "▁",
        "tu"
      ],
      [
        "▁a",
        "kwa"
      ],
      [
        "▁n",
        "tị"
      ],
      [
        "ba",
        "ra"
      ],
      [
        "▁sị",
        "rị"
      ],
      [
        "▁o",
        "ke"
      ],
      [
        "▁ịna",
        "-"
      ],
      [
        "▁O",
        "tu"
      ],
      [
        "j",
        "a"
      ],
      [
        "▁ahụ",
        "́"
      ],
      [
        "▁J",
        "u"
      ],
      [
        "u",
        "ha"
      ],
      [
        "ri",
        "a"
      ],
      [
        "o",
        "la"
      ],
      [
        "▁,",
        "\n"
      ],
      [
        "e",
        "l"
      ],
      [
        "▁u",
        "kwu"
      ],
      [
        "na",
        "m"
      ],
      [
        "▁",
        "rụ"
      ],
      [
        "▁ọ",
        "rịa"
      ],
      [
        "▁e",
        "ru"
      ],
      [
        "o",
        "r"
      ],
      [
        "▁ụ",
        "dị"
      ],
      [
        "▁ụmụ",
        "nna"
      ],
      [
        "▁na",
        "anị"
      ],
      [
        "▁",
        "taa"
      ],
      [
        "▁",
        "kwụ"
      ],
      [
        "▁a",
        "nwụ"
      ],
      [
        "▁a",
        "kpọ"
      ],
      [
        "▁i",
        "se"
      ],
      [
        "▁u",
        "ru"
      ],
      [
        "▁ọ",
        "nwụ"
      ],
      [
        "▁m",
        "gba"
      ],
      [
        "▁g",
        "ọọme"
      ],
      [
        "k",
        "ị"
      ],
      [
        "▁c",
        "he"
      ],
      [
        "▁ana",
        "ghị"
      ],
      [
        "kp",
        "ere"
      ],
      [
        "n",
        "d"
      ],
      [
        "▁e",
        "chi"
      ],
      [
        "▁kwu",
        "o"
      ],
      [
        "▁a",
        "chị"
      ],
      [
        "▁S",
        "a"
      ],
      [
        "g",
        "hi"
      ],
      [
        "o",
        "jii"
      ],
      [
        "▁B",
        "i"
      ],
      [
        "▁B",
        "e"
      ],
      [
        "▁ọbụ",
        "la"
      ],
      [
        "ọ",
        "n"
      ],
      [
        "j",
        "à"
      ],
      [
        "nt",
        "ị"
      ],
      [
        "li",
        "tere"
      ],
      [
        "▁ag",
        "ụ"
      ],
      [
        "▁n",
        "ri"
      ],
      [
        "rị",
        "rị"
      ],
      [
        "▁o",
        "mume"
      ],
      [
        "▁g",
        "họ"
      ],
      [
        "kp",
        "ụ"
      ],
      [
        "▁tu",
        "pu"
      ],
      [
        "m",
        "o"
      ],
      [
        "▁o",
        "le"
      ],
      [
        "▁ị",
        "hụ"
      ],
      [
        "▁ag",
        "wa"
      ],
      [
        "g",
        "u"
      ],
      [
        "▁mkp",
        "ụrụ"
      ],
      [
        "▁",
        "were"
      ],
      [
        "▁ọ",
        "hụrụ"
      ],
      [
        "▁a",
        "jụ"
      ],
      [
        "▁n'",
        "ọ"
      ],
      [
        "▁Y",
        "a"
      ],
      [
        "▁bụ",
        "ghị"
      ],
      [
        "gi",
        "de"
      ],
      [
        "▁kp",
        "a"
      ],
      [
        "▁A",
        "la"
      ],
      [
        "▁ok",
        "é"
      ],
      [
        "k",
        "ere"
      ],
      [
        "i",
        "kpe"
      ],
      [
        "▁uwe",
        "ojii"
      ],
      [
        "▁ma",
        "na"
      ],
      [
        "▁D",
        "e"
      ],
      [
        "▁enwe",
        "ghị"
      ],
      [
        "do",
        "ro"
      ],
      [
        "▁",
        "pụtara"
      ],
      [
        "n",
        "ti"
      ],
      [
        "▁i",
        "we"
      ],
      [
        "▁n",
        "che"
      ],
      [
        "▁ọ",
        "ka"
      ],
      [
        "▁1",
        "9"
      ],
      [
        "▁ị",
        "gba"
      ],
      [
        "▁content_1",
        "1"
      ],
      [
        "o",
        "lu"
      ],
      [
        "kụ",
        "kọ"
      ],
      [
        "▁o",
        "si"
      ],
      [
        "kwa",
        "sị"
      ],
      [
        "bị",
        "ara"
      ],
      [
        "b",
        "ra"
      ],
      [
        "▁e",
        "nyere"
      ],
      [
        "▁g",
        "wa"
      ],
      [
        "▁ka",
        "cha"
      ],
      [
        "▁o",
        "kpu"
      ],
      [
        "g",
        "ụ"
      ],
      [
        "▁i",
        "be"
      ],
      [
        "▁na",
        "rị"
      ],
      [
        "nụ",
        "lọ"
      ],
      [
        "gha",
        "chi"
      ],
      [
        "▁P",
        "ọl"
      ],
      [
        "m",
        "à"
      ],
      [
        "▁",
        "de"
      ],
      [
        "▁n",
        "kwa"
      ],
      [
        "▁a",
        "zụ"
      ],
      [
        "m",
        "er"
      ],
      [
        "va",
        "nọ"
      ],
      [
        "▁akụ",
        "kọ"
      ],
      [
        "s",
        "u"
      ],
      [
        "▁a",
        "sụ"
      ],
      [
        "p",
        "e"
      ],
      [
        "ọ",
        "vanọ"
      ],
      [
        "▁e",
        "kpere"
      ],
      [
        "c",
        "e"
      ],
      [
        "▁ị",
        "bụ"
      ],
      [
        "▁ezi",
        "nụlọ"
      ],
      [
        "▁S",
        "e"
      ],
      [
        "▁go",
        "siri"
      ],
      [
        "▁g",
        "ụ"
      ],
      [
        "▁content_1",
        "0"
      ],
      [
        "▁u",
        "che"
      ],
      [
        "rị",
        "ta"
      ],
      [
        "\t",
        "O"
      ],
      [
        "▁si",
        "ri"
      ],
      [
        "▁",
        "la"
      ],
      [
        "▁O",
        "tú"
      ],
      [
        "▁B",
        "a"
      ],
      [
        "▁",
        "pu"
      ],
      [
        "▁ọ",
        "̀"
      ],
      [
[...]
