{
  "version": "1.0",
  "truncation": null,
  "padding": null,
  "added_tokens": [
    {
      "id": 0,
      "content": "<pad>",
      "single_word": false,
      "lstrip": false,
      "rstrip": false,
      "normalized": false,
      "special": true
    },
    {
      "id": 1,
      "content": "<unk>",
      "single_word": false,
      "lstrip": false,
      "rstrip": false,
      "normalized": false,
      "special": true
    },
    {
      "id": 2,
      "content": "<s>",
      "single_word": false,
      "lstrip": false,
      "rstrip": false,
      "normalized": false,
      "special": true
    },
    {
      "id": 3,
      "content": "</s>",
      "single_word": false,
      "lstrip": false,
      "rstrip": false,
      "normalized": false,
      "special": true
    }
  ],
  "normalizer": {
    "type": "NFC"
  },
  "pre_tokenizer": {
    "type": "Metaspace",
    "replacement": "▁",
    "prepend_scheme": "always",
    "split": true
  },
  "post_processor": null,
  "decoder": {
    "type": "Metaspace",
    "replacement": "▁",
    "prepend_scheme": "always",
    "split": true
  },
  "model": {
    "type": "BPE",
    "dropout": null,
    "unk_token": "<unk>",
    "continuing_subword_prefix": null,
    "end_of_word_suffix": null,
    "fuse_unk": false,
    "byte_fallback": false,
    "ignore_merges": false,
    "vocab": {
      "<pad>": 0,
      "<unk>": 1,
      "<s>": 2,
      "</s>": 3,
      "\t": 4,
      "\n": 5,
      "!": 6,
      "\"": 7,
      "#": 8,
      "$": 9,
      "%": 10,
      "&": 11,
      "'": 12,
      "(": 13,
      ")": 14,
      "*": 15,
      "+": 16,
      ",": 17,
      "-": 18,
      ".": 19,
      "/": 20,
      "0": 21,
      "1": 22,
      "2": 23,
      "3": 24,
      "4": 25,
      "5": 26,
      "6": 27,
      "7": 28,
      "8": 29,
      "9": 30,
      ":": 31,
      ";": 32,
      "<": 33,
      "=": 34,
      ">": 35,
      "?": 36,
      "@": 37,
      "A": 38,
      "B": 39,
      "C": 40,
      "D": 41,
      "E": 42,
      "F": 43,
      "G": 44,
      "H": 45,
      "I": 46,
      "J": 47,
      "K": 48,
      "L": 49,
      "M": 50,
      "N": 51,
      "O": 52,
      "P": 53,
      "Q": 54,
      "R": 55,
      "S": 56,
      "T": 57,
      "U": 58,
      "V": 59,
      "W": 60,
      "X": 61,
      "Y": 62,
      "Z": 63,
      "[": 64,
      "\\": 65,
      "]": 66,
      "^": 67,
      "_": 68,
      "`": 69,
      "a": 70,
      "b": 71,
      "c": 72,
      "d": 73,
      "e": 74,
      "f": 75,
      "g": 76,
      "h": 77,
      "i": 78,
      "j": 79,
      "k": 80,
      "l": 81,
      "m": 82,
      "n": 83,
      "o": 84,
      "p": 85,
      "q": 86,
      "r": 87,
      "s": 88,
      "t": 89,
      "u": 90,
      "v": 91,
      "w": 92,
      "x": 93,
      "y": 94,
      "z": 95,
      "{": 96,
      "|": 97,
      "}": 98,
      "~": 99,
      "": 100,
      "": 101,
      " ": 102,
      "¡": 103,
      "¢": 104,
      "£": 105,
      "¤": 106,
      "¥": 107,
      "¦": 108,
      "§": 109,
      "©": 110,
      "ª": 111,
      "«": 112,
      "­": 113,
      "®": 114,
      "¯": 115,
      "°": 116,
      "±": 117,
      "²": 118,
      "³": 119,
      "´": 120,
      "µ": 121,
      "¶": 122,
      "·": 123,
      "¸": 124,
      "¹": 125,
      "º": 126,
      "»": 127,
      "¼": 128,
      "½": 129,
      "¾": 130,
      "¿": 131,
      "À": 132,
      "Á": 133,
      "Â": 134,
      "Ã": 135,
      "Ä": 136,
      "Å": 137,
      "Æ": 138,
      "Ç": 139,
      "È": 140,
      "É": 141,
      "Ê": 142,
      "Ë": 143,
      "Ì": 144,
      "Í": 145,
      "Î": 146,
      "Ï": 147,
      "Ð": 148,
      "Ñ": 149,
      "Ò": 150,
      "Ó": 151,
      "Ô": 152,
      "Õ": 153,
      "Ö": 154,
      "×": 155,
      "Ø": 156,
      "Ù": 157,
      "Ú": 158,
      "Û": 159,
      "Ü": 160,
      "Þ": 161,
      "ß": 162,
      "à": 163,
      "á": 164,
      "â": 165,
      "ã": 166,
      "ä": 167,
      "å": 168,
      "æ": 169,
      "ç": 170,
      "è": 171,
      "é": 172,
      "ê": 173,
      "ë": 174,
      "ì": 175,
      "í": 176,
      "î": 177,
      "ï": 178,
      "ð": 179,
      "ñ": 180,
      "ò": 181,
      "ó": 182,
      "ô": 183,
      "õ": 184,
      "ö": 185,
      "÷": 186,
      "ø": 187,
      "ù": 188,
      "ú": 189,
      "û": 190,
      "ü": 191,
      "ý": 192,
      "þ": 193,
      "ÿ": 194,
      "Ā": 195,
      "ā": 196,
      "ă": 197,
      "ą": 198,
      "Ć": 199,
      "ć": 200,
      "Ĉ": 201,
      "ĉ": 202,
      "Ċ": 203,
      "ċ": 204,
      "Č": 205,
      "č": 206,
      "Ď": 207,
      "ď": 208,
      "Đ": 209,
      "đ": 210,
      "Ē": 211,
      "ē": 212,
      "Ĕ": 213,
      "ė": 214,
      "Ę": 215,
      "ę": 216,
      "Ě": 217,
      "ě": 218,
      "ğ": 219,
      "Ġ": 220,
      "ġ": 221,
      "Ĥ": 222,
      "ĥ": 223,
      "Ħ": 224,
      "ħ": 225,
      "Ĩ": 226,
      "ĩ": 227,
      "Ī": 228,
      "ī": 229,
      "ĭ": 230,
      "İ": 231,
      "ı": 232,
      "ĺ": 233,
      "ļ": 234,
      "Ľ": 235,
      "ľ": 236,
      "Ł": 237,
      "ł": 238,
      "Ń": 239,
      "ń": 240,
      "ņ": 241,
      "Ň": 242,
      "ň": 243,
      "Ŋ": 244,
      "ŋ": 245,
      "Ō": 246,
      "ō": 247,
      "Ŏ": 248,
      "ŏ": 249,
      "ő": 250,
      "Œ": 251,
      "œ": 252,
      "ŕ": 253,
      "Ř": 254,
      "ř": 255,
      "Ś": 256,
      "ś": 257,
      "ŝ": 258,
      "Ş": 259,
      "ş": 260,
      "Š": 261,
      "š": 262,
      "ţ": 263,
      "Ť": 264,
      "ť": 265,
      "ũ": 266,
      "Ū": 267,
      "ū": 268,
      "ŭ": 269,
      "ů": 270,
      "ų": 271,
      "ŵ": 272,
      "Ÿ": 273,
      "ź": 274,
      "Ż": 275,
      "ż": 276,
      "Ž": 277,
      "ž": 278,
      "Ɓ": 279,
      "Ɔ": 280,
      "Ɗ": 281,
      "Ə": 282,
      "Ɛ": 283,
      "Ƙ": 284,
      "ƙ": 285,
      "ơ": 286,
      "ư": 287,
      "Ƴ": 288,
      "ƴ": 289,
      "ƶ": 290,
      "ǀ": 291,
      "ǁ": 292,
      "ǂ": 293,
      "ǃ": 294,
      "Ǌ": 295,
      "ǋ": 296,
      "ǌ": 297,
      "Ǎ": 298,
      "ǎ": 299,
      "Ǐ": 300,
      "ǐ": 301,
      "Ǒ": 302,
      "ǒ": 303,
      "Ǔ": 304,
      "ǔ": 305,
      "ǜ": 306,
      "ǧ": 307,
      "ǵ": 308,
      "Ǹ": 309,
      "ǹ": 310,
      "ȍ": 311,
      "Ș": 312,
      "ș": 313,
      "Ț": 314,
      "ț": 315,
      "Ȧ": 316,
      "ȩ": 317,
      "ȵ": 318,
      "ɐ": 319,
      "ɑ": 320,
      "ɒ": 321,
      "ɓ": 322,
      "ɔ": 323,
      "ɕ": 324,
      "ɖ": 325,
      "ɗ": 326,
      "ə": 327,
      "ɛ": 328,
      "ɜ": 329,
      "ɞ": 330,
      "ɟ": 331,
      "ɠ": 332,
      "ɡ": 333,
      "ɢ": 334,
      "ɣ": 335,
      "ɤ": 336,
      "ɥ": 337,
      "ɦ": 338,
      "ɨ": 339,
      "ɩ": 340,
      "ɪ": 341,
      "ɫ": 342,
      "ɬ": 343,
      "ɭ": 344,
      "ɯ": 345,
      "ɲ": 346,
      "ɳ": 347,
      "ɴ": 348,
      "ɵ": 349,
      "ɹ": 350,
      "ɽ": 351,
      "ɾ": 352,
      "ʀ": 353,
      "ʁ": 354,
      "ʂ": 355,
      "ʃ": 356,
      "ʇ": 357,
      "ʈ": 358,
      "ʉ": 359,
      "ʊ": 360,
      "ʋ": 361,
      "ʌ": 362,
      "ʍ": 363,
      "ʎ": 364,
      "ʏ": 365,
      "ʑ": 366,
      "ʒ": 367,
      "ʔ": 368,
      "ʕ": 369,
      "ʘ": 370,
      "ʙ": 371,
      "ʟ": 372,
      "ʧ": 373,
      "ʰ": 374,
      "ʱ": 375,
      "ʲ": 376,
      "ʳ": 377,
      "ʷ": 378,
      "ʹ": 379,
      "ʻ": 380,
      "ʼ": 381,
      "ʽ": 382,
      "ʾ": 383,
      "ʿ": 384,
      "ˀ": 385,
      "ˁ": 386,
      "ˆ": 387,
      "ˈ": 388,
      "ˉ": 389,
      "ˊ": 390,
      "ˌ": 391,
      "ː": 392,
      "ˑ": 393,
      "˔": 394,
      "˖": 395,
      "˗": 396,
      "˚": 397,
      "ˠ": 398,
      "ˢ": 399,
      "ˤ": 400,
      "˥": 401,
      "˦": 402,
      "˧": 403,
      "˨": 404,
      "˩": 405,
      "̀": 406,
      "́": 407,
      "̂": 408,
      "̃": 409,
      "̄": 410,
      "̅": 411,
      "̆": 412,
      "̇": 413,
      "̈": 414,
      "̊": 415,
      "̌": 416,
      "̍": 417,
      "̓": 418,
      "̕": 419,
      "̗": 420,
      "̚": 421,
      "̝": 422,
      "̞": 423,
      "̟": 424,
      "̠": 425,
      "̢": 426,
      "̣": 427,
      "̤": 428,
      "̥": 429,
      "̧": 430,
      "̩": 431,
      "̪": 432,
      "̬": 433,
      "̯": 434,
      "̰": 435,
      "̱": 436,
      "̲": 437,
      "̶": 438,
      "̹": 439,
      "̺": 440,
      "̽": 441,
      "͂": 442,
      "ͅ": 443,
      "͆": 444,
      "͉": 445,
      "͍": 446,
      "͕": 447,
      "͜": 448,
      "͟": 449,
      "͡": 450,
      "ͤ": 451,
      "ͭ": 452,
      "΄": 453,
      "Ά": 454,
      "Έ": 455,
      "Ό": 456,
      "ΐ": 457,
      "Α": 458,
      "Β": 459,
      "Γ": 460,
      "Δ": 461,
      "Ε": 462,
      "Ζ": 463,
      "Η": 464,
      "Θ": 465,
      "Ι": 466,
      "Κ": 467,
      "Λ": 468,
      "Μ": 469,
      "Ν": 470,
      "Ξ": 471,
      "Ο": 472,
      "Π": 473,
      "Ρ": 474,
      "Σ": 475,
      "Τ": 476,
      "Υ": 477,
      "Φ": 478,
      "Χ": 479,
      "Ψ": 480,
      "Ω": 481,
      "ά": 482,
      "έ": 483,
      "ή": 484,
      "ί": 485,
      "α": 486,
      "β": 487,
      "γ": 488,
      "δ": 489,
      "ε": 490,
      "ζ": 491,
      "η": 492,
      "θ": 493,
      "ι": 494,
      "κ": 495,
      "λ": 496,
      "μ": 497,
      "ν": 498,
      "ξ": 499,
      "ο": 500,
      "π": 501,
      "ρ": 502,
      "ς": 503,
      "σ": 504,
      "τ": 505,
      "υ": 506,
      "φ": 507,
      "χ": 508,
      "ψ": 509,
      "ω": 510,
      "ϊ": 511,
      "ό": 512,
      "ύ": 513,
      "ώ": 514,
      "Є": 515,
      "І": 516,
      "Ї": 517,
      "Ј": 518,
      "А": 519,
      "Б": 520,
      "В": 521,
      "Г": 522,
      "Д": 523,
      "Е": 524,
      "Ж": 525,
      "З": 526,
      "И": 527,
      "Й": 528,
      "К": 529,
      "Л": 530,
      "М": 531,
      "Н": 532,
      "О": 533,
      "П": 534,
      "Р": 535,
      "С": 536,
      "Т": 537,
      "У": 538,
      "Ф": 539,
      "Х": 540,
      "Ц": 541,
      "Ч": 542,
      "Ш": 543,
      "Щ": 544,
      "Ъ": 545,
      "Ь": 546,
      "Э": 547,
      "Ю": 548,
      "Я": 549,
      "а": 550,
      "б": 551,
      "в": 552,
      "г": 553,
      "д": 554,
      "е": 555,
      "ж": 556,
      "з": 557,
      "и": 558,
      "й": 559,
      "к": 560,
      "л": 561,
      "м": 562,
      "н": 563,
      "о": 564,
      "п": 565,
      "р": 566,
      "с": 567,
      "т": 568,
      "у": 569,
      "ф": 570,
      "х": 571,
      "ц": 572,
      "ч": 573,
      "ш": 574,
      "щ": 575,
      "ъ": 576,
      "ы": 577,
      "ь": 578,
      "э": 579,
      "ю": 580,
      "я": 581,
      "ѐ": 582,
      "ё": 583,
      "є": 584,
      "і": 585,
      "ї": 586,
      "ј": 587,
      "ћ": 588,
      "ґ": 589,
      "ғ": 590,
      "ҙ": 591,
      "ҥ": 592,
      "ү": 593,
      "ӓ": 594,
      "Ӧ": 595,
      "ӧ": 596,
      "ӱ": 597,
      "ӹ": 598,
      "ԅ": 599,
      "ԑ": 600,
      "Ա": 601,
      "Դ": 602,
      "Ե": 603,
      "Թ": 604,
      "Կ": 605,
      "Հ": 606,
      "Մ": 607,
      "Յ": 608,
      "Ն": 609,
      "Շ": 610,
      "Ո": 611,
      "Պ": 612,
      "Տ": 613,
      "Ր": 614,
      "Ւ": 615,
      "ա": 616,
      "բ": 617,
      "գ": 618,
      "դ": 619,
      "ե": 620,
      "ը": 621,
      "թ": 622,
      "ի": 623,
      "խ": 624,
      "կ": 625,
      "հ": 626,
      "մ": 627,
      "յ": 628,
      "ն": 629,
      "ո": 630,
      "պ": 631,
      "վ": 632,
      "տ": 633,
      "ր": 634,
      "ց": 635,
      "ւ": 636,
      "և": 637,
      "֊": 638,
      "ְ": 639,
      "ִ": 640,
      "ֵ": 641,
      "ֶ": 642,
      "ַ": 643,
      "ָ": 644,
      "ֹ": 645,
      "ּ": 646,
      "־": 647,
      "ׁ": 648,
      "ׂ": 649,
      "א": 650,
      "ב": 651,
      "ג": 652,
      "ד": 653,
      "ה": 654,
      "ו": 655,
      "ז": 656,
      "ח": 657,
      "ט": 658,
      "י": 659,
      "ך": 660,
      "כ": 661,
      "ל": 662,
      "ם": 663,
      "מ": 664,
      "ן": 665,
      "נ": 666,
      "ס": 667,
      "ע": 668,
      "ף": 669,
      "פ": 670,
      "ץ": 671,
      "צ": 672,
      "ק": 673,
      "ר": 674,
      "ש": 675,
      "ת": 676,
      "،": 677,
      "؟": 678,
      "ء": 679,
      "آ": 680,
      "أ": 681,
      "ؤ": 682,
      "إ": 683,
      "ئ": 684,
      "ا": 685,
      "ب": 686,
      "ة": 687,
      "ت": 688,
      "ث": 689,
      "ج": 690,
      "ح": 691,
      "خ": 692,
      "د": 693,
      "ذ": 694,
      "ر": 695,
      "ز": 696,
      "س": 697,
      "ش": 698,
      "ص": 699,
      "ض": 700,
      "ط": 701,
      "ظ": 702,
      "ع": 703,
      "غ": 704,
      "ـ": 705,
      "ف": 706,
      "ق": 707,
      "ك": 708,
      "ل": 709,
      "م": 710,
      "ن": 711,
      "ه": 712,
      "و": 713,
      "ى": 714,
      "ي": 715,
      "ً": 716,
      "ٌ": 717,
      "َ": 718,
      "ُ": 719,
      "ِ": 720,
      "ّ": 721,
      "ْ": 722,
      "ٔ": 723,
      "٠": 724,
      "١": 725,
      "٢": 726,
      "٣": 727,
      "٧": 728,
      "ٰ": 729,
      "ٱ": 730,
      "پ": 731,
      "ٿ": 732,
      "چ": 733,
      "ڏ": 734,
      "ڐ": 735,
      "ڙ": 736,
      "ڤ": 737,
      "ڦ": 738,
      "ک": 739,
      "ڪ": 740,
      "گ": 741,
      "ھ": 742,
      "ہ": 743,
      "ۆ": 744,
      "ی": 745,
      "ێ": 746,
      "ە": 747,
      "ۡ": 748,
      "ܐ": 749,
      "ܒ": 750,
      "ܗ": 751,
      "ܘ": 752,
      "ܝ": 753,
      "ܡ": 754,
      "ܢ": 755,
      "ܣ": 756,
      "ܩ": 757,
      "ܪ": 758,
      "ܬ": 759,
      "ܳ": 760,
      "ँ": 761,
      "ं": 762,
      "ः": 763,
      "अ": 764,
      "आ": 765,
      "इ": 766,
      "ई": 767,
      "उ": 768,
      "क": 769,
      "ख": 770,
      "ग": 771,
      "घ": 772,
      "ज": 773,
      "ट": 774,
      "ठ": 775,
      "ड": 776,
      "ण": 777,
      "त": 778,
      "द": 779,
      "ध": 780,
      "न": 781,
      "प": 782,
      "फ": 783,
      "ब": 784,
      "म": 785,
      "य": 786,
      "र": 787,
      "ल": 788,
      "ळ": 789,
      "व": 790,
      "श": 791,
      "ष": 792,
      "स": 793,
      "ह": 794,
      "़": 795,
      "ा": 796,
      "ि": 797,
      "ी": 798,
      "ु": 799,
      "ू": 800,
      "ृ": 801,
      "े": 802,
      "ै": 803,
      "ॉ": 804,
      "ो": 805,
      "ौ": 806,
      "्": 807,
      "অ": 808,
      "আ": 809,
      "ই": 810,
      "এ": 811,
      "ও": 812,
      "ক": 813,
      "খ": 814,
      "গ": 815,
      "ঘ": 816,
      "চ": 817,
      "ছ": 818,
      "জ": 819,
      "ট": 820,
      "ড": 821,
      "ত": 822,
      "থ": 823,
      "দ": 824,
      "ন": 825,
      "প": 826,
      "ব": 827,
      "ভ": 828,
      "ম": 829,
      "য": 830,
      "র": 831,
      "ল": 832,
      "শ": 833,
      "স": 834,
      "হ": 835,
      "়": 836,
      "া": 837,
      "ি": 838,
      "ী": 839,
      "ু": 840,
      "ূ": 841,
      "ে": 842,
      "ৈ": 843,
      "ো": 844,
      "্": 845,
      "ৰ": 846,
      "ਁ": 847,
      "ਆ": 848,
      "ਗ": 849,
      "ਬ": 850,
      "ਰ": 851,
      "ਲ": 852,
      "ੀ": 853,
      "ੈ": 854,
      "ੋ": 855,
      "ੌ": 856,
      "க": 857,
      "ச": 858,
      "ட": 859,
      "த": 860,
      "ந": 861,
      "ன": 862,
      "ப": 863,
      "ய": 864,
      "ல": 865,
      "ள": 866,
      "வ": 867,
      "ா": 868,
      "ி": 869,
      "ீ": 870,
      "ு": 871,
      "ை": 872,
      "்": 873,
      "ం": 874,
      "ప": 875,
      "బ": 876,
      "ల": 877,
      "ి": 878,
      "ె": 879,
      "్": 880,
      "ಂ": 881,
      "ಅ": 882,
      "ಕ": 883,
      "ಗ": 884,
      "ಜ": 885,
      "ಣ": 886,
      "ದ": 887,
      "ಧ": 888,
      "ನ": 889,
      "ಪ": 890,
      "ಬ": 891,
      "ಭ": 892,
      "ಮ": 893,
      "ಯ": 894,
      "ರ": 895,
      "ಲ": 896,
      "ಳ": 897,
      "ವ": 898,
      "ಷ": 899,
      "ಸ": 900,
      "ಹ": 901,
      "ಾ": 902,
      "ಿ": 903,
      "ು": 904,
      "ೇ": 905,
      "್": 906,
      "പ": 907,
      "യ": 908,
      "ള": 909,
      "വ": 910,
      "െ": 911,
      "ർ": 912,
      "අ": 913,
      "ග": 914,
      "ත": 915,
      "ද": 916,
      "න": 917,
      "ප": 918,
      "ය": 919,
      "ර": 920,
      "ල": 921,
      "ව": 922,
      "ස": 923,
      "හ": 924,
      "්": 925,
      "ා": 926,
      "ැ": 927,
      "ෑ": 928,
      "ි": 929,
      "ෙ": 930,
      "ේ": 931,
      "ก": 932,
      "ค": 933,
      "ง": 934,
      "จ": 935,
      "ท": 936,
      "น": 937,
      "ป": 938,
      "พ": 939,
      "ม": 940,
      "ร": 941,
      "ล": 942,
      "ศ": 943,
      "ษ": 944,
      "ห": 945,
      "อ": 946,
      "า": 947,
      "ิ": 948,
      "ื": 949,
      "ุ": 950,
      "เ": 951,
      "ํ": 952,
      "ກ": 953,
      "ງ": 954,
      "ຈ": 955,
      "ຍ": 956,
      "ຕ": 957,
      "ບ": 958,
      "ຟ": 959,
      "ຣ": 960,
      "ອ": 961,
      "ັ": 962,
      "າ": 963,
      "ີ": 964,
      "ແ": 965,
      "່": 966,
      "້": 967,
      "་": 968,
      "ཀ": 969,
      "ག": 970,
      "ང": 971,
      "པ": 972,
      "ཙ": 973,
      "ཡ": 974,
      "ར": 975,
      "ས": 976,
      "ུ": 977,
      "ོ": 978,
      "ླ": 979,
      "ა": 980,
      "ბ": 981,
      "გ": 982,
      "დ": 983,
      "ე": 984,
      "ვ": 985,
      "ზ": 986,
      "თ": 987,
      "ი": 988,
      "ლ": 989,
      "მ": 990,
      "ნ": 991,
      "ო": 992,
      "პ": 993,
      "რ": 994,
      "ს": 995,
      "უ": 996,
      "ფ": 997,
      "ქ": 998,
      "შ": 999,
      "ც": 1000,
      "წ": 1001,
      "ხ": 1002,
      "ሀ": 1003,
      "ለ": 1004,
      "ሉ": 1005,
      "ሊ": 1006,
      "ላ": 1007,
      "ል": 1008,
      "ሕ": 1009,
      "መ": 1010,
      "ም": 1011,
      "ሥ": 1012,
      "ሪ": 1013,
      "ራ": 1014,
      "ሬ": 1015,
      "ር": 1016,
      "ሰ": 1017,
      "ሴ": 1018,
      "ስ": 1019,
      "ሸ": 1020,
      "ቀ": 1021,
      "ቆ": 1022,
      "በ": 1023,
      "ቡ": 1024,
      "ባ": 1025,
      "ቤ": 1026,
      "ብ": 1027,
      "ተ": 1028,
      "ቲ": 1029,
      "ት": 1030,
      "ቶ": 1031,
      "ነ": 1032,
      "ን": 1033,
      "ኖ": 1034,
      "አ": 1035,
      "ኤ": 1036,
      "ኦ": 1037,
      "ከ": 1038,
      "ካ": 1039,
      "ክ": 1040,
      "ኮ": 1041,
      "ወ": 1042,
      "ዋ": 1043,
      "ዎ": 1044,
      "ዕ": 1045,
      "ዘ": 1046,
      "ያ": 1047,
      "ዬ": 1048,
      "ይ": 1049,
      "ዮ": 1050,
      "ደ": 1051,
      "ድ": 1052,
      "ዶ": 1053,
      "ጉ": 1054,
      "ጣ": 1055,
      "ጭ": 1056,
      "ጳ": 1057,
      "ጾ": 1058,
      "ፁ": 1059,
      "ፋ": 1060,
      "ፓ": 1061,
      "ᐯ": 1062,
      "ᑎ": 1063,
      "ᑕ": 1064,
      "ᒪ": 1065,
      "ᔕ": 1066,
      "ᗩ": 1067,
      "ក": 1068,
      "ង": 1069,
      "ច": 1070,
      "ជ": 1071,
      "ញ": 1072,
      "ដ": 1073,
      "ណ": 1074,
      "ត": 1075,
      "ទ": 1076,
      "ន": 1077,
      "ប": 1078,
      "ព": 1079,
      "ម": 1080,
      "យ": 1081,
      "រ": 1082,
      "ល": 1083,
      "ស": 1084,
      "អ": 1085,
      "ា": 1086,
      "ិ": 1087,
      "ុ": 1088,
      "ូ": 1089,
      "ួ": 1090,
      "ឿ": 1091,
      "េ": 1092,
      "ៃ": 1093,
      "ោ": 1094,
      "ំ": 1095,
      "់": 1096,
      "្": 1097,
      "៛": 1098,
      "ᥱ": 1099,
      "ᴀ": 1100,
      "ᴄ": 1101,
      "ᴅ": 1102,
      "ᴇ": 1103,
      "ᴏ": 1104,
      "ᴛ": 1105,
      "ᴜ": 1106,
      "ᴠ": 1107,
      "ᴡ": 1108,
      "ᴳ": 1109,
      "ᵀ": 1110,
      "ᵃ": 1111,
      "ᵇ": 1112,
      "ᵈ": 1113,
      "ᵉ": 1114,
      "ᵍ": 1115,
      "ᵏ": 1116,
      "ᵒ": 1117,
      "ᵗ": 1118,
      "ᵝ": 1119,
      "ᵪ": 1120,
      "ᵻ": 1121,
      "ᶜ": 1122,
      "ᶡ": 1123,
      "ᶢ": 1124,
      "ᶦ": 1125,
      "᷂": 1126,
      "᷄": 1127,
      "᷅": 1128,
      "᷆": 1129,
      "᷇": 1130,
      "᷈": 1131,
      "᷉": 1132,
      "ḇ": 1133,
      "ḍ": 1134,
      "ḏ": 1135,
      "ḓ": 1136,
      "ḗ": 1137,
      "ḛ": 1138,
      "Ḥ": 1139,
      "ḥ": 1140,
      "Ḩ": 1141,
      "ḫ": 1142,
      "ḭ": 1143,
      "ḱ": 1144,
      "ḳ": 1145,
      "ḵ": 1146,
      "Ḷ": 1147,
      "ḷ": 1148,
      "ḽ": 1149,
      "ḿ": 1150,
      "ṁ": 1151,
      "ṃ": 1152,
      "Ṅ": 1153,
      "ṅ": 1154,
      "ṇ": 1155,
      "ṕ": 1156,
      "ṛ": 1157,
      "Ṣ": 1158,
      "ṣ": 1159,
      "Ṭ": 1160,
      "ṭ": 1161,
      "ṯ": 1162,
      "Ṱ": 1163,
      "ṱ": 1164,
      "ṵ": 1165,
      "ṿ": 1166,
      "ẁ": 1167,
      "ẃ": 1168,
      "Ẓ": 1169,
      "ẓ": 1170,
      "ạ": 1171,
      "ả": 1172,
      "ấ": 1173,
      "ậ": 1174,
      "ắ": 1175,
      "ằ": 1176,
      "ặ": 1177,
      "Ẹ": 1178,
      "ẹ": 1179,
      "ẻ": 1180,
      "ẽ": 1181,
      "ế": 1182,
      "ề": 1183,
      "ể": 1184,
      "ễ": 1185,
      "ệ": 1186,
      "ỉ": 1187,
      "Ị": 1188,
      "ị": 1189,
      "Ọ": 1190,
      "ọ": 1191,
      "ố": 1192,
      "ồ": 1193,
      "ổ": 1194,
      "ỗ": 1195,
      "ộ": 1196,
      "ớ": 1197,
      "ờ": 1198,
      "ở": 1199,
      "ợ": 1200,
      "Ụ": 1201,
      "ụ": 1202,
      "ủ": 1203,
      "ứ": 1204,
      "ữ": 1205,
      "ỳ": 1206,
      "ỵ": 1207,
      "ỹ": 1208,
      "ἀ": 1209,
      "ἁ": 1210,
      "ἆ": 1211,
      "Ἀ": 1212,
      "Ἅ": 1213,
      "ἐ": 1214,
      "Ἐ": 1215,
      "ἡ": 1216,
      "Ἡ": 1217,
      "ἰ": 1218,
      "ὀ": 1219,
      "ὁ": 1220,
      "ὐ": 1221,
      "ὰ": 1222,
      "ὴ": 1223,
      "ὶ": 1224,
      "ὸ": 1225,
      "ᾶ": 1226,
      "ῃ": 1227,
      "ῆ": 1228,
      "ῖ": 1229,
      "ῦ": 1230,
      "ῶ": 1231,
      " ": 1232,
      " ": 1233,
      " ": 1234,
      " ": 1235,
      "​": 1236,
      "‌": 1237,
      "‎": 1238,
      "‏": 1239,
      "‐": 1240,
      "‑": 1241,
      "‒": 1242,
      "–": 1243,
      "—": 1244,
      "―": 1245,
      "‖": 1246,
      "‘": 1247,
      "’": 1248,
      "‚": 1249,
      "‛": 1250,
      "“": 1251,
      "”": 1252,
      "„": 1253,
      "†": 1254,
      "‡": 1255,
      "•": 1256,
      "․": 1257,
      "…": 1258,
      "‧": 1259,
      "‪": 1260,
      "‬": 1261,
      "‭": 1262,
      " ": 1263,
      "‰": 1264,
      "′": 1265,
      "″": 1266,
      "‹": 1267,
      "›": 1268,
      "※": 1269,
      "‼": 1270,
      "‿": 1271,
      "⁄": 1272,
      "⁇": 1273,
      "⁠": 1274,
      "⁣": 1275,
      "⁦": 1276,
      "⁩": 1277,
      "⁴": 1278,
      "⁶": 1279,
      "⁷": 1280,
      "⁹": 1281,
      "ⁿ": 1282,
      "₇": 1283,
      "₤": 1284,
      "₦": 1285,
      "₨": 1286,
      "€": 1287,
      "₵": 1288,
      "₹": 1289,
      "₺": 1290,
      "ℓ": 1291,
      "ℕ": 1292,
      "№": 1293,
      "℘": 1294,
      "ℝ": 1295,
      "™": 1296,
      "←": 1297,
      "↑": 1298,
      "→": 1299,
      "↓": 1300,
      "↗": 1301,
      "⇔": 1302,
      "⇨": 1303,
      "⇩": 1304,
      "∂": 1305,
      "∏": 1306,
      "−": 1307,
      "∗": 1308,
      "√": 1309,
      "∫": 1310,
      "∼": 1311,
      "≈": 1312,
      "≠": 1313,
      "≤": 1314,
      "≥": 1315,
      "≫": 1316,
      "⋅": 1317,
      "ⓘ": 1318,
      "ⓥ": 1319,
      "┏": 1320,
      "┓": 1321,
      "▁": 1322,
      "■": 1323,
      "□": 1324,
      "▪": 1325,
      "▴": 1326,
      "▸": 1327,
      "►": 1328,
      "◀": 1329,
      "◄": 1330,
      "◆": 1331,
      "◇": 1332,
      "○": 1333,
      "◌": 1334,
      "●": 1335,
      "◢": 1336,
      "◤": 1337,
      "◯": 1338,
      "★": 1339,
      "☆": 1340,
      "☛": 1341,
      "☞": 1342,
      "☭": 1343,
      "☻": 1344,
      "♂": 1345,
      "♔": 1346,
      "♚": 1347,
      "♛": 1348,
      "♡": 1349,
      "♤": 1350,
      "♥": 1351,
      "♦": 1352,
      "♪": 1353,
      "♫": 1354,
      "✍": 1355,
      "✓": 1356,
      "✔": 1357,
      "❁": 1358,
      "❂": 1359,
      "❏": 1360,
      "❑": 1361,
      "❖": 1362,
      "❤": 1363,
      "➐": 1364,
      "⟨": 1365,
      "⟩": 1366,
      "⠀": 1367,
      "⠔": 1368,
      "⠳": 1369,
      "ⲁ": 1370,
      "ⲃ": 1371,
      "ⲉ": 1372,
      "ⲏ": 1373,
      "ⲓ": 1374,
      "ⲕ": 1375,
      "ⲗ": 1376,
      "Ⲙ": 1377,
      "ⲛ": 1378,
      "ⲟ": 1379,
      "ⲡ": 1380,
      "ⲣ": 1381,
      "ⲥ": 1382,
      "ⲧ": 1383,
      "ⲩ": 1384,
      "Ⲫ": 1385,
      "ⲫ": 1386,
      "ⲱ": 1387,
      "ⴰ": 1388,
      "ⴱ": 1389,
      "ⴷ": 1390,
      "ⴻ": 1391,
      "ⴼ": 1392,
      "ⵀ": 1393,
      "ⵄ": 1394,
      "ⵇ": 1395,
      "ⵉ": 1396,
      "ⵍ": 1397,
      "ⵎ": 1398,
      "ⵏ": 1399,
      "ⵓ": 1400,
      "ⵙ": 1401,
      "ⵜ": 1402,
      "ⵟ": 1403,
      "ⵠ": 1404,
      "ⵢ": 1405,
      "⸤": 1406,
      "　": 1407,
      "、": 1408,
      "。": 1409,
      "々": 1410,
      "《": 1411,
      "》": 1412,
      "「": 1413,
      "」": 1414,
      "『": 1415,
      "』": 1416,
      "【": 1417,
      "】": 1418,
      "〒": 1419,
      "〜": 1420,
      "あ": 1421,
      "い": 1422,
      "う": 1423,
      "お": 1424,
      "か": 1425,
      "が": 1426,
      "き": 1427,
      "く": 1428,
      "け": 1429,
      "こ": 1430,
      "し": 1431,
      "す": 1432,
      "ず": 1433,
      "せ": 1434,
      "そ": 1435,
      "た": 1436,
      "だ": 1437,
      "っ": 1438,
      "づ": 1439,
      "て": 1440,
      "で": 1441,
      "な": 1442,
      "に": 1443,
      "ぬ": 1444,
      "の": 1445,
      "は": 1446,
      "ば": 1447,
      "ふ": 1448,
      "ぽ": 1449,
      "み": 1450,
      "む": 1451,
      "め": 1452,
      "ゃ": 1453,
      "よ": 1454,
      "ら": 1455,
      "り": 1456,
      "る": 1457,
      "れ": 1458,
      "わ": 1459,
      "を": 1460,
      "ん": 1461,
      "ァ": 1462,
      "ア": 1463,
      "ィ": 1464,
      "イ": 1465,
      "ゥ": 1466,
      "ウ": 1467,
      "ェ": 1468,
      "エ": 1469,
      "オ": 1470,
      "カ": 1471,
      "ガ": 1472,
      "キ": 1473,
      "ギ": 1474,
      "ク": 1475,
      "グ": 1476,
      "ゲ": 1477,
      "コ": 1478,
      "ゴ": 1479,
      "サ": 1480,
      "シ": 1481,
      "ジ": 1482,
      "ス": 1483,
      "ズ": 1484,
      "セ": 1485,
      "ゼ": 1486,
      "タ": 1487,
      "ダ": 1488,
      "チ": 1489,
      "ッ": 1490,
      "ツ": 1491,
      "テ": 1492,
      "デ": 1493,
      "ト": 1494,
      "ド": 1495,
      "ナ": 1496,
      "ニ": 1497,
      "ネ": 1498,
      "ハ": 1499,
      "バ": 1500,
      "ビ": 1501,
      "フ": 1502,
      "ブ": 1503,
      "プ": 1504,
      "ベ": 1505,
      "マ": 1506,
      "ミ": 1507,
      "ム": 1508,
      "メ": 1509,
      "ャ": 1510,
      "ヤ": 1511,
      "ュ": 1512,
      "ラ": 1513,
      "リ": 1514,
      "ル": 1515,
      "レ": 1516,
      "ロ": 1517,
      "ン": 1518,
      "ヴ": 1519,
      "ヶ": 1520,
      "・": 1521,
      "ー": 1522,
      "ㅅ": 1523,
      "一": 1524,
      "丁": 1525,
      "七": 1526,
      "三": 1527,
      "不": 1528,
      "与": 1529,
      "丑": 1530,
      "且": 1531,
      "世": 1532,
      "业": 1533,
      "东": 1534,
      "两": 1535,
      "个": 1536,
      "中": 1537,
      "丰": 1538,
      "丹": 1539,
      "主": 1540,
      "乃": 1541,
      "久": 1542,
      "么": 1543,
      "之": 1544,
      "乐": 1545,
      "九": 1546,
      "也": 1547,
      "乡": 1548,
      "乱": 1549,
      "了": 1550,
      "争": 1551,
      "二": 1552,
      "于": 1553,
      "五": 1554,
      "亚": 1555,
      "亜": 1556,
      "亞": 1557,
      "交": 1558,
      "京": 1559,
      "亭": 1560,
      "亲": 1561,
      "人": 1562,
      "仁": 1563,
      "介": 1564,
      "令": 1565,
      "以": 1566,
      "仮": 1567,
      "价": 1568,
      "任": 1569,
      "企": 1570,
      "伊": 1571,
      "优": 1572,
      "会": 1573,
      "伟": 1574,
      "伦": 1575,
      "伯": 1576,
      "估": 1577,
      "佐": 1578,
      "佑": 1579,
      "何": 1580,
      "作": 1581,
      "你": 1582,
      "來": 1583,
      "例": 1584,
      "依": 1585,
      "侯": 1586,
      "俊": 1587,
      "保": 1588,
      "信": 1589,
      "倫": 1590,
      "值": 1591,
      "假": 1592,
      "偉": 1593,
      "傳": 1594,
      "優": 1595,
      "元": 1596,
      "先": 1597,
      "光": 1598,
      "克": 1599,
      "兒": 1600,
      "入": 1601,
      "八": 1602,
      "公": 1603,
      "共": 1604,
      "关": 1605,
      "兵": 1606,
      "内": 1607,
      "况": 1608,
      "净": 1609,
      "凍": 1610,
      "凰": 1611,
      "出": 1612,
      "刀": 1613,
      "则": 1614,
      "创": 1615,
      "初": 1616,
      "別": 1617,
      "利": 1618,
      "刻": 1619,
      "前": 1620,
      "劉": 1621,
      "劍": 1622,
      "力": 1623,
      "加": 1624,
      "勝": 1625,
      "勞": 1626,
      "勧": 1627,
      "化": 1628,
      "北": 1629,
      "区": 1630,
      "千": 1631,
      "半": 1632,
      "华": 1633,
      "协": 1634,
      "卓": 1635,
      "南": 1636,
      "博": 1637,
      "印": 1638,
      "原": 1639,
      "去": 1640,
      "县": 1641,
      "参": 1642,
      "又": 1643,
      "及": 1644,
      "友": 1645,
      "収": 1646,
      "发": 1647,
      "口": 1648,
      "古": 1649,
      "只": 1650,
      "可": 1651,
      "台": 1652,
      "史": 1653,
      "叶": 1654,
      "号": 1655,
      "合": 1656,
      "吉": 1657,
      "同": 1658,
      "名": 1659,
      "后": 1660,
      "向": 1661,
      "吕": 1662,
      "君": 1663,
      "含": 1664,
      "启": 1665,
      "吴": 1666,
      "员": 1667,
      "周": 1668,
      "和": 1669,
      "品": 1670,
      "哉": 1671,
      "員": 1672,
      "哲": 1673,
      "唐": 1674,
      "唱": 1675,
      "商": 1676,
      "啟": 1677,
      "善": 1678,
      "喔": 1679,
      "喜": 1680,
      "四": 1681,
      "回": 1682,
      "因": 1683,
      "固": 1684,
      "国": 1685,
      "图": 1686,
      "國": 1687,
      "圍": 1688,
      "圖": 1689,
      "土": 1690,
      "在": 1691,
      "地": 1692,
      "场": 1693,
      "址": 1694,
      "均": 1695,
      "坛": 1696,
      "坝": 1697,
      "坦": 1698,
      "城": 1699,
      "執": 1700,
      "基": 1701,
      "堂": 1702,
      "塘": 1703,
      "塞": 1704,
      "墓": 1705,
      "墨": 1706,
      "士": 1707,
      "壬": 1708,
      "壮": 1709,
      "売": 1710,
      "変": 1711,
      "夏": 1712,
      "外": 1713,
      "多": 1714,
      "夜": 1715,
      "夢": 1716,
      "大": 1717,
      "天": 1718,
      "太": 1719,
      "夫": 1720,
      "失": 1721,
      "奈": 1722,
      "奉": 1723,
      "奥": 1724,
      "女": 1725,
      "奴": 1726,
      "好": 1727,
      "如": 1728,
      "妇": 1729,
      "始": 1730,
      "委": 1731,
      "姿": 1732,
      "娃": 1733,
      "娱": 1734,
      "婆": 1735,
      "婷": 1736,
      "媒": 1737,
      "子": 1738,
      "存": 1739,
      "孝": 1740,
      "学": 1741,
      "孩": 1742,
      "孵": 1743,
      "學": 1744,
      "宇": 1745,
      "安": 1746,
      "宏": 1747,
      "官": 1748,
      "定": 1749,
      "宜": 1750,
      "实": 1751,
      "室": 1752,
      "宮": 1753,
      "容": 1754,
      "富": 1755,
      "實": 1756,
      "寨": 1757,
      "对": 1758,
      "寺": 1759,
      "寿": 1760,
      "専": 1761,
      "将": 1762,
      "將": 1763,
      "對": 1764,
      "導": 1765,
      "小": 1766,
      "少": 1767,
      "尔": 1768,
      "尚": 1769,
      "尤": 1770,
      "就": 1771,
      "屈": 1772,
      "屏": 1773,
      "展": 1774,
      "層": 1775,
      "山": 1776,
      "岛": 1777,
      "岡": 1778,
      "岳": 1779,
      "岸": 1780,
      "峡": 1781,
      "峰": 1782,
      "島": 1783,
      "崎": 1784,
      "巂": 1785,
      "川": 1786,
      "州": 1787,
      "工": 1788,
      "巨": 1789,
      "已": 1790,
      "巴": 1791,
      "市": 1792,
      "布": 1793,
      "希": 1794,
      "帝": 1795,
      "師": 1796,
      "帶": 1797,
      "常": 1798,
      "平": 1799,
      "年": 1800,
      "并": 1801,
      "幸": 1802,
      "幻": 1803,
      "底": 1804,
      "庙": 1805,
      "庫": 1806,
      "康": 1807,
      "延": 1808,
      "开": 1809,
      "式": 1810,
      "张": 1811,
      "張": 1812,
      "当": 1813,
      "彡": 1814,
      "影": 1815,
      "律": 1816,
      "徐": 1817,
      "得": 1818,
      "德": 1819,
      "心": 1820,
      "必": 1821,
      "志": 1822,
      "忘": 1823,
      "忠": 1824,
      "忧": 1825,
      "怒": 1826,
      "性": 1827,
      "息": 1828,
      "恵": 1829,
      "悖": 1830,
      "悠": 1831,
      "您": 1832,
      "情": 1833,
      "惠": 1834,
      "意": 1835,
      "愛": 1836,
      "感": 1837,
      "慰": 1838,
      "慶": 1839,
      "應": 1840,
      "成": 1841,
      "戦": 1842,
      "戰": 1843,
      "戴": 1844,
      "房": 1845,
      "所": 1846,
      "扇": 1847,
      "扉": 1848,
      "手": 1849,
      "才": 1850,
      "扎": 1851,
      "承": 1852,
      "技": 1853,
      "投": 1854,
      "折": 1855,
      "拉": 1856,
      "拓": 1857,
      "拔": 1858,
      "拢": 1859,
      "拼": 1860,
      "持": 1861,
      "指": 1862,
      "按": 1863,
      "捨": 1864,
      "掌": 1865,
      "排": 1866,
      "控": 1867,
      "推": 1868,
      "搞": 1869,
      "撃": 1870,
      "支": 1871,
      "放": 1872,
      "效": 1873,
      "教": 1874,
      "散": 1875,
      "敦": 1876,
      "敬": 1877,
      "文": 1878,
      "斗": 1879,
      "料": 1880,
      "新": 1881,
      "方": 1882,
      "旅": 1883,
      "旗": 1884,
      "既": 1885,
      "日": 1886,
      "旦": 1887,
      "早": 1888,
      "昌": 1889,
      "明": 1890,
      "易": 1891,
      "星": 1892,
      "昭": 1893,
      "是": 1894,
      "時": 1895,
      "晖": 1896,
      "晚": 1897,
      "暴": 1898,
      "曲": 1899,
      "書": 1900,
      "月": 1901,
      "有": 1902,
      "朗": 1903,
      "望": 1904,
      "期": 1905,
      "木": 1906,
      "未": 1907,
      "末": 1908,
      "本": 1909,
      "朱": 1910,
      "朴": 1911,
      "杀": 1912,
      "权": 1913,
      "李": 1914,
      "村": 1915,
      "来": 1916,
      "杨": 1917,
      "杭": 1918,
      "杯": 1919,
      "杰": 1920,
      "東": 1921,
      "松": 1922,
      "枕": 1923,
      "林": 1924,
      "果": 1925,
      "某": 1926,
      "査": 1927,
      "栖": 1928,
      "株": 1929,
      "样": 1930,
      "根": 1931,
      "格": 1932,
      "桂": 1933,
      "案": 1934,
      "档": 1935,
      "梅": 1936,
      "棄": 1937,
      "棋": 1938,
      "森": 1939,
      "楓": 1940,
      "楚": 1941,
      "業": 1942,
      "楼": 1943,
      "概": 1944,
      "樓": 1945,
      "横": 1946,
      "樹": 1947,
      "橋": 1948,
      "檔": 1949,
      "次": 1950,
      "欧": 1951,
      "歌": 1952,
      "止": 1953,
      "正": 1954,
      "武": 1955,
      "歩": 1956,
      "死": 1957,
      "母": 1958,
      "毛": 1959,
      "民": 1960,
      "氓": 1961,
      "気": 1962,
      "氛": 1963,
      "氣": 1964,
      "水": 1965,
      "求": 1966,
      "江": 1967,
      "池": 1968,
      "沉": 1969,
      "河": 1970,
      "沿": 1971,
      "泉": 1972,
      "法": 1973,
      "波": 1974,
      "泳": 1975,
      "洋": 1976,
      "洞": 1977,
      "津": 1978,
      "活": 1979,
      "派": 1980,
      "流": 1981,
      "浩": 1982,
      "浪": 1983,
      "海": 1984,
      "涌": 1985,
      "涨": 1986,
      "混": 1987,
      "清": 1988,
      "港": 1989,
      "游": 1990,
      "源": 1991,
      "潘": 1992,
      "潤": 1993,
      "潮": 1994,
      "澤": 1995,
      "濟": 1996,
      "瀬": 1997,
      "炎": 1998,
      "為": 1999,
      "烏": 2000,
      "然": 2001,
      "照": 2002,
      "熊": 2003,
      "爵": 2004,
      "版": 2005,
      "牌": 2006,
      "牙": 2007,
      "牧": 2008,
      "特": 2009,
      "状": 2010,
      "独": 2011,
      "猛": 2012,
      "猪": 2013,
      "獅": 2014,
      "獨": 2015,
      "玉": 2016,
      "王": 2017,
      "现": 2018,
      "班": 2019,
      "現": 2020,
      "球": 2021,
      "理": 2022,
      "生": 2023,
      "田": 2024,
      "由": 2025,
      "甲": 2026,
      "男": 2027,
      "町": 2028,
      "画": 2029,
      "界": 2030,
      "略": 2031,
      "番": 2032,
      "癸": 2033,
      "発": 2034,
      "白": 2035,
      "百": 2036,
      "的": 2037,
      "皮": 2038,
      "盈": 2039,
      "益": 2040,
      "盘": 2041,
      "盛": 2042,
      "監": 2043,
      "目": 2044,
      "相": 2045,
      "真": 2046,
      "着": 2047,
      "督": 2048,
      "瞥": 2049,
      "石": 2050,
      "研": 2051,
      "破": 2052,
      "硏": 2053,
      "碟": 2054,
      "碧": 2055,
      "碳": 2056,
      "社": 2057,
      "祐": 2058,
      "祖": 2059,
      "神": 2060,
      "票": 2061,
      "祭": 2062,
      "福": 2063,
      "私": 2064,
      "秋": 2065,
      "种": 2066,
      "科": 2067,
      "税": 2068,
      "稱": 2069,
      "稲": 2070,
      "穆": 2071,
      "穢": 2072,
      "究": 2073,
      "立": 2074,
      "竞": 2075,
      "章": 2076,
      "童": 2077,
      "端": 2078,
      "笙": 2079,
      "第": 2080,
      "等": 2081,
      "箸": 2082,
      "精": 2083,
      "系": 2084,
      "紀": 2085,
      "級": 2086,
      "紫": 2087,
      "細": 2088,
      "組": 2089,
      "統": 2090,
      "絵": 2091,
      "經": 2092,
      "綜": 2093,
      "綠": 2094,
      "維": 2095,
      "網": 2096,
      "緑": 2097,
      "縣": 2098,
      "績": 2099,
      "纂": 2100,
      "组": 2101,
      "经": 2102,
      "编": 2103,
      "缺": 2104,
      "网": 2105,
      "羊": 2106,
      "美": 2107,
      "羞": 2108,
      "群": 2109,
      "羽": 2110,
      "習": 2111,
      "翠": 2112,
      "翼": 2113,
      "耀": 2114,
      "老": 2115,
      "而": 2116,
      "耕": 2117,
      "耳": 2118,
      "职": 2119,
      "聖": 2120,
      "聞": 2121,
      "肇": 2122,
      "肯": 2123,
      "背": 2124,
      "胜": 2125,
      "腐": 2126,
      "膎": 2127,
      "膩": 2128,
      "自": 2129,
      "興": 2130,
      "良": 2131,
      "色": 2132,
      "芒": 2133,
      "芦": 2134,
      "花": 2135,
      "芳": 2136,
      "芹": 2137,
      "苏": 2138,
      "苑": 2139,
      "若": 2140,
      "苦": 2141,
      "英": 2142,
      "苼": 2143,
      "茒": 2144,
      "茦": 2145,
      "茩": 2146,
      "茶": 2147,
      "草": 2148,
      "莲": 2149,
      "莹": 2150,
      "菜": 2151,
      "華": 2152,
      "萍": 2153,
      "落": 2154,
      "葉": 2155,
      "著": 2156,
      "蒙": 2157,
      "蓳": 2158,
      "蓷": 2159,
      "蔡": 2160,
      "蕴": 2161,
      "薮": 2162,
      "藍": 2163,
      "藏": 2164,
      "藤": 2165,
      "藩": 2166,
      "蘆": 2167,
      "蘇": 2168,
      "虎": 2169,
      "蝦": 2170,
      "蝶": 2171,
      "衆": 2172,
      "行": 2173,
      "術": 2174,
      "街": 2175,
      "表": 2176,
      "被": 2177,
      "裕": 2178,
      "襲": 2179,
      "西": 2180,
      "要": 2181,
      "見": 2182,
      "規": 2183,
      "覺": 2184,
      "解": 2185,
      "觸": 2186,
      "言": 2187,
      "計": 2188,
      "記": 2189,
      "評": 2190,
      "詞": 2191,
      "語": 2192,
      "誠": 2193,
      "談": 2194,
      "論": 2195,
      "諾": 2196,
      "謝": 2197,
      "議": 2198,
      "讀": 2199,
      "论": 2200,
      "诗": 2201,
      "话": 2202,
      "语": 2203,
      "课": 2204,
      "谢": 2205,
      "谷": 2206,
      "豆": 2207,
      "象": 2208,
      "豬": 2209,
      "貙": 2210,
      "財": 2211,
      "貴": 2212,
      "賢": 2213,
      "質": 2214,
      "賴": 2215,
      "贝": 2216,
      "财": 2217,
      "贵": 2218,
      "赤": 2219,
      "起": 2220,
      "超": 2221,
      "越": 2222,
      "足": 2223,
      "路": 2224,
      "蹤": 2225,
      "蹴": 2226,
      "身": 2227,
      "軍": 2228,
      "輔": 2229,
      "輸": 2230,
      "边": 2231,
      "达": 2232,
      "这": 2233,
      "迟": 2234,
      "迫": 2235,
      "追": 2236,
      "退": 2237,
      "通": 2238,
      "逝": 2239,
      "連": 2240,
      "週": 2241,
      "進": 2242,
      "道": 2243,
      "達": 2244,
      "遠": 2245,
      "選": 2246,
      "邓": 2247,
      "那": 2248,
      "邱": 2249,
      "郎": 2250,
      "部": 2251,
      "郭": 2252,
      "都": 2253,
      "鄉": 2254,
      "鄭": 2255,
      "里": 2256,
      "重": 2257,
      "野": 2258,
      "金": 2259,
      "鈥": 2260,
      "鈧": 2261,
      "鈴": 2262,
      "銀": 2263,
      "銳": 2264,
      "铮": 2265,
      "银": 2266,
      "镇": 2267,
      "長": 2268,
      "閉": 2269,
      "開": 2270,
      "閏": 2271,
      "閱": 2272,
      "问": 2273,
      "阳": 2274,
      "阿": 2275,
      "附": 2276,
      "际": 2277,
      "陈": 2278,
      "院": 2279,
      "陰": 2280,
      "陳": 2281,
      "陽": 2282,
      "階": 2283,
      "随": 2284,
      "隐": 2285,
      "際": 2286,
      "障": 2287,
      "隼": 2288,
      "难": 2289,
      "雁": 2290,
      "雄": 2291,
      "雅": 2292,
      "集": 2293,
      "雪": 2294,
      "雲": 2295,
      "雷": 2296,
      "電": 2297,
      "霞": 2298,
      "霸": 2299,
      "青": 2300,
      "非": 2301,
      "面": 2302,
      "革": 2303,
      "鞠": 2304,
      "韓": 2305,
      "韩": 2306,
      "音": 2307,
      "項": 2308,
      "須": 2309,
      "頭": 2310,
      "颖": 2311,
      "题": 2312,
      "風": 2313,
      "风": 2314,
      "飛": 2315,
      "飲": 2316,
      "餐": 2317,
      "館": 2318,
      "饶": 2319,
      "首": 2320,
      "香": 2321,
      "馬": 2322,
      "駒": 2323,
      "马": 2324,
      "高": 2325,
      "魔": 2326,
      "魚": 2327,
      "鲁": 2328,
      "鹽": 2329,
      "麟": 2330,
      "麻": 2331,
      "黃": 2332,
      "黄": 2333,
      "黯": 2334,
      "龍": 2335,
      "龙": 2336,
      "ꀸ": 2337,
      "ꁱ": 2338,
      "ꂦ": 2339,
      "ꂷ": 2340,
      "ꆈ": 2341,
      "ꈤ": 2342,
      "ꋪ": 2343,
      "ꌗ": 2344,
      "ꌠ": 2345,
      "ꌩ": 2346,
      "ꍟ": 2347,
      "꒒": 2348,
      "ꜣ": 2349,
      "ꜥ": 2350,
      "ꜰ": 2351,
      "Ʝ": 2352,
      "가": 2353,
      "간": 2354,
      "감": 2355,
      "걸": 2356,
      "격": 2357,
      "계": 2358,
      "고": 2359,
      "공": 2360,
      "과": 2361,
      "괴": 2362,
      "구": 2363,
      "국": 2364,
      "그": 2365,
      "금": 2366,
      "기": 2367,
      "길": 2368,
      "나": 2369,
      "남": 2370,
      "낭": 2371,
      "넘": 2372,
      "네": 2373,
      "녀": 2374,
      "년": 2375,
      "노": 2376,
      "농": 2377,
      "는": 2378,
      "니": 2379,
      "다": 2380,
      "닥": 2381,
      "단": 2382,
      "당": 2383,
      "대": 2384,
      "도": 2385,
      "동": 2386,
      "드": 2387,
      "들": 2388,
      "디": 2389,
      "떠": 2390,
      "떤": 2391,
      "란": 2392,
      "람": 2393,
      "랑": 2394,
      "래": 2395,
      "랜": 2396,
      "러": 2397,
      "로": 2398,
      "르": 2399,
      "른": 2400,
      "를": 2401,
      "리": 2402,
      "릭": 2403,
      "린": 2404,
      "마": 2405,
      "만": 2406,
      "맨": 2407,
      "먼": 2408,
      "명": 2409,
      "무": 2410,
      "문": 2411,
      "미": 2412,
      "민": 2413,
      "박": 2414,
      "밖": 2415,
      "반": 2416,
      "방": 2417,
      "배": 2418,
      "버": 2419,
      "범": 2420,
      "벙": 2421,
      "별": 2422,
      "보": 2423,
      "봉": 2424,
      "부": 2425,
      "비": 2426,
      "사": 2427,
      "산": 2428,
      "살": 2429,
      "상": 2430,
      "새": 2431,
      "서": 2432,
      "성": 2433,
      "세": 2434,
      "셜": 2435,
      "소": 2436,
      "송": 2437,
      "쇄": 2438,
      "수": 2439,
      "순": 2440,
      "스": 2441,
      "습": 2442,
      "시": 2443,
      "식": 2444,
      "신": 2445,
      "쌈": 2446,
      "아": 2447,
      "안": 2448,
      "알": 2449,
      "았": 2450,
      "양": 2451,
      "어": 2452,
      "없": 2453,
      "에": 2454,
      "여": 2455,
      "연": 2456,
      "열": 2457,
      "영": 2458,
      "오": 2459,
      "올": 2460,
      "와": 2461,
      "외": 2462,
      "우": 2463,
      "워": 2464,
      "원": 2465,
      "윌": 2466,
      "유": 2467,
      "융": 2468,
      "은": 2469,
      "을": 2470,
      "음": 2471,
      "의": 2472,
      "이": 2473,
      "인": 2474,
      "있": 2475,
      "자": 2476,
      "잡": 2477,
      "장": 2478,
      "재": 2479,
      "저": 2480,
      "전": 2481,
      "절": 2482,
      "정": 2483,
      "조": 2484,
      "족": 2485,
      "죄": 2486,
      "주": 2487,
      "죽": 2488,
      "지": 2489,
      "진": 2490,
      "창": 2491,
      "축": 2492,
      "치": 2493,
      "캐": 2494,
      "코": 2495,
      "콩": 2496,
      "크": 2497,
      "탐": 2498,
      "터": 2499,
      "틴": 2500,
      "패": 2501,
      "퍼": 2502,
      "포": 2503,
      "피": 2504,
      "하": 2505,
      "학": 2506,
      "한": 2507,
      "해": 2508,
      "홍": 2509,
      "화": 2510,
      "활": 2511,
      "회": 2512,
      "훈": 2513,
      "": 2514,
      "": 2515,
      "": 2516,
      "": 2517,
      "ﭘ": 2518,
      "ﮑ": 2519,
      "ﯾ": 2520,
      "ﯿ": 2521,
      "﴾": 2522,
      "﴿": 2523,
      "ﷺ": 2524,
      "️": 2525,
      "︱": 2526,
      "ﺀ": 2527,
      "ﺃ": 2528,
      "ﺆ": 2529,
      "ﺇ": 2530,
      "ﺋ": 2531,
      "ﺍ": 2532,
      "ﺎ": 2533,
      "ﺏ": 2534,
      "ﺐ": 2535,
      "ﺑ": 2536,
      "ﺒ": 2537,
      "ﺓ": 2538,
      "ﺔ": 2539,
      "ﺕ": 2540,
      "ﺖ": 2541,
      "ﺗ": 2542,
      "ﺘ": 2543,
      "ﺛ": 2544,
      "ﺜ": 2545,
      "ﺝ": 2546,
      "ﺟ": 2547,
      "ﺠ": 2548,
      "ﺣ": 2549,
      "ﺤ": 2550,
      "ﺧ": 2551,
      "ﺨ": 2552,
      "ﺩ": 2553,
      "ﺪ": 2554,
      "ﺭ": 2555,
      "ﺮ": 2556,
      "ﺯ": 2557,
      "ﺰ": 2558,
      "ﺱ": 2559,
      "ﺲ": 2560,
      "ﺳ": 2561,
      "ﺴ": 2562,
      "ﺷ": 2563,
      "ﺸ": 2564,
      "ﺺ": 2565,
      "ﺻ": 2566,
      "ﺼ": 2567,
      "ﻀ": 2568,
      "ﻃ": 2569,
      "ﻄ": 2570,
      "ﻉ": 2571,
      "ﻋ": 2572,
      "ﻌ": 2573,
      "ﻏ": 2574,
      "ﻐ": 2575,
      "ﻓ": 2576,
      "ﻔ": 2577,
      "ﻖ": 2578,
      "ﻗ": 2579,
      "ﻘ": 2580,
      "ﻛ": 2581,
      "ﻜ": 2582,
      "ﻝ": 2583,
      "ﻞ": 2584,
      "ﻟ": 2585,
      "ﻠ": 2586,
      "ﻢ": 2587,
      "ﻣ": 2588,
      "ﻤ": 2589,
      "ﻥ": 2590,
      "ﻦ": 2591,
      "ﻧ": 2592,
      "ﻨ": 2593,
      "ﻩ": 2594,
      "ﻪ": 2595,
      "ﻫ": 2596,
      "ﻬ": 2597,
      "ﻭ": 2598,
      "ﻮ": 2599,
      "ﻯ": 2600,
      "ﻰ": 2601,
      "ﻱ": 2602,
      "ﻲ": 2603,
      "ﻳ": 2604,
      "ﻴ": 2605,
      "ﻷ": 2606,
      "ﻹ": 2607,
      "ﻼ": 2608,
      "﻿": 2609,
      "！": 2610,
      "（": 2611,
      "）": 2612,
      "，": 2613,
      "：": 2614,
      "？": 2615,
      "＿": 2616,
      "｜": 2617,
      "￣": 2618,
      "￼": 2619,
      "�": 2620,
      "𐎠": 2621,
      "𐎡": 2622,
      "𐎧": 2623,
      "𐎫": 2624,
      "𐎱": 2625,
      "𐎲": 2626,
      "𐎼": 2627,
      "𐎿": 2628,
      "𐏁": 2629,
      "𐞋": 2630,
      "𐤀": 2631,
      "𐤁": 2632,
      "𐤃": 2633,
      "𐤊": 2634,
      "𐤋": 2635,
      "𐤍": 2636,
      "𐤏": 2637,
      "𐤔": 2638,
      "𐬁": 2639,
      "𐬌": 2640,
      "𐬑": 2641,
      "𐬜": 2642,
      "𐬠": 2643,
      "𐭠": 2644,
      "𐭡": 2645,
      "𐭧": 2646,
      "𐭫": 2647,
      "𓅓": 2648,
      "𓊖": 2649,
      "𓏌": 2650,
      "𖧵": 2651,
      "𝐀": 2652,
      "𝐃": 2653,
      "𝐇": 2654,
      "𝐈": 2655,
      "𝐌": 2656,
      "𝐑": 2657,
      "𝐒": 2658,
      "𝐚": 2659,
      "𝐛": 2660,
      "𝐝": 2661,
      "𝐞": 2662,
      "𝐠": 2663,
      "𝐢": 2664,
      "𝐥": 2665,
      "𝐧": 2666,
      "𝐫": 2667,
      "𝐬": 2668,
      "𝐭": 2669,
      "𝐲": 2670,
      "𝑒": 2671,
      "𝑜": 2672,
      "𝒂": 2673,
      "𝒄": 2674,
      "𝒆": 2675,
      "𝒉": 2676,
      "𝒊": 2677,
      "𝒏": 2678,
      "𝒔": 2679,
      "𝒗": 2680,
      "𝒘": 2681,
      "𝒢": 2682,
      "𝒮": 2683,
      "𝒹": 2684,
      "𝒽": 2685,
      "𝓇": 2686,
      "𝓐": 2687,
      "𝓑": 2688,
      "𝓒": 2689,
      "𝓓": 2690,
      "𝓖": 2691,
      "𝓛": 2692,
      "𝓤": 2693,
      "𝓪": 2694,
      "𝓫": 2695,
      "𝓮": 2696,
      "𝓲": 2697,
      "𝓵": 2698,
      "𝓷": 2699,
      "𝓽": 2700,
      "𝓿": 2701,
      "𝔂": 2702,
      "𝔍": 2703,
      "𝔞": 2704,
      "𝔠": 2705,
      "𝔢": 2706,
      "𝔤": 2707,
      "𝔦": 2708,
      "𝔪": 2709,
      "𝔫": 2710,
      "𝔭": 2711,
      "𝔯": 2712,
      "𝔰": 2713,
      "𝔶": 2714,
      "𝔸": 2715,
      "𝔻": 2716,
      "𝔼": 2717,
      "𝔽": 2718,
      "𝔾": 2719,
      "𝕀": 2720,
      "𝕋": 2721,
      "𝕰": 2722,
      "𝕽": 2723,
      "𝖆": 2724,
      "𝖉": 2725,
      "𝖑": 2726,
      "𝖒": 2727,
      "𝖔": 2728,
      "𝗲": 2729,
      "𝗹": 2730,
      "𝗼": 2731,
      "𝘃": 2732,
      "𝘆": 2733,
      "𝙴": 2734,
      "𝙷": 2735,
      "𝙺": 2736,
      "𝙾": 2737,
      "𝚊": 2738,
      "𝚎": 2739,
      "𝚒": 2740,
      "𝚗": 2741,
      "𝚛": 2742,
      "𝚝": 2743,
      "𝚞": 2744,
      "𝚬": 2745,
      "𝞆": 2746,
      "𝼆": 2747,
      "𞠁": 2748,
      "𞠂": 2749,
      "🄰": 2750,
      "🄲": 2751,
      "🄴": 2752,
      "🄺": 2753,
      "🄽": 2754,
      "🄾": 2755,
      "🄿": 2756,
      "🅐": 2757,
      "🅒": 2758,
      "🅓": 2759,
      "🅔": 2760,
      "🅕": 2761,
      "🅖": 2762,
      "🅗": 2763,
      "🅘": 2764,
      "🅛": 2765,
      "🅜": 2766,
      "🅝": 2767,
      "🅞": 2768,
      "🅡": 2769,
      "🅢": 2770,
      "🅣": 2771,
      "🅤": 2772,
      "🅷": 2773,
      "🆂": 2774,
      "🆄": 2775,
      "🇩": 2776,
      "🇬": 2777,
      "🇱": 2778,
      "🇳": 2779,
      "🇾": 2780,
      "🇿": 2781,
      "🉺": 2782,
      "🌐": 2783,
      "🏆": 2784,
      "👇": 2785,
      "💞": 2786,
      "📝": 2787,
      "🖉": 2788,
      "😁": 2789,
      "😂": 2790,
      "😅": 2791,
      "😠": 2792,
      "😭": 2793,
      "🙂": 2794,
      "🙊": 2795,
      "🠀": 2796,
      "🤔": 2797,
      "🦠": 2798,
      "▁n": 2799,
      "an": 2800,
      "▁d": 2801,
      "▁t": 2802,
      "▁a": 2803,
      "▁s": 2804,
      "▁m": 2805,
      "▁w": 2806,
      "in": 2807,
      "▁k": 2808,
      "ar": 2809,
      "er": 2810,
      "▁b": 2811,
      "▁f": 2812,
      "on": 2813,
      "or": 2814,
      "▁l": 2815,
      "ọ́": 2816,
      "▁p": 2817,
      "▁g": 2818,
      "▁y": 2819,
      "at": 2820,
      ".\n": 2821,
      "▁o": 2822,
      "▁na": 2823,
      "▁i": 2824,
      "un": 2825,
      "ẹ̀": 2826,
      "▁,": 2827,
      "▁à": 2828,
      "▁ọ": 2829,
      "ẹ́": 2830,
      "20": 2831,
      "▁r": 2832,
      "▁c": 2833,
      "en": 2834,
      "ọn": 2835,
      "▁h": 2836,
      "gb": 2837,
      "al": 2838,
      "▁di": 2839,
      "▁da": 2840,
      "▁.\n": 2841,
      "▁A": 2842,
      "ti": 2843,
      "ur": 2844,
      "▁e": 2845,
      "▁S": 2846,
      "as": 2847,
      "▁ì": 2848,
      "▁N": 2849,
      "▁M": 2850,
      "▁ní": 2851,
      "ey": 2852,
      "ay": 2853,
      "es": 2854,
      "t;": 2855,
      "ọ̀": 2856,
      "am": 2857,
      "▁an": 2858,
      "wọn": 2859,
      "▁20": 2860,
      "ke": 2861,
      "he": 2862,
      "▁j": 2863,
      "wa": 2864,
      "em": 2865,
      "id": 2866,
      "▁J": 2867,
      "om": 2868,
      "it": 2869,
      "▁ṣ": 2870,
      "▁ya": 2871,
      "▁tí": 2872,
      "▁B": 2873,
      "▁D": 2874,
      "▁O": 2875,
      "▁for": 2876,
      "th": 2877,
      "▁àwọn": 2878,
      "ún": 2879,
      "▁T": 2880,
      "ka": 2881,
      "▁I": 2882,
      "is": 2883,
      "▁ń": 2884,
      "ee": 2885,
      "àn": 2886,
      "ir": 2887,
      "▁tó": 2888,
      "ad": 2889,
      "▁gb": 2890,
      "ch": 2891,
      "ber": 2892,
      "ig": 2893,
      "ara": 2894,
      "il": 2895,
      "ọ́n": 2896,
      "ol": 2897,
      "▁ma": 2898,
      "ce": 2899,
      "▁ta": 2900,
      "▁pé": 2901,
      "▁K": 2902,
      "▁to": 2903,
      "ta": 2904,
      "ion": 2905,
      "us": 2906,
      "▁1": 2907,
      "▁F": 2908,
      "dị": 2909,
      "ia": 2910,
      "▁2020": 2911,
      "▁ṣe": 2912,
      "el": 2913,
      "▁wey": 2914,
      "ra": 2915,
      "▁dey": 2916,
      "▁C": 2917,
      "▁lá": 2918,
      "▁ni": 2919,
      "▁ti": 2920,
      "▁ha": 2921,
      "▁sí": 2922,
      "re": 2923,
      "ere": 2924,
      "ide": 2925,
      "▁ó": 2926,
      "ma": 2927,
      "▁sì": 2928,
      "ation": 2929,
      "ut": 2930,
      "qu": 2931,
      "▁Ọ": 2932,
      "▁P": 2933,
      "▁na-": 2934,
      "▁on": 2935,
      "kw": 2936,
      "▁3": 2937,
      "▁in": 2938,
      "ent": 2939,
      "▁n’": 2940,
      "ab": 2941,
      "ya": 2942,
      "▁2": 2943,
      "▁and": 2944,
      "▁ka": 2945,
      "▁W": 2946,
      "me": 2947,
      "▁má": 2948,
      "ct": 2949,
      "ik": 2950,
      "os": 2951,
      "▁è": 2952,
      "▁G": 2953,
      "▁E": 2954,
      "▁ndị": 2955,
      "ep": 2956,
      "▁L": 2957,
      "▁of": 2958,
      "et": 2959,
      "o,": 2960,
      "▁wọ́n": 2961,
      "▁bụ": 2962,
      "▁don": 2963,
      "▁ò": 2964,
      "da": 2965,
      "ye": 2966,
      "ow": 2967,
      "áà": 2968,
      "▁máa": 2969,
      "▁fi": 2970,
      "quo": 2971,
      "quot;": 2972,
      "&quot;": 2973,
      "▁V": 2974,
      "▁ẹ": 2975,
      "▁ga": 2976,
      "▁H": 2977,
      "▁-": 2978,
      "▁bá": 2979,
      "gt;": 2980,
      "&gt;": 2981,
      "▁ọ̀": 2982,
      "lt;": 2983,
      "&lt;": 2984,
      "ov": 2985,
      "ic": 2986,
      "▁ụ": 2987,
      "iger": 2988,
      "ember": 2989,
      "lẹ̀": 2990,
      "▁kan": 2991,
      "ing": 2992,
      "▁fún": 2993,
      "le": 2994,
      "▁201": 2995,
      "▁Niger": 2996,
      "ìn": 2997,
      "gh": 2998,
      "▁.": 2999,
      "▁“": 3000,
      "▁sh": 3001,
      "ot": 3002,
      "gbà": 3003,
      "▁al": 3004,
      "▁wọn": 3005,
      "▁kí": 3006,
      "▁Vide": 3007,
      "hụ": 3008,
      "▁Video,": 3009,
      "▁jẹ́": 3010,
      "▁rẹ̀": 3011,
      "▁náà": 3012,
      "ate": 3013,
      "ref": 3014,
      "▁ló": 3015,
      "▁z": 3016,
      "rụ": 3017,
      "ìí": 3018,
      "▁ihe": 3019,
      "ùn": 3020,
      "jú": 3021,
      "bo": 3022,
      "rí": 3023,
      "▁Sep": 3024,
      "bi": 3025,
      "▁Sept": 3026,
      "we": 3027,
      "ana": 3028,
      "▁wa": 3029,
      "▁September": 3030,
      "▁dem": 3031,
      "ba": 3032,
      "▁àti": 3033,
      "▁R": 3034,
      "▁any": 3035,
      "kan": 3036,
      "▁”": 3037,
      "ga": 3038,
      "nú": 3039,
      "▁(": 3040,
      "ni": 3041,
      "▁Nigeria": 3042,
      "?\n": 3043,
      "▁láti": 3044,
      "▁:": 3045,
      "▁fr": 3046,
      "ed": 3047,
      "▁ahụ": 3048,
      "ul": 3049,
      "▁ẹ̀": 3050,
      "▁Dur": 3051,
      "▁Duration": 3052,
      "ter": 3053,
      "▁say": 3054,
      "run": 3055,
      "▁dis": 3056,
      "iy": 3057,
      "▁bí": 3058,
      "▁st": 3059,
      "hun": 3060,
      "ip": 3061,
      "ge": 3062,
      "▁An": 3063,
      "lọ́": 3064,
      "ober": 3065,
      "▁\"": 3066,
      "▁lè": 3067,
      "pa": 3068,
      "ref&gt;": 3069,
      "orí": 3070,
      "ou": 3071,
      "▁À": 3072,
      "▁Oct": 3073,
      "▁October": 3074,
      "la": 3075,
      "yàn": 3076,
      "▁sọ": 3077,
      "▁dị": 3078,
      "um": 3079,
      "gbo": 3080,
      "▁be": 3081,
      "▁ba": 3082,
      "▁U": 3083,
      "▁ku": 3084,
      "▁kò": 3085,
      "mọ": 3086,
      "▁ị": 3087,
      "▁as": 3088,
      "▁kw": 3089,
      "▁com": 3090,
      "op": 3091,
      "▁de": 3092,
      "ikin": 3093,
      "ri": 3094,
      "▁?\n": 3095,
      "▁wà": 3096,
      "hi": 3097,
      "▁'": 3098,
      "▁nke": 3099,
      "▁we": 3100,
      "ci": 3101,
      "our": 3102,
      "▁anyị": 3103,
      "▁ban": 3104,
      "▁im": 3105,
      "ata": 3106,
      "án": 3107,
      "▁su": 3108,
      "▁Y": 3109,
      "▁wá": 3110,
      "▁nínú": 3111,
      "ine": 3112,
      "▁go": 3113,
      "nd": 3114,
      "kọ": 3115,
      "lọ́run": 3116,
      "▁wan": 3117,
      "▁ga-": 3118,
      "▁from": 3119,
      "▁ohun": 3120,
      "▁Ọlọ́run": 3121,
      "iv": 3122,
      "▁nw": 3123,
      "zi": 3124,
      "▁Ì": 3125,
      "ghị": 3126,
      "sa": 3127,
      "AR": 3128,
      "eet": 3129,
      "st": 3130,
      "rin": 3131,
      "kwa": 3132,
      "▁am": 3133,
      "and": 3134,
      "fà": 3135,
      "lú": 3136,
      "li": 3137,
      "lé": 3138,
      "ARS": 3139,
      "▁kuma": 3140,
      "uru": 3141,
      "ṣẹ́": 3142,
      "▁u": 3143,
      "ass": 3144,
      "▁Ní": 3145,
      "ist": 3146,
      "kp": 3147,
      "▁mi": 3148,
      "kar": 3149,
      "▁bo": 3150,
      "res": 3151,
      "rọ̀": 3152,
      "iri": 3153,
      "▁lọ": 3154,
      "▁”\n": 3155,
      "▁fa": 3156,
      "kwu": 3157,
      "ai": 3158,
      "pp": 3159,
      "▁ọmọ": 3160,
      "22": 3161,
      "▁re": 3162,
      "be": 3163,
      "zọ": 3164,
      "▁ne": 3165,
      "&lt;/": 3166,
      "ice": 3167,
      "wọ́": 3168,
      "▁Meet": 3169,
      "ro": 3170,
      "óò": 3171,
      "bí": 3172,
      "▁ƙ": 3173,
      "▁ìw": 3174,
      "tion": 3175,
      "all": 3176,
      "de": 3177,
      "▁cikin": 3178,
      "ort": 3179,
      "▁con": 3180,
      "▁ch": 3181,
      "▁ab": 3182,
      "jọ": 3183,
      "▁lọ́": 3184,
      "ori": 3185,
      ",0": 3186,
      "▁aka": 3187,
      "lì": 3188,
      "▁rí": 3189,
      "▁wit": 3190,
      "are": 3191,
      "yé": 3192,
      "tụ": 3193,
      "▁3:": 3194,
      "for": 3195,
      "yí": 3196,
      "ers": 3197,
      "▁Ch": 3198,
      "▁dá": 3199,
      "ari": 3200,
      "mọ́": 3201,
      "▁19": 3202,
      "fe": 3203,
      "und": 3204,
      "hó": 3205,
      "▁v": 3206,
      "ell": 3207,
      "▁yìí": 3208,
      "▁mm": 3209,
      "▁she": 3210,
      "▁no": 3211,
      "do": 3212,
      "21": 3213,
      "▁Jè": 3214,
      "▁Jèhó": 3215,
      "▁Jèhófà": 3216,
      "èyàn": 3217,
      "ji": 3218,
      "▁kó": 3219,
      "ín": 3220,
      "▁ot": 3221,
      "▁gbo": 3222,
      "ag": 3223,
      "a,": 3224,
      "est": 3225,
      "di": 3226,
      "tí": 3227,
      "▁mú": 3228,
      "rị": 3229,
      "▁th": 3230,
      "▁In": 3231,
      "▁onye": 3232,
      "▁gbogbo": 3233,
      "&lt;/ref&gt;": 3234,
      "ama": 3235,
      "iya": 3236,
      "lọ": 3237,
      "▁n'": 3238,
      "SARS": 3239,
      "use": 3240,
      "▁Bí": 3241,
      "ly": 3242,
      "▁sa": 3243,
      "▁was": 3244,
      "▁Ẹ": 3245,
      "hu": 3246,
      "▁lo": 3247,
      "ụrụ": 3248,
      "úr": 3249,
      "tic": 3250,
      "▁tá": 3251,
      "▁come": 3252,
      "▁en": 3253,
      "etin": 3254,
      "mi": 3255,
      "▁2018": 3256,
      "war": 3257,
      "▁sun": 3258,
      "ko": 3259,
      "▁fit": 3260,
      "▁me": 3261,
      "ẹn": 3262,
      "yìn": 3263,
      "▁pass": 3264,
      "▁ká": 3265,
      "▁ins": 3266,
      "uwa": 3267,
      "ipo": 3268,
      "si": 3269,
      "wo": 3270,
      "olice": 3271,
      "sí": 3272,
      "▁pipo": 3273,
      "▁af": 3274,
      "▁2:": 3275,
      "▁ar": 3276,
      "▁inside": 3277,
      "uk": 3278,
      "ans": 3279,
      "▁yi": 3280,
      "▁yóò": 3281,
      "ọr": 3282,
      "cin": 3283,
      "nì": 3284,
      "▁kas": 3285,
      "▁make": 3286,
      "▁ce": 3287,
      "ala": 3288,
      "any": 3289,
      "gbe": 3290,
      "che": 3291,
      "torí": 3292,
      "àá": 3293,
      "ung": 3294,
      "ost": 3295,
      "ani": 3296,
      "bu": 3297,
      "ck": 3298,
      "ẹ́ẹ̀": 3299,
      "▁mo": 3300,
      "▁èèyàn": 3301,
      "▁la": 3302,
      "gw": 3303,
      "sù": 3304,
      "ance": 3305,
      "▁Ma": 3306,
      "so": 3307,
      "▁nípa": 3308,
      "ie": 3309,
      "▁ọk": 3310,
      "pọ̀": 3311,
      "▁one": 3312,
      "▁pl": 3313,
      "ike": 3314,
      "rol": 3315,
      "▁pat": 3316,
      "kin": 3317,
      "▁un": 3318,
      "▁mat": 3319,
      "na": 3320,
      "▁ke": 3321,
      "▁so": 3322,
      "▁bu": 3323,
      "▁face": 3324,
      "fin": 3325,
      "▁ji": 3326,
      "eh": 3327,
      "yà": 3328,
      "tà": 3329,
      "bé": 3330,
      "jọ́": 3331,
      "▁mọ́": 3332,
      "igh": 3333,
      "▁you": 3334,
      "▁)": 3335,
      "ther": 3336,
      "▁cont": 3337,
      "ha": 3338,
      "▁mí": 3339,
      "▁ol": 3340,
      "▁wat": 3341,
      "mụ": 3342,
      "▁oda": 3343,
      "ill": 3344,
      "▁Ó": 3345,
      "▁abo": 3346,
      "▁Na": 3347,
      "▁ike": 3348,
      "▁ara": 3349,
      "chị": 3350,
      "&lt;ref&gt;": 3351,
      "▁patrol": 3352,
      "ates": 3353,
      "ec": 3354,
      "▁pa": 3355,
      "=&quot;": 3356,
      "▁í": 3357,
      "▁gbé": 3358,
      "▁daga": 3359,
      "▁4": 3360,
      "▁2019": 3361,
      "▁mai": 3362,
      "▁fot": 3363,
      "fi": 3364,
      "▁á": 3365,
      "▁Àwọn": 3366,
      "\",": 3367,
      "ite": 3368,
      "▁do": 3369,
      "ọrọ": 3370,
      "▁si": 3371,
      "ary": 3372,
      "hy": 3373,
      "▁bay": 3374,
      "ova": 3375,
      "ug": 3376,
      "▁rẹ": 3377,
      "ọ̀n": 3378,
      "adụ": 3379,
      "▁FSARS": 3380,
      "ile": 3381,
      "ud": 3382,
      "▁Jeh": 3383,
      "ịa": 3384,
      "▁gbà": 3385,
      "▁Af": 3386,
      "ràn": 3387,
      "▁dia": 3388,
      "▁her": 3389,
      "▁eme": 3390,
      "▁ẹni": 3391,
      "▁about": 3392,
      "dún": 3393,
      "ayin": 3394,
      "tọ́": 3395,
      "▁Jehova": 3396,
      "ki": 3397,
      "▁nígbà": 3398,
      "▁hour": 3399,
      "mí": 3400,
      "4th": 3401,
      "▁fẹ́": 3402,
      "iyar": 3403,
      "kọ́": 3404,
      "jì": 3405,
      "▁yan": 3406,
      "00": 3407,
      "▁mmadụ": 3408,
      "lá": 3409,
      "wit": 3410,
      "ors": 3411,
      "ụọ": 3412,
      "▁ìd": 3413,
      "nu": 3414,
      "ṣe": 3415,
      "rú": 3416,
      "ust": 3417,
      "▁mas": 3418,
      "hel": 3419,
      "▁See": 3420,
      "▁—": 3421,
      "▁ayé": 3422,
      "im": 3423,
      "dè": 3424,
      "lẹ́": 3425,
      "▁iṣẹ́": 3426,
      "ear": 3427,
      "wan": 3428,
      "▁lẹ́": 3429,
      "▁at": 3430,
      "od": 3431,
      "▁kar": 3432,
      "kò": 3433,
      "rò": 3434,
      "▁nwere": 3435,
      "pe": 3436,
      "witter": 3437,
      "▁mere": 3438,
      "▁Di": 3439,
      "▁tà": 3440,
      "▁content": 3441,
      "▁gị": 3442,
      "pụ": 3443,
      "▁bẹ́ẹ̀": 3444,
      "▁Jé": 3445,
      "▁lé": 3446,
      "ǹkan": 3447,
      "▁post": 3448,
      "bụ": 3449,
      "▁ebe": 3450,
      "yere": 3451,
      "nan": 3452,
      "▁content_": 3453,
      "▁hours": 3454,
      "▁May": 3455,
      "▁ko": 3456,
      "ess": 3457,
      "▁take": 3458,
      "▁3,0": 3459,
      "▁how": 3460,
      "gba": 3461,
      "aba": 3462,
      "▁pẹ̀": 3463,
      "▁or": 3464,
      "▁3:0": 3465,
      "gbọ́n": 3466,
      "bẹ̀": 3467,
      "▁Ṣ": 3468,
      "▁Ug": 3469,
      "ome": 3470,
      "urn": 3471,
      "fa": 3472,
      "▁well": 3473,
      "▁shi": 3474,
      "dụ": 3475,
      "te": 3476,
      "▁nǹkan": 3477,
      "▁5": 3478,
      "ash": 3479,
      "2nd": 3480,
      "bélì": 3481,
      "▁sam": 3482,
      "▁Bíbélì": 3483,
      "go": 3484,
      "▁kọ": 3485,
      "ní": 3486,
      "ru": 3487,
      "▁gom": 3488,
      "▁lórí": 3489,
      "▁tún": 3490,
      "ịrị": 3491,
      "▁Am": 3492,
      "▁Jésù": 3493,
      "▁End": 3494,
      "ity": 3495,
      "▁pẹ̀lú": 3496,
      "▁otu": 3497,
      "ath": 3498,
      "ric": 3499,
      "uh": 3500,
      "iki": 3501,
      "helli": 3502,
      "▁Ughelli": 3503,
      "▁gba": 3504,
      "▁name": 3505,
      "▁2,": 3506,
      "aya": 3507,
      "▁orí": 3508,
      "ris": 3509,
      "lù": 3510,
      "anar": 3511,
      "▁app": 3512,
      "▁ilẹ̀": 3513,
      "▁Fund": 3514,
      "mọ̀": 3515,
      "▁èyí": 3516,
      "▁kwuru": 3517,
      "▁kì": 3518,
      "8th": 3519,
      "▁How": 3520,
      "ry": 3521,
      "ress": 3522,
      "▁Twitter": 3523,
      "▁post,": 3524,
      "▁with": 3525,
      "ian": 3526,
      "▁ọ̀rọ̀": 3527,
      "oro": 3528,
      "▁obi": 3529,
      "kó": 3530,
      "▁Wetin": 3531,
      "▁tàbí": 3532,
      "nà": 3533,
      "ineke": 3534,
      "▁ɗ": 3535,
      "▁‘": 3536,
      "▁Chineke": 3537,
      "art": 3538,
      "▁wanda": 3539,
      "▁goment": 3540,
      "▁yín": 3541,
      "▁òun": 3542,
      "▁tori": 3543,
      "▁anya": 3544,
      "dọ̀": 3545,
      "▁3,": 3546,
      "▁wom": 3547,
      "▁lọ́wọ́": 3548,
      "ment": 3549,
      "▁ìgbà": 3550,
      "▁the": 3551,
      "yin": 3552,
      "▁&quot;": 3553,
      "rẹ̀": 3554,
      "ant": 3555,
      "▁nítorí": 3556,
      "▁*": 3557,
      "zu": 3558,
      "▁St": 3559,
      "ve": 3560,
      "ájú": 3561,
      "je": 3562,
      "▁get": 3563,
      "form": 3564,
      "s,": 3565,
      "ction": 3566,
      "▁le": 3567,
      "asa": 3568,
      "▁ime": 3569,
      "resid": 3570,
      "▁mats": 3571,
      "son": 3572,
      "kwụ": 3573,
      "▁ọn": 3574,
      "0th": 3575,
      "bọ": 3576,
      "ali": 3577,
      "ja": 3578,
      "arin": 3579,
      "kú": 3580,
      "▁bin": 3581,
      "▁Ọ̀": 3582,
      "▁ụmụ": 3583,
      "▁gbọ́": 3584,
      "▁za": 3585,
      "5th": 3586,
      "▁Kí": 3587,
      "▁ro": 3588,
      "▁kọ́": 3589,
      "▁ìy": 3590,
      "ool": 3591,
      "ive": 3592,
      "▁ex": 3593,
      "ure": 3594,
      "▁police": 3595,
      "ku": 3596,
      "▁thing": 3597,
      "way": 3598,
      "▁mgbe": 3599,
      "lu": 3600,
      "▁way": 3601,
      "▁shekar": 3602,
      "&lt;ref": 3603,
      "eed": 3604,
      "▁ts": 3605,
      "cha": 3606,
      "ME": 3607,
      "wó": 3608,
      "▁far": 3609,
      "kọ̀": 3610,
      "▁ará": 3611,
      "ára": 3612,
      "▁Jos": 3613,
      "rd": 3614,
      "▁aga": 3615,
      "▁È": 3616,
      "▁ụlọ": 3617,
      "gbé": 3618,
      "gin": 3619,
      "ùnrin": 3620,
      "▁otú": 3621,
      "urv": 3622,
      "▁gan": 3623,
      "gun": 3624,
      "▁sị": 3625,
      "▁name=&quot;": 3626,
      "cc": 3627,
      "▁Al": 3628,
      "▁sab": 3629,
      "▁ọzọ": 3630,
      "▁call": 3631,
      "uel": 3632,
      "▁De": 3633,
      "▁wee": 3634,
      "▁Nígbà": 3635,
      "rè": 3636,
      "kàn": 3637,
      "ange": 3638,
      "gbu": 3639,
      "ove": 3640,
      "▁àp": 3641,
      "kụ": 3642,
      "▁ad": 3643,
      "ze": 3644,
      "bá": 3645,
      "ast": 3646,
      "▁nì": 3647,
      "&lt;ref&gt;&lt;/ref&gt;": 3648,
      "dy": 3649,
      "▁ọdún": 3650,
      "▁dé": 3651,
      "3rd": 3652,
      "▁èdè": 3653,
      "▁ezi": 3654,
      "▁ilé": 3655,
      "06": 3656,
      "ival": 3657,
      "ony": 3658,
      "▁alá": 3659,
      "▁lára": 3660,
      "▁Surv": 3661,
      "▁zuwa": 3662,
      "una": 3663,
      "▁[": 3664,
      "▁my": 3665,
      "▁MS": 3666,
      "▁Gh": 3667,
      "ne": 3668,
      "▁’": 3669,
      "wé": 3670,
      "ban": 3671,
      "▁Survival": 3672,
      "▁niile": 3673,
      "kì": 3674,
      "▁MSME": 3675,
      "other": 3676,
      "▁apply": 3677,
      "up": 3678,
      "fect": 3679,
      "ach": 3680,
      "man": 3681,
      "cial": 3682,
      "▁ru": 3683,
      "kara": 3684,
      "▁agb": 3685,
      "▁Ji": 3686,
      "▁sha": 3687,
      "▁Tori": 3688,
      "edia": 3689,
      "▁Ghana": 3690,
      "▁já": 3691,
      "&quot;&gt;": 3692,
      "▁ele": 3693,
      "nìyàn": 3694,
      "▁mata": 3695,
      "sìn": 3696,
      "ver": 3697,
      "▁Z": 3698,
      "▁mọ̀": 3699,
      "ok": 3700,
      "▁;": 3701,
      "▁Ya": 3702,
      "▁ef": 3703,
      "▁ra": 3704,
      "oung": 3705,
      "▁he": 3706,
      "formate": 3707,
      "▁mọ": 3708,
      "▁gw": 3709,
      "▁suka": 3710,
      "end": 3711,
      "tical": 3712,
      "rùn": 3713,
      "ight": 3714,
      "gẹ́": 3715,
      "▁Another": 3716,
      "▁woman": 3717,
      "wu": 3718,
      "mù": 3719,
      "▁ìṣ": 3720,
      "1st": 3721,
      "ran": 3722,
      "tara": 3723,
      "▁change": 3724,
      "▁kp": 3725,
      "se": 3726,
      "▁kam": 3727,
      "▁foto": 3728,
      "kè": 3729,
      "là": 3730,
      "▁Police": 3731,
      "ọọ": 3732,
      "▁Informate": 3733,
      "fẹ́": 3734,
      "▁Top": 3735,
      "▁\"I": 3736,
      "▁6": 3737,
      "▁bẹ̀": 3738,
      "▁matsayin": 3739,
      "19": 3740,
      "ue": 3741,
      "▁need": 3742,
      "▁pà": 3743,
      "ute": 3744,
      "▁inú": 3745,
      "▁wo": 3746,
      "▁hàn": 3747,
      "▁young": 3748,
      "▁up": 3749,
      "▁wí": 3750,
      "ore": 3751,
      "▁Mar": 3752,
      "sọ": 3753,
      "resident": 3754,
      "pá": 3755,
      "▁maka": 3756,
      "▁Kan": 3757,
      "▁why": 3758,
      "▁isi": 3759,
      "over": 3760,
      "▁ènìyàn": 3761,
      "▁ìwé": 3762,
      "mes": 3763,
      "lò": 3764,
      "'a": 3765,
      "▁Mo": 3766,
      "ather": 3767,
      "28th": 3768,
      "yan": 3769,
      "▁wetin": 3770,
      "sì": 3771,
      "▁masu": 3772,
      "▁yana": 3773,
      "▁Le": 3774,
      "63": 3775,
      "▁ìp": 3776,
      "▁ìjọ": 3777,
      "25th": 3778,
      "body": 3779,
      "▁turn": 3780,
      "▁year": 3781,
      "▁Ndị": 3782,
      "▁yẹ": 3783,
      "ads": 3784,
      "▁Ha": 3785,
      "rẹ́": 3786,
      "chool": 3787,
      "▁Wia": 3788,
      "▁yẹn": 3789,
      "▁nọ": 3790,
      "▁bó": 3791,
      "▁FG": 3792,
      "ane": 3793,
      "tì": 3794,
      "▁from,": 3795,
      "▁tare": 3796,
      "outh": 3797,
      "ada": 3798,
      "medi": 3799,
      "▁oní": 3800,
      "▁media": 3801,
      "▁wor": 3802,
      "▁N’": 3803,
      "▁Ba": 3804,
      "jà": 3805,
      "▁immedi": 3806,
      "▁effect": 3807,
      "i,": 3808,
      "▁pe": 3809,
      "dé": 3810,
      "▁buy": 3811,
      "▁nwa": 3812,
      "▁squ": 3813,
      "▁bụrụ": 3814,
      "▁cewa": 3815,
      "▁mẹ́": 3816,
      "▁immediate": 3817,
      "ọ̀rọ̀": 3818,
      "▁ọjọ́": 3819,
      "▁boil": 3820,
      "Na": 3821,
      "▁Ò": 3822,
      "yar": 3823,
      "ina": 3824,
      "▁Joshu": 3825,
      "thony": 3826,
      "12": 3827,
      "ators": 3828,
      "▁ọrụ": 3829,
      "▁Ol": 3830,
      "▁dà": 3831,
      "yè": 3832,
      "▁ihi": 3833,
      "ctical": 3834,
      "▁mé": 3835,
      "▁Mike": 3836,
      "port": 3837,
      "▁Ar": 3838,
      "▁box": 3839,
      "▁reg": 3840,
      "▁tactical": 3841,
      "▁squads": 3842,
      "ang": 3843,
      "ways": 3844,
      "▁Bá": 3845,
      "old": 3846,
      "▁fuel": 3847,
      "▁iche": 3848,
      "▁Ty": 3849,
      "▁ọ̀nà": 3850,
      "uit": 3851,
      "▁loka": 3852,
      "kwọ": 3853,
      "ouse": 3854,
      "amp": 3855,
      "▁kill": 3856,
      "ap": 3857,
      "▁afọ": 3858,
      "▁tú": 3859,
      "zọs": 3860,
      "rẹ": 3861,
      "▁states": 3862,
      "▁2017": 3863,
      "▁Jizọs": 3864,
      "ùgbọ́n": 3865,
      "▁anybody": 3866,
      "▁ozi": 3867,
      "▁36": 3868,
      "▁BB": 3869,
      "▁2,0": 3870,
      "ond": 3871,
      "▁always": 3872,
      "nov": 3873,
      "▁har": 3874,
      "▁love": 3875,
      "ins": 3876,
      "ẹni": 3877,
      "▁Anthony": 3878,
      "▁watch": 3879,
      "fore": 3880,
      "kun": 3881,
      "ase": 3882,
      "ótọ́": 3883,
      "▁mut": 3884,
      "▁SARS": 3885,
      "▁Tyson": 3886,
      "tọ̀": 3887,
      "▁fruit": 3888,
      "▁tẹ̀": 3889,
      "rù": 3890,
      "▁ṣà": 3891,
      "novators": 3892,
      "now": 3893,
      "jẹ́": 3894,
      "weather": 3895,
      "eb": 3896,
      "▁face,": 3897,
      "▁Mayweather": 3898,
      "▁Joshua,": 3899,
      "▁7": 3900,
      "▁ojú": 3901,
      "dí": 3902,
      "sh": 3903,
      "▁innovators": 3904,
      "52nd": 3905,
      "630th": 3906,
      "av": 3907,
      "▁3:05": 3908,
      "▁3:21": 3909,
      "▁2,22": 3910,
      "▁3,21": 3911,
      "▁2:22": 3912,
      "▁2:06": 3913,
      "▁Afric": 3914,
      "▁2,2225th": 3915,
      "▁3,2128th": 3916,
      "▁3,052nd": 3917,
      "▁2,0630th": 3918,
      "▁ci": 3919,
      "▁On": 3920,
      "agos": 3921,
      "▁san": 3922,
      "▁Jun": 3923,
      "▁Nigerian": 3924,
      "ami": 3925,
      "▁\"Na": 3926,
      "▁jẹ": 3927,
      "astic": 3928,
      "kwụkwọ": 3929,
      "rist": 3930,
      "lo": 3931,
      "▁tok": 3932,
      "tụtụ": 3933,
      "▁8": 3934,
      "kà": 3935,
      "▁school": 3936,
      "▁mu": 3937,
      "▁waste": 3938,
      "ẹ́gẹ́": 3939,
      "▁Lagos": 3940,
      "▁dress": 3941,
      "▁pé,": 3942,
      "anu": 3943,
      "▁ala": 3944,
      "▁plastic": 3945,
      "ose": 3946,
      "ff": 3947,
      "ub": 3948,
      "ily": 3949,
      "uhari": 3950,
      "ero": 3951,
      "▁boxing": 3952,
      "▁oge": 3953,
      "▁200": 3954,
      "úrò": 3955,
      "▁pọ̀": 3956,
      "▁tr": 3957,
      "▁okwu": 3958,
      "▁rout": 3959,
      "▁shekara": 3960,
      "s4th": 3961,
      "▁sílẹ̀": 3962,
      "▁routine": 3963,
      "▁fuel,": 3964,
      "▁Tyson,": 3965,
      "▁patrols4th": 3966,
      "▁about1st": 3967,
      "▁fruit\",": 3968,
      "▁boxing\",": 3969,
      "aban": 3970,
      "▁vs": 3971,
      "▁wani": 3972,
      "▁before": 3973,
      "▁Àmọ́": 3974,
      "bìn": 3975,
      "▁ọ̀pọ̀": 3976,
      "fọ": 3977,
      "tt": 3978,
      "ida": 3979,
      "u,": 3980,
      "▁social": 3981,
      "15": 3982,
      "▁Is": 3983,
      "ww": 3984,
      "▁fara": 3985,
      "▁Buhari": 3986,
      "bìnrin": 3987,
      "isi": 3988,
      "13": 3989,
      "▁times": 3990,
      "6th": 3991,
      "▁bụ́": 3992,
      "ont": 3993,
      "ọ́ọ̀": 3994,
      "unt": 3995,
      "▁ụzọ": 3996,
      "▁fam": 3997,
      "▁res": 3998,
      "▁irú": 3999,
      "ration": 4000,
      "atar": 4001,
      "▁16": 4002,
      "ira": 4003,
      "▁ibi": 4004,
      "og": 4005,
      "▁ọkàn": 4006,
      "▁pr": 4007,
      "dì": 4008,
      "ak": 4009,
      "ish": 4010,
      "▁foto,": 4011,
      "kwara": 4012,
      "▁bẹ̀rẹ̀": 4013,
      "ong": 4014,
      "▁ag": 4015,
      "▁ké": 4016,
      "tò": 4017,
      "▁read": 4018,
      "▁Krist": 4019,
      "▁dí": 4020,
      "rìí": 4021,
      "▁bi": 4022,
      "▁ìdí": 4023,
      "▁Kristẹni": 4024,
      "▁Tr": 4025,
      "▁comot": 4026,
      "gwu": 4027,
      "yi": 4028,
      "▁suna": 4029,
      "▁gr": 4030,
      "▁te": 4031,
      "èrè": 4032,
      "▁some": 4033,
      "▁10": 4034,
      "▁watan": 4035,
      "ashin": 4036,
      "▁/": 4037,
      "dá": 4038,
      "wụ": 4039,
      "▁unu": 4040,
      "▁wasan": 4041,
      "▁Ne": 4042,
      "▁jù": 4043,
      "tu": 4044,
      "ttp": 4045,
      "//": 4046,
      "▁family": 4047,
      "kọ̀ọ́": 4048,
      "▁kúrò": 4049,
      "adu": 4050,
      "bù": 4051,
      "▁iri": 4052,
      "tọ": 4053,
      "://": 4054,
      "▁afta": 4055,
      "▁ìr": 4056,
      "▁sá": 4057,
      "adà": 4058,
      "ational": 4059,
      "▁!": 4060,
      "▁but": 4061,
      "▁President": 4062,
      "one": 4063,
      "ise": 4064,
      "▁ṣè": 4065,
      "▁yí": 4066,
      "▁biy": 4067,
      "▁ìt": 4068,
      "▁shekarar": 4069,
      "▁tẹ́": 4070,
      "▁ìlú": 4071,
      "▁lokacin": 4072,
      "istration": 4073,
      "▁9": 4074,
      "▁Í": 4075,
      "jin": 4076,
      "kpe": 4077,
      "dà": 4078,
      "urú": 4079,
      "eri": 4080,
      "▁EndSARS": 4081,
      "▁tsa": 4082,
      "▁bayan": 4083,
      "▁sọ̀rọ̀": 4084,
      "▁abụọ": 4085,
      "já": 4086,
      "▁adị": 4087,
      "▁bus": 4088,
      "du": 4089,
      "▁ìwà": 4090,
      "kù": 4091,
      "▁boy": 4092,
      "asar": 4093,
      "ho": 4094,
      "▁se": 4095,
      "▁ranar": 4096,
      "▁gẹ́gẹ́": 4097,
      "hùn": 4098,
      "▁Wọ́n": 4099,
      "ṣẹ̀": 4100,
      "ló": 4101,
      "▁election": 4102,
      "ayo": 4103,
      "pò": 4104,
      "gbẹ́": 4105,
      "▁kwes": 4106,
      "ick": 4107,
      "▁gir": 4108,
      "ké": 4109,
      "mu": 4110,
      "ẹẹ": 4111,
      "ld": 4112,
      "▁ọma": 4113,
      "ṣẹ": 4114,
      "fí": 4115,
      "wájú": 4116,
      "▁Sk": 4117,
      "▁ana": 4118,
      "▁port": 4119,
      "▁new": 4120,
      "▁èmi": 4121,
      "▁fir": 4122,
      "▁ṣẹ": 4123,
      "▁Ab": 4124,
      "ause": 4125,
      "▁orílẹ̀": 4126,
      "kẹ́": 4127,
      "kpa": 4128,
      "▁táwọn": 4129,
      "▁iya": 4130,
      "iga": 4131,
      "ár": 4132,
      "▁bec": 4133,
      "http": 4134,
      "sẹ̀": 4135,
      "▁Ihe": 4136,
      "▁ìwọ": 4137,
      "▁là": 4138,
      "▁ju": 4139,
      "▁registration": 4140,
      "anta": 4141,
      "▁mee": 4142,
      "kùnrin": 4143,
      "▁op": 4144,
      "▁jọ": 4145,
      "gha": 4146,
      "▁Nítorí": 4147,
      "▁bà": 4148,
      "▁jáde": 4149,
      "▁wò": 4150,
      "▁onwe": 4151,
      "▁Skip": 4152,
      "ẹ̀ẹ́": 4153,
      "▁mal": 4154,
      "▁BBC": 4155,
      "iness": 4156,
      "arị": 4157,
      "\"\"": 4158,
      ".c": 4159,
      "▁law": 4160,
      "▁wannan": 4161,
      "▁ọba": 4162,
      "wà": 4163,
      "ame": 4164,
      "▁portal": 4165,
      "wò": 4166,
      "yìí": 4167,
      "▁ìyẹn": 4168,
      "▁3:01": 4169,
      "▁Har": 4170,
      "▁rere": 4171,
      "▁min": 4172,
      "har": 4173,
      "▁ọtụtụ": 4174,
      "ola": 4175,
      "▁inter": 4176,
      "to": 4177,
      "▁Jul": 4178,
      "anda": 4179,
      "ilẹ̀": 4180,
      "chi": 4181,
      "▁step": 4182,
      "amb": 4183,
      "jir": 4184,
      "▁Á": 4185,
      "own": 4186,
      "land": 4187,
      "▁Ad": 4188,
      "▁Olú": 4189,
      "▁state": 4190,
      "za": 4191,
      "▁ẹ̀mí": 4192,
      "▁dance": 4193,
      "gbọ́": 4194,
      "▁win": 4195,
      "▁oló": 4196,
      "▁han": 4197,
      "ence": 4198,
      "anyị": 4199,
      "úró": 4200,
      "▁all": 4201,
      "overn": 4202,
      "▁Ẹlẹ́": 4203,
      "ọ́nà": 4204,
      "sp": 4205,
      "jer": 4206,
      "▁Lá": 4207,
      "rín": 4208,
      "▁ọ́": 4209,
      "▁tal": 4210,
      "ians": 4211,
      "ele": 4212,
      "pụta": 4213,
      "dọ́": 4214,
      "ign": 4215,
      "▁Q": 4216,
      "▁18": 4217,
      "enti": 4218,
      "lí": 4219,
      "▁business": 4220,
      "),": 4221,
      "▁Aug": 4222,
      "▁supp": 4223,
      "su": 4224,
      "ty": 4225,
      "▁àtà": 4226,
      "▁Abu": 4227,
      "▁mba": 4228,
      "jo": 4229,
      "ita": 4230,
      "ife": 4231,
      "ard": 4232,
      "▁Ka": 4233,
      "▁heat": 4234,
      "ord": 4235,
      "anin": 4236,
      "ople": 4237,
      "ump": 4238,
      "eeti": 4239,
      "▁kasance": 4240,
      "▁Cam": 4241,
      "▁Ta": 4242,
      "▁die": 4243,
      "▁August": 4244,
      "▁tọ́": 4245,
      "jẹ": 4246,
      "▁ƙar": 4247,
      "▁lẹ́yìn": 4248,
      "▁cute": 4249,
      "▁Ụ": 4250,
      "▁house": 4251,
      "▁steps,": 4252,
      "123rd": 4253,
      "▁3,0123rd": 4254,
      "▁atụ": 4255,
      "▁trans": 4256,
      "▁Jo": 4257,
      "▁Olúwa": 4258,
      "▁ìfẹ́": 4259,
      "▁lójú": 4260,
      "ẹẹrẹ": 4261,
      "▁ìgbé": 4262,
      "pr": 4263,
      "▁iji": 4264,
      "▁ati": 4265,
      "tàkì": 4266,
      "▁Da": 4267,
      "bà": 4268,
      "▁Ẹ̀": 4269,
      "17": 4270,
      "▁ná": 4271,
      "eroon": 4272,
      "▁is": 4273,
      "day": 4274,
      "▁ndụ": 4275,
      "bodo": 4276,
      "ven": 4277,
      "uniya": 4278,
      "▁199": 4279,
      "ungiyar": 4280,
      "▁happ": 4281,
      "▁aiki": 4282,
      "▁mma": 4283,
      "▁àì": 4284,
      "▁Dem": 4285,
      "▁co": 4286,
      "▁As": 4287,
      "ult": 4288,
      "▁sin": 4289,
      "▁akwụkwọ": 4290,
      "▁akụ": 4291,
      "▁]": 4292,
      "▁15": 4293,
      "osi": 4294,
      "▁bab": 4295,
      "\"\n": 4296,
      "yẹn": 4297,
      "ọ́ọ̀lù": 4298,
      "▁know": 4299,
      "ánì": 4300,
      "okwu": 4301,
      "▁títí": 4302,
      "fani": 4303,
      "▁àkó": 4304,
      "aye": 4305,
      "ourt": 4306,
      "▁She": 4307,
      "▁work": 4308,
      "ró": 4309,
      "▁like": 4310,
      "▁cl": 4311,
      "▁kú": 4312,
      "▁sabi": 4313,
      "jí": 4314,
      "ote": 4315,
      "iew": 4316,
      "▁ńlá": 4317,
      "▁July": 4318,
      "▁ay": 4319,
      "▁pàtàkì": 4320,
      "bọ̀": 4321,
      "mar": 4322,
      "▁lò": 4323,
      "▁er": 4324,
      "▁years": 4325,
      "&lt;/ref&gt;\n": 4326,
      "ẹ́yìn": 4327,
      "gi": 4328,
      "er,": 4329,
      "bọchị": 4330,
      "adi": 4331,
      "sè": 4332,
      "fọdụ": 4333,
      "alin": 4334,
      "▁enwe": 4335,
      "gbè": 4336,
      "▁Cameroon": 4337,
      "▁kwesịrị": 4338,
      "oda": 4339,
      "▁só": 4340,
      "▁June": 4341,
      "té": 4342,
      "asị": 4343,
      "▁pro": 4344,
      "▁mon": 4345,
      "▁&lt;ref": 4346,
      "anuary": 4347,
      "bụl": 4348,
      "▁mar": 4349,
      "▁For": 4350,
      "▁àtàwọn": 4351,
      "ịn": 4352,
      "▁Sa": 4353,
      "▁fin": 4354,
      "úrà": 4355,
      "▁pè": 4356,
      "▁hany": 4357,
      "▁January": 4358,
      "tá": 4359,
      "▁Min": 4360,
      "risti": 4361,
      "▁Olee": 4362,
      "▁The": 4363,
      "nin": 4364,
      "▁12": 4365,
      "▁give": 4366,
      "▁bụla": 4367,
      "▁farko": 4368,
      "cts": 4369,
      "irus": 4370,
      "▁ọkùnrin": 4371,
      "usa": 4372,
      "▁fo": 4373,
      "ayi": 4374,
      "andid": 4375,
      "pl": 4376,
      "▁biyu": 4377,
      "▁ekw": 4378,
      "kon": 4379,
      "▁’\n": 4380,
      "▁mkp": 4381,
      "▁Ẹlẹ́rìí": 4382,
      "▁rán": 4383,
      "16th": 4384,
      "aka": 4385,
      "▁wọ̀n": 4386,
      "ham": 4387,
      "▁bíi": 4388,
      "àní": 4389,
      "aija": 4390,
      "▁Baị": 4391,
      "▁Baịbụl": 4392,
      "▁Onye": 4393,
      "▁zama": 4394,
      "▁mus": 4395,
      "mú": 4396,
      "▁amfani": 4397,
      "▁!\n": 4398,
      "jeriya": 4399,
      "▁olù": 4400,
      "▁New": 4401,
      "▁dịka": 4402,
      "zụ": 4403,
      ".com": 4404,
      "iss": 4405,
      "▁Nov": 4406,
      "▁gh": 4407,
      "▁ṣẹlẹ̀": 4408,
      "▁'yan": 4409,
      "▁kont": 4410,
      "▁nwe": 4411,
      "kí": 4412,
      "▁Dis": 4413,
      "▁State": 4414,
      "▁ọnụ": 4415,
      "▁transport": 4416,
      "▁nakwa": 4417,
      "▁aṣ": 4418,
      "ṣù": 4419,
      "▁candid": 4420,
      "▁steeti": 4421,
      "ayan": 4422,
      "▁hand": 4423,
      "▁tell": 4424,
      "ement": 4425,
      "▁kwa": 4426,
      "▁méjì": 4427,
      "oke": 4428,
      "▁aha": 4429,
      "▁people": 4430,
      "ale": 4431,
      "▁jí": 4432,
      ").": 4433,
      "▁Feb": 4434,
      "▁gaba": 4435,
      "▁Bo": 4436,
      "ll": 4437,
      "òro": 4438,
      "ister": 4439,
      "▁àkókò": 4440,
      "▁wasu": 4441,
      "mer": 4442,
      "▁play": 4443,
      "idi": 4444,
      "▁Tí": 4445,
      "▁obodo": 4446,
      "ela": 4447,
      "rà": 4448,
      "ram": 4449,
      "ré": 4450,
      "▁November": 4451,
      "▁Mgbe": 4452,
      "hip": 4453,
      "amp;": 4454,
      "no": 4455,
      "▁míì": 4456,
      "oron": 4457,
      "sá": 4458,
      "alẹ̀": 4459,
      "▁Má": 4460,
      "▁àwa": 4461,
      "ṣà": 4462,
      "46": 4463,
      "ruary": 4464,
      ".&lt;ref": 4465,
      "esin": 4466,
      "▁Africa": 4467,
      "38": 4468,
      "▁Ohun": 4469,
      "▁transportation": 4470,
      "10": 4471,
      "s://": 4472,
      "iyan": 4473,
      "▁yin": 4474,
      "▁first": 4475,
      "gún": 4476,
      "▁use": 4477,
      "▁Funds": 4478,
      "oll": 4479,
      "▁tins": 4480,
      "▁ụwa": 4481,
      "▁February": 4482,
      "view": 4483,
      "▁business2nd": 4484,
      "56": 4485,
      "▁Re": 4486,
      "▁Jer": 4487,
      "▁padà": 4488,
      "▁n'i": 4489,
      "jen": 4490,
      "▁akp": 4491,
      "▁mímọ́": 4492,
      "ges": 4493,
      "tẹ́": 4494,
      "úkọ": 4495,
      "oma": 4496,
      "uo": 4497,
      "▁Nigerians": 4498,
      "▁ṣùgbọ́n": 4499,
      "▁kọ̀": 4500,
      "alis": 4501,
      "&lt;ref&gt;&lt;/ref&gt;\n": 4502,
      "if": 4503,
      "bin": 4504,
      "▁kai": 4505,
      "wọ̀n": 4506,
      "▁atọ": 4507,
      "rì": 4508,
      "▁sec": 4509,
      "ìíràn": 4510,
      "▁dúró": 4511,
      "▁dan": 4512,
      "▁ogun": 4513,
      "▁abụ": 4514,
      "mp": 4515,
      "▁Jam": 4516,
      "▁banyere": 4517,
      "yàwó": 4518,
      "▁Ughelli?\n": 4519,
      "fẹ̀ẹ́": 4520,
      "cy": 4521,
      "▁nt": 4522,
      "▁ɗan": 4523,
      "▁àpẹẹrẹ": 4524,
      "▁mìíràn": 4525,
      "ree": 4526,
      "uwar": 4527,
      "ces": 4528,
      "▁open": 4529,
      "gbọ": 4530,
      "▁Dec": 4531,
      "kún": 4532,
      "ib": 4533,
      "▁March": 4534,
      "utar": 4535,
      "▁La": 4536,
      "con": 4537,
      "fo": 4538,
      "annan": 4539,
      "gọ́": 4540,
      "▁Najeriya": 4541,
      "ura": 4542,
      "▁Ísí": 4543,
      "▁top": 4544,
      "▁ụbọchị": 4545,
      "▁inda": 4546,
      "▁Un": 4547,
      "▁off": 4548,
      "uka": 4549,
      "▁Ìwé": 4550,
      "▁Naị": 4551,
      "rẹ́lì": 4552,
      "▁kẹ́": 4553,
      "ami'": 4554,
      "tan": 4555,
      "umar": 4556,
      "▁par": 4557,
      "▁show": 4558,
      "▁?": 4559,
      "▁wh": 4560,
      "&amp;": 4561,
      "▁duk": 4562,
      "gùn": 4563,
      "▁lat": 4564,
      "▁Ísírẹ́lì": 4565,
      "▁ìdá": 4566,
      "▁sake": 4567,
      "▁ṣeé": 4568,
      "▁ṣí": 4569,
      ",000": 4570,
      "yị": 4571,
      "eral": 4572,
      "ctor": 4573,
      "▁Com": 4574,
      "▁your": 4575,
      "▁gud": 4576,
      "▁nyere": 4577,
      "antar": 4578,
      "▁orúkọ": 4579,
      "▁agha": 4580,
      "▁gu": 4581,
      "va": 4582,
      "▁Pọ́ọ̀lù": 4583,
      "▁ọwọ́": 4584,
      "▁December": 4585,
      "▁Youth": 4586,
      "▁àmọ́": 4587,
      "ire": 4588,
      "▁ake": 4589,
      "ɗa": 4590,
      "▁short": 4591,
      "▁ụfọdụ": 4592,
      "20th": 4593,
      "onú": 4594,
      "him": 4595,
      "jụ": 4596,
      "irin": 4597,
      "WA": 4598,
      "òótọ́": 4599,
      "https://": 4600,
      "kùn": 4601,
      "dúrà": 4602,
      "▁nwaanyị": 4603,
      "orship": 4604,
      "▁èrò": 4605,
      "▁ekwu": 4606,
      "▁14": 4607,
      "omin": 4608,
      "nat": 4609,
      "tin": 4610,
      "▁Sí": 4611,
      "▁shug": 4612,
      "▁Th": 4613,
      "▁2020.\n": 4614,
      "▁gwara": 4615,
      "▁hanyar": 4616,
      "pril": 4617,
      "fààní": 4618,
      "zo": 4619,
      "▁yà": 4620,
      "jò": 4621,
      "▁chọrọ": 4622,
      "▁elu": 4623,
      "▁yawa": 4624,
      "▁Tó": 4625,
      "▁Ìjọ": 4626,
      "ụta": 4627,
      "ǹfààní": 4628,
      "▁ẹnì": 4629,
      "emi": 4630,
      "▁gbọ́dọ̀": 4631,
      "▁Bó": 4632,
      "▁báyìí": 4633,
      "▁many": 4634,
      "11": 4635,
      "▁Inv": 4636,
      "▁=": 4637,
      "▁two": 4638,
      "▁Lagos,": 4639,
      "▁Air": 4640,
      "▁April": 4641,
      "▁Kristi": 4642,
      "▁Naịjir": 4643,
      "▁acc": 4644,
      "▁ọchị": 4645,
      "▁kún": 4646,
      "▁ìdílé": 4647,
      "▁man": 4648,
      "▁are": 4649,
      "▁Why": 4650,
      "▁now": 4651,
      "▁Kò": 4652,
      "▁Ị": 4653,
      "▁#": 4654,
      "ụtara": 4655,
      "bò": 4656,
      "▁kontri": 4657,
      "▁17": 4658,
      "▁rẹ̀,": 4659,
      "les": 4660,
      "▁out": 4661,
      "▁gwam": 4662,
      "▁candidates": 4663,
      "jalis": 4664,
      "▁làwọn": 4665,
      "uri": 4666,
      "▁interview": 4667,
      "ula": 4668,
      "▁Báwo": 4669,
      "▁anọ": 4670,
      "ká": 4671,
      "”\n": 4672,
      "▁Man": 4673,
      "▁Sh": 4674,
      "▁11": 4675,
      "▁Fa": 4676,
      "irka": 4677,
      "▁wọ̀nyí": 4678,
      "▁nso": 4679,
      "ous": 4680,
      "span": 4681,
      "▁Em": 4682,
      "ev": 4683,
      "▁ụmụn": 4684,
      "oin": 4685,
      "▁níbẹ̀": 4686,
      "ovn": 4687,
      "▁ẹ̀yin": 4688,
      "pẹ́": 4689,
      "avirus": 4690,
      "▁13": 4691,
      "▁also": 4692,
      "▁En": 4693,
      "iṣẹ́": 4694,
      "▁if": 4695,
      "▁eji": 4696,
      "▁láì": 4697,
      "▁/&gt;": 4698,
      "inu": 4699,
      "wọ̀": 4700,
      "▁aikin": 4701,
      "yana": 4702,
      "▁yó": 4703,
      ".com/": 4704,
      "erc": 4705,
      "oc": 4706,
      "tack": 4707,
      ".\"\n": 4708,
      "asara": 4709,
      "▁Fr": 4710,
      "títọ́": 4711,
      "▁again": 4712,
      "▁Trump": 4713,
      "▁dùn": 4714,
      "tù": 4715,
      "▁Mí": 4716,
      "PC": 4717,
      "▁ronú": 4718,
      "▁ẹ̀kọ́": 4719,
      "▁abin": 4720,
      "oyin": 4721,
      "▁kamar": 4722,
      "ations": 4723,
      "▁ama": 4724,
      "▁obìnrin": 4725,
      "ẹli": 4726,
      "ties": 4727,
      "▁part": 4728,
      "▁see": 4729,
      "▁mak": 4730,
      "oli": 4731,
      "▁Qu": 4732,
      "▁gab": 4733,
      "▁torí": 4734,
      "▁Edo": 4735,
      "ịnị": 4736,
      "▁ach": 4737,
      "▁Ju": 4738,
      "▁tin": 4739,
      "orld": 4740,
      "hie": 4741,
      "ukan": 4742,
      "wá": 4743,
      "▁nwoke": 4744,
      "w.": 4745,
      "oronavirus": 4746,
      "list": 4747,
      "▁omi": 4748,
      "▁kafa": 4749,
      "▁agba": 4750,
      "▁owó": 4751,
      "min": 4752,
      "au": 4753,
      "▁zam": 4754,
      "▁àní": 4755,
      "▁esi": 4756,
      "▁huk": 4757,
      "▁kà": 4758,
      "▁Ṣùgbọ́n": 4759,
      "▁na-a": 4760,
      "▁No": 4761,
      "idgin": 4762,
      "hìn": 4763,
      "▁by": 4764,
      "▁Ti": 4765,
      "din": 4766,
      "▁time": 4767,
      "ior": 4768,
      "▁arụ": 4769,
      "▁girl": 4770,
      "▁wàá": 4771,
      "▁ìmọ̀": 4772,
      "▁attack": 4773,
      "'s": 4774,
      "▁ún": 4775,
      "▁zai": 4776,
      "▁haka": 4777,
      "▁waɗ": 4778,
      "▁lọ́nà": 4779,
      "▁ọ̀run": 4780,
      "▁lọ́kàn": 4781,
      "árá": 4782,
      "ṣì": 4783,
      "▁tì": 4784,
      "▁tiẹ̀": 4785,
      "▁car": 4786,
      "ade": 4787,
      "▁mag": 4788,
      "bar": 4789,
      "tó": 4790,
      "▁Anyị": 4791,
      "▁(@": 4792,
      "▁amma": 4793,
      "▁ruo": 4794,
      "▁kasa": 4795,
      "▁id": 4796,
      "▁rep": 4797,
      "▁run": 4798,
      "▁Ìjọba": 4799,
      "rún": 4800,
      "▁wen": 4801,
      "áwọn": 4802,
      "▁Ben": 4803,
      "▁name=&quot;:": 4804,
      "▁tana": 4805,
      "gram": 4806,
      "▁High": 4807,
      "urka": 4808,
      "▁Naịjirịa": 4809,
      "▁shiga": 4810,
      "▁àá": 4811,
      "▁sínú": 4812,
      "gbẹ̀": 4813,
      "áájú": 4814,
      "▁Ima": 4815,
      "▁nan": 4816,
      "▁nye": 4817,
      "dùn": 4818,
      "hin": 4819,
      "▁ah": 4820,
      "oni": 4821,
      "ection": 4822,
      "oup": 4823,
      "ork": 4824,
      "ụlọ": 4825,
      "▁shugaban": 4826,
      "75": 4827,
      "rel": 4828,
      "wọ": 4829,
      "▁ìl": 4830,
      "▁Far": 4831,
      "▁198": 4832,
      "ene": 4833,
      "▁Im": 4834,
      "▁ikpe": 4835,
      "▁Pidgin": 4836,
      "▁túbọ̀": 4837,
      "etty": 4838,
      "▁ìjọba": 4839,
      "▁nuna": 4840,
      "anci": 4841,
      "amm": 4842,
      "▁mkpa": 4843,
      "uni": 4844,
      "innu": 4845,
      "▁Ń": 4846,
      "att": 4847,
      "▁game": 4848,
      "▁agbára": 4849,
      "▁wọ": 4850,
      "ima": 4851,
      "▁Co": 4852,
      "www.": 4853,
      "esti": 4854,
      "▁al'": 4855,
      "▁Ọ̀rọ̀": 4856,
      "▁yad": 4857,
      "▁yawan": 4858,
      "ọl": 4859,
      "▁talk": 4860,
      "▁kasar": 4861,
      "▁òbí": 4862,
      "▁ez": 4863,
      "▁Amurka": 4864,
      "▁Igbo": 4865,
      "▁Ele": 4866,
      "▁fà": 4867,
      "▁dára": 4868,
      "▁tilẹ̀": 4869,
      "ọ̀kan": 4870,
      "▁yóo": 4871,
      "▁baya": 4872,
      "▁Afirka": 4873,
      "LU": 4874,
      "▁us": 4875,
      "▁akwa": 4876,
      "ited": 4877,
      "▁shortlist": 4878,
      "jẹ̀": 4879,
      "▁Ṣé": 4880,
      "▁sp": 4881,
      "▁Muh": 4882,
      "▁Gịnị": 4883,
      "ild": 4884,
      "chara": 4885,
      "▁iwu": 4886,
      "▁ìgbàgbọ́": 4887,
      "▁ụtọ": 4888,
      "ashe": 4889,
      "▁sọ́": 4890,
      "▁díẹ̀": 4891,
      "▁cause": 4892,
      "▁Ind": 4893,
      "▁yọ": 4894,
      "raị": 4895,
      "kòó": 4896,
      "▁nìkan": 4897,
      "▁gid": 4898,
      "▁class": 4899,
      "▁Lẹ́yìn": 4900,
      "▁Ban": 4901,
      "▁bayyana": 4902,
      "▁ego": 4903,
      "gbára": 4904,
      "▁start": 4905,
      "▁ìṣòro": 4906,
      "▁Images": 4907,
      "s.\n": 4908,
      "▁site": 4909,
      "▁Kanayo": 4910,
      "▁can": 4911,
      "ken": 4912,
      "▁hụrụ": 4913,
      "▁tọ": 4914,
      "▁che": 4915,
      "únjẹ": 4916,
      "▁day": 4917,
      "▁Joh": 4918,
      "▁yadda": 4919,
      "▁rò": 4920,
      "▁Aust": 4921,
      "Ǹjẹ́": 4922,
      "mì": 4923,
      "eme": 4924,
      "wam": 4925,
      "tàn": 4926,
      "▁tar": 4927,
      "▁ṣiṣẹ́": 4928,
      "ercise": 4929,
      "&quot;,": 4930,
      "ate,": 4931,
      "▁facts": 4932,
      "▁kàn": 4933,
      "LUWA": 4934,
      "23": 4935,
      "wara": 4936,
      "▁World": 4937,
      "▁Ob": 4938,
      "▁láàá": 4939,
      "alla": 4940,
      "▁ọkụ": 4941,
      "gbakọ": 4942,
      "▁exercise": 4943,
      "ju": 4944,
      "BN": 4945,
      "▁òfin": 4946,
      "▁ìrán": 4947,
      "▁So": 4948,
      "▁To": 4949,
      "▁col": 4950,
      "▁Bab": 4951,
      "sàn": 4952,
      "itere": 4953,
      "▁ràn": 4954,
      "▁àgbà": 4955,
      "▁kpọrọ": 4956,
      "sin": 4957,
      "ory": 4958,
      "▁onyeisi": 4959,
      "ila": 4960,
      "jalisar": 4961,
      "pé": 4962,
      "▁duniya": 4963,
      "▁nífẹ̀ẹ́": 4964,
      "▁Isra": 4965,
      "urin": 4966,
      "▁lead": 4967,
      "▁káwọn": 4968,
      "▁mana": 4969,
      "▁ọchịchị": 4970,
      "tain": 4971,
      "▁conf": 4972,
      "ens": 4973,
      "▁shekaru": 4974,
      "▁wata": 4975,
      "▁ran": 4976,
      "▁dat": 4977,
      "▁Ǹjẹ́": 4978,
      "▁tán": 4979,
      "era": 4980,
      "org": 4981,
      "▁saboda": 4982,
      "▁South": 4983,
      "▁em": 4984,
      "ough": 4985,
      "▁mil": 4986,
      "ester": 4987,
      "▁wad": 4988,
      "▁eziokwu": 4989,
      "▁mara": 4990,
      "▁fe": 4991,
      "DP": 4992,
      "▁ihu": 4993,
      "▁Wh": 4994,
      "▁ipò": 4995,
      "▁dì": 4996,
      "▁àà": 4997,
      "yo": 4998,
      "▁become": 4999,
      "▁Kano": 5000,
      "▁\"\"\"": 5001,
      "▁Quick": 5002,
      "ole": 5003,
      "▁sel": 5004,
      "▁MSMEs": 5005,
      "▁ki": 5006,
      "▁gbasara": 5007,
      "▁rec": 5008,
      "kanin": 5009,
      "unye": 5010,
      "vel": 5011,
      "▁gara": 5012,
      "anụ": 5013,
      "▁Getty": 5014,
      "▁aláì": 5015,
      "rọ": 5016,
      "▁fáwọn": 5017,
      "▁OLUWA": 5018,
      "▁kya": 5019,
      "▁ńṣe": 5020,
      "lic": 5021,
      "ànà": 5022,
      "▁gwa": 5023,
      "ts": 5024,
      "ashi": 5025,
      "yọ̀": 5026,
      "▁African": 5027,
      "▁ṣì": 5028,
      "▁Br": 5029,
      "▁ẹran": 5030,
      "&quot;&gt;&lt;/ref&gt;": 5031,
      "▁Govern": 5032,
      "▁lẹ́nu": 5033,
      "bere": 5034,
      "raịst": 5035,
      "amar": 5036,
      "ubu": 5037,
      "▁láà": 5038,
      "úù": 5039,
      "▁É": 5040,
      "won": 5041,
      "▁babban": 5042,
      "▁Kraịst": 5043,
      "rịa": 5044,
      "illion": 5045,
      "till": 5046,
      "▁hal": 5047,
      "▁Comm": 5048,
      "▁ìrò": 5049,
      "▁ìsìn": 5050,
      "wood": 5051,
      "ral": 5052,
      "ob": 5053,
      "▁sau": 5054,
      "dò": 5055,
      "abi": 5056,
      "vice": 5057,
      "▁uwe": 5058,
      "▁gradu": 5059,
      "▁ruwa": 5060,
      "▁Sá": 5061,
      "▁òtítọ́": 5062,
      "fiya": 5063,
      "▁Amer": 5064,
      "▁Èyí": 5065,
      "▁Ins": 5066,
      "▁class=&quot;": 5067,
      "▁ètò": 5068,
      "ah": 5069,
      "▁pesin": 5070,
      "▁because": 5071,
      "able": 5072,
      "rother": 5073,
      "▁Big": 5074,
      "▁ọkọ": 5075,
      "▁fí": 5076,
      "▁ita": 5077,
      "▁ọbụ": 5078,
      "▁na-e": 5079,
      "▁láàárín": 5080,
      "▁teach": 5081,
      "ague": 5082,
      "&quot;.": 5083,
      "▁kama": 5084,
      "▁cin": 5085,
      "▁Mus": 5086,
      "med": 5087,
      "▁gwamnat": 5088,
      ".”\n": 5089,
      "▁Mímọ́": 5090,
      "▁comm": 5091,
      "▁mme": 5092,
      "dodo": 5093,
      "atun": 5094,
      "▁náà,": 5095,
      "sị": 5096,
      "EC": 5097,
      "▁ẹ̀ṣẹ̀": 5098,
      "▁Id": 5099,
      "▁jin": 5100,
      "ward": 5101,
      "▁nwee": 5102,
      "uran": 5103,
      "aren": 5104,
      "▁nìyẹn": 5105,
      "▁Ret": 5106,
      "vers": 5107,
      "ọta": 5108,
      "ili": 5109,
      "▁Dá": 5110,
      "dìí": 5111,
      "-d": 5112,
      "▁oúnjẹ": 5113,
      "▁yanzu": 5114,
      "als": 5115,
      "▁burú": 5116,
      "▁bọ́": 5117,
      "ker": 5118,
      "làyé": 5119,
      "▁pụrụ": 5120,
      "▁bú": 5121,
      "▁He": 5122,
      "yá": 5123,
      "ents": 5124,
      "▁vote": 5125,
      "▁Junior": 5126,
      "..": 5127,
      "▁qu": 5128,
      ")\n": 5129,
      "▁é": 5130,
      "▁bl": 5131,
      "▁òkè": 5132,
      "▁mmiri": 5133,
      "▁enye": 5134,
      "▁tun": 5135,
      "orn": 5136,
      "▁Nke": 5137,
      "gbò": 5138,
      "▁pá": 5139,
      "ower": 5140,
      "cl": 5141,
      "▁mutane": 5142,
      "▁Iz": 5143,
      "gwụ": 5144,
      "▁eche": 5145,
      "-0": 5146,
      "▁still": 5147,
      "rìn": 5148,
      "wa,": 5149,
      "ẹ́ni": 5150,
      "rap": 5151,
      "ami'ar": 5152,
      "ancin": 5153,
      "force": 5154,
      "▁US": 5155,
      "asu": 5156,
      "▁bọ̀": 5157,
      "▁But": 5158,
      "▁Èmi": 5159,
      "▁mi,": 5160,
      "down": 5161,
      "ble": 5162,
      "▁ìbá": 5163,
      "▁bẹ": 5164,
      "▁Muhamm": 5165,
      "-19": 5166,
      "▁Obi": 5167,
      "ese": 5168,
      "▁ugbu": 5169,
      "áa": 5170,
      "ivers": 5171,
      "pàá": 5172,
      "▁fọ": 5173,
      "▁govn": 5174,
      "▁mafi": 5175,
      "riev": 5176,
      "▁dájú": 5177,
      "▁girls": 5178,
      "▁ƙasa": 5179,
      "▁APC": 5180,
      "▁bir": 5181,
      ".&lt;ref&gt;": 5182,
      "▁\"\"\"\"": 5183,
      "iyyar": 5184,
      "▁adịghị": 5185,
      "anya": 5186,
      "▁samu": 5187,
      "21st": 5188,
      "rieved": 5189,
      "▁John": 5190,
      "est'": 5191,
      "anye": 5192,
      "bogbo": 5193,
      "mà": 5194,
      "▁happun": 5195,
      "▁court": 5196,
      "▁govern": 5197,
      "▁Be": 5198,
      "▁2:15": 5199,
      "▁'old": 5200,
      "▁2,15": 5201,
      "▁túmọ̀": 5202,
      "▁sc": 5203,
      "▁'oldest'": 5204,
      "▁ìgbésí": 5205,
      "▁National": 5206,
      "olly": 5207,
      "▁níbi": 5208,
      "▁Ọmọ": 5209,
      "▁ọlọ́": 5210,
      "▁ọjọ": 5211,
      "▁Retrieved": 5212,
      "▁Minister": 5213,
      "▁24": 5214,
      "▁Izrel": 5215,
      "▁eb": 5216,
      "▁mean": 5217,
      "ason": 5218,
      "▁gida": 5219,
      "▁United": 5220,
      "isa": 5221,
      "▁Ag": 5222,
      "▁Pa": 5223,
      "alth": 5224,
      "she": 5225,
      "▁even": 5226,
      "▁30": 5227,
      "▁Ro": 5228,
      "▁egwu": 5229,
      "▁House": 5230,
      "kwe": 5231,
      "▁197": 5232,
      ",\n": 5233,
      "▁Ang": 5234,
      "estig": 5235,
      "▁graduate,": 5236,
      "gal": 5237,
      "17th": 5238,
      "ball": 5239,
      "▁mbụ": 5240,
      "▁bé": 5241,
      "▁more": 5242,
      "▁after": 5243,
      "ta,": 5244,
      "▁&lt;ref&gt;&lt;/ref&gt;": 5245,
      "▁five": 5246,
      "▁okp": 5247,
      "new": 5248,
      "ṣin": 5249,
      "▁ọ̀kan": 5250,
      "▁tsakanin": 5251,
      "▁gbá": 5252,
      "wù": 5253,
      "ton": 5254,
      "▁lock": 5255,
      "▁ìránṣẹ́": 5256,
      "der": 5257,
      "10th": 5258,
      "ọ́sí": 5259,
      "estment": 5260,
      "▁amụ": 5261,
      "uku": 5262,
      "▁nna": 5263,
      "amin": 5264,
      "y,": 5265,
      "▁ghara": 5266,
      "▁Gb": 5267,
      "▁shine": 5268,
      "inal": 5269,
      "▁nwunye": 5270,
      "▁àjọ": 5271,
      "ghara": 5272,
      "▁begin": 5273,
      "▁Airforce": 5274,
      "▁Gbogbo": 5275,
      "▁gbara": 5276,
      "▁dates": 5277,
      "▁fans": 5278,
      "▁deh": 5279,
      "ici": 5280,
      "▁Sat": 5281,
      "▁wu": 5282,
      "▁women": 5283,
      "▁agaghị": 5284,
      "▁lab": 5285,
      "▁ọ̀dọ́": 5286,
      "arí": 5287,
      "▁mmụọ": 5288,
      "▁selection": 5289,
      "▁pẹ́": 5290,
      "▁jiri": 5291,
      "▁suppose": 5292,
      "há": 5293,
      "▁Ko": 5294,
      "ayar": 5295,
      "ull": 5296,
      "book": 5297,
      "tar": 5298,
      "gbá": 5299,
      "▁Election": 5300,
      "ital": 5301,
      "▁buga": 5302,
      "iyya": 5303,
      "▁ìlànà": 5304,
      "▁comp": 5305,
      "amu": 5306,
      "tú": 5307,
      "▁uku": 5308,
      "▁25": 5309,
      "▁sai": 5310,
      "allon": 5311,
      "▁Ken": 5312,
      "icin": 5313,
      "óòótọ́": 5314,
      "jii": 5315,
      "▁kù": 5316,
      "gharị": 5317,
      "▁dem4th": 5318,
      "▁ẹlẹ́": 5319,
      "upu": 5320,
      "▁disc": 5321,
      "national": 5322,
      "rest": 5323,
      "▁ezigbo": 5324,
      "▁yake": 5325,
      "▁ili": 5326,
      "anị": 5327,
      "▁dáad": 5328,
      "▁samun": 5329,
      "anan": 5330,
      "▁Con": 5331,
      "ex": 5332,
      "▁care": 5333,
      "▁ọjọọ": 5334,
      "▁sama": 5335,
      "▁world": 5336,
      "tee": 5337,
      "▁Ni": 5338,
      "▁tẹ̀mí": 5339,
      "wn": 5340,
      "bẹ́": 5341,
      "18th": 5342,
      "▁óo": 5343,
      "▁yayin": 5344,
      "ayya": 5345,
      "kẹ́kọ̀ọ́": 5346,
      "hone": 5347,
      "▁sami": 5348,
      "reat": 5349,
      "úpọ̀": 5350,
      "▁ikú": 5351,
      "▁fì": 5352,
      "▁support": 5353,
      "▁dai": 5354,
      "▁dáadáa": 5355,
      "▁wajen": 5356,
      "▁makar": 5357,
      "▁ẹ́": 5358,
      "▁too": 5359,
      "▁exp": 5360,
      "▁jam": 5361,
      "▁kọjá": 5362,
      "mume": 5363,
      "▁ọ̀ràn": 5364,
      "▁send": 5365,
      "▁21": 5366,
      "fu": 5367,
      "▁tsarin": 5368,
      "ollywood": 5369,
      "▁ụgbọ": 5370,
      "▁gudanar": 5371,
      "ójú": 5372,
      "▁Bar": 5373,
      "▁irin": 5374,
      "▁yankin": 5375,
      "▁Investment": 5376,
      "ukwu": 5377,
      "sun": 5378,
      "▁Sund": 5379,
      "▁ọnwa": 5380,
      "▁jà": 5381,
      "lọrun": 5382,
      "télì": 5383,
      "tẹ̀": 5384,
      "▁anụ": 5385,
      "untun": 5386,
      "18": 5387,
      "▁Israẹli": 5388,
      "àásù": 5389,
      "ission": 5390,
      "▁Ib": 5391,
      "▁arákùnrin": 5392,
      "▁n'a": 5393,
      "▁nsogbu": 5394,
      "▁tra": 5395,
      "\tN": 5396,
      "▁òkú": 5397,
      "▁0": 5398,
      "▁baba": 5399,
      "▁sún": 5400,
      "▁pikin": 5401,
      "▁Jẹ́": 5402,
      "ṣí": 5403,
      "▁jag": 5404,
      "▁Naija": 5405,
      "itin": 5406,
      "age": 5407,
      "▁ọgbakọ": 5408,
      "▁eg": 5409,
      "lòmí": 5410,
      "▁nsọ": 5411,
      "pin": 5412,
      "▁po": 5413,
      "ger": 5414,
      "alị": 5415,
      "ollow": 5416,
      "ọ́ni": 5417,
      "▁23": 5418,
      "▁ekp": 5419,
      "iche": 5420,
      "aria": 5421,
      "▁Ọba": 5422,
      "ọ́sítélì": 5423,
      "ope": 5424,
      "hụrụ": 5425,
      "gbó": 5426,
      "gụ": 5427,
      "▁lawy": 5428,
      "▁expl": 5429,
      "▁yá": 5430,
      "▁196": 5431,
      "na-": 5432,
      "▁ninu": 5433,
      "▁over": 5434,
      "ublic": 5435,
      "▁achọ": 5436,
      "▁Jami'ar": 5437,
      "▁president": 5438,
      "▁ẹnu": 5439,
      "chie": 5440,
      "▁fil": 5441,
      "anọ": 5442,
      "▁hụ": 5443,
      "▁rìn": 5444,
      "▁100": 5445,
      "▁wọn,": 5446,
      "▁samar": 5447,
      "▁Sunday": 5448,
      "ally": 5449,
      "adin": 5450,
      "▁ret": 5451,
      "▁púpọ̀": 5452,
      "sụ": 5453,
      "▁,\n": 5454,
      "▁shir": 5455,
      "▁lockdown": 5456,
      "▁Par": 5457,
      "ona": 5458,
      "▁22": 5459,
      "▁ebi": 5460,
      "▁hel": 5461,
      "▁Ọlọrun": 5462,
      "▁waɗanda": 5463,
      "aa": 5464,
      "▁Res": 5465,
      "my": 5466,
      "yen": 5467,
      "▁dem6": 5468,
      "ederal": 5469,
      "▁Kó": 5470,
      "▁Inter": 5471,
      "ffer": 5472,
      "▁hù": 5473,
      "fídì": 5474,
      "▁Dáfídì": 5475,
      "otball": 5476,
      "eze": 5477,
      "ccess": 5478,
      "▁weh": 5479,
      "atta": 5480,
      ".org": 5481,
      "jè": 5482,
      "▁ever": 5483,
      "▁N75": 5484,
      "▁jihar": 5485,
      "es,": 5486,
      "▁ọ̀rẹ́": 5487,
      "bara": 5488,
      "▁Pr": 5489,
      "rán": 5490,
      "olu": 5491,
      "▁Dị": 5492,
      "▁ebu": 5493,
      "osion": 5494,
      "▁àkọ́": 5495,
      "▁find": 5496,
      "gwa": 5497,
      "▁N75BN": 5498,
      "▁gasar": 5499,
      "▁gaa": 5500,
      "▁League": 5501,
      "▁Ƙ": 5502,
      "arar": 5503,
      "▁Gold": 5504,
      "▁pẹ": 5505,
      "abe": 5506,
      "oss": 5507,
      "round": 5508,
      "▁mul": 5509,
      "▁ik": 5510,
      "amman": 5511,
      "▁pic": 5512,
      "▁eze": 5513,
      "nik": 5514,
      "▁ẹ̀rí": 5515,
      "pụtara": 5516,
      "ìní": 5517,
      "▁inv": 5518,
      "▁str": 5519,
      "▁follow": 5520,
      "kọta": 5521,
      "▁níwájú": 5522,
      "▁ẹlòmí": 5523,
      "▁igi": 5524,
      "▁apá": 5525,
      "▁Ká": 5526,
      "▁Pro": 5527,
      "titi": 5528,
      "ora": 5529,
      "udu": 5530,
      "Naija": 5531,
      "▁ƙasar": 5532,
      "▁Nínú": 5533,
      "ánù": 5534,
      "tẹ́lẹ̀": 5535,
      "▁den": 5536,
      "▁prot": 5537,
      "▁es": 5538,
      "▁ntị": 5539,
      "ashen": 5540,
      "▁sịrị": 5541,
      "▁El": 5542,
      "▁tòótọ́": 5543,
      "▁just": 5544,
      "▁ṣẹ̀": 5545,
      "▁arrest": 5546,
      "▁eniyan": 5547,
      "▁ɗaya": 5548,
      "ann": 5549,
      "ido": 5550,
      "▁PDP": 5551,
      "▁ìròyìn": 5552,
      "sen": 5553,
      "▁ịna-": 5554,
      "nivers": 5555,
      "▁Otu": 5556,
      "▁din": 5557,
      "yukan": 5558,
      "▁ahụ́": 5559,
      "gbọn": 5560,
      "▁Ter": 5561,
      "rá": 5562,
      "▁count": 5563,
      "àdé": 5564,
      "▁|": 5565,
      "http://": 5566,
      "uwan": 5567,
      "▁kpọ": 5568,
      "27": 5569,
      "▁explosion": 5570,
      "▁Mi": 5571,
      "▁Ọ̀pọ̀": 5572,
      "▁Island": 5573,
      "▁Ṣe": 5574,
      "▁daya": 5575,
      "▁jama": 5576,
      "▁síbẹ̀": 5577,
      "gar": 5578,
      "▁ukwu": 5579,
      "&quot;]": 5580,
      "▁Bur": 5581,
      "ṅụ": 5582,
      "-A": 5583,
      "mánì": 5584,
      "▁ọrịa": 5585,
      "▁BBNaija": 5586,
      "▁fight": 5587,
      "▁ụdị": 5588,
      "▁yar": 5589,
      "▁Shehu": 5590,
      "▁tẹ́lẹ̀": 5591,
      "▁last": 5592,
      "▁ụmụnna": 5593,
      "▁second": 5594,
      "24": 5595,
      "sẹ": 5596,
      "gá": 5597,
      "▁money": 5598,
      "▁ciki": 5599,
      "▁James": 5600,
      "▁2015": 5601,
      "▁back": 5602,
      "burú": 5603,
      "▁ri": 5604,
      "▁naanị": 5605,
      "▁kejì": 5606,
      "iver": 5607,
      "an,": 5608,
      "tal": 5609,
      "erson": 5610,
      "dù": 5611,
      "dín": 5612,
      "pas": 5613,
      "roy": 5614,
      "▁pí": 5615,
      "▁ọ̀dọ̀": 5616,
      "▁Cup": 5617,
      "▁kungiyar": 5618,
      "ern": 5619,
      "▁(20": 5620,
      "ions": 5621,
      "▁bịa": 5622,
      "▁dest": 5623,
      "dó": 5624,
      "▁ọkọ̀": 5625,
      "▁hank": 5626,
      "▁Mad": 5627,
      "▁pàá": 5628,
      "béèrè": 5629,
      "▁only": 5630,
      "▁eso": 5631,
      "▁Ok": 5632,
      "▁vide": 5633,
      "▁Ala": 5634,
      "ziri": 5635,
      "▁àlù": 5636,
      "▁ẹ̀yìn": 5637,
      "men": 5638,
      "▁taa": 5639,
      "ná": 5640,
      "▁nìdí": 5641,
      "zie": 5642,
      "▁Sup": 5643,
      "yẹ": 5644,
      "ɗin": 5645,
      "▁uru": 5646,
      "\t\t": 5647,
      "lérí": 5648,
      "▁enta": 5649,
      "▁latest": 5650,
      "▁oò": 5651,
      "▁wàásù": 5652,
      "▁sanya": 5653,
      "▁guda": 5654,
      "▁gọọ": 5655,
      "▁ise": 5656,
      "▁Sam": 5657,
      "▁against": 5658,
      "tánì": 5659,
      "atu": 5660,
      "▁tuntun": 5661,
      "▁were": 5662,
      "▁ẹgbẹ́": 5663,
      "▁Gr": 5664,
      "▁Pé": 5665,
      "▁kẹ́kọ̀ọ́": 5666,
      "--": 5667,
      "▁ẹbọ": 5668,
      "▁Nor": 5669,
      "▁Nollywood": 5670,
      "▁Mó": 5671,
      "▁ọnwụ": 5672,
      "▁ew": 5673,
      "▁4,": 5674,
      "▁2016": 5675,
      "nikẹ́ni": 5676,
      "▁aṣọ": 5677,
      "▁pàápàá": 5678,
      "tagram": 5679,
      ".&lt;ref&gt;&lt;/ref&gt;": 5680,
      "má": 5681,
      "▁béèrè": 5682,
      "ER": 5683,
      "atara": 5684,
      "▁kéèyàn": 5685,
      "ical": 5686,
      "▁Mal": 5687,
      "pasẹ̀": 5688,
      "kokin": 5689,
      "éèyàn": 5690,
      "▁tụ": 5691,
      "▁siy": 5692,
      "ansa": 5693,
      "▁rárá": 5694,
      "▁&lt;ref&gt;": 5695,
      "▁three": 5696,
      "▁anaghị": 5697,
      "amma": 5698,
      "làá": 5699,
      "▁Pl": 5700,
      "▁Ah": 5701,
      "bb": 5702,
      "ful": 5703,
      "▁lí": 5704,
      "utes": 5705,
      "ording": 5706,
      "▁Univers": 5707,
      "▁happen": 5708,
      "▁nn": 5709,
      "▁destroy": 5710,
      "far": 5711,
      "y:": 5712,
      "▁ịn": 5713,
      "▁sórí": 5714,
      "▁haɗa": 5715,
      "▁tari": 5716,
      "gbọ̀n": 5717,
      "▁akọ": 5718,
      "▁jir": 5719,
      "▁inc": 5720,
      "▁mà": 5721,
      "oto": 5722,
      "▁Ẹni": 5723,
      "▁&lt;": 5724,
      "▁kọ́kọ́": 5725,
      "FC": 5726,
      "▁achị": 5727,
      "▁ọgbọ́n": 5728,
      "▁kankan": 5729,
      "ƙin": 5730,
      "▁28": 5731,
      "▁ìpín": 5732,
      "zị": 5733,
      "ighị": 5734,
      "▁búburú": 5735,
      "▁gos": 5736,
      "▁Me": 5737,
      "enter": 5738,
      "▁war": 5739,
      "▁2021": 5740,
      "ƙa": 5741,
      "cite": 5742,
      "▁nau": 5743,
      "ete": 5744,
      "ket": 5745,
      "▁àjà": 5746,
      "igwe": 5747,
      "anen": 5748,
      "▁16,": 5749,
      "▁tso": 5750,
      "▁nas": 5751,
      "▁$": 5752,
      "fíà": 5753,
      "▁Gu": 5754,
      "▁Ado": 5755,
      "cebook": 5756,
      "▁ba,": 5757,
      "líì": 5758,
      "▁1,": 5759,
      "14": 5760,
      "▁City": 5761,
      "▁mutum": 5762,
      "33": 5763,
      "ia,": 5764,
      "uba": 5765,
      "ríà": 5766,
      "▁ẹ̀dá": 5767,
      "pì": 5768,
      "ourn": 5769,
      "▁Americ": 5770,
      "▁discover": 5771,
      "▁career": 5772,
      "▁boil6": 5773,
      "per": 5774,
      "urity": 5775,
      "▁Ten": 5776,
      "ojii": 5777,
      "▁per": 5778,
      "tinú": 5779,
      "▁lawyer": 5780,
      "date": 5781,
      "s:": 5782,
      "▁sta": 5783,
      "▁Idris": 5784,
      "▁n'o": 5785,
      "▁ṣàlàyé": 5786,
      "atch": 5787,
      "fáà": 5788,
      "▁join": 5789,
      "▁láwọn": 5790,
      "gwọ": 5791,
      "▁lọ́dọ̀": 5792,
      "▁yàn": 5793,
      "▁mer": 5794,
      "▁Emir": 5795,
      "▁Kw": 5796,
      "shen": 5797,
      "tún": 5798,
      "ency": 5799,
      "▁Tur": 5800,
      "▁gbàdúrà": 5801,
      "▁Sen": 5802,
      "/20": 5803,
      "▁tẹ": 5804,
      "▁omume": 5805,
      "▁bàbá": 5806,
      "▁ray": 5807,
      "eman": 5808,
      "▁Ci": 5809,
      "ats": 5810,
      "▁sus": 5811,
      "▁anno": 5812,
      "▁add": 5813,
      "▁dara": 5814,
      "top": 5815,
      "lụ": 5816,
      "▁tupu": 5817,
      "▁mẹ́ta": 5818,
      "▁Or": 5819,
      "▁kwuo": 5820,
      "▁jó": 5821,
      "▁blast": 5822,
      "▁West": 5823,
      "▁ịhụ": 5824,
      "▁195": 5825,
      "▁iye": 5826,
      "▁ọbụla": 5827,
      "▁Bayan": 5828,
      "lack": 5829,
      "▁Ja": 5830,
      "ancel": 5831,
      "▁Golden": 5832,
      "▁Baba": 5833,
      "ikpe": 5834,
      "▁mkpụrụ": 5835,
      "▁nwọn": 5836,
      "web": 5837,
      "▁Instagram": 5838,
      "▁àsọ": 5839,
      "ults": 5840,
      "▁ọhụrụ": 5841,
      "▁eru": 5842,
      "ikw": 5843,
      "▁ev": 5844,
      "▁minutes": 5845,
      "▁confam": 5846,
      "▁cor": 5847,
      "▁koma": 5848,
      "▁ƙa": 5849,
      "unin": 5850,
      "▁agụ": 5851,
      "▁kwu": 5852,
      "▁cancel": 5853,
      "▁Muhammadu": 5854,
      "áàmù": 5855,
      "▁ole": 5856,
      "▁haif": 5857,
      "▁bụghị": 5858,
      "pect": 5859,
      "nìí": 5860,
      "òh": 5861,
      "rian": 5862,
      "▁domin": 5863,
      "▁kara": 5864,
      "25": 5865,
      "▁bel": 5866,
      "biyar": 5867,
      "▁tas": 5868,
      "▁Torí": 5869,
      "▁27": 5870,
      "ọv": 5871,
      "▁feem": 5872,
      "▁26": 5873,
      "pẹ̀": 5874,
      "▁lágbára": 5875,
      "liam": 5876,
      "▁bar": 5877,
      "yànjú": 5878,
      "hon": 5879,
      "▁sho": 5880,
      "ede": 5881,
      "29": 5882,
      "▁put": 5883,
      "omi": 5884,
      "lace": 5885,
      "▁kayan": 5886,
      "▁29": 5887,
      "estigate": 5888,
      "▁Síbẹ̀": 5889,
      "adar": 5890,
      "▁Ìdí": 5891,
      "▁pri": 5892,
      "'aik": 5893,
      "▁big": 5894,
      "▁Duniya": 5895,
      "ema": 5896,
      "▁manyan": 5897,
      "ṣọ́": 5898,
      "▁(19": 5899,
      "▁Se": 5900,
      "kiri": 5901,
      "▁@": 5902,
      "▁oké": 5903,
      "▁sos": 5904,
      "▁Àp": 5905,
      "▁fúnra": 5906,
      "▁mah": 5907,
      "▁lokaci": 5908,
      "rid": 5909,
      "▁who": 5910,
      "▁former": 5911,
      "▁pay": 5912,
      "▁bai": 5913,
      "▁Waya": 5914,
      "▁carry": 5915,
      "▁rú": 5916,
      "▁Don": 5917,
      "▁58": 5918,
      "▁ajụ": 5919,
      "▁kamf": 5920,
      "▁Do": 5921,
      "ison": 5922,
      "▁Jó": 5923,
      "▁ech": 5924,
      "▁4:": 5925,
      "▁Sátánì": 5926,
      "▁brother": 5927,
      "▁oṣù": 5928,
      "▁Shu": 5929,
      "umber": 5930,
      "▁rashin": 5931,
      "▁ìyàwó": 5932,
      "▁tíì": 5933,
      "▁ẹ̀yà": 5934,
      "▁Haram": 5935,
      "▁kula": 5936,
      "▁Bẹ́ẹ̀": 5937,
      "pẹ": 5938,
      "▁ib": 5939,
      "▁Lọ́": 5940,
      "▁nri": 5941,
      "▁mụ": 5942,
      "▁beat": 5943,
      ",\"": 5944,
      "▁yàtọ̀": 5945,
      "umb": 5946,
      "▁musamman": 5947,
      "▁San": 5948,
      "▁aya": 5949,
      "▁enweghị": 5950,
      "▁sm": 5951,
      "▁Abule": 5952,
      "uss": 5953,
      "ovid": 5954,
      "▁player": 5955,
      "▁video": 5956,
      "▁mgb": 5957,
      "▁fun": 5958,
      "▁Majalisar": 5959,
      ".org/": 5960,
      "▁àṣẹ": 5961,
      "▁Nigerians,": 5962,
      "▁án": 5963,
      "▁ọgọ́": 5964,
      "▁We": 5965,
      "sílẹ̀": 5966,
      "▁pinnu": 5967,
      "▁pụtara": 5968,
      "▁uweojii": 5969,
      "▁ìyà": 5970,
      "ojú": 5971,
      "▁nche": 5972,
      "▁alà": 5973,
      "▁ṣá": 5974,
      "▁\"D": 5975,
      "▁ìtàn": 5976,
      "▁stud": 5977,
      "span&gt;": 5978,
      "▁'p": 5979,
      "▁since": 5980,
      "▁agwa": 5981,
      "xt": 5982,
      "▁Port": 5983,
      "▁ìyá": 5984,
      "AN": 5985,
      "▁og": 5986,
      "▁ej": 5987,
      "▁government": 5988,
      "▁Eb": 5989,
      "rat": 5990,
      "19th": 5991,
      "▁Wil": 5992,
      "▁coronavirus": 5993,
      "▁'P": 5994,
      "▁Ser": 5995,
      "▁ìbéèrè": 5996,
      "▁White": 5997,
      "&lt;/span&gt;": 5998,
      "▁ƙungiyar": 5999,
      "▁haifar": 6000,
      "▁group": 6001,
      "uta": 6002,
      "làáfíà": 6003,
      "▁Dav": 6004,
      "ọrụ": 6005,
      "▁yò": 6006,
      "▁àmì": 6007,
      "▁team": 6008,
      "kil": 6009,
      "▁Abd": 6010,
      "ince": 6011,
      "▁Ge": 6012,
      "▁rele": 6013,
      "ush": 6014,
      "kụkọ": 6015,
      "▁Jerus": 6016,
      "ular": 6017,
      "under": 6018,
      "kwasị": 6019,
      "▁reach": 6020,
      "kóso": 6021,
      "lẹ": 6022,
      "▁O.": 6023,
      "▁Pe": 6024,
      "▁party": 6025,
      "esa": 6026,
      "▁Bey": 6027,
      "▁chọ": 6028,
      "▁week": 6029,
      "▁stop": 6030,
      "▁akpọ": 6031,
      "olog": 6032,
      "▁Fi": 6033,
      "▁wasa": 6034,
      "▁dìde": 6035,
      "kẹ̀": 6036,
      "▁Facebook": 6037,
      "AC": 6038,
      "▁haife": 6039,
      "warar": 6040,
      "▁Boko": 6041,
      "▁Ozo": 6042,
      "▁colle": 6043,
      "ịara": 6044,
      "▁meet": 6045,
      "gùntàn": 6046,
      "▁wife": 6047,
      "▁àrùn": 6048,
      "gbẹ̀rún": 6049,
      "▁narị": 6050,
      "ẹ́lì": 6051,
      "▁Banana": 6052,
      "▁àkọ́kọ́": 6053,
      "rica": 6054,
      "andan": 6055,
      "▁ìbí": 6056,
      "▁wù": 6057,
      "iture": 6058,
      "▁òní": 6059,
      "ista": 6060,
      "▁sex": 6061,
      "▁ak": 6062,
      "▁fim": 6063,
      "▁own": 6064,
      "▁dr": 6065,
      "▁16:": 6066,
      ".&lt;/ref&gt;": 6067,
      "inụlọ": 6068,
      "▁ẹnikẹ́ni": 6069,
      "▁àlùfáà": 6070,
      "▁ja": 6071,
      "▁Pọl": 6072,
      "▁ac": 6073,
      "hún": 6074,
      "▁olórí": 6075,
      "read": 6076,
      "▁Coronavirus": 6077,
      "▁Nigeria:": 6078,
      "▁ibe": 6079,
      "▁nílò": 6080,
      "idd": 6081,
      "ghach": 6082,
      "urniture": 6083,
      "▁gidan": 6084,
      "▁Die": 6085,
      "▁furniture": 6086,
      "apable": 6087,
      "▁cutar": 6088,
      "▁enyere": 6089,
      "▁kẹ": 6090,
      "▁spe": 6091,
      "▁iy": 6092,
      "▁yíò": 6093,
      "▁dáa": 6094,
      "▁sauran": 6095,
      ":\n": 6096,
      "▁eré": 6097,
      ".&lt;ref&gt;&lt;/ref&gt;\n": 6098,
      "▁Tá": 6099,
      "▁old": 6100,
      "▁maker,": 6101,
      "▁tara": 6102,
      "▁son": 6103,
      "▁handic": 6104,
      "▁3:13": 6105,
      "ef": 6106,
      "▁3,13": 6107,
      "▁want": 6108,
      "▁sìn": 6109,
      "▁4:38": 6110,
      "▁4,38": 6111,
      "▁blast:": 6112,
      "lin": 6113,
      "▁Goldenbo": 6114,
      "▁4,3816th": 6115,
      "▁handicapable": 6116,
      "▁Goldenboy:": 6117,
      "▁Gí": 6118,
      "ríkà": 6119,
      "ṣè": 6120,
      "▁3,56": 6121,
      "▁3,1317th": 6122,
      "lah": 6123,
      "▁3:56": 6124,
      "▁3,5610th": 6125,
      "▁16:46": 6126,
      "▁16,46": 6127,
      "▁Wa": 6128,
      "▁Já": 6129,
      "▁ẹ̀sìn": 6130,
      "▁report": 6131,
      "▁azụ": 6132,
      "▁hankali": 6133,
      "▁Eze": 6134,
      "atan": 6135,
      "▁University": 6136,
      "ini": 6137,
      "30": 6138,
      "▁Daga": 6139,
      "▁sep": 6140,
      "▁look": 6141,
      "-t": 6142,
      "ṣo": 6143,
      "▁ayyukan": 6144,
      "▁akụkọ": 6145,
      "▁àṣà": 6146,
      "padà": 6147,
      "▁jama'a": 6148,
      "▁ɗa": 6149,
      "▁it": 6150,
      "▁Time": 6151,
      "▁2014": 6152,
      "▁Beyon": 6153,
      "▁Ra": 6154,
      "▁àyà": 6155,
      "▁million": 6156,
      "▁IN": 6157,
      "▁gbó": 6158,
      "▁Zaria": 6159,
      "▁nta": 6160,
      "▁Anamb": 6161,
      "▁Abuja": 6162,
      "gide": 6163,
      "nye": 6164,
      "'i": 6165,
      "▁late": 6166,
      "▁gbọ": 6167,
      "▁asụ": 6168,
      "tice": 6169,
      "▁tè": 6170,
      "▁Dr": 6171,
      "▁kus": 6172,
      "ugbọn": 6173,
      "wai": 6174,
      "-w": 6175,
      "▁rántí": 6176,
      "▁Terry": 6177,
      "co": 6178,
      "▁zaɓ": 6179,
      "▁poli": 6180,
      "ọvanọ": 6181,
      "https://www.": 6182,
      "▁ekpere": 6183,
      "▁wia": 6184,
      "▁pre": 6185,
      "▁And": 6186,
      "▁Governorship": 6187,
      "▁Júù": 6188,
      "▁kafin": 6189,
      "▁láé": 6190,
      "▁ser": 6191,
      "mo": 6192,
      "amba": 6193,
      "▁kim": 6194,
      "▁àǹfààní": 6195,
      "▁Jòh": 6196,
      "sán": 6197,
      "ozi": 6198,
      "▁bóyá": 6199,
      "gan": 6200,
      "▁bet": 6201,
      "▁láyé": 6202,
      "▁end": 6203,
      "▁ezinụlọ": 6204,
      "▁dáhùn": 6205,
      "▁protest": 6206,
      "▁ontop": 6207,
      "16": 6208,
      "ren": 6209,
      "▁nd": 6210,
      "asan": 6211,
      "▁gosiri": 6212,
      "▁kwụ": 6213,
      "▁contain": 6214,
      "emba": 6215,
      "gàn": 6216,
      "▁Car": 6217,
      "gà": 6218,
      "ghi": 6219,
      "\tO": 6220,
      "add": 6221,
      "▁kwaikw": 6222,
      "▁Lay": 6223,
      "▁uche": 6224,
      "tè": 6225,
      "▁resp": 6226,
      "▁Shug": 6227,
      "▁dau": 6228,
      "▁nwan": 6229,
      "▁release": 6230,
      "▁Wannan": 6231,
      "iky": 6232,
      "▁àpọ́sítélì": 6233,
      "▁Otú": 6234,
      "▁match": 6235,
      "leg": 6236,
      "▁ịbụ": 6237,
      "▁jam'": 6238,
      "ikwa": 6239,
      "▁br": 6240,
      "▁dama": 6241,
      "▁Sara": 6242,
      "&quot;&gt;&lt;/ref&gt;\n": 6243,
      "▁help": 6244,
      "▁Triky": 6245,
      "▁ada": 6246,
      "▁taima": 6247,
      "▁rubu": 6248,
      "▁Mósè": 6249,
      "rètí": 6250,
      "▁Ana": 6251,
      "▁idan": 6252,
      "-I": 6253,
      "▁nj": 6254,
      "ieces": 6255,
      "▁yín,": 6256,
      "▁sol": 6257,
      "▁Trikytee": 6258,
      "▁right": 6259,
      "uring": 6260,
      "▁olóòótọ́": 6261,
      "▁our": 6262,
      "▁ìwàásù": 6263,
      "▁​": 6264,
      "▁kíyè": 6265,
      "ley": 6266,
      "▁hai": 6267,
      "mó": 6268,
      "▁four": 6269,
      "▁Ilé": 6270,
      "▁ayọ̀": 6271,
      "▁n'ime": 6272,
      "▁ibẹ̀": 6273,
      "▁nwọ́n": 6274,
      "▁case": 6275,
      "▁al'um": 6276,
      "cal": 6277,
      "▁yanayi": 6278,
      "▁2022": 6279,
      "▁lọ́dún": 6280,
      "esday": 6281,
      "▁Te": 6282,
      "▁announ": 6283,
      "-s": 6284,
      "pt": 6285,
      "▁sáwọn": 6286,
      "▁194": 6287,
      "▁Austrian": 6288,
      "▁Dor": 6289,
      "▁lafiya": 6290,
      "ilẹ̀kọ": 6291,
      "▁16,4621st": 6292,
      "▁2013": 6293,
      "▁etiti": 6294,
      "▁Super": 6295,
      "pụrụ": 6296,
      "▁daban": 6297,
      "▁Si": 6298,
      "itta": 6299,
      "lọ́wọ́": 6300,
      "▁Part": 6301,
      "▁nne": 6302,
      "▁Fo": 6303,
      "pọ": 6304,
      "▁ked": 6305,
      "▁rẹ̀.\n": 6306,
      "▁lọ́jọ́": 6307,
      "▁iná": 6308,
      "kẹ": 6309,
      "▁abụghị": 6310,
      "▁govnorship": 6311,
      "▁separ": 6312,
      "ID": 6313,
      "chester": 6314,
      "▁Jes": 6315,
      "▁Go": 6316,
      "s.": 6317,
      "▁dere": 6318,
      "▁balẹ̀": 6319,
      "iaka": 6320,
      "▁akwai": 6321,
      "reak": 6322,
      "▁os": 6323,
      "▁die20th": 6324,
      "▁Rep": 6325,
      "▁career16th": 6326,
      "▁'pieces": 6327,
      "▁'pieces'": 6328,
      "▁àdúrà": 6329,
      "▁taka": 6330,
      "▁Ló": 6331,
      "▁'new": 6332,
      "▁kashi": 6333,
      "▁téèyàn": 6334,
      "▁iwájú": 6335,
      "▁òdodo": 6336,
      "▁Ìgbà": 6337,
      "nowiki": 6338,
      "èjì": 6339,
      "láà": 6340,
      "uma": 6341,
      "▁anwụ": 6342,
      "▁echiche": 6343,
      "uman": 6344,
      "gboro": 6345,
      "▁bàa": 6346,
      "uth": 6347,
      "eter": 6348,
      "▁yanayin": 6349,
      "cé": 6350,
      ".t": 6351,
      "▁Che": 6352,
      "iko": 6353,
      "▁sábà": 6354,
      "sáyà": 6355,
      "udi": 6356,
      "ith": 6357,
      "▁takar": 6358,
      "▁•": 6359,
      "▁ṣáájú": 6360,
      "▁jagor": 6361,
      "▁'new'": 6362,
      "osp": 6363,
      "▁Láti": 6364,
      "gu": 6365,
      "▁not": 6366,
      "▁All": 6367,
      "▁méjè": 6368,
      "here": 6369,
      "iyo": 6370,
      "▁ɓ": 6371,
      "▁gbí": 6372,
      "▁ìh": 6373,
      "le,": 6374,
      "▁&lt;ref&gt;&lt;/ref&gt;\n": 6375,
      "▁àlàáfíà": 6376,
      "▁Laycon": 6377,
      "lọ̀": 6378,
      "▁yẹ̀": 6379,
      "▁Acc": 6380,
      "▁gar": 6381,
      "▁International": 6382,
      "alli": 6383,
      "▁dàgbà": 6384,
      "\tA": 6385,
      "ft": 6386,
      "▁tabb": 6387,
      "▁nwụrụ": 6388,
      "▁malitere": 6389,
      "cka": 6390,
      "▁iwe": 6391,
      "▁abuse": 6392,
      "▁Na-": 6393,
      "line": 6394,
      "▁enter": 6395,
      "keré": 6396,
      "▁try": 6397,
      "▁olú": 6398,
      "▁1:": 6399,
      "▁Bay": 6400,
      "▁akpa": 6401,
      "▁puku": 6402,
      "rison": 6403,
      "▁sọ́dọ̀": 6404,
      "▁number": 6405,
      "▁Covid": 6406,
      "ds": 6407,
      "▁dig": 6408,
      "▁attacks": 6409,
      "▁land": 6410,
      "▁gas": 6411,
      "▁Col": 6412,
      "eli": 6413,
      "▁Bond": 6414,
      "▁ẹ̀jẹ̀": 6415,
      "osition": 6416,
      "duc": 6417,
      "ito": 6418,
      "ision": 6419,
      "▁ịdị": 6420,
      "chụ": 6421,
      "po": 6422,
      "▁Mr": 6423,
      "ner": 6424,
      "athy": 6425,
      "▁táa": 6426,
      "bú": 6427,
      "▁siri": 6428,
      "▁ume": 6429,
      "▁burúkú": 6430,
      "lub": 6431,
      "▁eluigwe": 6432,
      "▁Jòhánù": 6433,
      "▁látinú": 6434,
      "▁Mana": 6435,
      "fer": 6436,
      "▁méjèèjì": 6437,
      "▁Anambra": 6438,
      "fiyar": 6439,
      "▁wáyé": 6440,
      "ọrùn": 6441,
      "▁poison": 6442,
      "nowiki&gt;": 6443,
      "▁malite": 6444,
      "▁nípasẹ̀": 6445,
      "▁pátá": 6446,
      "▁Beyoncé": 6447,
      "▁wr": 6448,
      "anyeghị": 6449,
      "térù": 6450,
      "▁Moham": 6451,
      "▁men": 6452,
      "▁Pétérù": 6453,
      "-b": 6454,
      "▁every": 6455,
      "ayen": 6456,
      "lógún": 6457,
      "▁gí": 6458,
      "▁2023": 6459,
      "▁fojú": 6460,
      "ckage": 6461,
      "▁wakil": 6462,
      "kiya": 6463,
      "▁rel": 6464,
      "▁ìhìn": 6465,
      "esi": 6466,
      "lop": 6467,
      "▁Ìwọ": 6468,
      "▁month": 6469,
      "edu": 6470,
      "▁Ri": 6471,
      "'\n": 6472,
      "illa": 6473,
      "ms": 6474,
      "▁ṣo": 6475,
      "▁ìwọ̀n": 6476,
      "▁Kọ́": 6477,
      "mala": 6478,
      "▁2012": 6479,
      "▁\"A": 6480,
      "lọpọ̀": 6481,
      "▁kawai": 6482,
      "▁ìpàdé": 6483,
      "▁ìdájọ́": 6484,
      "▁gbádùn": 6485,
      "▁kira": 6486,
      "▁rẹ,": 6487,
      "▁package": 6488,
      "arra": 6489,
      "FA": 6490,
      "▁nkwa": 6491,
      "▁bójú": 6492,
      "▁dec": 6493,
      "▁hot": 6494,
      "▁lábẹ́": 6495,
      "kpọ": 6496,
      "▁collect": 6497,
      "▁asị": 6498,
      "mìn": 6499,
      "uki": 6500,
      "▁York": 6501,
      "▁content_1": 6502,
      "ential": 6503,
      "▁akan": 6504,
      "▁Youths": 6505,
      "▁efe": 6506,
      "ford": 6507,
      "▁content_9": 6508,
      "▁ing": 6509,
      "▁Ade": 6510,
      "▁Os": 6511,
      "▁sókè": 6512,
      "▁football": 6513,
      "bùn": 6514,
      "▁Rẹ̀": 6515,
      "▁kammala": 6516,
      "▁One": 6517,
      "1,": 6518,
      "▁inwe": 6519,
      "▁sell": 6520,
      "▁ekwe": 6521,
      "▁nzu": 6522,
      "▁Wọn": 6523,
      "▁kọ̀wé": 6524,
      "▁20203rd": 6525,
      "▁suke": 6526,
      "',": 6527,
      "▁zaman": 6528,
      "witter.com/": 6529,
      "▁sosai": 6530,
      "▁Dorathy": 6531,
      "▁under": 6532,
      "▁ìf": 6533,
      "▁Ts": 6534,
      "▁wadanda": 6535,
      "▁n'e": 6536,
      "▁Manchester": 6537,
      "iru": 6538,
      "▁Fil": 6539,
      "▁kedere": 6540,
      "▁down": 6541,
      "▁kọ̀ọ̀kan": 6542,
      "▁lónìí": 6543,
      "tist": 6544,
      "▁Nai": 6545,
      "yẹ̀": 6546,
      "▁differ": 6547,
      "urs": 6548,
      "-a": 6549,
      "iz": 6550,
      ".twitter.com/": 6551,
      "▁damar": 6552,
      "▁tan": 6553,
      "▁ricin": 6554,
      "róró": 6555,
      "▁{": 6556,
      "▁aṣáájú": 6557,
      "asi": 6558,
      "▁kid": 6559,
      "▁'Pesin": 6560,
      "óòmù": 6561,
      "▁'Pesin'": 6562,
      "bịa": 6563,
      "▁UN": 6564,
      "▁Máa": 6565,
      "▁exercise18th": 6566,
      "▁House20th": 6567,
      "assa": 6568,
      "▁Je": 6569,
      "iyoyin": 6570,
      "atọ": 6571,
      "ars": 6572,
      "▁Adam": 6573,
      "▁ṣíṣe": 6574,
      "▁kare": 6575,
      "▁pic.twitter.com/": 6576,
      "esị": 6577,
      "▁ọka": 6578,
      "▁Róòmù": 6579,
      "wàá": 6580,
      "▁life": 6581,
      "▁àgùntàn": 6582,
      "▁ntụ": 6583,
      "eneral": 6584,
      "otu": 6585,
      "▁plus": 6586,
      "olo": 6587,
      "▁wé": 6588,
      "▁INEC": 6589,
      "were": 6590,
      "ery": 6591,
      "▁bịara": 6592,
      "bl": 6593,
      "▁ìṣẹ̀": 6594,
      "▁/&gt;\n": 6595,
      "ghọ": 6596,
      "▁asaa": 6597,
      "utu": 6598,
      "▁rọrùn": 6599,
      "▁kir": 6600,
      "rue": 6601,
      "▁Paul": 6602,
      "ati": 6603,
      "▁Are": 6604,
      "cike": 6605,
      "▁girma": 6606,
      ").\n": 6607,
      "▁nweghị": 6608,
      "▁oga": 6609,
      "▁Fran": 6610,
      "ondon": 6611,
      "ọs": 6612,
      "▁Lo": 6613,
      "▁Court": 6614,
      "▁sak": 6615,
      "▁maza": 6616,
      "gy": 6617,
      "▁dang": 6618,
      "▁mama": 6619,
      "ṣó": 6620,
      "▁Hé": 6621,
      "wùjọ": 6622,
      "▁Results": 6623,
      "èé": 6624,
      "▁during": 6625,
      "eep": 6626,
      "▁n'ụ": 6627,
      "▁announce": 6628,
      "▁ìyè": 6629,
      "▁kìí": 6630,
      "▁ọsọ": 6631,
      "▁security": 6632,
      "ubuwan": 6633,
      "ters": 6634,
      "▁Final": 6635,
      "▁etu": 6636,
      "▁Alaeze": 6637,
      "ald": 6638,
      "▁Gẹ́gẹ́": 6639,
      "▁lórílẹ̀": 6640,
      "▁Ará": 6641,
      "▁–": 6642,
      "▁presid": 6643,
      "▁stat": 6644,
      "▁kékeré": 6645,
      "▁zab": 6646,
      "▁dán": 6647,
      "▁sannan": 6648,
      "istan": 6649,
      "▁yòó": 6650,
      "▁nílẹ̀": 6651,
      "jíṣẹ́": 6652,
      "▁boil5": 6653,
      "ọdụ": 6654,
      "▁Rivers": 6655,
      "▁mulkin": 6656,
      "▁death": 6657,
      "▁ẹlòmíràn": 6658,
      "ator": 6659,
      "▁ìjọsìn": 6660,
      "▁rẹ̀\n": 6661,
      "▁Yan": 6662,
      "▁Ụlọ": 6663,
      "▁Ara": 6664,
      "unan": 6665,
      "sa,": 6666,
      "▁NA": 6667,
      "▁ín": 6668,
      "▁gburu": 6669,
      "▁magana": 6670,
      "▁birnin": 6671,
      "▁káà": 6672,
      "gburu": 6673,
      "ings": 6674,
      "rúurú": 6675,
      "▁karatun": 6676,
      "▁Bákan": 6677,
      "▁Eng": 6678,
      "-P": 6679,
      "▁(A": 6680,
      "▁Yor": 6681,
      "waanyị": 6682,
      "sálẹ́": 6683,
      "itary": 6684,
      "▁China": 6685,
      "▁parí": 6686,
      "▁wọ̀": 6687,
      "▁ƙw": 6688,
      "▁tit": 6689,
      "▁content_8": 6690,
      "▁country": 6691,
      "▁am.\n": 6692,
      "▁sign": 6693,
      "▁ìbẹ̀": 6694,
      "▁okwukwe": 6695,
      "▁gur": 6696,
      "rànlọ́wọ́": 6697,
      "▁gabatar": 6698,
      "▁abubuwan": 6699,
      "▁ọmụ": 6700,
      "▁person": 6701,
      "nb": 6702,
      "▁ask": 6703,
      "▁Orí": 6704,
      "▁siyasa": 6705,
      "▁Wo": 6706,
      "▁sal": 6707,
      "▁ṣẹ́": 6708,
      "http://www.": 6709,
      "ọràn": 6710,
      "ink": 6711,
      "▁kusa": 6712,
      "▁At": 6713,
      "▁sẹ́yìn": 6714,
      "▁ìran": 6715,
      "nụ": 6716,
      "▁wú": 6717,
      "gbọràn": 6718,
      "▁waka": 6719,
      "▁wurin": 6720,
      "ron": 6721,
      "▁2010": 6722,
      "▁amụma": 6723,
      "aro": 6724,
      "▁rik": 6725,
      "▁kwaikwayo": 6726,
      "bia": 6727,
      "▁mbọ": 6728,
      "▁kashe": 6729,
      "sálẹ́mù": 6730,
      "▁Naijir": 6731,
      "▁cewar": 6732,
      "▁bẹ̀rù": 6733,
      "▁wur": 6734,
      "mentị": 6735,
      "▁Inú": 6736,
      "gẹ́lì": 6737,
      "▁ogb": 6738,
      "22nd": 6739,
      "ịka": 6740,
      "▁akwụ": 6741,
      "gbègbè": 6742,
      "▁chop": 6743,
      "ives": 6744,
      "atụ": 6745,
      "▁nílé": 6746,
      "▁Tu": 6747,
      "ph": 6748,
      "▁gbẹ́": 6749,
      "▁London": 6750,
      "tive": 6751,
      "enty": 6752,
      "▁ẹsẹ̀": 6753,
      "▁member": 6754,
      "itt": 6755,
      "▁Olù": 6756,
      "▁Tun": 6757,
      "umọ̀": 6758,
      "▁fito": 6759,
      "weet": 6760,
      "▁nã": 6761,
      "-o": 6762,
      "▁òróró": 6763,
      "▁àjọṣe": 6764,
      "▁Mata": 6765,
      "▁lóye": 6766,
      "▁pèsè": 6767,
      "▁hear": 6768,
      "1&quot;": 6769,
      "iken": 6770,
      "▁\"W": 6771,
      "▁gbọdọ̀": 6772,
      "▁darí": 6773,
      "▁that": 6774,
      "wòrán": 6775,
      "▁makarantar": 6776,
      "ict": 6777,
      "▁abịa": 6778,
      "'in": 6779,
      "▁ìjà": 6780,
      "▁different": 6781,
      "ye-": 6782,
      "▁ọdị": 6783,
      "▁ọgwụ": 6784,
      "eleb": 6785,
      "▁ọ̀tá": 6786,
      "▁ruru": 6787,
      "iwu": 6788,
      "kata": 6789,
      "▁lu": 6790,
      "ugu": 6791,
      "▁agbanyeghị": 6792,
      "▁lọ,": 6793,
      "▁fus": 6794,
      "▁data": 6795,
      "▁respon": 6796,
      "ƙi": 6797,
      "▁ajụjụ": 6798,
      "▁&": 6799,
      "▁ẹrú": 6800,
      "▁alleg": 6801,
      "▁shirin": 6802,
      "attalin": 6803,
      "thing": 6804,
      "▁Dev": 6805,
      "idar": 6806,
      "▁rọ": 6807,
      "elu": 6808,
      "▁shekarun": 6809,
      "▁neman": 6810,
      "▁Minister,": 6811,
      "▁Ph": 6812,
      "▁music": 6813,
      "50": 6814,
      "itation": 6815,
      "▁yọ̀": 6816,
      "▁content_10": 6817,
      "▁àpilẹ̀kọ": 6818,
      "▁bid": 6819,
      "▁rubuta": 6820,
      "risis": 6821,
      "▁head": 6822,
      "▁Dare": 6823,
      "]\n": 6824,
      "▁Democ": 6825,
      "▁Covid-19": 6826,
      "▁Ebe": 6827,
      "-daban": 6828,
      "▁ìgbéyàwó": 6829,
      "▁Juda": 6830,
      "▁Sáàmù": 6831,
      "omen": 6832,
      "▁ahịa": 6833,
      "▁sanar": 6834,
      "▁tabbatar": 6835,
      "▁fẹ́ràn": 6836,
      "▁ìmọ̀ràn": 6837,
      "40": 6838,
      "▁lashe": 6839,
      "lùú": 6840,
      "▁ƙas": 6841,
      "▁mes": 6842,
      "▁sani": 6843,
      "▁UK": 6844,
      "▁ụka": 6845,
      "▁free": 6846,
      "▁gwamnatin": 6847,
      "kòókò": 6848,
      "▁egosi": 6849,
      "nbsp": 6850,
      "▁date": 6851,
      "▁daban-daban": 6852,
      "nbsp;": 6853,
      "dàá": 6854,
      "▁mot": 6855,
      "▁Dan": 6856,
      "▁Oní": 6857,
      "▁kal": 6858,
      "▁gụ": 6859,
      "▁Kenya": 6860,
      "▁yara": 6861,
      "ril": 6862,
      "▁Bir": 6863,
      "taniya": 6864,
      "arch": 6865,
      "▁name=&quot;:0": 6866,
      "ciken": 6867,
      "▁Abdul": 6868,
      "▁gaban": 6869,
      "▁abalị": 6870,
      "aseki": 6871,
      "int": 6872,
      "▁Ij": 6873,
      "▁enyi": 6874,
      "▁ṣé": 6875,
      "fù": 6876,
      "▁content_7": 6877,
      "ON": 6878,
      "▁hu": 6879,
      "▁hakan": 6880,
      "-c": 6881,
      "▁síwájú": 6882,
      "helse": 6883,
      "▁Nu": 6884,
      "beghị": 6885,
      "árì": 6886,
      "IN": 6887,
      "▁isii": 6888,
      "&amp;nbsp;": 6889,
      "af": 6890,
      "▁Party": 6891,
      "▁jar": 6892,
      "▁kwam": 6893,
      "lood": 6894,
      "fic": 6895,
      "nyere": 6896,
      "▁alàgbà": 6897,
      "▁dú": 6898,
      "kóhun": 6899,
      "fún": 6900,
      "menti": 6901,
      "▁márùn": 6902,
      "lophone": 6903,
      "▁fò": 6904,
      "▁list": 6905,
      "▁fitar": 6906,
      "▁Ay": 6907,
      "▁hannu": 6908,
      "bàá": 6909,
      "▁has": 6910,
      "-fin": 6911,
      "aron": 6912,
      "▁plenti": 6913,
      "▁Erica": 6914,
      "unci": 6915,
      "▁Obaseki": 6916,
      "senal": 6917,
      "ace": 6918,
      "▁pop": 6919,
      "une": 6920,
      "▁Chi": 6921,
      "▁ekwesị": 6922,
      "▁North": 6923,
      "▁Ụmụ": 6924,
      "nị": 6925,
      "▁Ed": 6926,
      "▁hukumar": 6927,
      "▁malla": 6928,
      "▁kusan": 6929,
      "▁sur": 6930,
      "▁local": 6931,
      "ɗi": 6932,
      "▁amince": 6933,
      "ria": 6934,
      "inger": 6935,
      "get": 6936,
      "▁ohu": 6937,
      "▁Babban": 6938,
      "▁oòrùn": 6939,
      "wọ́n": 6940,
      "úrá": 6941,
      "jù": 6942,
      "tics": 6943,
      "▁asọ": 6944,
      "▁Kam": 6945,
      "▁kain": 6946,
      "kwai": 6947,
      "kwas": 6948,
      "▁this": 6949,
      "▁Ex": 6950,
      "▁Ga": 6951,
      "▁when": 6952,
      "▁high": 6953,
      "▁office": 6954,
      "▁opp": 6955,
      "▁Huk": 6956,
      "▁shari": 6957,
      "▁ɗin": 6958,
      "ṣi": 6959,
      "kenye": 6960,
      "▁ewu": 6961,
      "▁bara": 6962,
      "▁majalisar": 6963,
      "▁od": 6964,
      "▁òjíṣẹ́": 6965,
      "▁arz": 6966,
      "▁order": 6967,
      "oo": 6968,
      "▁kwe": 6969,
      "unity": 6970,
      "▁ọnọdụ": 6971,
      "ween": 6972,
      "▁àsọtẹ́lẹ̀": 6973,
      "àmà": 6974,
      "▁èso": 6975,
      "eph": 6976,
      "ournal": 6977,
      "▁fasa": 6978,
      "rọ́": 6979,
      "▁rọ̀": 6980,
      "▁Federal": 6981,
      "dájú": 6982,
      "ghọta": 6983,
      "ẹ́ríkà": 6984,
      "▁gban": 6985,
      "▁maọ": 6986,
      "1.": 6987,
      "air": 6988,
      "▁sen": 6989,
      "▁ọmọdé": 6990,
      "▁mahai": 6991,
      "▁Nípa": 6992,
      "▁shirya": 6993,
      "pó": 6994,
      "▁nu": 6995,
      "▁Gab": 6996,
      "▁kpe": 6997,
      "bọmi": 6998,
      "▁Tim": 6999,
      "ret": 7000,
      "▁hùwà": 7001,
      "hief": 7002,
      "▁gwamnati": 7003,
      "▁Allah": 7004,
      "▁Arch": 7005,
      "▁say,": 7006,
      "▁débi": 7007,
      "▁àf": 7008,
      "▁Ing": 7009,
      "▁egw": 7010,
      "ott": 7011,
      "▁Cibiyar": 7012,
      "▁ekpe": 7013,
      "iday": 7014,
      "himman": 7015,
      "san": 7016,
      "▁dịrị": 7017,
      "▁Sec": 7018,
      "cce": 7019,
      "ing,": 7020,
      "▁(N": 7021,
      "▁plan": 7022,
      "▁Lé": 7023,
      "jáde": 7024,
      "▁wòlíì": 7025,
      "▁fọwọ́": 7026,
      "kejì": 7027,
      "▁jam'iyyar": 7028,
      "kpụ": 7029,
      "▁ṣoṣo": 7030,
      "▁pala": 7031,
      "▁Commission": 7032,
      "▁Anglophone": 7033,
      "▁mur": 7034,
      "ọ́nì": 7035,
      "gwè": 7036,
      "kiyar": 7037,
      "▁cap": 7038,
      "▁Amẹ́ríkà": 7039,
      "etara": 7040,
      "▁act": 7041,
      "▁àjò": 7042,
      "alejin": 7043,
      "oint": 7044,
      "igar": 7045,
      "bùkún": 7046,
      "èdè": 7047,
      "lẹ́yìn": 7048,
      "▁gano": 7049,
      "ospital": 7050,
      "▁bọọ": 7051,
      "uf": 7052,
      "emb": 7053,
      "▁Kì": 7054,
      "▁Chelse": 7055,
      "\".\n": 7056,
      "pool": 7057,
      "net": 7058,
      "tiku": 7059,
      "▁Champ": 7060,
      "▁mò": 7061,
      "▁gina": 7062,
      "ba,": 7063,
      "▁fee": 7064,
      "▁gun": 7065,
      "angu": 7066,
      "▁Kim": 7067,
      "▁2009": 7068,
      "▁Irú": 7069,
      "chukwu": 7070,
      "▁Investigate": 7071,
      "▁ai": 7072,
      "▁Iṣẹ́": 7073,
      "▁Day": 7074,
      "ka,": 7075,
      "rahim": 7076,
      "▁ọmọbìnrin": 7077,
      "▁ugbua": 7078,
      "sùn": 7079,
      "▁wah": 7080,
      "▁Arsenal": 7081,
      "édé": 7082,
      "▁nnu": 7083,
      "▁dọ": 7084,
      "▁ma'aik": 7085,
      "pátá": 7086,
      "ness": 7087,
      "▁ìtẹ́": 7088,
      "▁arewa": 7089,
      "iverpool": 7090,
      "▁prison": 7091,
      "▁eto": 7092,
      "▁univers": 7093,
      "▁masana": 7094,
      "ńgẹ́lì": 7095,
      "▁Bib": 7096,
      "▁Vi": 7097,
      "▁je": 7098,
      "▁karịa": 7099,
      "▁film": 7100,
      "▁Shi": 7101,
      "▁Moz": 7102,
      "▁2007": 7103,
      "▁talla": 7104,
      "▁ìtọ́": 7105,
      "▁masa": 7106,
      "▁onyeisiala": 7107,
      "▁asụsụ": 7108,
      "▁If": 7109,
      "▁50": 7110,
      "▁fire": 7111,
      "▁Dare4th": 7112,
      "▁karatu": 7113,
      "▁ẹ̀bùn": 7114,
      "ustice": 7115,
      "▁kasuwan": 7116,
      "▁return": 7117,
      "▁ọgọ́rùn": 7118,
      "▁nor": 7119,
      "▁Eag": 7120,
      "uliaka": 7121,
      "▁ìrètí": 7122,
      "▁Gwam": 7123,
      "sib": 7124,
      "▁bù": 7125,
      "▁ọmọkùnrin": 7126,
      "ities": 7127,
      "ross": 7128,
      "▁ẹsẹ": 7129,
      "▁web": 7130,
      "bal": 7131,
      "▁ozu": 7132,
      "▁àgọ́": 7133,
      "▁Bra": 7134,
      "▁dep": 7135,
      "▁mmanụ": 7136,
      "ants": 7137,
      "▁mutanen": 7138,
      "▁Ass": 7139,
      "11th": 7140,
      "▁Musul": 7141,
      "▁pátápátá": 7142,
      "▁Okwu": 7143,
      "▁gbì": 7144,
      "▁ganin": 7145,
      "▁taimaka": 7146,
      "▁cle": 7147,
      "▁area": 7148,
      "gwà": 7149,
      "▁Four": 7150,
      "▁bincike": 7151,
      "▁ṣẹ̀ṣẹ̀": 7152,
      "lain": 7153,
      "▁ìpinnu": 7154,
      "▁dịghị": 7155,
      "▁Jana": 7156,
      "dọ": 7157,
      "▁device": 7158,
      "▁dó": 7159,
      "alite": 7160,
      "▁ohunkóhun": 7161,
      "▁onírúurú": 7162,
      "bab": 7163,
      "aya,": 7164,
      "jejen": 7165,
      "▁Sàn": 7166,
      "karị": 7167,
      "▁pol": 7168,
      "▁hada": 7169,
      "▁Za": 7170,
      "▁Òun": 7171,
      "yẹ̀wò": 7172,
      "▁maọbụ": 7173,
      "▁most": 7174,
      "ambar": 7175,
      "-z": 7176,
      "ọpụta": 7177,
      "▁Alá": 7178,
      "arai": 7179,
      "▁Lu": 7180,
      "▁update": 7181,
      "umption": 7182,
      "▁Dani": 7183,
      "▁kud": 7184,
      "▁set": 7185,
      "▁ap": 7186,
      "▁mụrụ": 7187,
      "MA": 7188,
      "▁Kódà": 7189,
      "yocha": 7190,
      "rúkọ": 7191,
      "▁small": 7192,
      "▁zar": 7193,
      "▁Mah": 7194,
      "▁kwere": 7195,
      "astor": 7196,
      "sà": 7197,
      "▁celeb": 7198,
      "amakon": 7199,
      "▁tò": 7200,
      "▁eke": 7201,
      "▁Can": 7202,
      "umb|": 7203,
      "tíù": 7204,
      "ind": 7205,
      "▁okenye": 7206,
      "▁biyar": 7207,
      "etan": 7208,
      "▁mpa": 7209,
      "▁ilimi": 7210,
      "ròrò": 7211,
      "▁Devid": 7212,
      "urch": 7213,
      "▁same": 7214,
      "▁'yar": 7215,
      "▁Pap": 7216,
      "▁òkun": 7217,
      "▁fan": 7218,
      "▁alụ": 7219,
      "▁wọn.\n": 7220,
      "emgbe": 7221,
      "▁haka,": 7222,
      "esh": 7223,
      "▁Chelsea": 7224,
      "▁between": 7225,
      "▁ogún": 7226,
      "ked": 7227,
      "▁ìrí": 7228,
      "ny": 7229,
      "▁yamma": 7230,
      "▁must": 7231,
      "ases": 7232,
      "▁gaghị": 7233,
      "wa.": 7234,
      "abar": 7235,
      "▁national": 7236,
      "▁ụgwọ": 7237,
      "▁mam": 7238,
      "▁ntuliaka": 7239,
      "▁bọọlụ": 7240,
      "▁Mas": 7241,
      "▁ba.": 7242,
      "▁ugboro": 7243,
      "yín": 7244,
      "▁31": 7245,
      "▁tu": 7246,
      "▁buru": 7247,
      "▁air": 7248,
      "▁ìb": 7249,
      "▁orin": 7250,
      "▁Char": 7251,
      "▁offici": 7252,
      "▁Ibrahim": 7253,
      "zil": 7254,
      "▁Nna": 7255,
      "▁ẹgbẹ̀rún": 7256,
      "▁kìíní": 7257,
      "▁taron": 7258,
      "▁kalẹ̀": 7259,
      "▁Eur": 7260,
      "▁Oló": 7261,
      "▁resumption": 7262,
      "▁test": 7263,
      "▁fata": 7264,
      "GB": 7265,
      "▁iko": 7266,
      "lam": 7267,
      "▁good": 7268,
      "▁Liverpool": 7269,
      "▁Fún": 7270,
      "que": 7271,
      "▁ya\n": 7272,
      "▁bayar": 7273,
      "ansu": 7274,
      "▁lẹ́kọ̀ọ́": 7275,
      "▁[&quot;": 7276,
      "▁leaders": 7277,
      "▁nìṣó": 7278,
      "ual": 7279,
      "▁para": 7280,
      "nam": 7281,
      "ƙar": 7282,
      "▁Leg": 7283,
      "DC": 7284,
      "▁wọn\n": 7285,
      "26": 7286,
      "▁kidna": 7287,
      "lòó": 7288,
      "▁addin": 7289,
      "▁ukwuu": 7290,
      "▁yanke": 7291,
      "▁tir": 7292,
      "kọsílẹ̀": 7293,
      "▁pàṣẹ": 7294,
      "▁Ẹ̀mí": 7295,
      "▁ter": 7296,
      "emme": 7297,
      "▁waɗannan": 7298,
      "hot": 7299,
      "▁today": 7300,
      "▁ruwan": 7301,
      "▁kow": 7302,
      "▁2008": 7303,
      "ca": 7304,
      "áyà": 7305,
      "▁Kudu": 7306,
      "▁yé": 7307,
      "▁Bel": 7308,
      "▁Que": 7309,
      "▁Ọ̀nà": 7310,
      "▁You": 7311,
      "▁than": 7312,
      "▁wá,": 7313,
      "▁Premi": 7314,
      "▁àìní": 7315,
      "▁CO": 7316,
      "▁program": 7317,
      "▁Mátíù": 7318,
      "▁Her": 7319,
      "▁health": 7320,
      "15th": 7321,
      "▁club": 7322,
      "▁;\n": 7323,
      "▁nasara": 7324,
      "▁God": 7325,
      "▁cika": 7326,
      "conom": 7327,
      "▁jókòó": 7328,
      "▁ú": 7329,
      "▁Mai": 7330,
      "▁vot": 7331,
      "▁response": 7332,
      "erin": 7333,
      "▁Ọtụtụ": 7334,
      "▁Atiku": 7335,
      "▁láyọ̀": 7336,
      "▁ipa": 7337,
      "▁jìn": 7338,
      "ena": 7339,
      "▁Hébé": 7340,
      "▁Ijip": 7341,
      "▁Eagles": 7342,
      "▁des": 7343,
      "aman": 7344,
      "▁ezie": 7345,
      "▁osisi": 7346,
      "▁bọ": 7347,
      "▁bodi": 7348,
      "▁abinci": 7349,
      "kị": 7350,
      "▁ig": 7351,
      "nanya": 7352,
      "▁accuse": 7353,
      "28": 7354,
      "▁Kad": 7355,
      "},\n": 7356,
      "▁Nwan": 7357,
      "▁''": 7358,
      "▁eye": 7359,
      "▁Hébérù": 7360,
      "shi": 7361,
      "ship": 7362,
      "▁ọ̀rún": 7363,
      "▁ụlọọrụ": 7364,
      "SS": 7365,
      "▁Some": 7366,
      "▁kacha": 7367,
      "▁tsohon": 7368,
      "▁hold": 7369,
      "▁(an": 7370,
      "▁dum": 7371,
      "▁Òwe": 7372,
      "ọ́ọ̀ṣì": 7373,
      "unc": 7374,
      "▁hon": 7375,
      "wun": 7376,
      "chiri": 7377,
      "jiya": 7378,
      "▁miliyan": 7379,
      "▁àgwà": 7380,
      "▁múra": 7381,
      "▁Sha": 7382,
      "kọ́bù": 7383,
      "▁Maris": 7384,
      "lex": 7385,
      "-m": 7386,
      "urday": 7387,
      "▁Cent": 7388,
      "▁Hukumar": 7389,
      "▁build": 7390,
      "▁láǹfààní": 7391,
      "ity,": 7392,
      "▁anoda": 7393,
      "▁next": 7394,
      "▁Sànmánì": 7395,
      "/&gt;": 7396,
      "▁affect": 7397,
      "▁karịrị": 7398,
      "▁ịgba": 7399,
      "▁David": 7400,
      "▁lai": 7401,
      "FCC": 7402,
      "cer": 7403,
      "▁Faransa": 7404,
      "▁tọ̀": 7405,
      "▁egbu": 7406,
      "ghachi": 7407,
      "laim": 7408,
      "kee": 7409,
      "▁Saturday": 7410,
      "kunan": 7411,
      "úgbò": 7412,
      "▁ọcha": 7413,
      "thern": 7414,
      "The": 7415,
      "gbì": 7416,
      "▁kowa": 7417,
      "istory": 7418,
      "▁neva": 7419,
      "sìkò": 7420,
      "▁days": 7421,
      "▁ọkwa": 7422,
      "▁Del": 7423,
      "▁ilimin": 7424,
      "▁ok": 7425,
      "▁William": 7426,
      "akwụkwọ": 7427,
      "▁pín": 7428,
      "▁Sp": 7429,
      "jo,": 7430,
      "▁sy": 7431,
      "IT": 7432,
      "▁gịnị": 7433,
      "▁aráyé": 7434,
      ".&lt;/ref&gt;\n": 7435,
      "ident": 7436,
      "▁ṣọ́": 7437,
      "▁ìpínlẹ̀": 7438,
      "▁ikwu": 7439,
      "ari,": 7440,
      "▁Áb": 7441,
      "▁tattalin": 7442,
      "eal": 7443,
      "ks": 7444,
      "cel": 7445,
      "eng": 7446,
      "▁mmehie": 7447,
      "▁&amp;": 7448,
      "▁ìlérí": 7449,
      "▁mẹ́rin": 7450,
      "\tỌ": 7451,
      "lish": 7452,
      "▁ibù": 7453,
      "bakar": 7454,
      "▁ways": 7455,
      "▁ra'": 7456,
      "▁Jerú": 7457,
      "▁class=&quot;c": 7458,
      "▁bụkwa": 7459,
      "HO": 7460,
      "▁Ital": 7461,
      "▁Jesu": 7462,
      "▁vis": 7463,
      "▁thr": 7464,
      "yon": 7465,
      "ishin": 7466,
      "▁arị": 7467,
      "miri": 7468,
      "▁met": 7469,
      "▁oke": 7470,
      "lock": 7471,
      "▁Cong": 7472,
      "200": 7473,
      "▁Yul": 7474,
      "▁n'ụlọ": 7475,
      "▁military": 7476,
      "▁na-eme": 7477,
      "▁treat": 7478,
      "enụ": 7479,
      "▁mẹ́wàá": 7480,
      "▁bisa": 7481,
      "▁Lee": 7482,
      "earch": 7483,
      "azụ": 7484,
      "▁Duk": 7485,
      "▁live": 7486,
      "▁rul": 7487,
      "▁pati": 7488,
      "▁Austral": 7489,
      "▁Ábúrá": 7490,
      "ùbá": 7491,
      "▁ìṣe": 7492,
      "▁ọ̀rúndún": 7493,
      "▁dem.\n": 7494,
      "▁statement": 7495,
      "▁stage": 7496,
      "▁nọrọ": 7497,
      "▁ọ̀pọ̀lọpọ̀": 7498,
      "▁ugwu": 7499,
      "-ye": 7500,
      "▁ipá": 7501,
      "▁nílùú": 7502,
      "▁hann": 7503,
      "ety": 7504,
      "enye": 7505,
      "ning": 7506,
      "▁Bi": 7507,
      "▁Ogun": 7508,
      "kítà": 7509,
      "▁content_4": 7510,
      "fì": 7511,
      "▁(S": 7512,
      "▁jami'": 7513,
      "▁Pri": 7514,
      "lim": 7515,
      "▁kamfanin": 7516,
      "▁ọ̀hún": 7517,
      "bì": 7518,
      "▁àìsàn": 7519,
      "▁Shugaban": 7520,
      "ɗe": 7521,
      "▁Jon": 7522,
      "▁gbìyànjú": 7523,
      "▁Democrat": 7524,
      "pè": 7525,
      "úni": 7526,
      "tm": 7527,
      "in,": 7528,
      "▁fet": 7529,
      "ago": 7530,
      "▁papa": 7531,
      "yọ": 7532,
      "▁maso": 7533,
      "uregwu": 7534,
      "▁fiye": 7535,
      "ived": 7536,
      "ieve": 7537,
      "hịa": 7538,
      "7th": 7539,
      "▁dra": 7540,
      "▁Mat": 7541,
      "▁tok.\n": 7542,
      "▁akụkụ": 7543,
      "▁shafi": 7544,
      "▁Turai": 7545,
      "▁ọ̀tọ̀": 7546,
      "▁ẹranko": 7547,
      "▁score": 7548,
      "▁seri": 7549,
      "orge": 7550,
      "▁ìkó": 7551,
      "▁gbaa": 7552,
      "▁Ké": 7553,
      "▁farkon": 7554,
      "▁gọọmentị": 7555,
      "▁place": 7556,
      "▁nwekwara": 7557,
      "fun": 7558,
      "▁ngwa": 7559,
      "▁Kwalejin": 7560,
      "▁artist": 7561,
      "▁mélòó": 7562,
      "rìíra": 7563,
      "}}": 7564,
      "eration": 7565,
      "▁cons": 7566,
      "ki,": 7567,
      "court": 7568,
      "ungiyoyin": 7569,
      "▁zaben": 7570,
      "▁Satum": 7571,
      "wẹ̀": 7572,
      "▁share": 7573,
      "▁Mohammed": 7574,
      "▁Mes": 7575,
      "▁char": 7576,
      "▁incre": 7577,
      "▁content_6": 7578,
      "▁Abubakar": 7579,
      "▁tsara": 7580,
      "▁méje": 7581,
      "amai": 7582,
      "▁Tol": 7583,
      "chaa": 7584,
      "jojin": 7585,
      "▁ehi": 7586,
      "▁kansa": 7587,
      "▁gosi": 7588,
      "red": 7589,
      "lor": 7590,
      "yd": 7591,
      "RT": 7592,
      "▁ma'": 7593,
      "▁Fab": 7594,
      "resent": 7595,
      "▁yau": 7596,
      "rup": 7597,
      "▁allegations": 7598,
      "▁orig": 7599,
      "▁season": 7600,
      "sẹ́": 7601,
      "▁ẹ̀ka": 7602,
      "▁du": 7603,
      "▁izu": 7604,
      "▁teachers": 7605,
      "kéyìí": 7606,
      "FK": 7607,
      "shir": 7608,
      "▁ST": 7609,
      "▁Lab": 7610,
      "▁Ndịàmà": 7611,
      "▁Akwụkwọ": 7612,
      "amban": 7613,
      "▁hous": 7614,
      "jìn": 7615,
      "▁bring": 7616,
      "ERE": 7617,
      "out": 7618,
      "▁ear": 7619,
      "▁plenty": 7620,
      "▁federal": 7621,
      "▁Presid": 7622,
      "ẹ̀yìn": 7623,
      "▁n'afọ": 7624,
      "fy": 7625,
      "▁Jerúsálẹ́mù": 7626,
      "▁kụ": 7627,
      "▁Jihar": 7628,
      "▁rage": 7629,
      "▁claim": 7630,
      "▁jì": 7631,
      "▁Nigeria,": 7632,
      "▁allow": 7633,
      "▁)\n": 7634,
      "urr": 7635,
      "▁ɗau": 7636,
      "▁public": 7637,
      "▁déédé": 7638,
      "àjà": 7639,
      "▁buk": 7640,
      "unta": 7641,
      "bodi": 7642,
      "▁mechara": 7643,
      "▁tọ́jú": 7644,
      "▁wọlé": 7645,
      "-g": 7646,
      "▁cam": 7647,
      "▁lóde": 7648,
      "wú": 7649,
      "▁jerin": 7650,
      "ige": 7651,
      "▁pàdé": 7652,
      "▁cri": 7653,
      "as,": 7654,
      "áàbò": 7655,
      "13th": 7656,
      "act": 7657,
      "ulu": 7658,
      "archive": 7659,
      "▁hana": 7660,
      "▁record": 7661,
      "▁Oga": 7662,
      "2,": 7663,
      "▁shar": 7664,
      "▁láàrin": 7665,
      "▁Peter": 7666,
      "kọ̀wé": 7667,
      "velop": 7668,
      "▁Yorùbá": 7669,
      "▁Naijiria": 7670,
      "4,": 7671,
      "▁ọrọ̀": 7672,
      "▁Makar": 7673,
      "27th": 7674,
      "▁jirgin": 7675,
      "▁cs": 7676,
      "▁Ná": 7677,
      "rìṣà": 7678,
      "▁ìrànlọ́wọ́": 7679,
      "-p": 7680,
      "▁Jap": 7681,
      "▁Women": 7682,
      "kọt": 7683,
      "rẹ̀lẹ̀": 7684,
      "▁Black": 7685,
      "▁honour": 7686,
      "▁Só": 7687,
      "▁ụkwụ": 7688,
      "▁sẹ́": 7689,
      "▁ọgbà": 7690,
      "▁40": 7691,
      "▁sùn": 7692,
      "ayá": 7693,
      "▁dojú": 7694,
      "▁Madrid": 7695,
      "▁muh": 7696,
      "reen": 7697,
      "▁tarihi": 7698,
      "▁Ize": 7699,
      "▁ụgbọala": 7700,
      "▁fina": 7701,
      "mụta": 7702,
      "▁halin": 7703,
      "tions": 7704,
      "▁X": 7705,
      "▁garin": 7706,
      "▁ògo": 7707,
      "▁wacce": 7708,
      "kpo": 7709,
      "▁èyíkéyìí": 7710,
      "▁Mag": 7711,
      "▁Okto": 7712,
      "S,": 7713,
      "▁Àti": 7714,
      "▁òpin": 7715,
      "▁asatọ": 7716,
      "▁born": 7717,
      "mọ́lẹ̀": 7718,
      "▁kwukwara": 7719,
      "mpi": 7720,
      "light": 7721,
      "▁Sar": 7722,
      "▁bad": 7723,
      "▁content_3": 7724,
      "'ar": 7725,
      "▁odò": 7726,
      "12th": 7727,
      "▁Mond": 7728,
      "▁tsawon": 7729,
      "▁Ama": 7730,
      "▁Aro": 7731,
      "▁Sal": 7732,
      "&quot;&gt;&lt;": 7733,
      "▁wep": 7734,
      "▁80": 7735,
      "gara": 7736,
      "▁bò": 7737,
      "▁govnor": 7738,
      "▁gọọmenti": 7739,
      "▁n'ọ": 7740,
      "▁olee": 7741,
      "▁pẹlu": 7742,
      "rate": 7743,
      "ury": 7744,
      "elem": 7745,
      "htm": 7746,
      "ójútó": 7747,
      "▁al-": 7748,
      "▁Setan": 7749,
      "idan": 7750,
      "ushe": 7751,
      "yamu": 7752,
      "▁obere": 7753,
      "▁Sc": 7754,
      "▁ba\n": 7755,
      "asha": 7756,
      "▁Din": 7757,
      "▁Cl": 7758,
      "▁atụrụ": 7759,
      "▁reason": 7760,
      "▁contin": 7761,
      "▁ọmụmụ": 7762,
      "▁decl": 7763,
      "▁according": 7764,
      "júwe": 7765,
      "▁gwi": 7766,
      "▁haifi": 7767,
      "▁dín": 7768,
      "▁minister": 7769,
      "▁retí": 7770,
      "▁sakamakon": 7771,
      "tọkàn": 7772,
      "▁Ize-I": 7773,
      "▁gbàgbé": 7774,
      "▁Bible": 7775,
      "▁cent": 7776,
      "▁FI": 7777,
      "▁success": 7778,
      ";\n": 7779,
      "▁cut": 7780,
      "▁òye": 7781,
      "▁lambar": 7782,
      "▁àwùjọ": 7783,
      "▁tètè": 7784,
      "▁nwanna": 7785,
      "titu": 7786,
      "▁break": 7787,
      "sinsìn": 7788,
      "▁ohùn": 7789,
      "▁close": 7790,
      "▁Li": 7791,
      "embly": 7792,
      "▁tirẹ̀": 7793,
      "▁kéré": 7794,
      "▁bat": 7795,
      "▁ịga": 7796,
      "▁separation": 7797,
      "▁hannun": 7798,
      "es.\n": 7799,
      "▁jiki": 7800,
      "▁nku": 7801,
      "▁eje": 7802,
      "▁prom": 7803,
      "▁Premier": 7804,
      "HE": 7805,
      "ve-": 7806,
      "▁FFK": 7807,
      "▁nkw": 7808,
      "▁Juu": 7809,
      "▁visit": 7810,
      "ƙashin": 7811,
      "▁lam": 7812,
      "▁Òfin": 7813,
      "▁Ize-Iyamu": 7814,
      "dar": 7815,
      "▁elect": 7816,
      "▁data-": 7817,
      "▁Nuwam": 7818,
      "▁med": 7819,
      "tiv": 7820,
      "ists": 7821,
      "▁Daniel": 7822,
      "hámù": 7823,
      "▁kyau": 7824,
      "▁mpaghara": 7825,
      "fá": 7826,
      "kwanụ": 7827,
      "▁Láì": 7828,
      "▁crisis": 7829,
      "ọ̀nà": 7830,
      "▁Daf": 7831,
      "rẹ̀ẹ́": 7832,
      "▁ƴ": 7833,
      "▁haɗ": 7834,
      "▁Prin": 7835,
      "▁nnọọ": 7836,
      "▁Monday": 7837,
      "▁láàyè": 7838,
      "▁increase": 7839,
      "▁around": 7840,
      "▁àd": 7841,
      "▁Aí": 7842,
      "▁33": 7843,
      "▁Russ": 7844,
      "▁udo": 7845,
      "chụàjà": 7846,
      "▁original": 7847,
      "▁memba": 7848,
      "▁mgba": 7849,
      "til": 7850,
      "▁manu": 7851,
      "▁write": 7852,
      "▁programme": 7853,
      "▁waje": 7854,
      "val": 7855,
      "24th": 7856,
      "▁àgbègbè": 7857,
      "ríì": 7858,
      "14th": 7859,
      "▁Brother": 7860,
      "▁báwo": 7861,
      "paign": 7862,
      "▁odas": 7863,
      "gement": 7864,
      "▁Nwa": 7865,
      "▁2006": 7866,
      "▁n'A": 7867,
      "▁Jú": 7868,
      "▁cho": 7869,
      "▁kark": 7870,
      "▁road": 7871,
      "eld": 7872,
      "▁special": 7873,
      "▁Law": 7874,
      "▁amaghị": 7875,
      "ye-shir": 7876,
      "▁Govn": 7877,
      "▁Chukwu": 7878,
      "▁ikike": 7879,
      "▁Mozis": 7880,
      "▁daida": 7881,
      "▁Lib": 7882,
      "▁èké": 7883,
      "ism": 7884,
      "▁asali": 7885,
      "▁leader": 7886,
      "FP": 7887,
      "▁students": 7888,
      "ufe": 7889,
      "▁Eli": 7890,
      "▁okpu": 7891,
      "▁inganta": 7892,
      "▁Kh": 7893,
      "vi": 7894,
      "▁ibu": 7895,
      "isha": 7896,
      "▁buƙ": 7897,
      "▁oko": 7898,
      "utere": 7899,
      "abu": 7900,
      "▁kawo": 7901,
      "ics": 7902,
      "▁abuse4th": 7903,
      "ac": 7904,
      "▁áńgẹ́lì": 7905,
      "▁mutu": 7906,
      "ńtì": 7907,
      "▁rẹ́": 7908,
      "▁ND": 7909,
      "▁Mba": 7910,
      "▁ed": 7911,
      "!\n": 7912,
      "ghar": 7913,
      "▁EFCC": 7914,
      "▁chere": 7915,
      "▁George": 7916,
      "zarin": 7917,
      "▁School": 7918,
      "amọ́": 7919,
      "irar": 7920,
      "lùkù": 7921,
      "▁Harcourt": 7922,
      "-èdè": 7923,
      "ano": 7924,
      "ongo": 7925,
      "▁ƙarƙashin": 7926,
      "▁déédéé": 7927,
      "tẹ": 7928,
      "▁Sm": 7929,
      "▁digiri": 7930,
      "▁Ábúráhámù": 7931,
      "▁àwòrán": 7932,
      "▁data-ve-": 7933,
      "▁award": 7934,
      "bítì": 7935,
      "joojú": 7936,
      "ǹde": 7937,
      "Ọ́": 7938,
      "▁2019:": 7939,
      "gọ": 7940,
      "yle": 7941,
      "▁According": 7942,
      "▁gidi": 7943,
      "▁very": 7944,
      "rib": 7945,
      "▁Rich": 7946,
      "▁àpé": 7947,
      "ignore": 7948,
      "jíbítì": 7949,
      "ork,": 7950,
      "▁bil": 7951,
      "▁cases": 7952,
      "rike": 7953,
      "▁Jerem": 7954,
      "▁Gíríì": 7955,
      "▁dẹ́": 7956,
      "▁Bor": 7957,
      "▁rem": 7958,
      "▁King": 7959,
      "wí": 7960,
      "▁Archived": 7961,
      "joojúmọ́": 7962,
      "ẹnu": 7963,
      "▁gree": 7964,
      "cite&gt;": 7965,
      "▁Sab": 7966,
      "▁Fal": 7967,
      "▁never": 7968,
      "▁AN": 7969,
      "▁ànímọ́": 7970,
      "26th": 7971,
      "▁'Y": 7972,
      "▁things": 7973,
      "&lt;/cite&gt;": 7974,
      "▁child": 7975,
      "▁yìí,": 7976,
      "▁data-ve-ignore": 7977,
      "▁power": 7978,
      "dínlógún": 7979,
      "▁class=&quot;citation": 7980,
      "▁Afril": 7981,
      "▁content_5": 7982,
      "▁data-ve-ignore=&quot;": 7983,
      "▁ìní": 7984,
      "mọ̀ràn": 7985,
      "vir": 7986,
      "▁matakin": 7987,
      "▁America": 7988,
      "mìnira": 7989,
      "▁fannin": 7990,
      "▁gidig": 7991,
      "▁Wed": 7992,
      "▁òṣì": 7993,
      "▁sabon": 7994,
      "EN": 7995,
      "▁tinyere": 7996,
      "-year": 7997,
      "▁àrí": 7998,
      "▁ụmụaka": 7999
    },
    "merges": [
      [
        "▁",
        "n"
      ],
      [
        "a",
        "n"
      ],
      [
        "▁",
        "d"
      ],
      [
        "▁",
        "t"
      ],
      [
        "▁",
        "a"
      ],
      [
        "▁",
        "s"
      ],
      [
        "▁",
        "m"
      ],
      [
        "▁",
        "w"
      ],
      [
        "i",
        "n"
      ],
      [
        "▁",
        "k"
      ],
      [
        "a",
        "r"
      ],
      [
        "e",
        "r"
      ],
      [
        "▁",
        "b"
      ],
      [
        "▁",
        "f"
      ],
      [
        "o",
        "n"
      ],
      [
        "o",
        "r"
      ],
      [
        "▁",
        "l"
      ],
      [
        "ọ",
        "́"
      ],
      [
        "▁",
        "p"
      ],
      [
        "▁",
        "g"
      ],
      [
        "▁",
        "y"
      ],
      [
        "a",
        "t"
      ],
      [
        ".",
        "\n"
      ],
      [
        "▁",
        "o"
      ],
      [
        "▁n",
        "a"
      ],
      [
        "▁",
        "i"
      ],
      [
        "u",
        "n"
      ],
      [
        "ẹ",
        "̀"
      ],
      [
        "▁",
        ","
      ],
      [
        "▁",
        "à"
      ],
      [
        "▁",
        "ọ"
      ],
      [
        "ẹ",
        "́"
      ],
      [
        "2",
        "0"
      ],
      [
        "▁",
        "r"
      ],
      [
        "▁",
        "c"
      ],
      [
        "e",
        "n"
      ],
      [
        "ọ",
        "n"
      ],
      [
        "▁",
        "h"
      ],
      [
        "g",
        "b"
      ],
      [
        "a",
        "l"
      ],
      [
        "▁d",
        "i"
      ],
      [
        "▁d",
        "a"
      ],
      [
        "▁",
        ".\n"
      ],
      [
        "▁",
        "A"
      ],
      [
        "t",
        "i"
      ],
      [
        "u",
        "r"
      ],
      [
        "▁",
        "e"
      ],
      [
        "▁",
        "S"
      ],
      [
        "a",
        "s"
      ],
      [
        "▁",
        "ì"
      ],
      [
        "▁",
        "N"
      ],
      [
        "▁",
        "M"
      ],
      [
        "▁n",
        "í"
      ],
      [
        "e",
        "y"
      ],
      [
        "a",
        "y"
      ],
      [
        "e",
        "s"
      ],
      [
        "t",
        ";"
      ],
      [
        "ọ",
        "̀"
      ],
      [
        "a",
        "m"
      ],
      [
        "▁",
        "an"
      ],
      [
        "w",
        "ọn"
      ],
      [
        "▁",
        "20"
      ],
      [
        "k",
        "e"
      ],
      [
        "h",
        "e"
      ],
      [
        "▁",
        "j"
      ],
      [
        "w",
        "a"
      ],
      [
        "e",
        "m"
      ],
      [
        "i",
        "d"
      ],
      [
        "▁",
        "J"
      ],
      [
        "o",
        "m"
      ],
      [
        "i",
        "t"
      ],
      [
        "▁",
        "ṣ"
      ],
      [
        "▁y",
        "a"
      ],
      [
        "▁t",
        "í"
      ],
      [
        "▁",
        "B"
      ],
      [
        "▁",
        "D"
      ],
      [
        "▁",
        "O"
      ],
      [
        "▁f",
        "or"
      ],
      [
        "t",
        "h"
      ],
      [
        "▁à",
        "wọn"
      ],
      [
        "ú",
        "n"
      ],
      [
        "▁",
        "T"
      ],
      [
        "k",
        "a"
      ],
      [
        "▁",
        "I"
      ],
      [
        "i",
        "s"
      ],
      [
        "▁",
        "ń"
      ],
      [
        "e",
        "e"
      ],
      [
        "à",
        "n"
      ],
      [
        "i",
        "r"
      ],
      [
        "▁t",
        "ó"
      ],
      [
        "a",
        "d"
      ],
      [
        "▁g",
        "b"
      ],
      [
        "c",
        "h"
      ],
      [
        "b",
        "er"
      ],
      [
        "i",
        "g"
      ],
      [
        "ar",
        "a"
      ],
      [
        "i",
        "l"
      ],
      [
        "ọ́",
        "n"
      ],
      [
        "o",
        "l"
      ],
      [
        "▁m",
        "a"
      ],
      [
        "c",
        "e"
      ],
      [
        "▁t",
        "a"
      ],
      [
        "▁p",
        "é"
      ],
      [
        "▁",
        "K"
      ],
      [
        "▁t",
        "o"
      ],
      [
        "t",
        "a"
      ],
      [
        "i",
        "on"
      ],
      [
        "u",
        "s"
      ],
      [
        "▁",
        "1"
      ],
      [
        "▁",
        "F"
      ],
      [
        "d",
        "ị"
      ],
      [
        "i",
        "a"
      ],
      [
        "▁20",
        "20"
      ],
      [
        "▁ṣ",
        "e"
      ],
      [
        "e",
        "l"
      ],
      [
        "▁w",
        "ey"
      ],
      [
        "r",
        "a"
      ],
      [
        "▁d",
        "ey"
      ],
      [
        "▁",
        "C"
      ],
      [
        "▁l",
        "á"
      ],
      [
        "▁n",
        "i"
      ],
      [
        "▁t",
        "i"
      ],
      [
        "▁h",
        "a"
      ],
      [
        "▁s",
        "í"
      ],
      [
        "r",
        "e"
      ],
      [
        "er",
        "e"
      ],
      [
        "id",
        "e"
      ],
      [
        "▁",
        "ó"
      ],
      [
        "m",
        "a"
      ],
      [
        "▁s",
        "ì"
      ],
      [
        "at",
        "ion"
      ],
      [
        "u",
        "t"
      ],
      [
        "q",
        "u"
      ],
      [
        "▁",
        "Ọ"
      ],
      [
        "▁",
        "P"
      ],
      [
        "▁na",
        "-"
      ],
      [
        "▁",
        "on"
      ],
      [
        "k",
        "w"
      ],
      [
        "▁",
        "3"
      ],
      [
        "▁",
        "in"
      ],
      [
        "en",
        "t"
      ],
      [
        "▁n",
        "’"
      ],
      [
        "a",
        "b"
      ],
      [
        "y",
        "a"
      ],
      [
        "▁",
        "2"
      ],
      [
        "▁an",
        "d"
      ],
      [
        "▁k",
        "a"
      ],
      [
        "▁",
        "W"
      ],
      [
        "m",
        "e"
      ],
      [
        "▁m",
        "á"
      ],
      [
        "c",
        "t"
      ],
      [
        "i",
        "k"
      ],
      [
        "o",
        "s"
      ],
      [
        "▁",
        "è"
      ],
      [
        "▁",
        "G"
      ],
      [
        "▁",
        "E"
      ],
      [
        "▁n",
        "dị"
      ],
      [
        "e",
        "p"
      ],
      [
        "▁",
        "L"
      ],
      [
        "▁o",
        "f"
      ],
      [
        "e",
        "t"
      ],
      [
        "o",
        ","
      ],
      [
        "▁w",
        "ọ́n"
      ],
      [
        "▁b",
        "ụ"
      ],
      [
        "▁d",
        "on"
      ],
      [
        "▁",
        "ò"
      ],
      [
        "d",
        "a"
      ],
      [
        "y",
        "e"
      ],
      [
        "o",
        "w"
      ],
      [
        "á",
        "à"
      ],
      [
        "▁má",
        "a"
      ],
      [
        "▁f",
        "i"
      ],
      [
        "qu",
        "o"
      ],
      [
        "quo",
        "t;"
      ],
      [
        "&",
        "quot;"
      ],
      [
        "▁",
        "V"
      ],
      [
        "▁",
        "ẹ"
      ],
      [
        "▁g",
        "a"
      ],
      [
        "▁",
        "H"
      ],
      [
        "▁",
        "-"
      ],
      [
        "▁b",
        "á"
      ],
      [
        "g",
        "t;"
      ],
      [
        "&",
        "gt;"
      ],
      [
        "▁ọ",
        "̀"
      ],
      [
        "l",
        "t;"
      ],
      [
        "&",
        "lt;"
      ],
      [
        "o",
        "v"
      ],
      [
        "i",
        "c"
      ],
      [
        "▁",
        "ụ"
      ],
      [
        "ig",
        "er"
      ],
      [
        "em",
        "ber"
      ],
      [
        "l",
        "ẹ̀"
      ],
      [
        "▁k",
        "an"
      ],
      [
        "in",
        "g"
      ],
      [
        "▁f",
        "ún"
      ],
      [
        "l",
        "e"
      ],
      [
        "▁20",
        "1"
      ],
      [
        "▁N",
        "iger"
      ],
      [
        "ì",
        "n"
      ],
      [
        "g",
        "h"
      ],
      [
        "▁",
        "."
      ],
      [
        "▁",
        "“"
      ],
      [
        "▁s",
        "h"
      ],
      [
        "o",
        "t"
      ],
      [
        "gb",
        "à"
      ],
      [
        "▁a",
        "l"
      ],
      [
        "▁w",
        "ọn"
      ],
      [
        "▁k",
        "í"
      ],
      [
        "▁V",
        "ide"
      ],
      [
        "h",
        "ụ"
      ],
      [
        "▁Vide",
        "o,"
      ],
      [
        "▁j",
        "ẹ́"
      ],
      [
        "▁r",
        "ẹ̀"
      ],
      [
        "▁n",
        "áà"
      ],
      [
        "at",
        "e"
      ],
      [
        "re",
        "f"
      ],
      [
        "▁l",
        "ó"
      ],
      [
        "▁",
        "z"
      ],
      [
        "r",
        "ụ"
      ],
      [
        "ì",
        "í"
      ],
      [
        "▁i",
        "he"
      ],
      [
        "ù",
        "n"
      ],
      [
        "j",
        "ú"
      ],
      [
        "b",
        "o"
      ],
      [
        "r",
        "í"
      ],
      [
        "▁S",
        "ep"
      ],
      [
        "b",
        "i"
      ],
      [
        "▁Sep",
        "t"
      ],
      [
        "w",
        "e"
      ],
      [
        "an",
        "a"
      ],
      [
        "▁w",
        "a"
      ],
      [
        "▁Sept",
        "ember"
      ],
      [
        "▁d",
        "em"
      ],
      [
        "b",
        "a"
      ],
      [
        "▁à",
        "ti"
      ],
      [
        "▁",
        "R"
      ],
      [
        "▁an",
        "y"
      ],
      [
        "k",
        "an"
      ],
      [
        "▁",
        "”"
      ],
      [
        "g",
        "a"
      ],
      [
        "n",
        "ú"
      ],
      [
        "▁",
        "("
      ],
      [
        "n",
        "i"
      ],
      [
        "▁Niger",
        "ia"
      ],
      [
        "?",
        "\n"
      ],
      [
        "▁lá",
        "ti"
      ],
      [
        "▁",
        ":"
      ],
      [
        "▁f",
        "r"
      ],
      [
        "e",
        "d"
      ],
      [
        "▁a",
        "hụ"
      ],
      [
        "u",
        "l"
      ],
      [
        "▁",
        "ẹ̀"
      ],
      [
        "▁D",
        "ur"
      ],
      [
        "▁Dur",
        "ation"
      ],
      [
        "t",
        "er"
      ],
      [
        "▁s",
        "ay"
      ],
      [
        "r",
        "un"
      ],
      [
        "▁di",
        "s"
      ],
      [
        "i",
        "y"
      ],
      [
        "▁b",
        "í"
      ],
      [
        "▁s",
        "t"
      ],
      [
        "h",
        "un"
      ],
      [
        "i",
        "p"
      ],
      [
        "g",
        "e"
      ],
      [
        "▁A",
        "n"
      ],
      [
        "l",
        "ọ́"
      ],
      [
        "o",
        "ber"
      ],
      [
        "▁",
        "\""
      ],
      [
        "▁l",
        "è"
      ],
      [
        "p",
        "a"
      ],
      [
        "ref",
        "&gt;"
      ],
      [
        "or",
        "í"
      ],
      [
        "o",
        "u"
      ],
      [
        "▁",
        "À"
      ],
      [
        "▁O",
        "ct"
      ],
      [
        "▁Oct",
        "ober"
      ],
      [
        "l",
        "a"
      ],
      [
        "y",
        "àn"
      ],
      [
        "▁s",
        "ọ"
      ],
      [
        "▁d",
        "ị"
      ],
      [
        "u",
        "m"
      ],
      [
        "gb",
        "o"
      ],
      [
        "▁b",
        "e"
      ],
      [
        "▁b",
        "a"
      ],
      [
        "▁",
        "U"
      ],
      [
        "▁k",
        "u"
      ],
      [
        "▁k",
        "ò"
      ],
      [
        "m",
        "ọ"
      ],
      [
        "▁",
        "ị"
      ],
      [
        "▁a",
        "s"
      ],
      [
        "▁k",
        "w"
      ],
      [
        "▁c",
        "om"
      ],
      [
        "o",
        "p"
      ],
      [
        "▁d",
        "e"
      ],
      [
        "ik",
        "in"
      ],
      [
        "r",
        "i"
      ],
      [
        "▁",
        "?\n"
      ],
      [
        "▁w",
        "à"
      ],
      [
        "h",
        "i"
      ],
      [
        "▁",
        "'"
      ],
      [
        "▁n",
        "ke"
      ],
      [
        "▁w",
        "e"
      ],
      [
        "c",
        "i"
      ],
      [
        "o",
        "ur"
      ],
      [
        "▁any",
        "ị"
      ],
      [
        "▁b",
        "an"
      ],
      [
        "▁i",
        "m"
      ],
      [
        "at",
        "a"
      ],
      [
        "á",
        "n"
      ],
      [
        "▁s",
        "u"
      ],
      [
        "▁",
        "Y"
      ],
      [
        "▁w",
        "á"
      ],
      [
        "▁ní",
        "nú"
      ],
      [
        "in",
        "e"
      ],
      [
        "▁g",
        "o"
      ],
      [
        "n",
        "d"
      ],
      [
        "k",
        "ọ"
      ],
      [
        "lọ́",
        "run"
      ],
      [
        "▁w",
        "an"
      ],
      [
        "▁ga",
        "-"
      ],
      [
        "▁fr",
        "om"
      ],
      [
        "▁o",
        "hun"
      ],
      [
        "▁Ọ",
        "lọ́run"
      ],
      [
        "i",
        "v"
      ],
      [
        "▁n",
        "w"
      ],
      [
        "z",
        "i"
      ],
      [
        "▁",
        "Ì"
      ],
      [
        "gh",
        "ị"
      ],
      [
        "s",
        "a"
      ],
      [
        "A",
        "R"
      ],
      [
        "ee",
        "t"
      ],
      [
        "s",
        "t"
      ],
      [
        "r",
        "in"
      ],
      [
        "k",
        "wa"
      ],
      [
        "▁a",
        "m"
      ],
      [
        "an",
        "d"
      ],
      [
        "f",
        "à"
      ],
      [
        "l",
        "ú"
      ],
      [
        "l",
        "i"
      ],
      [
        "l",
        "é"
      ],
      [
        "AR",
        "S"
      ],
      [
        "▁ku",
        "ma"
      ],
      [
        "ur",
        "u"
      ],
      [
        "ṣ",
        "ẹ́"
      ],
      [
        "▁",
        "u"
      ],
      [
        "as",
        "s"
      ],
      [
        "▁N",
        "í"
      ],
      [
        "is",
        "t"
      ],
      [
        "k",
        "p"
      ],
      [
        "▁m",
        "i"
      ],
      [
        "k",
        "ar"
      ],
      [
        "▁b",
        "o"
      ],
      [
        "r",
        "es"
      ],
      [
        "r",
        "ọ̀"
      ],
      [
        "ir",
        "i"
      ],
      [
        "▁l",
        "ọ"
      ],
      [
        "▁”",
        "\n"
      ],
      [
        "▁f",
        "a"
      ],
      [
        "kw",
        "u"
      ],
      [
        "a",
        "i"
      ],
      [
        "p",
        "p"
      ],
      [
        "▁ọ",
        "mọ"
      ],
      [
        "2",
        "2"
      ],
      [
        "▁r",
        "e"
      ],
      [
        "b",
        "e"
      ],
      [
        "z",
        "ọ"
      ],
      [
        "▁n",
        "e"
      ],
      [
        "&lt;",
        "/"
      ],
      [
        "i",
        "ce"
      ],
      [
        "w",
        "ọ́"
      ],
      [
        "▁M",
        "eet"
      ],
      [
        "r",
        "o"
      ],
      [
        "ó",
        "ò"
      ],
      [
        "b",
        "í"
      ],
      [
        "▁",
        "ƙ"
      ],
      [
        "▁ì",
        "w"
      ],
      [
        "ti",
        "on"
      ],
      [
        "al",
        "l"
      ],
      [
        "d",
        "e"
      ],
      [
        "▁c",
        "ikin"
      ],
      [
        "or",
        "t"
      ],
      [
        "▁c",
        "on"
      ],
      [
        "▁c",
        "h"
      ],
      [
        "▁a",
        "b"
      ],
      [
        "j",
        "ọ"
      ],
      [
        "▁l",
        "ọ́"
      ],
      [
        "or",
        "i"
      ],
      [
        ",",
        "0"
      ],
      [
        "▁a",
        "ka"
      ],
      [
        "l",
        "ì"
      ],
      [
        "▁r",
        "í"
      ],
      [
        "▁w",
        "it"
      ],
      [
        "ar",
        "e"
      ],
      [
        "y",
        "é"
      ],
      [
        "t",
        "ụ"
      ],
      [
        "▁3",
        ":"
      ],
      [
        "f",
        "or"
      ],
      [
        "y",
        "í"
      ],
      [
        "er",
        "s"
      ],
      [
        "▁C",
        "h"
      ],
      [
        "▁d",
        "á"
      ],
      [
        "ar",
        "i"
      ],
      [
        "m",
        "ọ́"
      ],
      [
        "▁1",
        "9"
      ],
      [
        "f",
        "e"
      ],
      [
        "un",
        "d"
      ],
      [
        "h",
        "ó"
      ],
      [
        "▁",
        "v"
      ],
      [
        "el",
        "l"
      ],
      [
        "▁y",
        "ìí"
      ],
      [
        "▁m",
        "m"
      ],
      [
        "▁s",
        "he"
      ],
      [
        "▁n",
        "o"
      ],
      [
        "d",
        "o"
      ],
      [
        "2",
        "1"
      ],
      [
        "▁J",
        "è"
      ],
      [
        "▁Jè",
        "hó"
      ],
      [
        "▁Jèhó",
        "fà"
      ],
      [
        "è",
        "yàn"
      ],
      [
        "j",
        "i"
      ],
      [
        "▁k",
        "ó"
      ],
      [
        "í",
        "n"
      ],
      [
        "▁o",
        "t"
      ],
      [
        "▁gb",
        "o"
      ],
      [
        "a",
        "g"
      ],
      [
        "a",
        ","
      ],
      [
        "es",
        "t"
      ],
      [
        "d",
        "i"
      ],
      [
        "t",
        "í"
      ],
      [
        "▁m",
        "ú"
      ],
      [
        "r",
        "ị"
      ],
      [
        "▁t",
        "h"
      ],
      [
        "▁I",
        "n"
      ],
      [
        "▁on",
        "ye"
      ],
      [
        "▁gbo",
        "gbo"
      ],
      [
        "&lt;/",
        "ref&gt;"
      ],
      [
        "am",
        "a"
      ],
      [
        "i",
        "ya"
      ],
      [
        "l",
        "ọ"
      ],
      [
        "▁n",
        "'"
      ],
      [
        "S",
        "ARS"
      ],
      [
        "us",
        "e"
      ],
      [
        "▁B",
        "í"
      ],
      [
        "l",
        "y"
      ],
      [
        "▁s",
        "a"
      ],
      [
        "▁w",
        "as"
      ],
      [
        "▁",
        "Ẹ"
      ],
      [
        "h",
        "u"
      ],
      [
        "▁l",
        "o"
      ],
      [
        "ụ",
        "rụ"
      ],
      [
        "ú",
        "r"
      ],
      [
        "ti",
        "c"
      ],
      [
        "▁t",
        "á"
      ],
      [
        "▁com",
        "e"
      ],
      [
        "▁",
        "en"
      ],
      [
        "et",
        "in"
      ],
      [
        "m",
        "i"
      ],
      [
        "▁201",
        "8"
      ],
      [
        "w",
        "ar"
      ],
      [
        "▁s",
        "un"
      ],
      [
        "k",
        "o"
      ],
      [
        "▁f",
        "it"
      ],
      [
        "▁m",
        "e"
      ],
      [
        "ẹ",
        "n"
      ],
      [
        "y",
        "ìn"
      ],
      [
        "▁p",
        "ass"
      ],
      [
        "▁k",
        "á"
      ],
      [
        "▁in",
        "s"
      ],
      [
        "u",
        "wa"
      ],
      [
        "ip",
        "o"
      ],
      [
        "s",
        "i"
      ],
      [
        "w",
        "o"
      ],
      [
        "ol",
        "ice"
      ],
      [
        "s",
        "í"
      ],
      [
        "▁p",
        "ipo"
      ],
      [
        "▁a",
        "f"
      ],
      [
        "▁2",
        ":"
      ],
      [
        "▁a",
        "r"
      ],
      [
        "▁ins",
        "ide"
      ],
      [
        "u",
        "k"
      ],
      [
        "an",
        "s"
      ],
      [
        "▁y",
        "i"
      ],
      [
        "▁y",
        "óò"
      ],
      [
        "ọ",
        "r"
      ],
      [
        "c",
        "in"
      ],
      [
        "n",
        "ì"
      ],
      [
        "▁k",
        "as"
      ],
      [
        "▁ma",
        "ke"
      ],
      [
        "▁c",
        "e"
      ],
      [
        "al",
        "a"
      ],
      [
        "an",
        "y"
      ],
      [
        "gb",
        "e"
      ],
      [
        "c",
        "he"
      ],
      [
        "t",
        "orí"
      ],
      [
        "à",
        "á"
      ],
      [
        "un",
        "g"
      ],
      [
        "os",
        "t"
      ],
      [
        "an",
        "i"
      ],
      [
        "b",
        "u"
      ],
      [
        "c",
        "k"
      ],
      [
        "ẹ́",
        "ẹ̀"
      ],
      [
        "▁m",
        "o"
      ],
      [
        "▁è",
        "èyàn"
      ],
      [
        "▁l",
        "a"
      ],
      [
        "g",
        "w"
      ],
      [
        "s",
        "ù"
      ],
      [
        "an",
        "ce"
      ],
      [
        "▁M",
        "a"
      ],
      [
        "s",
        "o"
      ],
      [
        "▁ní",
        "pa"
      ],
      [
        "i",
        "e"
      ],
      [
        "▁ọ",
        "k"
      ],
      [
        "p",
        "ọ̀"
      ],
      [
        "▁on",
        "e"
      ],
      [
        "▁p",
        "l"
      ],
      [
        "i",
        "ke"
      ],
      [
        "r",
        "ol"
      ],
      [
        "▁p",
        "at"
      ],
      [
        "k",
        "in"
      ],
      [
        "▁",
        "un"
      ],
      [
        "▁m",
        "at"
      ],
      [
        "n",
        "a"
      ],
      [
        "▁k",
        "e"
      ],
      [
        "▁s",
        "o"
      ],
      [
        "▁b",
        "u"
      ],
      [
        "▁fa",
        "ce"
      ],
      [
        "f",
        "in"
      ],
      [
        "▁j",
        "i"
      ],
      [
        "e",
        "h"
      ],
      [
        "y",
        "à"
      ],
      [
        "t",
        "à"
      ],
      [
        "b",
        "é"
      ],
      [
        "j",
        "ọ́"
      ],
      [
        "▁m",
        "ọ́"
      ],
      [
        "ig",
        "h"
      ],
      [
        "▁y",
        "ou"
      ],
      [
        "▁",
        ")"
      ],
      [
        "th",
        "er"
      ],
      [
        "▁con",
        "t"
      ],
      [
        "h",
        "a"
      ],
      [
        "▁m",
        "í"
      ],
      [
        "▁o",
        "l"
      ],
      [
        "▁w",
        "at"
      ],
      [
        "m",
        "ụ"
      ],
      [
        "▁o",
        "da"
      ],
      [
        "il",
        "l"
      ],
      [
        "▁",
        "Ó"
      ],
      [
        "▁a",
        "bo"
      ],
      [
        "▁N",
        "a"
      ],
      [
        "▁i",
        "ke"
      ],
      [
        "▁a",
        "ra"
      ],
      [
        "ch",
        "ị"
      ],
      [
        "&lt;",
        "ref&gt;"
      ],
      [
        "▁pat",
        "rol"
      ],
      [
        "at",
        "es"
      ],
      [
        "e",
        "c"
      ],
      [
        "▁p",
        "a"
      ],
      [
        "=",
        "&quot;"
      ],
      [
        "▁",
        "í"
      ],
      [
        "▁gb",
        "é"
      ],
      [
        "▁da",
        "ga"
      ],
      [
        "▁",
        "4"
      ],
      [
        "▁201",
        "9"
      ],
      [
        "▁ma",
        "i"
      ],
      [
        "▁f",
        "ot"
      ],
      [
        "f",
        "i"
      ],
      [
        "▁",
        "á"
      ],
      [
        "▁À",
        "wọn"
      ],
      [
        "\"",
        ","
      ],
      [
        "it",
        "e"
      ],
      [
        "▁d",
        "o"
      ],
      [
        "ọr",
        "ọ"
      ],
      [
        "▁s",
        "i"
      ],
      [
        "ar",
        "y"
      ],
      [
        "h",
        "y"
      ],
      [
        "▁b",
        "ay"
      ],
      [
        "ov",
        "a"
      ],
      [
        "u",
        "g"
      ],
      [
        "▁r",
        "ẹ"
      ],
      [
        "ọ̀",
        "n"
      ],
      [
        "ad",
        "ụ"
      ],
      [
        "▁F",
        "SARS"
      ],
      [
        "il",
        "e"
      ],
      [
        "u",
        "d"
      ],
      [
        "▁J",
        "eh"
      ],
      [
        "ị",
        "a"
      ],
      [
        "▁gb",
        "à"
      ],
      [
        "▁A",
        "f"
      ],
      [
        "r",
        "àn"
      ],
      [
        "▁di",
        "a"
      ],
      [
        "▁h",
        "er"
      ],
      [
        "▁e",
        "me"
      ],
      [
        "▁ẹ",
        "ni"
      ],
      [
        "▁abo",
        "ut"
      ],
      [
        "d",
        "ún"
      ],
      [
        "ay",
        "in"
      ],
      [
        "t",
        "ọ́"
      ],
      [
        "▁Jeh",
        "ova"
      ],
      [
        "k",
        "i"
      ],
      [
        "▁ní",
        "gbà"
      ],
      [
        "▁h",
        "our"
      ],
      [
        "m",
        "í"
      ],
      [
        "4",
        "th"
      ],
      [
        "▁f",
        "ẹ́"
      ],
      [
        "iy",
        "ar"
      ],
      [
        "k",
        "ọ́"
      ],
      [
        "j",
        "ì"
      ],
      [
        "▁y",
        "an"
      ],
      [
        "0",
        "0"
      ],
      [
        "▁mm",
        "adụ"
      ],
      [
        "l",
        "á"
      ],
      [
        "w",
        "it"
      ],
      [
        "or",
        "s"
      ],
      [
        "ụ",
        "ọ"
      ],
      [
        "▁ì",
        "d"
      ],
      [
        "n",
        "u"
      ],
      [
        "ṣ",
        "e"
      ],
      [
        "r",
        "ú"
      ],
      [
        "us",
        "t"
      ],
      [
        "▁m",
        "as"
      ],
      [
        "he",
        "l"
      ],
      [
        "▁S",
        "ee"
      ],
      [
        "▁",
        "—"
      ],
      [
        "▁a",
        "yé"
      ],
      [
        "i",
        "m"
      ],
      [
        "d",
        "è"
      ],
      [
        "l",
        "ẹ́"
      ],
      [
        "▁i",
        "ṣẹ́"
      ],
      [
        "e",
        "ar"
      ],
      [
        "w",
        "an"
      ],
      [
        "▁l",
        "ẹ́"
      ],
      [
        "▁a",
        "t"
      ],
      [
        "o",
        "d"
      ],
      [
        "▁k",
        "ar"
      ],
      [
        "k",
        "ò"
      ],
      [
        "r",
        "ò"
      ],
      [
        "▁nw",
        "ere"
      ],
      [
        "p",
        "e"
      ],
      [
        "wit",
        "ter"
      ],
      [
        "▁m",
        "ere"
      ],
      [
        "▁D",
        "i"
      ],
      [
        "▁t",
        "à"
      ],
      [
        "▁cont",
        "ent"
      ],
      [
        "▁g",
        "ị"
      ],
      [
        "p",
        "ụ"
      ],
      [
        "▁b",
        "ẹ́ẹ̀"
      ],
      [
        "▁J",
        "é"
      ],
      [
        "▁l",
        "é"
      ],
      [
        "ǹ",
        "kan"
      ],
      [
        "▁p",
        "ost"
      ],
      [
        "b",
        "ụ"
      ],
      [
        "▁e",
        "be"
      ],
      [
        "y",
        "ere"
      ],
      [
        "n",
        "an"
      ],
      [
        "▁content",
        "_"
      ],
      [
        "▁hour",
        "s"
      ],
      [
        "▁M",
        "ay"
      ],
      [
        "▁k",
        "o"
      ],
      [
        "es",
        "s"
      ],
      [
        "▁ta",
        "ke"
      ],
      [
        "▁3",
        ",0"
      ],
      [
        "▁h",
        "ow"
      ],
      [
        "gb",
        "a"
      ],
      [
        "ab",
        "a"
      ],
      [
        "▁p",
        "ẹ̀"
      ],
      [
        "▁",
        "or"
      ],
      [
        "▁3:",
        "0"
      ],
      [
        "gb",
        "ọ́n"
      ],
      [
        "b",
        "ẹ̀"
      ],
      [
        "▁",
        "Ṣ"
      ],
      [
        "▁U",
        "g"
      ],
      [
        "om",
        "e"
      ],
      [
        "ur",
        "n"
      ],
      [
        "f",
        "a"
      ],
      [
        "▁w",
        "ell"
      ],
      [
        "▁sh",
        "i"
      ],
      [
        "d",
        "ụ"
      ],
      [
        "t",
        "e"
      ],
      [
        "▁n",
        "ǹkan"
      ],
      [
        "▁",
        "5"
      ],
      [
        "as",
        "h"
      ],
      [
        "2",
        "nd"
      ],
      [
        "bé",
        "lì"
      ],
      [
        "▁s",
        "am"
      ],
      [
        "▁Bí",
        "bélì"
      ],
      [
        "g",
        "o"
      ],
      [
        "▁k",
        "ọ"
      ],
      [
        "n",
        "í"
      ],
      [
        "r",
        "u"
      ],
      [
        "▁g",
        "om"
      ],
      [
        "▁ló",
        "rí"
      ],
      [
        "▁t",
        "ún"
      ],
      [
        "ị",
        "rị"
      ],
      [
        "▁A",
        "m"
      ],
      [
        "▁Jé",
        "sù"
      ],
      [
        "▁E",
        "nd"
      ],
      [
        "it",
        "y"
      ],
      [
        "▁pẹ̀",
        "lú"
      ],
      [
        "▁ot",
        "u"
      ],
      [
        "at",
        "h"
      ],
      [
        "r",
        "ic"
      ],
      [
        "u",
        "h"
      ],
      [
        "ik",
        "i"
      ],
      [
        "hel",
        "li"
      ],
      [
        "▁Ug",
        "helli"
      ],
      [
        "▁gb",
        "a"
      ],
      [
        "▁na",
        "me"
      ],
      [
        "▁2",
        ","
      ],
      [
        "ay",
        "a"
      ],
      [
        "▁",
        "orí"
      ],
      [
        "r",
        "is"
      ],
      [
        "l",
        "ù"
      ],
      [
        "an",
        "ar"
      ],
      [
        "▁a",
        "pp"
      ],
      [
        "▁i",
        "lẹ̀"
      ],
      [
        "▁F",
        "und"
      ],
      [
        "m",
        "ọ̀"
      ],
      [
        "▁è",
        "yí"
      ],
      [
        "▁kw",
        "uru"
      ],
      [
        "▁k",
        "ì"
      ],
      [
        "8",
        "th"
      ],
      [
        "▁H",
        "ow"
      ],
      [
        "r",
        "y"
      ],
      [
        "res",
        "s"
      ],
      [
        "▁T",
        "witter"
      ],
      [
        "▁post",
        ","
      ],
      [
        "▁wit",
        "h"
      ],
      [
        "i",
        "an"
      ],
      [
        "▁ọ̀",
        "rọ̀"
      ],
      [
        "or",
        "o"
      ],
      [
        "▁o",
        "bi"
      ],
      [
        "k",
        "ó"
      ],
      [
        "▁W",
        "etin"
      ],
      [
        "▁tà",
        "bí"
      ],
      [
        "n",
        "à"
      ],
      [
        "ine",
        "ke"
      ],
      [
        "▁",
        "ɗ"
      ],
      [
        "▁",
        "‘"
      ],
      [
        "▁Ch",
        "ineke"
      ],
      [
        "ar",
        "t"
      ],
      [
        "▁wan",
        "da"
      ],
      [
        "▁gom",
        "ent"
      ],
      [
        "▁y",
        "ín"
      ],
      [
        "▁ò",
        "un"
      ],
      [
        "▁t",
        "ori"
      ],
      [
        "▁an",
        "ya"
      ],
      [
        "d",
        "ọ̀"
      ],
      [
        "▁3",
        ","
      ],
      [
        "▁w",
        "om"
      ],
      [
        "▁lọ́",
        "wọ́"
      ],
      [
        "m",
        "ent"
      ],
      [
        "▁ì",
        "gbà"
      ],
      [
        "▁t",
        "he"
      ],
      [
        "y",
        "in"
      ],
      [
        "▁",
        "&quot;"
      ],
      [
        "r",
        "ẹ̀"
      ],
      [
        "an",
        "t"
      ],
      [
        "▁ní",
        "torí"
      ],
      [
        "▁",
        "*"
      ],
      [
        "z",
        "u"
      ],
      [
        "▁S",
        "t"
      ],
      [
        "v",
        "e"
      ],
      [
        "á",
        "jú"
      ],
      [
        "j",
        "e"
      ],
      [
        "▁g",
        "et"
      ],
      [
        "for",
        "m"
      ],
      [
        "s",
        ","
      ],
      [
        "c",
        "tion"
      ],
      [
        "▁l",
        "e"
      ],
      [
        "as",
        "a"
      ],
      [
        "▁i",
        "me"
      ],
      [
        "res",
        "id"
      ],
      [
        "▁mat",
        "s"
      ],
      [
        "s",
        "on"
      ],
      [
        "kw",
        "ụ"
      ],
      [
        "▁ọ",
        "n"
      ],
      [
        "0",
        "th"
      ],
      [
        "b",
        "ọ"
      ],
      [
        "al",
        "i"
      ],
      [
        "j",
        "a"
      ],
      [
        "ar",
        "in"
      ],
      [
        "k",
        "ú"
      ],
      [
        "▁b",
        "in"
      ],
      [
        "▁Ọ",
        "̀"
      ],
      [
        "▁ụ",
        "mụ"
      ],
      [
        "▁gb",
        "ọ́"
      ],
      [
        "▁z",
        "a"
      ],
      [
        "5",
        "th"
      ],
      [
        "▁K",
        "í"
      ],
      [
        "▁r",
        "o"
      ],
      [
        "▁k",
        "ọ́"
      ],
      [
        "▁ì",
        "y"
      ],
      [
        "o",
        "ol"
      ],
      [
        "iv",
        "e"
      ],
      [
        "▁e",
        "x"
      ],
      [
        "ur",
        "e"
      ],
      [
        "▁p",
        "olice"
      ],
      [
        "k",
        "u"
      ],
      [
        "▁th",
        "ing"
      ],
      [
        "w",
        "ay"
      ],
      [
        "▁m",
        "gbe"
      ],
      [
        "l",
        "u"
      ],
      [
        "▁w",
        "ay"
      ],
      [
        "▁she",
        "kar"
      ],
      [
        "&lt;",
        "ref"
      ],
      [
        "ee",
        "d"
      ],
      [
        "▁t",
        "s"
      ],
      [
        "ch",
        "a"
      ],
      [
        "M",
        "E"
      ],
      [
        "w",
        "ó"
      ],
      [
        "▁f",
        "ar"
      ],
      [
        "k",
        "ọ̀"
      ],
      [
        "▁ar",
        "á"
      ],
      [
        "á",
        "ra"
      ],
      [
        "▁J",
        "os"
      ],
      [
        "r",
        "d"
      ],
      [
        "▁a",
        "ga"
      ],
      [
        "▁",
        "È"
      ],
      [
        "▁ụ",
        "lọ"
      ],
      [
        "gb",
        "é"
      ],
      [
        "g",
        "in"
      ],
      [
        "ùn",
        "rin"
      ],
      [
        "▁ot",
        "ú"
      ],
      [
        "ur",
        "v"
      ],
      [
        "▁g",
        "an"
      ],
      [
        "g",
        "un"
      ],
      [
        "▁s",
        "ị"
      ],
      [
        "▁name",
        "=&quot;"
      ],
      [
        "c",
        "c"
      ],
      [
        "▁A",
        "l"
      ],
      [
        "▁s",
        "ab"
      ],
      [
        "▁ọ",
        "zọ"
      ],
      [
        "▁c",
        "all"
      ],
      [
        "u",
        "el"
      ],
      [
        "▁D",
        "e"
      ],
      [
        "▁w",
        "ee"
      ],
      [
        "▁Ní",
        "gbà"
      ],
      [
        "r",
        "è"
      ],
      [
        "k",
        "àn"
      ],
      [
        "an",
        "ge"
      ],
      [
        "gb",
        "u"
      ],
      [
        "ov",
        "e"
      ],
      [
        "▁à",
        "p"
      ],
      [
        "k",
        "ụ"
      ],
      [
        "▁a",
        "d"
      ],
      [
        "z",
        "e"
      ],
      [
        "b",
        "á"
      ],
      [
        "as",
        "t"
      ],
      [
        "▁n",
        "ì"
      ],
      [
        "&lt;ref&gt;",
        "&lt;/ref&gt;"
      ],
      [
        "d",
        "y"
      ],
      [
        "▁ọ",
        "dún"
      ],
      [
        "▁d",
        "é"
      ],
      [
        "3",
        "rd"
      ],
      [
        "▁è",
        "dè"
      ],
      [
        "▁e",
        "zi"
      ],
      [
        "▁i",
        "lé"
      ],
      [
        "0",
        "6"
      ],
      [
        "iv",
        "al"
      ],
      [
        "on",
        "y"
      ],
      [
        "▁al",
        "á"
      ],
      [
        "▁lá",
        "ra"
      ],
      [
        "▁S",
        "urv"
      ],
      [
        "▁z",
        "uwa"
      ],
      [
        "un",
        "a"
      ],
      [
        "▁",
        "["
      ],
      [
        "▁m",
        "y"
      ],
      [
        "▁M",
        "S"
      ],
      [
        "▁G",
        "h"
      ],
      [
        "n",
        "e"
      ],
      [
        "▁",
        "’"
      ],
      [
        "w",
        "é"
      ],
      [
        "b",
        "an"
      ],
      [
        "▁Surv",
        "ival"
      ],
      [
        "▁ni",
        "ile"
      ],
      [
        "k",
        "ì"
      ],
      [
        "▁MS",
        "ME"
      ],
      [
        "o",
        "ther"
      ],
      [
        "▁app",
        "ly"
      ],
      [
        "u",
        "p"
      ],
      [
        "fe",
        "ct"
      ],
      [
        "a",
        "ch"
      ],
      [
        "m",
        "an"
      ],
      [
        "ci",
        "al"
      ],
      [
        "▁r",
        "u"
      ],
      [
        "k",
        "ara"
      ],
      [
        "▁a",
        "gb"
      ],
      [
        "▁J",
        "i"
      ],
      [
        "▁sh",
        "a"
      ],
      [
        "▁T",
        "ori"
      ],
      [
        "ed",
        "ia"
      ],
      [
        "▁Gh",
        "ana"
      ],
      [
        "▁j",
        "á"
      ],
      [
        "&quot;",
        "&gt;"
      ],
      [
        "▁e",
        "le"
      ],
      [
        "nì",
        "yàn"
      ],
      [
        "▁m",
        "ata"
      ],
      [
        "s",
        "ìn"
      ],
      [
        "v",
        "er"
      ],
      [
        "▁",
        "Z"
      ],
      [
        "▁m",
        "ọ̀"
      ],
      [
        "o",
        "k"
      ],
      [
        "▁",
        ";"
      ],
      [
        "▁Y",
        "a"
      ],
      [
        "▁e",
        "f"
      ],
      [
        "▁r",
        "a"
      ],
      [
        "o",
        "ung"
      ],
      [
        "▁h",
        "e"
      ],
      [
        "form",
        "ate"
      ],
      [
        "▁m",
        "ọ"
      ],
      [
        "▁g",
        "w"
      ],
      [
        "▁su",
        "ka"
      ],
      [
        "en",
        "d"
      ],
      [
        "tic",
        "al"
      ],
      [
        "r",
        "ùn"
      ],
      [
        "igh",
        "t"
      ],
      [
        "g",
        "ẹ́"
      ],
      [
        "▁An",
        "other"
      ],
      [
        "▁wom",
        "an"
      ],
      [
        "w",
        "u"
      ],
      [
        "m",
        "ù"
      ],
      [
        "▁ì",
        "ṣ"
      ],
      [
        "1",
        "st"
      ],
      [
        "r",
        "an"
      ],
      [
        "t",
        "ara"
      ],
      [
        "▁ch",
        "ange"
      ],
      [
        "▁k",
        "p"
      ],
      [
        "s",
        "e"
      ],
      [
        "▁k",
        "am"
      ],
      [
        "▁fot",
        "o"
      ],
      [
        "k",
        "è"
      ],
      [
        "l",
        "à"
      ],
      [
        "▁P",
        "olice"
      ],
      [
        "ọ",
        "ọ"
      ],
      [
        "▁In",
        "formate"
      ],
      [
        "f",
        "ẹ́"
      ],
      [
        "▁T",
        "op"
      ],
      [
        "▁\"",
        "I"
      ],
      [
        "▁",
        "6"
      ],
      [
        "▁b",
        "ẹ̀"
      ],
      [
        "▁mats",
        "ayin"
      ],
      [
        "1",
        "9"
      ],
      [
        "u",
        "e"
      ],
      [
        "▁n",
        "eed"
      ],
      [
        "▁p",
        "à"
      ],
      [
        "ut",
        "e"
      ],
      [
        "▁in",
        "ú"
      ],
      [
        "▁w",
        "o"
      ],
      [
        "▁h",
        "àn"
      ],
      [
        "▁y",
        "oung"
      ],
      [
        "▁u",
        "p"
      ],
      [
        "▁w",
        "í"
      ],
      [
        "or",
        "e"
      ],
      [
        "▁M",
        "ar"
      ],
      [
        "s",
        "ọ"
      ],
      [
        "resid",
        "ent"
      ],
      [
        "p",
        "á"
      ],
      [
        "▁ma",
        "ka"
      ],
      [
        "▁K",
        "an"
      ],
      [
        "▁w",
        "hy"
      ],
      [
        "▁i",
        "si"
      ],
      [
        "ov",
        "er"
      ],
      [
        "▁è",
        "nìyàn"
      ],
      [
        "▁ìw",
        "é"
      ],
      [
        "m",
        "es"
      ],
      [
        "l",
        "ò"
      ],
      [
        "'",
        "a"
      ],
      [
        "▁M",
        "o"
      ],
      [
        "ath",
        "er"
      ],
      [
        "2",
        "8th"
      ],
      [
        "y",
        "an"
      ],
      [
        "▁w",
        "etin"
      ],
      [
        "s",
        "ì"
      ],
      [
        "▁mas",
        "u"
      ],
      [
        "▁y",
        "ana"
      ],
      [
        "▁L",
        "e"
      ],
      [
        "6",
        "3"
      ],
      [
        "▁ì",
        "p"
      ],
      [
        "▁ì",
        "jọ"
      ],
      [
        "2",
        "5th"
      ],
      [
        "bo",
        "dy"
      ],
      [
        "▁t",
        "urn"
      ],
      [
        "▁y",
        "ear"
      ],
      [
        "▁N",
        "dị"
      ],
      [
        "▁y",
        "ẹ"
      ],
      [
        "ad",
        "s"
      ],
      [
        "▁H",
        "a"
      ],
      [
        "r",
        "ẹ́"
      ],
      [
        "ch",
        "ool"
      ],
      [
        "▁W",
        "ia"
      ],
      [
        "▁y",
        "ẹn"
      ],
      [
        "▁n",
        "ọ"
      ],
      [
        "▁b",
        "ó"
      ],
      [
        "▁F",
        "G"
      ],
      [
        "an",
        "e"
      ],
      [
        "t",
        "ì"
      ],
      [
        "▁from",
        ","
      ],
      [
        "▁t",
        "are"
      ],
      [
        "ou",
        "th"
      ],
      [
        "ad",
        "a"
      ],
      [
        "me",
        "di"
      ],
      [
        "▁on",
        "í"
      ],
      [
        "▁m",
        "edia"
      ],
      [
        "▁w",
        "or"
      ],
      [
        "▁N",
        "’"
      ],
      [
        "▁B",
        "a"
      ],
      [
        "j",
        "à"
      ],
      [
        "▁im",
        "medi"
      ],
      [
        "▁ef",
        "fect"
      ],
      [
        "i",
        ","
      ],
      [
        "▁p",
        "e"
      ],
      [
        "d",
        "é"
      ],
      [
        "▁bu",
        "y"
      ],
      [
        "▁n",
        "wa"
      ],
      [
        "▁s",
        "qu"
      ],
      [
        "▁bụ",
        "rụ"
      ],
      [
        "▁ce",
        "wa"
      ],
      [
        "▁m",
        "ẹ́"
      ],
      [
        "▁immedi",
        "ate"
      ],
      [
        "ọ̀",
        "rọ̀"
      ],
      [
        "▁ọ",
        "jọ́"
      ],
      [
        "▁bo",
        "il"
      ],
      [
        "N",
        "a"
      ],
      [
        "▁",
        "Ò"
      ],
      [
        "y",
        "ar"
      ],
      [
        "in",
        "a"
      ],
      [
        "▁Jos",
        "hu"
      ],
      [
        "th",
        "ony"
      ],
      [
        "1",
        "2"
      ],
      [
        "at",
        "ors"
      ],
      [
        "▁ọ",
        "rụ"
      ],
      [
        "▁O",
        "l"
      ],
      [
        "▁d",
        "à"
      ],
      [
        "y",
        "è"
      ],
      [
        "▁i",
        "hi"
      ],
      [
        "c",
        "tical"
      ],
      [
        "▁m",
        "é"
      ],
      [
        "▁M",
        "ike"
      ],
      [
        "p",
        "ort"
      ],
      [
        "▁A",
        "r"
      ],
      [
        "▁bo",
        "x"
      ],
      [
        "▁re",
        "g"
      ],
      [
        "▁ta",
        "ctical"
      ],
      [
        "▁squ",
        "ads"
      ],
      [
        "an",
        "g"
      ],
      [
        "way",
        "s"
      ],
      [
        "▁B",
        "á"
      ],
      [
        "ol",
        "d"
      ],
      [
        "▁f",
        "uel"
      ],
      [
        "▁i",
        "che"
      ],
      [
        "▁T",
        "y"
      ],
      [
        "▁ọ̀",
        "nà"
      ],
      [
        "u",
        "it"
      ],
      [
        "▁lo",
        "ka"
      ],
      [
        "kw",
        "ọ"
      ],
      [
        "o",
        "use"
      ],
      [
        "am",
        "p"
[...]
