{
  "version": "1.0",
  "truncation": null,
  "padding": null,
  "added_tokens": [
    {
      "id": 0,
      "content": "<pad>",
      "single_word": false,
      "lstrip": false,
      "rstrip": false,
      "normalized": false,
      "special": true
    },
    {
      "id": 1,
      "content": "<unk>",
      "single_word": false,
      "lstrip": false,
      "rstrip": false,
      "normalized": false,
      "special": true
    },
    {
      "id": 2,
      "content": "<s>",
      "single_word": false,
      "lstrip": false,
      "rstrip": false,
      "normalized": false,
      "special": true
    },
    {
      "id": 3,
      "content": "</s>",
      "single_word": false,
      "lstrip": false,
      "rstrip": false,
      "normalized": false,
      "special": true
    }
  ],
  "normalizer": {
    "type": "NFC"
  },
  "pre_tokenizer": {
    "type": "Metaspace",
    "replacement": "▁",
    "prepend_scheme": "always",
    "split": true
  },
  "post_processor": null,
  "decoder": {
    "type": "Metaspace",
    "replacement": "▁",
    "prepend_scheme": "always",
    "split": true
  },
  "model": {
    "type": "BPE",
    "dropout": null,
    "unk_token": "<unk>",
    "continuing_subword_prefix": null,
    "end_of_word_suffix": null,
    "fuse_unk": false,
    "byte_fallback": false,
    "ignore_merges": false,
    "vocab": {
      "<pad>": 0,
      "<unk>": 1,
      "<s>": 2,
      "</s>": 3,
      "\t": 4,
      "\n": 5,
      "!": 6,
      "\"": 7,
      "#": 8,
      "$": 9,
      "%": 10,
      "&": 11,
      "'": 12,
      "(": 13,
      ")": 14,
      "*": 15,
      "+": 16,
      ",": 17,
      "-": 18,
      ".": 19,
      "/": 20,
      "0": 21,
      "1": 22,
      "2": 23,
      "3": 24,
      "4": 25,
      "5": 26,
      "6": 27,
      "7": 28,
      "8": 29,
      "9": 30,
      ":": 31,
      ";": 32,
      "<": 33,
      "=": 34,
      ">": 35,
      "?": 36,
      "@": 37,
      "A": 38,
      "B": 39,
      "C": 40,
      "D": 41,
      "E": 42,
      "F": 43,
      "G": 44,
      "H": 45,
      "I": 46,
      "J": 47,
      "K": 48,
      "L": 49,
      "M": 50,
      "N": 51,
      "O": 52,
      "P": 53,
      "Q": 54,
      "R": 55,
      "S": 56,
      "T": 57,
      "U": 58,
      "V": 59,
      "W": 60,
      "X": 61,
      "Y": 62,
      "Z": 63,
      "[": 64,
      "\\": 65,
      "]": 66,
      "^": 67,
      "_": 68,
      "`": 69,
      "a": 70,
      "b": 71,
      "c": 72,
      "d": 73,
      "e": 74,
      "f": 75,
      "g": 76,
      "h": 77,
      "i": 78,
      "j": 79,
      "k": 80,
      "l": 81,
      "m": 82,
      "n": 83,
      "o": 84,
      "p": 85,
      "q": 86,
      "r": 87,
      "s": 88,
      "t": 89,
      "u": 90,
      "v": 91,
      "w": 92,
      "x": 93,
      "y": 94,
      "z": 95,
      "{": 96,
      "|": 97,
      "}": 98,
      "~": 99,
      "": 100,
      " ": 101,
      "¡": 102,
      "¢": 103,
      "£": 104,
      "¤": 105,
      "¥": 106,
      "¦": 107,
      "§": 108,
      "«": 109,
      "°": 110,
      "²": 111,
      "³": 112,
      "´": 113,
      "¶": 114,
      "·": 115,
      "¹": 116,
      "»": 117,
      "¿": 118,
      "À": 119,
      "Á": 120,
      "Â": 121,
      "Æ": 122,
      "Ç": 123,
      "È": 124,
      "É": 125,
      "Ë": 126,
      "Ì": 127,
      "Í": 128,
      "Î": 129,
      "Ï": 130,
      "Ñ": 131,
      "Ò": 132,
      "Ó": 133,
      "Ö": 134,
      "×": 135,
      "Ø": 136,
      "Ú": 137,
      "Û": 138,
      "Ü": 139,
      "à": 140,
      "á": 141,
      "â": 142,
      "ã": 143,
      "ä": 144,
      "å": 145,
      "æ": 146,
      "ç": 147,
      "è": 148,
      "é": 149,
      "ê": 150,
      "ë": 151,
      "ì": 152,
      "í": 153,
      "î": 154,
      "ï": 155,
      "ð": 156,
      "ñ": 157,
      "ò": 158,
      "ó": 159,
      "ô": 160,
      "õ": 161,
      "ö": 162,
      "÷": 163,
      "ø": 164,
      "ù": 165,
      "ú": 166,
      "ü": 167,
      "ý": 168,
      "ā": 169,
      "ă": 170,
      "ą": 171,
      "ć": 172,
      "ċ": 173,
      "Č": 174,
      "č": 175,
      "ė": 176,
      "Ę": 177,
      "ę": 178,
      "ě": 179,
      "ğ": 180,
      "ĩ": 181,
      "ī": 182,
      "İ": 183,
      "ı": 184,
      "ł": 185,
      "ń": 186,
      "ň": 187,
      "Ō": 188,
      "œ": 189,
      "ś": 190,
      "ş": 191,
      "Š": 192,
      "š": 193,
      "ũ": 194,
      "ž": 195,
      "Ɗ": 196,
      "ǧ": 197,
      "ɑ": 198,
      "ə": 199,
      "ɛ": 200,
      "ɢ": 201,
      "ɪ": 202,
      "ɴ": 203,
      "ʀ": 204,
      "ʂ": 205,
      "ʋ": 206,
      "ʍ": 207,
      "ʏ": 208,
      "ʙ": 209,
      "ʟ": 210,
      "ʰ": 211,
      "ʳ": 212,
      "ʻ": 213,
      "ʽ": 214,
      "ʿ": 215,
      "˚": 216,
      "ˢ": 217,
      "̀": 218,
      "́": 219,
      "̅": 220,
      "̩": 221,
      "̲": 222,
      "̶": 223,
      "ί": 224,
      "α": 225,
      "δ": 226,
      "ε": 227,
      "ι": 228,
      "μ": 229,
      "σ": 230,
      "υ": 231,
      "І": 232,
      "А": 233,
      "Б": 234,
      "В": 235,
      "Д": 236,
      "З": 237,
      "К": 238,
      "М": 239,
      "Н": 240,
      "П": 241,
      "С": 242,
      "Т": 243,
      "Ц": 244,
      "Ч": 245,
      "а": 246,
      "б": 247,
      "в": 248,
      "г": 249,
      "д": 250,
      "е": 251,
      "ж": 252,
      "з": 253,
      "и": 254,
      "й": 255,
      "к": 256,
      "л": 257,
      "м": 258,
      "н": 259,
      "о": 260,
      "п": 261,
      "р": 262,
      "с": 263,
      "т": 264,
      "у": 265,
      "ф": 266,
      "х": 267,
      "ц": 268,
      "ч": 269,
      "ш": 270,
      "щ": 271,
      "ь": 272,
      "ю": 273,
      "я": 274,
      "є": 275,
      "і": 276,
      "ї": 277,
      "ү": 278,
      "ԅ": 279,
      "ԑ": 280,
      "֊": 281,
      "ء": 282,
      "أ": 283,
      "إ": 284,
      "ئ": 285,
      "ا": 286,
      "ب": 287,
      "ة": 288,
      "ت": 289,
      "ث": 290,
      "ج": 291,
      "ح": 292,
      "خ": 293,
      "د": 294,
      "ذ": 295,
      "ر": 296,
      "ز": 297,
      "س": 298,
      "ش": 299,
      "ص": 300,
      "ض": 301,
      "ط": 302,
      "ظ": 303,
      "ع": 304,
      "غ": 305,
      "ـ": 306,
      "ف": 307,
      "ق": 308,
      "ك": 309,
      "ل": 310,
      "م": 311,
      "ن": 312,
      "ه": 313,
      "و": 314,
      "ى": 315,
      "ي": 316,
      "ٌ": 317,
      "ُ": 318,
      "ِ": 319,
      "ّ": 320,
      "١": 321,
      "٢": 322,
      "ک": 323,
      "ڪ": 324,
      "گ": 325,
      "ی": 326,
      "ँ": 327,
      "उ": 328,
      "क": 329,
      "ट": 330,
      "त": 331,
      "द": 332,
      "ध": 333,
      "न": 334,
      "ब": 335,
      "म": 336,
      "य": 337,
      "र": 338,
      "व": 339,
      "ष": 340,
      "स": 341,
      "ह": 342,
      "ा": 343,
      "ी": 344,
      "ु": 345,
      "े": 346,
      "्": 347,
      "ੈ": 348,
      "ᐯ": 349,
      "ᑎ": 350,
      "ᑕ": 351,
      "ᒪ": 352,
      "ᔕ": 353,
      "ᗩ": 354,
      "ᥱ": 355,
      "ᴀ": 356,
      "ᴄ": 357,
      "ᴅ": 358,
      "ᴇ": 359,
      "ᴏ": 360,
      "ᴛ": 361,
      "ᴜ": 362,
      "ᴠ": 363,
      "ᴡ": 364,
      "ᵀ": 365,
      "ᵃ": 366,
      "ᵇ": 367,
      "ᵉ": 368,
      "ᵍ": 369,
      "ᵏ": 370,
      "ᵒ": 371,
      "ᵗ": 372,
      "ᵪ": 373,
      "ᶜ": 374,
      "ᶦ": 375,
      "Ṣ": 376,
      "ṣ": 377,
      "ṭ": 378,
      "ẓ": 379,
      "Ẹ": 380,
      "ẹ": 381,
      "ẻ": 382,
      "Ị": 383,
      "ị": 384,
      "Ọ": 385,
      "ọ": 386,
      "ụ": 387,
      " ": 388,
      " ": 389,
      "​": 390,
      "‎": 391,
      "‏": 392,
      "‐": 393,
      "–": 394,
      "—": 395,
      "‘": 396,
      "’": 397,
      "‚": 398,
      "“": 399,
      "”": 400,
      "†": 401,
      "•": 402,
      "…": 403,
      "‪": 404,
      "‬": 405,
      "‭": 406,
      "′": 407,
      "›": 408,
      "‼": 409,
      "⁠": 410,
      "⁣": 411,
      "⁦": 412,
      "⁩": 413,
      "⁶": 414,
      "⁷": 415,
      "ⁿ": 416,
      "₇": 417,
      "₤": 418,
      "₦": 419,
      "€": 420,
      "₵": 421,
      "ℓ": 422,
      "ℕ": 423,
      "ℝ": 424,
      "™": 425,
      "→": 426,
      "∂": 427,
      "∏": 428,
      "≠": 429,
      "ⓥ": 430,
      "┏": 431,
      "┓": 432,
      "▁": 433,
      "■": 434,
      "►": 435,
      "◄": 436,
      "●": 437,
      "◢": 438,
      "◤": 439,
      "★": 440,
      "☆": 441,
      "☭": 442,
      "☻": 443,
      "♔": 444,
      "♚": 445,
      "♛": 446,
      "♡": 447,
      "♤": 448,
      "❁": 449,
      "❂": 450,
      "❤": 451,
      "➐": 452,
      "⠀": 453,
      "⸤": 454,
      "　": 455,
      "「": 456,
      "」": 457,
      "あ": 458,
      "い": 459,
      "か": 460,
      "き": 461,
      "す": 462,
      "ず": 463,
      "せ": 464,
      "そ": 465,
      "た": 466,
      "っ": 467,
      "づ": 468,
      "て": 469,
      "で": 470,
      "な": 471,
      "に": 472,
      "の": 473,
      "は": 474,
      "ば": 475,
      "ぽ": 476,
      "み": 477,
      "む": 478,
      "め": 479,
      "ゃ": 480,
      "わ": 481,
      "ん": 482,
      "ア": 483,
      "イ": 484,
      "エ": 485,
      "ガ": 486,
      "ク": 487,
      "シ": 488,
      "ス": 489,
      "セ": 490,
      "ッ": 491,
      "ツ": 492,
      "ネ": 493,
      "フ": 494,
      "ブ": 495,
      "ュ": 496,
      "ラ": 497,
      "リ": 498,
      "ル": 499,
      "ロ": 500,
      "・": 501,
      "ー": 502,
      "ㅅ": 503,
      "亞": 504,
      "作": 505,
      "利": 506,
      "前": 507,
      "勞": 508,
      "半": 509,
      "博": 510,
      "又": 511,
      "及": 512,
      "友": 513,
      "台": 514,
      "吉": 515,
      "大": 516,
      "奈": 517,
      "好": 518,
      "彡": 519,
      "文": 520,
      "日": 521,
      "本": 522,
      "杯": 523,
      "止": 524,
      "澤": 525,
      "監": 526,
      "督": 527,
      "稱": 528,
      "端": 529,
      "著": 530,
      "言": 531,
      "迫": 532,
      "ꀸ": 533,
      "ꂦ": 534,
      "ꈤ": 535,
      "ꋪ": 536,
      "ꌗ": 537,
      "ꌩ": 538,
      "ꍟ": 539,
      "꒒": 540,
      "ꜰ": 541,
      "과": 542,
      "는": 543,
      "람": 544,
      "랑": 545,
      "러": 546,
      "별": 547,
      "사": 548,
      "우": 549,
      "윌": 550,
      "을": 551,
      "음": 552,
      "주": 553,
      "죽": 554,
      "": 555,
      "": 556,
      "️": 557,
      "﻿": 558,
      "＿": 559,
      "￣": 560,
      "�": 561,
      "𓅓": 562,
      "𖧵": 563,
      "𝐀": 564,
      "𝐃": 565,
      "𝐇": 566,
      "𝐈": 567,
      "𝐌": 568,
      "𝐑": 569,
      "𝐒": 570,
      "𝐚": 571,
      "𝐛": 572,
      "𝐝": 573,
      "𝐞": 574,
      "𝐠": 575,
      "𝐢": 576,
      "𝐥": 577,
      "𝐧": 578,
      "𝐫": 579,
      "𝐬": 580,
      "𝐭": 581,
      "𝐲": 582,
      "𝑒": 583,
      "𝑜": 584,
      "𝒂": 585,
      "𝒄": 586,
      "𝒆": 587,
      "𝒉": 588,
      "𝒊": 589,
      "𝒏": 590,
      "𝒔": 591,
      "𝒗": 592,
      "𝒘": 593,
      "𝒢": 594,
      "𝒮": 595,
      "𝒹": 596,
      "𝒽": 597,
      "𝓇": 598,
      "𝓐": 599,
      "𝓑": 600,
      "𝓒": 601,
      "𝓓": 602,
      "𝓖": 603,
      "𝓛": 604,
      "𝓤": 605,
      "𝓪": 606,
      "𝓫": 607,
      "𝓮": 608,
      "𝓲": 609,
      "𝓵": 610,
      "𝓷": 611,
      "𝓽": 612,
      "𝓿": 613,
      "𝔂": 614,
      "𝔍": 615,
      "𝔞": 616,
      "𝔠": 617,
      "𝔢": 618,
      "𝔤": 619,
      "𝔦": 620,
      "𝔪": 621,
      "𝔫": 622,
      "𝔭": 623,
      "𝔯": 624,
      "𝔰": 625,
      "𝔶": 626,
      "𝔸": 627,
      "𝔻": 628,
      "𝔼": 629,
      "𝔽": 630,
      "𝔾": 631,
      "𝕀": 632,
      "𝕋": 633,
      "𝕰": 634,
      "𝕽": 635,
      "𝖆": 636,
      "𝖉": 637,
      "𝖑": 638,
      "𝖒": 639,
      "𝖔": 640,
      "𝗲": 641,
      "𝗹": 642,
      "𝗼": 643,
      "𝘃": 644,
      "𝘆": 645,
      "𝙴": 646,
      "𝙷": 647,
      "𝙺": 648,
      "𝙾": 649,
      "𝚊": 650,
      "𝚎": 651,
      "𝚒": 652,
      "𝚗": 653,
      "𝚛": 654,
      "𝚝": 655,
      "𝚞": 656,
      "𝚬": 657,
      "𝞆": 658,
      "🄰": 659,
      "🄲": 660,
      "🄴": 661,
      "🄺": 662,
      "🄽": 663,
      "🄾": 664,
      "🄿": 665,
      "🅐": 666,
      "🅒": 667,
      "🅓": 668,
      "🅔": 669,
      "🅕": 670,
      "🅖": 671,
      "🅗": 672,
      "🅘": 673,
      "🅛": 674,
      "🅜": 675,
      "🅝": 676,
      "🅞": 677,
      "🅡": 678,
      "🅢": 679,
      "🅣": 680,
      "🅤": 681,
      "🅷": 682,
      "🆂": 683,
      "🆄": 684,
      "💞": 685,
      "😁": 686,
      "😠": 687,
      "😭": 688,
      "▁d": 689,
      "er": 690,
      "on": 691,
      "▁f": 692,
      "or": 693,
      "an": 694,
      "▁w": 695,
      "at": 696,
      "in": 697,
      "20": 698,
      "▁t": 699,
      "▁s": 700,
      "▁di": 701,
      "ey": 702,
      "▁p": 703,
      "▁b": 704,
      "es": 705,
      "▁c": 706,
      "al": 707,
      "▁20": 708,
      "▁S": 709,
      "en": 710,
      "▁for": 711,
      "em": 712,
      "th": 713,
      "ou": 714,
      "om": 715,
      "id": 716,
      "▁a": 717,
      "ion": 718,
      "▁m": 719,
      "ay": 720,
      "st": 721,
      "ar": 722,
      "it": 723,
      "ber": 724,
      "▁o": 725,
      "▁to": 726,
      "ct": 727,
      "▁D": 728,
      "▁M": 729,
      "and": 730,
      "▁h": 731,
      "ic": 732,
      "ur": 733,
      "▁n": 734,
      "▁2020": 735,
      "▁N": 736,
      "▁wey": 737,
      "▁dey": 738,
      "▁A": 739,
      "et": 740,
      "▁g": 741,
      "el": 742,
      "ig": 743,
      "ol": 744,
      "ide": 745,
      "ia": 746,
      "ation": 747,
      "▁and": 748,
      "▁r": 749,
      "▁T": 750,
      "▁3": 751,
      "▁F": 752,
      ".\n": 753,
      "ep": 754,
      "o,": 755,
      "▁O": 756,
      "▁I": 757,
      "▁of": 758,
      "ent": 759,
      "il": 760,
      "im": 761,
      "▁don": 762,
      "▁2": 763,
      "▁V": 764,
      "ember": 765,
      "iger": 766,
      "ke": 767,
      "▁Niger": 768,
      "ow": 769,
      "▁l": 770,
      "▁Vide": 771,
      "▁Video,": 772,
      "nd": 773,
      "▁in": 774,
      "ed": 775,
      "ing": 776,
      "am": 777,
      "ept": 778,
      "▁dem": 779,
      "▁Sept": 780,
      "▁September": 781,
      "se": 782,
      "ce": 783,
      "ate": 784,
      "▁e": 785,
      "▁B": 786,
      "▁W": 787,
      "▁Nigeria": 788,
      "ot": 789,
      "▁fr": 790,
      "ad": 791,
      "▁201": 792,
      "▁Dur": 793,
      "▁Duration": 794,
      "▁P": 795,
      "ch": 796,
      "▁say": 797,
      "▁y": 798,
      "▁E": 799,
      "as": 800,
      "▁dis": 801,
      "▁st": 802,
      "ov": 803,
      "ober": 804,
      "▁Oct": 805,
      "▁October": 806,
      "▁C": 807,
      "ake": 808,
      "ell": 809,
      "▁on": 810,
      "▁1": 811,
      "▁com": 812,
      "▁be": 813,
      "▁J": 814,
      "ip": 815,
      "our": 816,
      "▁we": 817,
      "is": 818,
      "iv": 819,
      "▁im": 820,
      "▁de": 821,
      "ir": 822,
      "▁from": 823,
      "ect": 824,
      "ter": 825,
      "▁na": 826,
      "eet": 827,
      "▁go": 828,
      "AR": 829,
      "ARS": 830,
      "▁G": 831,
      "op": 832,
      "▁H": 833,
      "▁\"": 834,
      "os": 835,
      "ice": 836,
      "ee": 837,
      "out": 838,
      "ag": 839,
      "▁th": 840,
      "est": 841,
      "▁Meet": 842,
      "pp": 843,
      "▁bo": 844,
      "▁re": 845,
      "ly": 846,
      "▁ban": 847,
      "▁you": 848,
      "un": 849,
      "▁3,": 850,
      "22": 851,
      "▁3:": 852,
      "ut": 853,
      "ast": 854,
      "us": 855,
      "▁U": 856,
      "▁as": 857,
      "▁k": 858,
      "ass": 859,
      "all": 860,
      "▁L": 861,
      "ort": 862,
      "▁no": 863,
      "res": 864,
      "od": 865,
      "ist": 866,
      "ori": 867,
      "ace": 868,
      "for": 869,
      "SARS": 870,
      "▁v": 871,
      "le": 872,
      "▁come": 873,
      "etin": 874,
      "▁pass": 875,
      "21": 876,
      "ipo": 877,
      "side": 878,
      "▁An": 879,
      "olice": 880,
      "han": 881,
      "▁2,": 882,
      "▁pipo": 883,
      "ers": 884,
      "▁2:": 885,
      "▁inside": 886,
      "▁2018": 887,
      "ian": 888,
      "▁'": 889,
      "▁make": 890,
      "▁pl": 891,
      "▁sh": 892,
      "▁ne": 893,
      "ill": 894,
      "da": 895,
      "▁one": 896,
      "oc": 897,
      "▁ab": 898,
      "▁fit": 899,
      "rol": 900,
      "▁In": 901,
      "ost": 902,
      "▁face": 903,
      "▁pat": 904,
      "und": 905,
      "eat": 906,
      "▁K": 907,
      "▁oda": 908,
      "gh": 909,
      "▁patrol": 910,
      "▁an": 911,
      "▁-": 912,
      "ge": 913,
      "ab": 914,
      "▁pr": 915,
      "\",": 916,
      "▁fot": 917,
      "▁her": 918,
      "ates": 919,
      "ff": 920,
      "06": 921,
      "05": 922,
      "ther": 923,
      "▁FSARS": 924,
      "▁dia": 925,
      "ta": 926,
      "▁R": 927,
      "▁wh": 928,
      "▁about": 929,
      "▁hour": 930,
      "4th": 931,
      "up": 932,
      "ear": 933,
      "ike": 934,
      "▁al": 935,
      "ul": 936,
      "act": 937,
      "▁See": 938,
      "ec": 939,
      "▁Di": 940,
      "▁me": 941,
      "ors": 942,
      "▁tr": 943,
      "▁post": 944,
      "ial": 945,
      "wit": 946,
      "▁hours": 947,
      "qu": 948,
      "▁2019": 949,
      "um": 950,
      "witter": 951,
      "▁how": 952,
      "▁well": 953,
      "▁wit": 954,
      "ine": 955,
      "use": 956,
      "▁wi": 957,
      "2nd": 958,
      "ive": 959,
      "ust": 960,
      "a,": 961,
      "oment": 962,
      "other": 963,
      "▁take": 964,
      "urn": 965,
      "igh": 966,
      "▁End": 967,
      "elli": 968,
      "ary": 969,
      "▁Ugh": 970,
      "▁Ughelli": 971,
      "ea": 972,
      "▁am": 973,
      "▁Fund": 974,
      "8th": 975,
      "▁post,": 976,
      "▁app": 977,
      "▁con": 978,
      "▁How": 979,
      "ection": 980,
      "▁Wetin": 981,
      "▁goment": 982,
      "01": 983,
      "ess": 984,
      "▁tori": 985,
      "▁May": 986,
      "▁Twitter": 987,
      "▁wom": 988,
      "▁Nigerian": 989,
      "▁with": 990,
      "ome": 991,
      "ident": 992,
      "ck": 993,
      "▁get": 994,
      "ap": 995,
      "s,": 996,
      "▁any": 997,
      "0th": 998,
      "form": 999,
      "ain": 1000,
      "5th": 1001,
      "ri": 1002,
      "▁police": 1003,
      "hu": 1004,
      "▁thing": 1005,
      "atch": 1006,
      "ress": 1007,
      "▁ex": 1008,
      "▁tim": 1009,
      "ival": 1010,
      "urv": 1011,
      "▁call": 1012,
      "ical": 1013,
      "ays": 1014,
      "rd": 1015,
      "her": 1016,
      "ng": 1017,
      "ME": 1018,
      "3rd": 1019,
      "▁do": 1020,
      "resident": 1021,
      "Na": 1022,
      "▁Surv": 1023,
      "ove": 1024,
      "▁my": 1025,
      "SME": 1026,
      "▁Survival": 1027,
      "▁MSME": 1028,
      "ity": 1029,
      "▁apply": 1030,
      "bod": 1031,
      "▁chan": 1032,
      "med": 1033,
      "▁bu": 1034,
      "ment": 1035,
      "av": 1036,
      "ie": 1037,
      "ric": 1038,
      "▁Tori": 1039,
      "end": 1040,
      "ffect": 1041,
      "▁(": 1042,
      "formate": 1043,
      "uel": 1044,
      "▁med": 1045,
      "ans": 1046,
      "▁Another": 1047,
      "art": 1048,
      "▁woman": 1049,
      "▁4": 1050,
      "▁change": 1051,
      "1st": 1052,
      "▁Informate": 1053,
      "ys": 1054,
      "▁Police": 1055,
      "▁way": 1056,
      "aw": 1057,
      "▁Top": 1058,
      "▁af": 1059,
      "▁young": 1060,
      "ool": 1061,
      "▁foto": 1062,
      "▁why": 1063,
      "▁up": 1064,
      "ony": 1065,
      "▁\"I": 1066,
      "▁need": 1067,
      "28th": 1068,
      "▁wetin": 1069,
      "election": 1070,
      "25th": 1071,
      "ry": 1072,
      "▁turn": 1073,
      "if": 1074,
      "body": 1075,
      "30th": 1076,
      "▁ar": 1077,
      "uit": 1078,
      "ok": 1079,
      "▁at": 1080,
      "▁Wia": 1081,
      "▁Jos": 1082,
      "iate": 1083,
      "▁from,": 1084,
      "▁FG": 1085,
      "▁effect": 1086,
      "▁year": 1087,
      "▁immed": 1088,
      "▁wor": 1089,
      "▁media": 1090,
      "▁Ghan": 1091,
      "▁Y": 1092,
      "ads": 1093,
      "on,": 1094,
      "▁ch": 1095,
      "▁squ": 1096,
      "over": 1097,
      "▁immediate": 1098,
      "▁buy": 1099,
      "▁boil": 1100,
      "ak": 1101,
      "▁j": 1102,
      "▁su": 1103,
      "▁Ghana": 1104,
      "ators": 1105,
      "actical": 1106,
      "▁kill": 1107,
      "▁Joshu": 1108,
      "▁tactical": 1109,
      "▁squads": 1110,
      "▁box": 1111,
      "▁reg": 1112,
      "▁fuel": 1113,
      "thony": 1114,
      "uary": 1115,
      "ways": 1116,
      "aste": 1117,
      "▁states": 1118,
      "chool": 1119,
      "▁anybody": 1120,
      "old": 1121,
      "ver": 1122,
      "▁gr": 1123,
      "▁always": 1124,
      "▁De": 1125,
      "▁love": 1126,
      "▁watch": 1127,
      "00": 1128,
      "▁Af": 1129,
      "▁inn": 1130,
      "ue": 1131,
      "▁Mike": 1132,
      "ance": 1133,
      "eather": 1134,
      "▁Tys": 1135,
      "▁fruit": 1136,
      "ovators": 1137,
      "▁face,": 1138,
      "▁SARS": 1139,
      "weather": 1140,
      "▁Mayweather": 1141,
      "fore": 1142,
      "▁Joshua,": 1143,
      "ight": 1144,
      "▁innovators": 1145,
      "▁3:05": 1146,
      "▁3:21": 1147,
      "▁3,05": 1148,
      "▁3,21": 1149,
      "▁2,22": 1150,
      "▁2:22": 1151,
      "▁2:06": 1152,
      "▁2,06": 1153,
      "▁2,2225th": 1154,
      "▁3,2128th": 1155,
      "▁3,052nd": 1156,
      "▁2,0630th": 1157,
      "▁Anthony": 1158,
      "ug": 1159,
      "▁tok": 1160,
      "▁\"Na": 1161,
      "▁36": 1162,
      "ouse": 1163,
      "astic": 1164,
      "oy": 1165,
      "▁waste": 1166,
      "ead": 1167,
      "▁dress": 1168,
      "▁school": 1169,
      "ocial": 1170,
      "▁plastic": 1171,
      "outh": 1172,
      "▁boxing": 1173,
      "▁rout": 1174,
      "s4th": 1175,
      "ari": 1176,
      "▁bin": 1177,
      "▁routine": 1178,
      "▁fuel,": 1179,
      "▁Tyson,": 1180,
      "▁patrols4th": 1181,
      "▁about1st": 1182,
      "▁fruit\",": 1183,
      "▁boxing\",": 1184,
      "agos": 1185,
      "port": 1186,
      "▁before": 1187,
      "▁5": 1188,
      "?\n": 1189,
      "▁Lagos": 1190,
      "▁social": 1191,
      "▁vs": 1192,
      "▁times": 1193,
      "6th": 1194,
      "br": 1195,
      "▁Ch": 1196,
      "ld": 1197,
      "ack": 1198,
      "▁St": 1199,
      "▁Jun": 1200,
      "amil": 1201,
      "cc": 1202,
      "▁wan": 1203,
      "▁foto,": 1204,
      "are": 1205,
      "age": 1206,
      "uh": 1207,
      "▁President": 1208,
      "wo": 1209,
      "▁read": 1210,
      "ure": 1211,
      "▁famil": 1212,
      "▁Wh": 1213,
      "app": 1214,
      "▁comot": 1215,
      "ose": 1216,
      "ration": 1217,
      "▁Afric": 1218,
      "ick": 1219,
      "▁2017": 1220,
      "do": 1221,
      "▁all": 1222,
      "▁family": 1223,
      "▁afta": 1224,
      "ud": 1225,
      "▁res": 1226,
      "▁some": 1227,
      "▁regist": 1228,
      "ond": 1229,
      "ja": 1230,
      "▁EndSARS": 1231,
      "ute": 1232,
      "gin": 1233,
      "▁election": 1234,
      "23rd": 1235,
      "ause": 1236,
      "▁port": 1237,
      "▁Sk": 1238,
      "oll": 1239,
      "▁registration": 1240,
      "▁or": 1241,
      "▁bec": 1242,
      "eg": 1243,
      "▁new": 1244,
      "▁but": 1245,
      "▁Ab": 1246,
      "▁Skip": 1247,
      "▁bus": 1248,
      "▁tin": 1249,
      "▁portal": 1250,
      "ont": 1251,
      "oun": 1252,
      "▁3:01": 1253,
      "▁3,01": 1254,
      "ise": 1255,
      "▁law": 1256,
      "▁BB": 1257,
      "ub": 1258,
      "oon": 1259,
      "▁step": 1260,
      "ard": 1261,
      "▁the": 1262,
      "abi": 1263,
      "▁Na": 1264,
      "iness": 1265,
      "▁ag": 1266,
      "▁br": 1267,
      "▁dance": 1268,
      "og": 1269,
      "▁Im": 1270,
      "▁she": 1271,
      "▁boy": 1272,
      "▁inter": 1273,
      "he": 1274,
      "ong": 1275,
      "▁state": 1276,
      "15": 1277,
      "▁fir": 1278,
      "▁win": 1279,
      "▁Kan": 1280,
      "one": 1281,
      "▁business": 1282,
      "▁kn": 1283,
      "ies": 1284,
      "▁heat": 1285,
      "▁supp": 1286,
      "13": 1287,
      "uhari": 1288,
      "overn": 1289,
      "er,": 1290,
      "▁cute": 1291,
      "▁steps,": 1292,
      "▁3,0123rd": 1293,
      "▁house": 1294,
      "▁die": 1295,
      "▁op": 1296,
      "▁Cam": 1297,
      "ah": 1298,
      "pl": 1299,
      "eop": 1300,
      "▁trans": 1301,
      "▁happ": 1302,
      "vest": 1303,
      "ik": 1304,
      "▁man": 1305,
      "▁Buhari": 1306,
      "▁Mar": 1307,
      "▁sabi": 1308,
      "▁know": 1309,
      "ew": 1310,
      "▁work": 1311,
      "hip": 1312,
      "ore": 1313,
      "▁like": 1314,
      "eople": 1315,
      "▁sp": 1316,
      "eroon": 1317,
      "ebr": 1318,
      "▁years": 1319,
      "▁bl": 1320,
      "ourt": 1321,
      "day": 1322,
      "▁min": 1323,
      "▁Tr": 1324,
      "▁Jan": 1325,
      "ock": 1326,
      "own": 1327,
      "▁give": 1328,
      "▁Aug": 1329,
      "▁Ju": 1330,
      "▁mon": 1331,
      "andid": 1332,
      "ty": 1333,
      "▁August": 1334,
      "ija": 1335,
      "▁se": 1336,
      "7th": 1337,
      "▁cl": 1338,
      "ach": 1339,
      "▁Cameroon": 1340,
      "ump": 1341,
      "▁kont": 1342,
      "ris": 1343,
      "ob": 1344,
      "mer": 1345,
      "▁transport": 1346,
      "ite": 1347,
      "▁candid": 1348,
      "▁16": 1349,
      "▁tell": 1350,
      "▁hand": 1351,
      "▁fin": 1352,
      "▁Dem": 1353,
      "e,": 1354,
      "iew": 1355,
      "▁July": 1356,
      "ational": 1357,
      "esin": 1358,
      "▁ev": 1359,
      "ult": 1360,
      "▁people": 1361,
      "ase": 1362,
      "▁play": 1363,
      "▁transportation": 1364,
      "▁Ar": 1365,
      "ook": 1366,
      "▁Funds": 1367,
      "▁tins": 1368,
      "▁business2nd": 1369,
      "▁use": 1370,
      "ant": 1371,
      "▁6": 1372,
      "▁January": 1373,
      "iss": 1374,
      "▁first": 1375,
      "▁Q": 1376,
      "adu": 1377,
      "▁June": 1378,
      "irl": 1379,
      "▁For": 1380,
      "▁Ughelli?\n": 1381,
      "16th": 1382,
      "ign": 1383,
      "▁Z": 1384,
      "re": 1385,
      "▁open": 1386,
      "▁part": 1387,
      "▁State": 1388,
      "ord": 1389,
      "▁un": 1390,
      "▁top": 1391,
      "▁sec": 1392,
      "irus": 1393,
      "▁Nov": 1394,
      "ame": 1395,
      "▁show": 1396,
      "ish": 1397,
      "▁off": 1398,
      "ve": 1399,
      "ition": 1400,
      "▁Pr": 1401,
      "▁your": 1402,
      "▁November": 1403,
      "pr": 1404,
      "▁ent": 1405,
      "19": 1406,
      "20th": 1407,
      "▁8": 1408,
      "▁Youth": 1409,
      "so": 1410,
      "▁ad": 1411,
      "ivers": 1412,
      "▁acc": 1413,
      "ebruary": 1414,
      "▁February": 1415,
      "orship": 1416,
      "view": 1417,
      "ence": 1418,
      "acts": 1419,
      "anc": 1420,
      "▁vot": 1421,
      "▁7": 1422,
      "▁2020.\n": 1423,
      "▁Africa": 1424,
      "ek": 1425,
      "ound": 1426,
      "▁Lagos,": 1427,
      "▁El": 1428,
      "▁Why": 1429,
      "▁two": 1430,
      "▁now": 1431,
      "▁kontri": 1432,
      "▁candidates": 1433,
      "ement": 1434,
      "▁interview": 1435,
      "▁dr": 1436,
      "▁mat": 1437,
      "▁BBC": 1438,
      "\"\n": 1439,
      "erc": 1440,
      "alk": 1441,
      "ovn": 1442,
      "▁so": 1443,
      "▁Invest": 1444,
      "▁out": 1445,
      "▁Un": 1446,
      "▁March": 1447,
      "56": 1448,
      "ous": 1449,
      "▁Al": 1450,
      "▁also": 1451,
      "ath": 1452,
      "tack": 1453,
      "38": 1454,
      "ages": 1455,
      "▁again": 1456,
      "46": 1457,
      "ayo": 1458,
      "eral": 1459,
      "▁Dec": 1460,
      "▁see": 1461,
      "oin": 1462,
      "▁short": 1463,
      "▁Min": 1464,
      "ree": 1465,
      "idgin": 1466,
      "▁girl": 1467,
      "▁attack": 1468,
      "▁(@": 1469,
      "▁cor": 1470,
      "▁December": 1471,
      "▁wen": 1472,
      "ations": 1473,
      "▁She": 1474,
      "each": 1475,
      "eal": 1476,
      "ram": 1477,
      "▁Edo": 1478,
      "oot": 1479,
      "ior": 1480,
      "▁Pidgin": 1481,
      "▁Air": 1482,
      "▁Abu": 1483,
      "▁rep": 1484,
      "list": 1485,
      "etty": 1486,
      "▁Dis": 1487,
      "▁Apr": 1488,
      "▁Br": 1489,
      "▁talk": 1490,
      "man": 1491,
      "▁shortlist": 1492,
      "▁April": 1493,
      "▁fe": 1494,
      "ac": 1495,
      "iz": 1496,
      "▁cause": 1497,
      "con": 1498,
      ".\"\n": 1499,
      "ict": 1500,
      "▁Qu": 1501,
      "▁High": 1502,
      "▁Kanayo": 1503,
      "▁Images": 1504,
      "▁cont": 1505,
      "▁start": 1506,
      "▁10": 1507,
      "amp": 1508,
      "ercise": 1509,
      "▁facts": 1510,
      "▁exercise": 1511,
      "▁Is": 1512,
      "▁expl": 1513,
      "ions": 1514,
      "▁Ad": 1515,
      "▁president": 1516,
      "able": 1517,
      "▁car": 1518,
      "▁time": 1519,
      "▁#": 1520,
      "onav": 1521,
      "land": 1522,
      "▁As": 1523,
      "onavirus": 1524,
      "▁if": 1525,
      "▁Trump": 1526,
      "ount": 1527,
      "ate,": 1528,
      "▁conf": 1529,
      "▁Quick": 1530,
      "▁lead": 1531,
      "▁MSMEs": 1532,
      "▁become": 1533,
      "▁Em": 1534,
      "▁by": 1535,
      "ib": 1536,
      "▁Ob": 1537,
      "▁Getty": 1538,
      "ana": 1539,
      "▁19": 1540,
      "▁Minist": 1541,
      "▁rel": 1542,
      "▁dat": 1543,
      "ime": 1544,
      "▁rec": 1545,
      "▁On": 1546,
      "▁pesin": 1547,
      "▁lat": 1548,
      "ood": 1549,
      "▁gradu": 1550,
      "oup": 1551,
      "▁arr": 1552,
      "s.\n": 1553,
      "▁because": 1554,
      "▁teach": 1555,
      "ince": 1556,
      "▁9": 1557,
      "▁Fr": 1558,
      "ough": 1559,
      "▁Govern": 1560,
      "ail": 1561,
      "▁Har": 1562,
      "▁mar": 1563,
      "ison": 1564,
      "▁sc": 1565,
      "▁still": 1566,
      "▁str": 1567,
      "▁vote": 1568,
      "ga": 1569,
      "▁govn": 1570,
      "▁Junior": 1571,
      "cl": 1572,
      "▁Big": 1573,
      "▁comm": 1574,
      "force": 1575,
      "▁girls": 1576,
      "oh": 1577,
      "est'": 1578,
      "down": 1579,
      "vice": 1580,
      "▁qu": 1581,
      "21st": 1582,
      "▁Th": 1583,
      "▁happun": 1584,
      "▁2:15": 1585,
      "▁prot": 1586,
      "▁'old": 1587,
      "▁2,15": 1588,
      "▁'oldest'": 1589,
      "ities": 1590,
      "▁But": 1591,
      "▁court": 1592,
      "ild": 1593,
      "▁Wor": 1594,
      "ease": 1595,
      "▁mean": 1596,
      "▁govern": 1597,
      "▁act": 1598,
      "▁even": 1599,
      "▁graduate,": 1600,
      "▁cr": 1601,
      "17th": 1602,
      "▁five": 1603,
      "▁lock": 1604,
      "ash": 1605,
      "▁ser": 1606,
      "10th": 1607,
      "▁Com": 1608,
      "▁just": 1609,
      "enc": 1610,
      "▁comp": 1611,
      "eak": 1612,
      "▁Airforce": 1613,
      "▁deh": 1614,
      "▁us": 1615,
      "▁dates": 1616,
      "s:": 1617,
      "▁suppose": 1618,
      "▁selection": 1619,
      "▁Le": 1620,
      "▁begin": 1621,
      "illion": 1622,
      "▁after": 1623,
      "aya": 1624,
      "ikin": 1625,
      "▁Man": 1626,
      "▁women": 1627,
      "▁dem4th": 1628,
      "ich": 1629,
      "▁World": 1630,
      "▁Nigerians": 1631,
      "▁fans": 1632,
      "▁Ban": 1633,
      "we": 1634,
      "▁No": 1635,
      "fe": 1636,
      "ya": 1637,
      "ames": 1638,
      "▁African": 1639,
      "18th": 1640,
      "75": 1641,
      "BN": 1642,
      "ev": 1643,
      "▁disc": 1644,
      "▁send": 1645,
      "▁care": 1646,
      "▁more": 1647,
      "▁Election": 1648,
      "tain": 1649,
      "inal": 1650,
      "▁world": 1651,
      "▁support": 1652,
      "▁pikin": 1653,
      "▁canc": 1654,
      "▁Investment": 1655,
      "hone": 1656,
      "▁House": 1657,
      "▁lawy": 1658,
      "000": 1659,
      "▁te": 1660,
      "ang": 1661,
      "▁lockdown": 1662,
      "▁Naija": 1663,
      "air": 1664,
      "▁US": 1665,
      "Naija": 1666,
      "ollow": 1667,
      "▁dem6": 1668,
      "▁mata": 1669,
      "▁plent": 1670,
      "▁over": 1671,
      "▁weh": 1672,
      "tee": 1673,
      "orn": 1674,
      "▁N75": 1675,
      "pect": 1676,
      "▁N75BN": 1677,
      "▁South": 1678,
      "olly": 1679,
      "wn": 1680,
      "▁coll": 1681,
      "▁bet": 1682,
      "▁ever": 1683,
      "▁find": 1684,
      "ason": 1685,
      "▁too": 1686,
      "rik": 1687,
      "wood": 1688,
      "osion": 1689,
      "ile": 1690,
      "▁follow": 1691,
      "▁arrest": 1692,
      "ffer": 1693,
      "▁en": 1694,
      "EC": 1695,
      "▁hel": 1696,
      "▁Sh": 1697,
      "▁explosion": 1698,
      "aj": 1699,
      "▁fight": 1700,
      "ital": 1701,
      "▁BBNaija": 1702,
      "tion": 1703,
      "▁den": 1704,
      "estr": 1705,
      "ustr": 1706,
      "▁money": 1707,
      "ederal": 1708,
      "ents": 1709,
      "oss": 1710,
      "ower": 1711,
      "▁per": 1712,
      "▁last": 1713,
      "▁count": 1714,
      "ollywood": 1715,
      "aria": 1716,
      "ory": 1717,
      "▁second": 1718,
      "▁enta": 1719,
      "▁back": 1720,
      "ola": 1721,
      "▁Sen": 1722,
      "▁latest": 1723,
      "▁vide": 1724,
      "ki": 1725,
      "ball": 1726,
      "lic": 1727,
      "▁pol": 1728,
      "▁Comm": 1729,
      "▁destr": 1730,
      "ama": 1731,
      "▁only": 1732,
      "emi": 1733,
      "boy": 1734,
      "▁Austr": 1735,
      "▁is": 1736,
      "▁Am": 1737,
      "ery": 1738,
      "▁Sund": 1739,
      "▁destroy": 1740,
      "▁happen": 1741,
      "▁against": 1742,
      "of": 1743,
      "utes": 1744,
      "▁three": 1745,
      "ward": 1746,
      "▁Ak": 1747,
      "▁To": 1748,
      "▁po": 1749,
      "▁Sunday": 1750,
      "ealth": 1751,
      "ording": 1752,
      "ra": 1753,
      "▁Id": 1754,
      "ens": 1755,
      "▁Inst": 1756,
      "▁boil6": 1757,
      "▁add": 1758,
      "ission": 1759,
      "▁discover": 1760,
      "ootball": 1761,
      "▁lawyer": 1762,
      "▁Gold": 1763,
      "▁4,": 1764,
      "▁Island": 1765,
      "▁career": 1766,
      "ina": 1767,
      "▁join": 1768,
      "erry": 1769,
      "gb": 1770,
      "zo": 1771,
      "▁many": 1772,
      "▁offic": 1773,
      "▁blast": 1774,
      "▁Nollywood": 1775,
      "▁minutes": 1776,
      "▁mak": 1777,
      "oad": 1778,
      ".c": 1779,
      "9th": 1780,
      "▁confam": 1781,
      "der": 1782,
      "▁party": 1783,
      "▁stud": 1784,
      "▁1,": 1785,
      "igate": 1786,
      "▁16,": 1787,
      "▁feem": 1788,
      "▁Ado": 1789,
      "▁cancel": 1790,
      "▁Emir": 1791,
      "▁Cor": 1792,
      "urity": 1793,
      "my": 1794,
      "les": 1795,
      "agram": 1796,
      "▁Res": 1797,
      "▁Cup": 1798,
      "▁put": 1799,
      "▁12": 1800,
      "▁carry": 1801,
      "▁Waya": 1802,
      "▁Shehu": 1803,
      "▁day": 1804,
      "..": 1805,
      "▁big": 1806,
      "▁brother": 1807,
      "az": 1808,
      "▁beat": 1809,
      "to": 1810,
      "▁former": 1811,
      "▁Abule": 1812,
      "di": 1813,
      "▁Nigerians,": 1814,
      "▁4:": 1815,
      "▁sus": 1816,
      "▁video": 1817,
      "▁Golden": 1818,
      "ester": 1819,
      "top": 1820,
      "▁player": 1821,
      "▁team": 1822,
      "ague": 1823,
      "▁Idris": 1824,
      "▁plan": 1825,
      "▁reach": 1826,
      "▁since": 1827,
      "▁sm": 1828,
      "epar": 1829,
      "ese": 1830,
      "ults": 1831,
      "ere": 1832,
      "PC": 1833,
      "▁government": 1834,
      "▁stop": 1835,
      "▁'p": 1836,
      "es'": 1837,
      "▁Ten": 1838,
      "▁week": 1839,
      "ala": 1840,
      "▁Banana": 1841,
      "▁meet": 1842,
      "ix": 1843,
      "iture": 1844,
      "▁ann": 1845,
      ",000": 1846,
      "▁who": 1847,
      "▁Ozo": 1848,
      "▁16:": 1849,
      "▁Os": 1850,
      "ful": 1851,
      "va": 1852,
      "▁Instagram": 1853,
      "pe": 1854,
      "▁old": 1855,
      "▁furn": 1856,
      "-19": 1857,
      "▁furniture": 1858,
      "apable": 1859,
      "▁Ang": 1860,
      "▁own": 1861,
      "▁group": 1862,
      "▁New": 1863,
      "▁'n": 1864,
      "book": 1865,
      "ex": 1866,
      "▁want": 1867,
      "▁maker,": 1868,
      "▁handic": 1869,
      "▁3:13": 1870,
      "▁3,13": 1871,
      "▁sex": 1872,
      "▁4:38": 1873,
      "3816th": 1874,
      "▁4,3816th": 1875,
      "▁blast:": 1876,
      "▁Goldenboy": 1877,
      "▁not": 1878,
      "▁handicapable": 1879,
      "▁Goldenboy:": 1880,
      "▁3,56": 1881,
      "▁3,1317th": 1882,
      "▁3:56": 1883,
      "▁3,5610th": 1884,
      "▁16:46": 1885,
      "▁National": 1886,
      "▁16,46": 1887,
      "eyon": 1888,
      "▁sake": 1889,
      "▁58": 1890,
      "'s": 1891,
      "oko": 1892,
      "ublic": 1893,
      "ited": 1894,
      "cr": 1895,
      "ency": 1896,
      "▁Beyon": 1897,
      "▁look": 1898,
      "▁'P": 1899,
      "au": 1900,
      "▁wia": 1901,
      "▁Nigeria:": 1902,
      "ze": 1903,
      "▁Ben": 1904,
      "ope": 1905,
      "▁late": 1906,
      "ians": 1907,
      "▁Governorship": 1908,
      "▁ontop": 1909,
      "▁James": 1910,
      "19th": 1911,
      "ecial": 1912,
      "▁report": 1913,
      "ank": 1914,
      "▁pay": 1915,
      "umber": 1916,
      "ilit": 1917,
      "▁Zaria": 1918,
      "▁protest": 1919,
      "acebook": 1920,
      "▁wife": 1921,
      "▁\"D": 1922,
      "▁Terry": 1923,
      "uc": 1924,
      "▁Kano": 1925,
      "▁pack": 1926,
      "ink": 1927,
      "▁Trik": 1928,
      "▁Triky": 1929,
      "▁contain": 1930,
      "▁White": 1931,
      "ife": 1932,
      "▁Trikytee": 1933,
      "iec": 1934,
      "meric": 1935,
      "ork": 1936,
      "▁release": 1937,
      "af": 1938,
      "o-": 1939,
      "▁O.": 1940,
      "erson": 1941,
      "▁fl": 1942,
      "▁16,4621st": 1943,
      "▁match": 1944,
      "national": 1945,
      "i,": 1946,
      "▁help": 1947,
      "▁govnorship": 1948,
      "aka": 1949,
      "▁announ": 1950,
      "▁@": 1951,
      "▁Austrian": 1952,
      "ovid": 1953,
      "▁resp": 1954,
      "DP": 1955,
      "▁die20th": 1956,
      "ieces'": 1957,
      "▁career16th": 1958,
      "▁'pieces'": 1959,
      "▁Time": 1960,
      "▁Lay": 1961,
      "▁'new": 1962,
      "▁our": 1963,
      "▁four": 1964,
      "▁separ": 1965,
      "▁case": 1966,
      "usic": 1967,
      "▁exp": 1968,
      "▁'new'": 1969,
      "▁0": 1970,
      "ven": 1971,
      "▁wr": 1972,
      "▁end": 1973,
      "ull": 1974,
      "bo": 1975,
      "read": 1976,
      "adi": 1977,
      "under": 1978,
      "▁polit": 1979,
      "▁Die": 1980,
      "cé": 1981,
      "▁try": 1982,
      "▁invest": 1983,
      "▁abuse": 1984,
      "▁enter": 1985,
      "esday": 1986,
      "▁run": 1987,
      "▁attacks": 1988,
      "ourn": 1989,
      "▁Laycon": 1990,
      "▁Dor": 1991,
      "ual": 1992,
      "▁rem": 1993,
      "ani": 1994,
      "▁poison": 1995,
      "▁Beyoncé": 1996,
      ".com": 1997,
      "▁Bond": 1998,
      "oda": 1999,
      "▁$": 2000,
      "▁Americ": 2001,
      "▁Coronavirus": 2002,
      "▁el": 2003,
      "amm": 2004,
      "▁land": 2005,
      "▁collect": 2006,
      "▁every": 2007,
      "ution": 2008,
      "▁package": 2009,
      "▁1:": 2010,
      "athy": 2011,
      "▁At": 2012,
      "orth": 2013,
      "ave": 2014,
      "▁number": 2015,
      "▁par": 2016,
      "ern": 2017,
      "uring": 2018,
      "▁Facebook": 2019,
      "▁Youths": 2020,
      "iversity": 2021,
      "icin": 2022,
      ".com/": 2023,
      "▁20203rd": 2024,
      "emb": 2025,
      "twitter": 2026,
      "▁ret": 2027,
      "▁million": 2028,
      "▁thr": 2029,
      "▁month": 2030,
      "▁sell": 2031,
      "▁bi": 2032,
      "▁Dorathy": 2033,
      "rica": 2034,
      "ic.": 2035,
      "twitter.com/": 2036,
      "ic.twitter.com/": 2037,
      "11": 2038,
      "iver": 2039,
      "osition": 2040,
      "▁ricin": 2041,
      "▁'Pesin": 2042,
      "▁'Pesin'": 2043,
      "▁exercise18th": 2044,
      "▁House20th": 2045,
      "▁United": 2046,
      "ole": 2047,
      "▁pic.twitter.com/": 2048,
      "▁football": 2049,
      "▁coronavirus": 2050,
      "ale": 2051,
      "uk": 2052,
      "▁differ": 2053,
      "▁plus": 2054,
      "ai": 2055,
      "▁down": 2056,
      "▁Final": 2057,
      "ef": 2058,
      "▁under": 2059,
      "▁dec": 2060,
      "idn": 2061,
      "▁Dr": 2062,
      "▁security": 2063,
      "▁Covid": 2064,
      "uth": 2065,
      "▁boil5": 2066,
      "▁Sup": 2067,
      "▁Acc": 2068,
      "ters": 2069,
      "▁goal": 2070,
      "▁milit": 2071,
      "lop": 2072,
      "▁right": 2073,
      "oint": 2074,
      "▁announce": 2075,
      "▁Muh": 2076,
      "▁Results": 2077,
      "▁Ol": 2078,
      "y,": 2079,
      "▁am.\n": 2080,
      "▁vis": 2081,
      "eng": 2082,
      "▁oga": 2083,
      "▁during": 2084,
      "▁stat": 2085,
      "▁League": 2086,
      "▁ask": 2087,
      "wa": 2088,
      "▁war": 2089,
      "▁death": 2090,
      "▁West": 2091,
      "▁art": 2092,
      "ert": 2093,
      "22nd": 2094,
      "uce": 2095,
      "gan": 2096,
      "▁APC": 2097,
      "▁country": 2098,
      "▁chop": 2099,
      "▁Pl": 2100,
      "▁sign": 2101,
      "ape": 2102,
      "▁Court": 2103,
      "FC": 2104,
      "▁head": 2105,
      "▁Mr": 2106,
      ",\"": 2107,
      "weet": 2108,
      "▁hear": 2109,
      "ocal": 2110,
      "▁different": 2111,
      "▁alleg": 2112,
      "▁Ass": 2113,
      "▁Minister,": 2114,
      "osp": 2115,
      "ohn": 2116,
      "amu": 2117,
      "▁respon": 2118,
      "ind": 2119,
      "▁member": 2120,
      "▁def": 2121,
      "▁mark": 2122,
      "▁Gr": 2123,
      "ade": 2124,
      "ele": 2125,
      "▁IN": 2126,
      "▁final": 2127,
      "▁Haram": 2128,
      "▁life": 2129,
      "▁One": 2130,
      "ector": 2131,
      "▁music": 2132,
      "▁name": 2133,
      "ete": 2134,
      "▁Muhamm": 2135,
      "ido": 2136,
      "ilm": 2137,
      "ner": 2138,
      "▁Minister": 2139,
      "▁The": 2140,
      "lophone": 2141,
      "12": 2142,
      "We": 2143,
      "opul": 2144,
      "▁Inter": 2145,
      "▁pal": 2146,
      "a:": 2147,
      "atur": 2148,
      "▁John": 2149,
      "be": 2150,
      "ics": 2151,
      "ious": 2152,
      "risis": 2153,
      "▁kain": 2154,
      "▁plenti": 2155,
      "▁Erica": 2156,
      "thing": 2157,
      "▁person": 2158,
      "AC": 2159,
      "▁Dare": 2160,
      "aseki": 2161,
      "work": 2162,
      "▁prog": 2163,
      "ief": 2164,
      "▁real": 2165,
      "▁ey": 2166,
      "▁camp": 2167,
      "uct": 2168,
      "▁Sp": 2169,
      "▁free": 2170,
      "uss": 2171,
      "▁Obaseki": 2172,
      "▁far": 2173,
      "▁Boko": 2174,
      "▁order": 2175,
      "▁office": 2176,
      "▁15": 2177,
      "▁Rivers": 2178,
      "eneral": 2179,
      "▁opp": 2180,
      "▁say,": 2181,
      "▁corr": 2182,
      "es,": 2183,
      "▁cap": 2184,
      "▁We": 2185,
      "▁date": 2186,
      "33": 2187,
      "▁Anglophone": 2188,
      "▁&": 2189,
      "ire": 2190,
      "▁men": 2191,
      "▁when": 2192,
      "clud": 2193,
      "▁100": 2194,
      "els": 2195,
      "▁upd": 2196,
      "▁Investigate": 2197,
      "men": 2198,
      "ospital": 2199,
      "xt": 2200,
      "me": 2201,
      "▁minist": 2202,
      "▁film": 2203,
      "uf": 2204,
      "▁Bl": 2205,
      "▁kidn": 2206,
      "▁Dare4th": 2207,
      "▁Covid-19": 2208,
      "ator": 2209,
      "ision": 2210,
      "▁he": 2211,
      "11th": 2212,
      "aim": 2213,
      "▁co": 2214,
      "-t": 2215,
      "▁device": 2216,
      "▁Abuja": 2217,
      "▁are": 2218,
      "▁days": 2219,
      "▁waka": 2220,
      "▁INEC": 2221,
      "-I": 2222,
      "▁30": 2223,
      "▁Ken": 2224,
      "onal": 2225,
      "▁list": 2226,
      "▁high": 2227,
      "▁cle": 2228,
      "▁Port": 2229,
      "▁test": 2230,
      "▁bel": 2231,
      "▁area": 2232,
      "▁PDP": 2233,
      "umption": 2234,
      "▁prison": 2235,
      "aff": 2236,
      "ity,": 2237,
      "▁sen": 2238,
      "ween": 2239,
      "▁update": 2240,
      "▁sur": 2241,
      "▁small": 2242,
      "▁resumption": 2243,
      "ier": 2244,
      "▁sing": 2245,
      "▁char": 2246,
      "▁palav": 2247,
      "pt": 2248,
      "▁fire": 2249,
      "▁ass": 2250,
      "▁most": 2251,
      "▁popul": 2252,
      "urs": 2253,
      "astor": 2254,
      "uthor": 2255,
      "ists": 2256,
      "▁Cong": 2257,
      "▁University": 2258,
      "▁Muhammadu": 2259,
      "▁leaders": 2260,
      "▁All": 2261,
      "idd": 2262,
      "▁good": 2263,
      "▁today": 2264,
      "15th": 2265,
      "▁Four": 2266,
      "▁must": 2267,
      "ile,": 2268,
      "▁Ind": 2269,
      "▁response": 2270,
      "▁accuse": 2271,
      "▁Federal": 2272,
      "▁includ": 2273,
      "iday": 2274,
      "▁between": 2275,
      "▁You": 2276,
      "▁national": 2277,
      "▁11": 2278,
      "▁14": 2279,
      "ives": 2280,
      "▁cond": 2281,
      "-y": 2282,
      "▁program": 2283,
      "▁anoda": 2284,
      "▁red": 2285,
      "ds": 2286,
      "▁neva": 2287,
      "▁affect": 2288,
      "▁hold": 2289,
      "das": 2290,
      "▁club": 2291,
      "▁health": 2292,
      "▁ways": 2293,
      "▁this": 2294,
      "▁next": 2295,
      "▁hon": 2296,
      "▁compan": 2297,
      "▁official": 2298,
      "▁pick": 2299,
      "▁em": 2300,
      "▁build": 2301,
      "▁that": 2302,
      "▁UK": 2303,
      "▁dem.\n": 2304,
      "▁bodi": 2305,
      "rist": 2306,
      "▁Gb": 2307,
      "▁treat": 2308,
      "▁eye": 2309,
      "▁13": 2310,
      "▁rul": 2311,
      "ocr": 2312,
      "▁military": 2313,
      "▁live": 2314,
      "-w": 2315,
      "▁pres": 2316,
      "▁tok.\n": 2317,
      "▁stage": 2318,
      "ases": 2319,
      "▁statement": 2320,
      "elf": 2321,
      "▁Some": 2322,
      "aturday": 2323,
      "▁Ser": 2324,
      "▁Mad": 2325,
      "▁return": 2326,
      "▁Saturday": 2327,
      "▁Pap": 2328,
      "▁Oj": 2329,
      "▁score": 2330,
      "▁allegations": 2331,
      "\".\n": 2332,
      "▁bring": 2333,
      "▁teachers": 2334,
      "▁plenty": 2335,
      "▁Leg": 2336,
      "uman": 2337,
      "▁federal": 2338,
      "▁sol": 2339,
      "▁Commission": 2340,
      "▁same": 2341,
      "unity": 2342,
      "ode": 2343,
      "ieve": 2344,
      "▁hous": 2345,
      "-year": 2346,
      "-P": 2347,
      "▁Tol": 2348,
      "27th": 2349,
      "▁pap": 2350,
      "▁odas": 2351,
      "▁contin": 2352,
      "ara": 2353,
      "ba": 2354,
      "▁ter": 2355,
      "get": 2356,
      "▁place": 2357,
      "ning": 2358,
      "▁local": 2359,
      "13th": 2360,
      "▁prod": 2361,
      "o'": 2362,
      "ccess": 2363,
      "▁honour": 2364,
      "▁incr": 2365,
      "yamu": 2366,
      "▁Ize": 2367,
      "▁allow": 2368,
      "▁gu": 2369,
      "▁la": 2370,
      "elebr": 2371,
      "▁govnor": 2372,
      "▁break": 2373,
      "enal": 2374,
      "▁And": 2375,
      "▁Rep": 2376,
      "ars": 2377,
      "ro": 2378,
      "FK": 2379,
      "-Iyamu": 2380,
      "▁set": 2381,
      "▁Ize-Iyamu": 2382,
      "▁born": 2383,
      "▁UN": 2384,
      "▁separation": 2385,
      "ye": 2386,
      "▁Oga": 2387,
      "▁according": 2388,
      "▁public": 2389,
      "ify": 2390,
      "eration": 2391,
      "▁ear": 2392,
      "▁Sec": 2393,
      "ater": 2394,
      "▁hospital": 2395,
      "▁200": 2396,
      "▁decl": 2397,
      "▁close": 2398,
      "▁Super": 2399,
      "▁prom": 2400,
      "▁visit": 2401,
      "24th": 2402,
      "12th": 2403,
      "▁ST": 2404,
      "▁FFK": 2405,
      "▁Re": 2406,
      "14th": 2407,
      "▁Bar": 2408,
      "brah": 2409,
      "▁success": 2410,
      "▁crisis": 2411,
      "▁Nigeria,": 2412,
      "ush": 2413,
      "▁increase": 2414,
      "gy": 2415,
      "▁bad": 2416,
      "east": 2417,
      "▁\"A": 2418,
      "▁Govn": 2419,
      "▁record": 2420,
      "▁reason": 2421,
      "▁write": 2422,
      "▁18": 2423,
      "▁special": 2424,
      "▁abuse4th": 2425,
      "RT": 2426,
      "vel": 2427,
      "▁elect": 2428,
      "▁road": 2429,
      "▁suspect": 2430,
      "▁market": 2431,
      "bodi": 2432,
      "▁around": 2433,
      "▁programme": 2434,
      "▁wed": 2435,
      "▁17": 2436,
      "▁24": 2437,
      "FA": 2438,
      "▁leader": 2439,
      "▁students": 2440,
      "▁If": 2441,
      "▁things": 2442,
      "26th": 2443,
      "bab": 2444,
      "iversities": 2445,
      "▁Just": 2446,
      "ings": 2447,
      "17": 2448,
      "ampions": 2449,
      "▁celebr": 2450,
      "▁cases": 2451,
      "court": 2452,
      "conom": 2453,
      "bs": 2454,
      "▁dem7": 2455,
      "▁gree": 2456,
      "▁Day": 2457,
      "▁According": 2458,
      "▁artist": 2459,
      "ants": 2460,
      "▁very": 2461,
      "▁leg": 2462,
      "▁never": 2463,
      "▁ref": 2464,
      "▁season": 2465,
      "aign": 2466,
      "ada": 2467,
      "▁share": 2468,
      "▁air": 2469,
      "▁Eng": 2470,
      "▁cent": 2471,
      "▁conc": 2472,
      "▁Mond": 2473,
      "work,": 2474,
      "eck": 2475,
      "-old": 2476,
      "▁power": 2477,
      "▁feel": 2478,
      "▁Monday": 2479,
      "▁Wom": 2480,
      "▁import": 2481,
      "▁sy": 2482,
      "▁2,21": 2483,
      "S,": 2484,
      "▁2:21": 2485,
      "etition": 2486,
      "▁Ojo,": 2487,
      "▁main": 2488,
      "▁award": 2489,
      "▁Gbese": 2490,
      "▁Arot": 2491,
      "▁Papi": 2492,
      "ret": 2493,
      "a.\n": 2494,
      "gbon": 2495,
      "iku": 2496,
      "▁Legwork,": 2497,
      "▁2,213rd": 2498,
      "ness": 2499,
      "wu": 2500,
      "oo": 2501,
      "▁prob": 2502,
      "tal": 2503,
      "▁pict": 2504,
      "▁2019:": 2505,
      "▁catch": 2506,
      "▁Harcourt": 2507,
      "▁child": 2508,
      "▁Pastor": 2509,
      "tle": 2510,
      "▁dep": 2511,
      "ren": 2512,
      "▁Dav": 2513,
      "▁Tolul": 2514,
      "sease": 2515,
      "▁phone": 2516,
      "▁fri": 2517,
      "embly": 2518,
      "thern": 2519,
      "dy": 2520,
      "▁Sar": 2521,
      "▁25": 2522,
      "iam": 2523,
      "▁International": 2524,
      "▁Brother": 2525,
      "▁shoot": 2526,
      "▁friend": 2527,
      "FP": 2528,
      "▁six": 2529,
      "ax": 2530,
      "▁susp": 2531,
      "▁lose": 2532,
      "gbonge": 2533,
      "▁Wed": 2534,
      "▁claim": 2535,
      "▁City": 2536,
      "▁matter": 2537,
      "▁successful": 2538,
      "es.\n": 2539,
      "▁sal": 2540,
      "▁North": 2541,
      "▁Mal": 2542,
      "▁lea": 2543,
      "▁vict": 2544,
      "29th": 2545,
      "atic": 2546,
      "AN": 2547,
      "keep": 2548,
      "▁react": 2549,
      "▁trav": 2550,
      "▁ground": 2551,
      "lem": 2552,
      "sh": 2553,
      "urr": 2554,
      "ing,": 2555,
      "son": 2556,
      "▁God": 2557,
      "▁declare": 2558,
      "ject": 2559,
      "▁campaign": 2560,
      "▁N-P": 2561,
      "▁other": 2562,
      "▁clear": 2563,
      "▁'her": 2564,
      "ific": 2565,
      "▁des": 2566,
      "▁23": 2567,
      "▁N-Power": 2568,
      "▁\"We": 2569,
      "urch": 2570,
      "▁universities": 2571,
      "▁members": 2572,
      "▁song": 2573,
      "▁region": 2574,
      "▁Tu": 2575,
      "ON": 2576,
      "▁full": 2577,
      "ID": 2578,
      "ata": 2579,
      "▁att": 2580,
      "ize": 2581,
      "▁Manch": 2582,
      "▁where": 2583,
      "▁service": 2584,
      "▁Nigeria.\n": 2585,
      "▁ind": 2586,
      "ira": 2587,
      "stit": 2588,
      "▁doct": 2589,
      "min": 2590,
      "▁believe": 2591,
      "Ad": 2592,
      "chi": 2593,
      "▁Ex": 2594,
      "▁Ok": 2595,
      "▁news": 2596,
      "▁qual": 2597,
      "anj": 2598,
      "▁Ed": 2599,
      "▁‘": 2600,
      "anda": 2601,
      "▁finish": 2602,
      "▁Or": 2603,
      "▁it": 2604,
      "▁SARS,": 2605,
      "▁pickin": 2606,
      "oci": 2607,
      "▁players": 2608,
      "▁Arotile,": 2609,
      "▁Friday": 2610,
      "▁continue": 2611,
      "▁IRT": 2612,
      "eace": 2613,
      "ACS": 2614,
      "',": 2615,
      "vert": 2616,
      "▁presidential": 2617,
      "o'3rd": 2618,
      "▁Tolulpe": 2619,
      "▁STS,": 2620,
      "▁IRT,": 2621,
      "▁SACS": 2622,
      "▁patrol?": 2623,
      "▁'hero'3rd": 2624,
      "▁kontris": 2625,
      "▁strike": 2626,
      "uthorities": 2627,
      "▁night": 2628,
      "▁Part": 2629,
      "▁through": 2630,
      "DC": 2631,
      "▁Par": 2632,
      "▁State,": 2633,
      "▁popular": 2634,
      "eme": 2635,
      "▁ah": 2636,
      "FCC": 2637,
      "▁elections": 2638,
      "▁Bi": 2639,
      "iers": 2640,
      "▁Ars": 2641,
      "▁meeting": 2642,
      "▁workers": 2643,
      "ience": 2644,
      "▁21": 2645,
      "▁Con": 2646,
      "▁Eur": 2647,
      "ift": 2648,
      "ueen": 2649,
      "▁Tuesday": 2650,
      "ffic": 2651,
      "ounc": 2652,
      "▁inf": 2653,
      "▁Democr": 2654,
      "▁sold": 2655,
      "ask": 2656,
      "▁coach": 2657,
      "por": 2658,
      "▁housem": 2659,
      "▁deal": 2660,
      "▁than": 2661,
      "▁compl": 2662,
      "▁force": 2663,
      "▁army": 2664,
      "abe": 2665,
      "▁candidate": 2666,
      "▁Gu": 2667,
      "▁ogbonge": 2668,
      "▁form": 2669,
      "▁En": 2670,
      "▁bur": 2671,
      "olog": 2672,
      "dsmen": 2673,
      "▁disease": 2674,
      "▁22": 2675,
      "amb": 2676,
      "▁problem": 2677,
      "▁serious": 2678,
      "▁virus": 2679,
      "▁jud": 2680,
      "▁China": 2681,
      "▁sure": 2682,
      "oph": 2683,
      "ready": 2684,
      "▁Christ": 2685,
      "gest": 2686,
      "▁though": 2687,
      "uption": 2688,
      "▁organ": 2689,
      "▁moni": 2690,
      "▁mouth": 2691,
      "ndo": 2692,
      "▁result": 2693,
      "ucation": 2694,
      "▁opposition": 2695,
      "ule": 2696,
      "▁Queen": 2697,
      "nesday": 2698,
      "▁Cent": 2699,
      "▁while": 2700,
      "▁leave": 2701,
      "▁Mus": 2702,
      "iral": 2703,
      "▁move": 2704,
      "▁'I": 2705,
      "▁Wednesday": 2706,
      "▁schools": 2707,
      "▁Be": 2708,
      "agles": 2709,
      "▁picture": 2710,
      "band": 2711,
      "oke": 2712,
      "▁later": 2713,
      "▁Manchester": 2714,
      "▁political": 2715,
      "-well": 2716,
      "▁into": 2717,
      "▁travel": 2718,
      "▁Govnor": 2719,
      "ti": 2720,
      "▁well-well": 2721,
      "▁minister": 2722,
      "▁'D": 2723,
      "▁ed": 2724,
      "▁spread": 2725,
      "ention": 2726,
      "▁water": 2727,
      "way": 2728,
      "▁miss": 2729,
      "▁Facts": 2730,
      "omin": 2731,
      "▁long": 2732,
      "▁reduce": 2733,
      "▁portal3": 2734,
      "▁29": 2735,
      "▁2018:": 2736,
      "▁dir": 2737,
      "▁America": 2738,
      "▁Russ": 2739,
      "ouncil": 2740,
      "line": 2741,
      "ral": 2742,
      "▁already": 2743,
      "lish": 2744,
      "'\n": 2745,
      "▁27": 2746,
      "▁EFCC": 2747,
      "unch": 2748,
      "▁Assembly": 2749,
      "ather": 2750,
      "▁commit": 2751,
      "aul": 2752,
      "▁26": 2753,
      "ird": 2754,
      "ournal": 2755,
      "velop": 2756,
      "aked": 2757,
      "▁199": 2758,
      "),": 2759,
      "▁rape": 2760,
      "▁Pipo": 2761,
      "▁80": 2762,
      "▁Ah": 2763,
      "▁General": 2764,
      "▁vex": 2765,
      "▁international": 2766,
      "▁Kenya": 2767,
      "uty": 2768,
      "▁es": 2769,
      "▁best": 2770,
      "ding": 2771,
      "▁company": 2772,
      "▁Om": 2773,
      "onald": 2774,
      "▁stage?\n": 2775,
      "▁Women": 2776,
      "▁gun": 2777,
      "▁Eb": 2778,
      "▁Sav": 2779,
      "ER": 2780,
      "▁Moh": 2781,
      "▁capital": 2782,
      "▁Bay": 2783,
      "▁mind": 2784,
      "▁naked": 2785,
      "▁game": 2786,
      "▁Eagles": 2787,
      "▁cari": 2788,
      "▁Champions": 2789,
      "▁28": 2790,
      "mak": 2791,
      "bum": 2792,
      "▁Cl": 2793,
      "usband": 2794,
      "▁sl": 2795,
      "ange": 2796,
      "uch": 2797,
      "▁food": 2798,
      "-f": 2799,
      "ism": 2800,
      "earch": 2801,
      "ards": 2802,
      "▁wear": 2803,
      "▁AFP": 2804,
      "ely": 2805,
      "▁boys": 2806,
      "▁Arsenal": 2807,
      "▁del": 2808,
      "-year-old": 2809,
      "ron": 2810,
      "▁sit": 2811,
      "▁ph": 2812,
      "▁Cr": 2813,
      "▁explain": 2814,
      "▁Justice": 2815,
      "iel": 2816,
      "▁iss": 2817,
      "▁fear": 2818,
      "▁AS": 2819,
      "▁inv": 2820,
      "ahala": 2821,
      "▁Og": 2822,
      "▁papa": 2823,
      "▁prov": 2824,
      "▁check": 2825,
      "▁Fl": 2826,
      "▁am,": 2827,
      "▁Savage": 2828,
      "▁Benin": 2829,
      "▁kidnap": 2830,
      "aud": 2831,
      "▁mama": 2832,
      "▁concern": 2833,
      "ative": 2834,
      "▁unt": 2835,
      "EN": 2836,
      "▁Law": 2837,
      "ean": 2838,
      "una": 2839,
      "▁fake": 2840,
      "▁portal9": 2841,
      "▁mov": 2842,
      "elle": 2843,
      "▁true": 2844,
      "▁those": 2845,
      "net": 2846,
      "▁husband": 2847,
      "▁suffer": 2848,
      "▁hot": 2849,
      "▁shar": 2850,
      "▁ready": 2851,
      "▁Black": 2852,
      "iol": 2853,
      "orm": 2854,
      "▁Akuf": 2855,
      "▁Atiku": 2856,
      "▁Moham": 2857,
      "▁Health": 2858,
      "▁which": 2859,
      "▁investigate": 2860,
      "na": 2861,
      "pool": 2862,
      "▁vill": 2863,
      "aur": 2864,
      "inger": 2865,
      "▁salary": 2866,
      "▁body": 2867,
      "ible": 2868,
      "airman": 2869,
      "▁Ek": 2870,
      "▁Co": 2871,
      "ats": 2872,
      "▁Sal": 2873,
      "▁drug": 2874,
      "▁contest": 2875,
      "▁Army": 2876,
      "iverpool": 2877,
      "ait": 2878,
      "o-Ad": 2879,
      "▁sef": 2880,
      "▁federal,": 2881,
      "▁soldiers": 2882,
      "else": 2883,
      "▁France": 2884,
      "▁charge": 2885,
      "iy": 2886,
      "ession": 2887,
      "▁speak": 2888,
      "▁beta": 2889,
      "...": 2890,
      "ursday": 2891,
      "▁Akufo-Ad": 2892,
      "!\n": 2893,
      "▁important": 2894,
      "31st": 2895,
      "▁draw": 2896,
      "▁wahala": 2897,
      "ims": 2898,
      "▁Lek": 2899,
      "resent": 2900,
      "▁strong": 2901,
      "▁Thursday": 2902,
      "▁blue": 2903,
      "▁human": 2904,
      "io": 2905,
      "▁solve": 2906,
      "▁sack": 2907,
      "▁CO": 2908,
      "▁months": 2909,
      "ruit": 2910,
      "▁FI": 2911,
      "▁electric": 2912,
      "acc": 2913,
      "▁econom": 2914,
      "▁kontri.\n": 2915,
      "▁remain": 2916,
      "▁Premi": 2917,
      "▁housemates": 2918,
      "ces": 2919,
      "▁Ag": 2920,
      "ivil": 2921,
      "▁host": 2922,
      "ote": 2923,
      "augh": 2924,
      "▁Liverpool": 2925,
      "sw": 2926,
      "esh": 2927,
      "▁mess": 2928,
      "▁cons": 2929,
      "▁tit": 2930,
      "ria": 2931,
      "▁black": 2932,
      "▁side": 2933,
      "▁2016": 2934,
      "▁Sam": 2935,
      "cel": 2936,
      "gr": 2937,
      "ient": 2938,
      "▁seven": 2939,
      "▁children": 2940,
      "▁peace": 2941,
      "▁Lekki": 2942,
      "▁fall": 2943,
      "▁until": 2944,
      "▁Act": 2945,
      "▁Chelse": 2946,
      "▁Brit": 2947,
      "▁stay": 2948,
      "▁decide": 2949,
      "▁Ay": 2950,
      "▁Senate": 2951,
      "ger": 2952,
      "▁(N": 2953,
      "▁cre": 2954,
      "rib": 2955,
      "mit": 2956,
      "▁det": 2957,
      "▁Will": 2958,
      "▁oil": 2959,
      "lia": 2960,
      "aki": 2961,
      "▁investig": 2962,
      "oth": 2963,
      "omot": 2964,
      "akar": 2965,
      "▁Bab": 2966,
      "▁Donald": 2967,
      "wh": 2968,
      "mad": 2969,
      "▁resign": 2970,
      "▁tweet": 2971,
      "▁corruption": 2972,
      "▁Akufo-Addo": 2973,
      "▁Russia": 2974,
      "▁billion": 2975,
      "tr": 2976,
      "▁Prof": 2977,
      "▁community": 2978,
      "liament": 2979,
      "▁dist": 2980,
      "▁Pres": 2981,
      "▁near": 2982,
      "▁fore": 2983,
      "▁palava": 2984,
      "▁So": 2985,
      "▁bank": 2986,
      "▁prop": 2987,
      "west": 2988,
      "▁recruit": 2989,
      "ley": 2990,
      "ures": 2991,
      "AS": 2992,
      "▁burn": 2993,
      "▁train": 2994,
      "▁Senator": 2995,
      "▁promise": 2996,
      "▁beh": 2997,
      "▁Benue": 2998,
      "▁Del": 2999,
      "sef": 3000,
      "▁Paul": 3001,
      "▁suspend": 3002,
      "aph": 3003,
      "s\n": 3004,
      "▁Democratic": 3005,
      "▁age": 3006,
      "▁politic": 3007,
      "▁including": 3008,
      "▁point": 3009,
      "uck": 3010,
      "▁decision": 3011,
      "ona": 3012,
      "▁let": 3013,
      "▁among": 3014,
      "▁spend": 3015,
      "ino": 3016,
      "▁ok": 3017,
      "ing.\n": 3018,
      "ajor": 3019,
      "▁2015": 3020,
      "▁staff": 3021,
      "▁American": 3022,
      "▁bobo": 3023,
      "huk": 3024,
      "▁TV": 3025,
      "ott": 3026,
      "IN": 3027,
      "▁authorities": 3028,
      "istory": 3029,
      "▁Party": 3030,
      "gery": 3031,
      "▁Biya": 3032,
      "▁Ghanaians": 3033,
      ".—": 3034,
      "▁Bur": 3035,
      "▁stand": 3036,
      "▁2018.\n": 3037,
      "PP": 3038,
      "▁Best": 3039,
      "erman": 3040,
      "itiz": 3041,
      "▁Se": 3042,
      "▁Ge": 3043,
      "▁launch": 3044,
      "▁Chief": 3045,
      "▁Abd": 3046,
      "epend": 3047,
      "▁King": 3048,
      "▁50": 3049,
      "ith": 3050,
      "▁manag": 3051,
      "bate": 3052,
      "▁hope": 3053,
      "▁curr": 3054,
      "ene": 3055,
      "▁ins": 3056,
      "▁film,": 3057,
      "emale": 3058,
      "ension": 3059,
      "▁keep": 3060,
      "Niger": 3061,
      "▁Europe": 3062,
      "▁rule": 3063,
      "▁Kad": 3064,
      "▁perform": 3065,
      "▁,": 3066,
      "▁say:": 3067,
      "▁trad": 3068,
      "ries": 3069,
      "▁lev": 3070,
      "▁adv": 3071,
      "▁drop": 3072,
      "▁San": 3073,
      "▁Zim": 3074,
      "lam": 3075,
      "emic": 3076,
      "per": 3077,
      "▁av": 3078,
      "▁Premier": 3079,
      "chn": 3080,
      "▁will": 3081,
      "▁Nations": 3082,
      "rid": 3083,
      "ia:": 3084,
      "▁star": 3085,
      "▁marry": 3086,
      "▁much": 3087,
      "acy": 3088,
      "alf": 3089,
      "agu": 3090,
      "▁hard": 3091,
      "o:": 3092,
      "▁north": 3093,
      "▁teacher": 3094,
      "▁inj": 3095,
      "uj": 3096,
      "▁have": 3097,
      "▁Who": 3098,
      "HO": 3099,
      "▁chook": 3100,
      "▁home": 3101,
      "▁church": 3102,
      "▁Government": 3103,
      "ton": 3104,
      "▁deny": 3105,
      "▁flood": 3106,
      "gypt": 3107,
      "▁Trap": 3108,
      "▁pain": 3109,
      "▁position": 3110,
      "▁celebrate": 3111,
      "▁Chuk": 3112,
      "▁100k": 3113,
      "▁col": 3114,
      "▁inst": 3115,
      "▁mot": 3116,
      "▁Zimbab": 3117,
      "leep": 3118,
      "▁rest": 3119,
      "▁control": 3120,
      "ille": 3121,
      "▁har": 3122,
      "go": 3123,
      "▁Prince": 3124,
      "▁viol": 3125,
      "-b": 3126,
      "▁each": 3127,
      "▁Bank": 3128,
      "▁80k": 3129,
      "▁recruitment": 3130,
      "aid": 3131,
      "▁carri": 3132,
      "▁Congress": 3133,
      "▁killing": 3134,
      "▁Queen:": 3135,
      "▁lawmak": 3136,
      "▁Dir": 3137,
      "▁their": 3138,
      "▁chall": 3139,
      "▁account": 3140,
      "▁Rich": 3141,
      "▁1,33": 3142,
      "▁student": 3143,
      "▁1:33": 3144,
      "tape": 3145,
      "▁Year": 3146,
      "riage": 3147,
      "▁proc": 3148,
      "▁appoint": 3149,
      "▁Chelsea": 3150,
      "ts": 3151,
      "▁wait": 3152,
      "▁Award": 3153,
      "▁surgery": 3154,
      "elete": 3155,
      "▁Abub": 3156,
      "▁Mess": 3157,
      "▁Her": 3158,
      "▁''": 3159,
      "▁competition": 3160,
      "▁treatment": 3161,
      "▁Egypt": 3162,
      "▁3,016th": 3163,
      "▁sextape": 3164,
      "▁\"Delete": 3165,
      "▁airport": 3166,
      "idge": 3167,
      "▁Ib": 3168,
      "▁ahead": 3169,
      "▁sextape:": 3170,
      "▁Go": 3171,
      "rit": 3172,
      "oma": 3173,
      "▁imp": 3174,
      "▁history": 3175,
      "▁rece": 3176,
      "stitution": 3177,
      "/20": 3178,
      "ins": 3179,
      "▁south": 3180,
      "▁Madrid": 3181,
      "mar": 3182,
      "▁protect": 3183,
      "ne": 3184,
      "▁sw": 3185,
      "ka": 3186,
      "ny": 3187,
      "▁Even": 3188,
      "▁vacc": 3189,
      "iction": 3190,
      "▁Beyoncé:": 3191,
      "oro": 3192,
      "▁Lond": 3193,
      "▁expect": 3194,
      "▁late\",": 3195,
      "▁1,336th": 3196,
      "ights": 3197,
      "▁press": 3198,
      "▁Kw": 3199,
      "▁nomin": 3200,
      "-0": 3201,
      "▁foreign": 3202,
      "▁\"Di": 3203,
      "▁sleep": 3204,
      "u,": 3205,
      "▁cut": 3206,
      "▁town": 3207,
      "enge": 3208,
      "▁Oy": 3209,
      "open": 3210,
      "▁dan": 3211,
      "▁here": 3212,
      "ines": 3213,
      "▁correct": 3214,
      "▁Zimbabwe": 3215,
      "ma": 3216,
      "▁Five": 3217,
      "▁Abubakar": 3218,
      "▁Coronavirus:": 3219,
      "▁ova": 3220,
      "imi": 3221,
      "▁least": 3222,
      "brahim": 3223,
      "ench": 3224,
      "ation,": 3225,
      "▁dead": 3226,
      "▁job": 3227,
      "▁happy": 3228,
      "▁Mohammed": 3229,
      "▁dem,": 3230,
      "▁appr": 3231,
      "▁\"O": 3232,
      "▁now,": 3233,
      "▁£": 3234,
      "▁Mor": 3235,
      "▁farm": 3236,
      "ons": 3237,
      "▁book": 3238,
      "▁exam": 3239,
      "imes": 3240,
      "▁Mug": 3241,
      "VID": 3242,
      "▁accident": 3243,
      "▁internet": 3244,
      "AF": 3245,
      "▁He": 3246,
      "▁Kidd": 3247,
      "▁defend": 3248,
      "▁sexual": 3249,
      "▁Geor": 3250,
      "▁qualify": 3251,
      "AM": 3252,
      "▁Ibrahim": 3253,
      "▁rights": 3254,
      "ror": 3255,
      "-1": 3256,
      "▁div": 3257,
      "▁term": 3258,
      "30": 3259,
      "▁Dani": 3260,
      "▁Med": 3261,
      "▁album": 3262,
      "▁FIFA": 3263,
      "ers,": 3264,
      "▁Saraki": 3265,
      "▁include": 3266,
      "▁Boy": 3267,
      "▁Football": 3268,
      "▁Col": 3269,
      "▁youth": 3270,
      "ume": 3271,
      "▁block": 3272,
      "▁i": 3273,
      "▁Ondo": 3274,
      "▁Group": 3275,
      "ia,": 3276,
      "outhern": 3277,
      "egal": 3278,
      "▁was": 3279,
      "asanj": 3280,
      "no": 3281,
      "▁beg": 3282,
      "▁exper": 3283,
      "▁sick": 3284,
      "▁pro": 3285,
      "ated": 3286,
      "▁civil": 3287,
      "oub": 3288,
      "▁him": 3289,
      "ety": 3290,
      "ility": 3291,
      "▁Burn": 3292,
      "▁herdsmen": 3293,
      "oni": 3294,
      "▁Governor": 3295,
      "▁sk": 3296,
      ".5": 3297,
      "▁coup": 3298,
      "▁rob": 3299,
      "▁People": 3300,
      "▁evri": 3301,
      "▁ro": 3302,
      "▁goals": 3303,
      "▁message": 3304,
      "▁Delta": 3305,
      "10": 3306,
      "▁Bo": 3307,
      "▁Adek": 3308,
      "ased": 3309,
      "▁Real": 3310,
      "▁surv": 3311,
      "▁Fuel": 3312,
      "▁shock": 3313,
      "iti": 3314,
      "awa": 3315,
      "▁level": 3316,
      "▁fly": 3317,
      "▁major": 3318,
      "▁think": 3319,
      "▁pip": 3320,
      "ently": 3321,
      "▁Li": 3322,
      "▁winner": 3323,
      "ournalist": 3324,
      "▁belle": 3325,
      "ally": 3326,
      "▁ginger": 3327,
      "▁Wen": 3328,
      "▁Goment": 3329,
      "▁Obasanj": 3330,
      "▁Mugabe": 3331,
      "▁X": 3332,
      "▁oper": 3333,
      "▁quar": 3334,
      "▁Ph": 3335,
      "▁okay": 3336,
      "self": 3337,
      "▁School": 3338,
      "▁weda": 3339,
      "ST": 3340,
      "▁Tyson": 3341,
      "▁tax": 3342,
      "▁morn": 3343,
      "▁Mel": 3344,
      "chl": 3345,
      "▁prev": 3346,
      "▁Fal": 3347,
      "etics": 3348,
      "▁Cameroon:": 3349,
      "▁title": 3350,
      "eed": 3351,
      "ged": 3352,
      "isha": 3353,
      "uation": 3354,
      "▁dema": 3355,
      "▁third": 3356,
      "ever": 3357,
      "▁Bayels": 3358,
      "▁create": 3359,
      "▁Jon": 3360,
      "▁Many": 3361,
      "▁receive": 3362,
      "▁till": 3363,
      "reme": 3364,
      "upp": 3365,
      "▁develop": 3366,
      "▁App": 3367,
      "▁without": 3368,
      "▁better": 3369,
      "▁officials": 3370,
      "▁village": 3371,
      "uters": 3372,
      "▁city": 3373,
      "er.\n": 3374,
      "aye": 3375,
      "adium": 3376,
      "▁Messi": 3377,
      "▁Council": 3378,
      "▁agree": 3379,
      "ectoral": 3380,
      "ultan": 3381,
      "▁Pol": 3382,
      "formation": 3383,
      "cue": 3384,
      "ivate": 3385,
      "▁Lib": 3386,
      "▁Senegal": 3387,
      "bi": 3388,
      "tin": 3389,
      "▁contr": 3390,
      "▁condition": 3391,
      "-s": 3392,
      "red": 3393,
      "▁Dep": 3394,
      "▁Mich": 3395,
      "▁Ital": 3396,
      "aise": 3397,
      "▁Mean": 3398,
      "▁Pet": 3399,
      "▁appear": 3400,
      "▁relations": 3401,
      "▁ruling": 3402,
      "▁Chukwu": 3403,
      "imum": 3404,
      "break": 3405,
      "eh": 3406,
      "enda": 3407,
      "oice": 3408,
      "▁bill": 3409,
      "▁quest": 3410,
      "▁kidnapp": 3411,
      "▁London": 3412,
      "aba": 3413,
      "an,": 3414,
      "▁inc": 3415,
      "▁acr": 3416,
      "▁sub": 3417,
      "ners": 3418,
      "▁cry": 3419,
      "ady": 3420,
      "▁represent": 3421,
      "▁areas": 3422,
      "braham": 3423,
      "▁German": 3424,
      "▁marriage": 3425,
      "▁Kaduna": 3426,
      "mp": 3427,
      "▁plane": 3428,
      "▁Meanwh": 3429,
      "▁Sultan": 3430,
      "▁eight": 3431,
      "▁\"M": 3432,
      "▁early": 3433,
      "▁city,": 3434,
      "▁Abraham": 3435,
      "▁George": 3436,
      "▁citiz": 3437,
      "▁Ghana:": 3438,
      "▁countries": 3439,
      "▁seller": 3440,
      "▁regions": 3441,
      "▁activ": 3442,
      "▁David": 3443,
      "▁mata.\n": 3444,
      "een": 3445,
      "inc": 3446,
      "▁street": 3447,
      "qual": 3448,
      "▁palava,": 3449,
      "23": 3450,
      "▁\"T": 3451,
      "▁'v": 3452,
      "▁31": 3453,
      "▁separat": 3454,
      "▁Sc": 3455,
      "▁singer": 3456,
      "▁prim": 3457,
      "▁female": 3458,
      "igr": 3459,
      "co": 3460,
      "▁“": 3461,
      "▁date.\n": 3462,
      "▁Bayelsa": 3463,
      "porate": 3464,
      "▁British": 3465,
      "▁commission": 3466,
      "▁judg": 3467,
      "▁experience": 3468,
      "ena": 3469,
      "▁ball": 3470,
      "adio": 3471,
      "o/": 3472,
      "tt": 3473,
      "attle": 3474,
      "▁mag": 3475,
      "▁Prog": 3476,
      "▁fail": 3477,
      "▁light": 3478,
      "▁Head": 3479,
      "▁Republic": 3480,
      "kid": 3481,
      "▁shake": 3482,
      "ould": 3483,
      "▁portal5": 3484,
      "▁Reuters": 3485,
      "▁English": 3486,
      "▁across": 3487,
      "MA": 3488,
      "manuel": 3489,
      "▁Barcel": 3490,
      "▁reopen": 3491,
      "▁price": 3492,
      "IC": 3493,
      "▁strik": 3494,
      "▁prof": 3495,
      "▁weeks": 3496,
      "▁wedding": 3497,
      "▁makeup": 3498,
      "▁Jane": 3499,
      "▁bord": 3500,
      "▁Aman": 3501,
      "▁lear": 3502,
      "▁Service": 3503,
      "odeine": 3504,
      "▁poll": 3505,
      "▁repl": 3506,
      "▁action": 3507,
      "▁COVID": 3508,
      "▁Ram": 3509,
      "▁building": 3510,
      "stem": 3511,
      "▁grow": 3512,
      "am:": 3513,
      "▁Osh": 3514,
      "▁sent": 3515,
      "▁rules": 3516,
      "aughter": 3517,
      "uction": 3518,
      "▁Sud": 3519,
      "▁hit": 3520,
      "ava": 3521,
      "AT": 3522,
      "▁worry": 3523,
      "▁Presidential": 3524,
      "izkid": 3525,
      "key": 3526,
      "▁event": 3527,
      "/2021": 3528,
      "▁outside": 3529,
      "-tok": 3530,
      "▁medical": 3531,
      "retary": 3532,
      "▁cost": 3533,
      "ustom": 3534,
      "iminal": 3535,
      "▁ob": 3536,
      "ury": 3537,
      "▁2020/2021": 3538,
      "▁Cont": 3539,
      "lex": 3540,
      "▁save": 3541,
      "enn": 3542,
      "▁rescue": 3543,
      "▁biggest": 3544,
      "▁'Dis": 3545,
      "▁Kor": 3546,
      "ugg": 3547,
      "▁portal2": 3548,
      "most": 3549,
      "▁round": 3550,
      "▁polic": 3551,
      "stand": 3552,
      "ela": 3553,
      "▁'M": 3554,
      "▁corporate": 3555,
      "▁really": 3556,
      "▁doctors": 3557,
      "-A": 3558,
      "▁DE": 3559,
      "esty": 3560,
      "▁UB": 3561,
      "▁pros": 3562,
      "▁education": 3563,
      "afe": 3564,
      "▁\"E": 3565,
      "▁crisis:": 3566,
      "▁som": 3567,
      "▁tink": 3568,
      "pm": 3569,
      "▁can": 3570,
      "▁Ny": 3571,
      "ing:": 3572,
      "▁process": 3573,
      "SS": 3574,
      "▁William": 3575,
      "fer": 3576,
      "ima": 3577,
      "▁Afta": 3578,
      "onaldo": 3579,
      "'t": 3580,
      "pecial": 3581,
      "though": 3582,
      "ploy": 3583,
      "▁Supreme": 3584,
      "▁komot": 3585,
      "▁\"An": 3586,
      "▁ap": 3587,
      "let": 3588,
      "▁drink": 3589,
      "▁challenge": 3590,
      "▁convert": 3591,
      "▁operation": 3592,
      "imal": 3593,
      "▁Ronaldo": 3594,
      "▁investigation": 3595,
      "▁register": 3596,
      "eb": 3597,
      "waya": 3598,
      "▁poss": 3599,
      "▁Obasanjo": 3600,
      "//": 3601,
      "/G": 3602,
      "▁sweet": 3603,
      "▁musician": 3604,
      "▁whole": 3605,
      "ham": 3606,
      "▁\"S": 3607,
      "ttp": 3608,
      "▁card": 3609,
      "▁both": 3610,
      "ream": 3611,
      "ji": 3612,
      "▁boxer,": 3613,
      "▁officers": 3614,
      "▁$1": 3615,
      "▁England": 3616,
      "▁Former": 3617,
      "uru": 3618,
      "gent": 3619,
      "▁Ir": 3620,
      "▁Richards": 3621,
      "▁online": 3622,
      "thetics": 3623,
      "▁half": 3624,
      "▁Art": 3625,
      "ociation": 3626,
      "▁Director": 3627,
      "▁UBEC": 3628,
      "ias": 3629,
      "▁Ug": 3630,
      "▁issue": 3631,
      "▁Adekoy": 3632,
      "▁quick": 3633,
      "s://": 3634,
      "▁Chukwu:": 3635,
      "▁prosthetics": 3636,
      "ttps://": 3637,
      "▁Mayweather,": 3638,
      "angu": 3639,
      "idence": 3640,
      "▁Waste": 3641,
      "▁\"W": 3642,
      "▁2:13": 3643,
      "▁Chin": 3644,
      "▁\"Anthony": 3645,
      "▁been": 3646,
      "▁2,13": 3647,
      "▁blood": 3648,
      "iral'": 3649,
      "▁handmad": 3650,
      "▁Fuel:": 3651,
      "▁Tyson\"": 3652,
      "▁'viral'": 3653,
      "▁Amanam:": 3654,
      "▁Adekoya:": 3655,
      "▁handmade,": 3656,
      "itive": 3657,
      "andemic": 3658,
      "▁year,": 3659,
      "veal": 3660,
      "▁warn": 3661,
      "▁system": 3662,
      "▁le": 3663,
      "▁(A": 3664,
      "▁respect": 3665,
      "▁surgery',": 3666,
      "▁2,1322nd": 3667,
      "▁confir": 3668,
      "▁youone": 3669,
      "▁commun": 3670,
      "▁doctor": 3671,
      "SC": 3672,
      "ane": 3673,
      "▁'S": 3674,
      "▁Char": 3675,
      "40": 3676,
      "▁2,157": 3677,
      "▁2,158": 3678,
      "▁cancer": 3679,
      "t.c": 3680,
      "▁soon": 3681,
      "ema": 3682,
      "inb": 3683,
      "apse": 3684,
      "▁outbreak": 3685,
      "▁presido": 3686,
      "ero": 3687,
      "▁actor": 3688,
      "▁lawmakers": 3689,
      "ting": 3690,
      "▁Sudan": 3691,
      "50": 3692,
      "t.co/": 3693,
      "53": 3694,
      "▁Op": 3695,
      "▁WHO": 3696,
      "▁remove": 3697,
      "▁Kiddwaya": 3698,
      "▁COVID-19": 3699,
      "ttps://t.co/": 3700,
      "ues": 3701,
      "▁Wizkid": 3702,
      "gency": 3703,
      "▁reveal": 3704,
      "▁Buk": 3705,
      "rict": 3706,
      "▁ext": 3707,
      "▁terror": 3708,
      "ination": 3709,
      "▁traff": 3710,
      "▁fact": 3711,
      "orr": 3712,
      "▁Sm": 3713,
      "▁Ghanaian": 3714,
      "▁Joshua": 3715,
      "abour": 3716,
      ").\n": 3717,
      "▁Jo": 3718,
      "▁another": 3719,
      "▁Davido": 3720,
      "-O": 3721,
      "▁cass": 3722,
      "ousand": 3723,
      "cast": 3724,
      "▁Kam": 3725,
      "▁learn": 3726,
      "idency": 3727,
      "▁recover": 3728,
      "▁French": 3729,
      "▁Liber": 3730,
      "te": 3731,
      "’s": 3732,
      "▁sn": 3733,
      "ices": 3734,
      "que": 3735,
      "▁salary,": 3736,
      "i:": 3737,
      "eav": 3738,
      "lu": 3739,
      "erem": 3740,
      "▁serve": 3741,
      "▁relationship": 3742,
      "orthern": 3743,
      "ether": 3744,
      "▁state,": 3745,
      "ulture": 3746,
      "Nigeria": 3747,
      "pecially": 3748,
      "eph": 3749,
      "▁doll": 3750,
      "▁voters": 3751,
      "▁situation": 3752,
      "▁threat": 3753,
      "▁replace": 3754,
      "atter": 3755,
      "▁Islam": 3756,
      "▁ep": 3757,
      "▁general": 3758,
      "ll": 3759,
      "▁lie": 3760,
      "▁you2": 3761,
      "▁pray": 3762,
      "▁actress": 3763,
      "oyal": 3764,
      "▁shop": 3765,
      "▁Vice": 3766,
      "ertific": 3767,
      "gal": 3768,
      "▁cassava": 3769,
      "▁tok-tok": 3770,
      "▁Union": 3771,
      "▁economy": 3772,
      "▁Burna": 3773,
      "isk": 3774,
      "▁complain": 3775,
      "▁FC": 3776,
      "▁private": 3777,
      "lob": 3778,
      "irth": 3779,
      "ube": 3780,
      "▁has": 3781,
      "▁Can": 3782,
      "ford": 3783,
      "▁committee": 3784,
      "▁pandemic": 3785,
      "▁highest": 3786,
      "▁Te": 3787,
      "here": 3788,
      "▁especially": 3789,
      "ecut": 3790,
      "▁fast": 3791,
      "anta": 3792,
      "▁Ik": 3793,
      "▁year.\n": 3794,
      "ardi": 3795,
      "▁handle": 3796,
      "ield": 3797,
      "▁violence": 3798,
      "▁Congo": 3799,
      "▁Libya": 3800,
      "▁chance": 3801,
      "apper": 3802,
      "▁Offic": 3803,
      "▁'A": 3804,
      "▁198": 3805,
      "▁helep": 3806,
      "▁total": 3807,
      "▁Ogun": 3808,
      "-B": 3809,
      "▁almost": 3810,
      "dom": 3811,
      "ouch": 3812,
      "▁something": 3813,
      "▁una": 3814,
      "▁sentence": 3815,
      "ael": 3816,
      "▁Bam": 3817,
      "▁Sport": 3818,
      "▁past": 3819,
      "▁Korea": 3820,
      "iod": 3821,
      "ark": 3822,
      "irst": 3823,
      "▁States": 3824,
      "str": 3825,
      "▁harass": 3826,
      "ges": 3827,
      "▁Gand": 3828,
      "▁daughter": 3829,
      "▁forces": 3830,
      "▁My": 3831,
      "▁letter": 3832,
      "▁bab": 3833,
      "▁Wike": 3834,
      "oto": 3835,
      "itional": 3836,
      "▁2,156": 3837,
      "▁patrol?one": 3838,
      "▁fine": 3839,
      "ahoo": 3840,
      "▁cover": 3841,
      "reement": 3842,
      "▁2,159": 3843,
      "▁heart": 3844,
      "▁attend": 3845,
      "orters": 3846,
      "▁Progress": 3847,
      "Ch": 3848,
      "US": 3849,
      "▁his": 3850,
      "▁#B": 3851,
      "▁pipo,": 3852,
      "▁tw": 3853,
      "▁Do": 3854,
      "yl": 3855,
      "erm": 3856,
      "▁produce": 3857,
      "▁centre": 3858,
      "▁Musl": 3859,
      "▁parties": 3860,
      "ajo": 3861,
      "ology": 3862,
      "▁electricity,": 3863,
      "ateau": 3864,
      "▁40": 3865,
      "▁Naira": 3866,
      "▁state.\n": 3867,
      "▁wage": 3868,
      "▁HA": 3869,
      "ument": 3870,
      "▁striker": 3871,
      "▁Arab": 3872,
      "▁poor": 3873,
      "oose": 3874,
      "itor": 3875,
      "anya": 3876,
      "▁election:": 3877,
      "▁interest": 3878,
      "bass": 3879,
      "arr": 3880,
      "▁Off": 3881,
      "▁Lion": 3882,
      "▁Saud": 3883,
      "▁Osun": 3884,
      "▁Organ": 3885,
      "▁Barcelona": 3886,
      "isation": 3887,
      "ribe": 3888,
      "aces": 3889,
      "▁exercise.\n": 3890,
      "cle": 3891,
      "▁son": 3892,
      "reen": 3893,
      "▁parents": 3894,
      "▁Plent": 3895,
      "▁Ahmed": 3896,
      "ones": 3897,
      "▁you3": 3898,
      "▁chief": 3899,
      "▁Mark": 3900,
      "▁Mon": 3901,
      "▁prevent": 3902,
      "'.\n": 3903,
      "▁IG": 3904,
      "▁kw": 3905,
      "▁collapse": 3906,
      "car": 3907,
      "ania": 3908,
      "▁https://t.co/": 3909,
      "▁games": 3910,
      "estival": 3911,
      "uture": 3912,
      "▁governor": 3913,
      "athan": 3914,
      "ament": 3915,
      "▁'B": 3916,
      "▁parliament": 3917,
      "oil": 3918,
      "▁2014": 3919,
      "ella": 3920,
      "mission": 3921,
      "▁toged": 3922,
      "▁Fin": 3923,
      "▁Vict": 3924,
      "▁results": 3925,
      "▁Three": 3926,
      "▁2,155": 3927,
      "▁Ganduj": 3928,
      "▁Kim": 3929,
      "▁News": 3930,
      "ecutive": 3931,
      "-E": 3932,
      "▁sup": 3933,
      "minist": 3934,
      "▁possible": 3935,
      "nesty": 3936,
      "essor": 3937,
      "erv": 3938,
      "any": 3939,
      "▁norm": 3940,
      "ung": 3941,
      "▁Salah": 3942,
      "onment": 3943,
      "▁motor": 3944,
      "▁sot": 3945,
      "▁lect": 3946,
      "▁safe": 3947,
      "▁Nk": 3948,
      "▁election.\n": 3949,
      "BC": 3950,
      "▁ten": 3951,
      "azil": 3952,
      "joy": 3953,
      "▁Prime": 3954,
      "▁direct": 3955,
      "▁teams": 3956,
      "▁Plateau": 3957,
      "▁confirm": 3958,
      "▁HAPP": 3959,
      "▁Sow": 3960,
      "▁Kog": 3961,
      "▁animal": 3962,
      "▁Car": 3963,
      "▁Eth": 3964,
      "1719th": 3965,
      "▁Nw": 3966,
      "▁gen": 3967,
      "▁3:17": 3968,
      "▁understand": 3969,
      "▁Saudi": 3970,
      "▁HAPPEN": 3971,
      "▁3,1719th": 3972,
      "▁answ": 3973,
      "▁0.": 3974,
      "ulate": 3975,
      "eah": 3976,
      "obi": 3977,
      "▁politicians": 3978,
      "▁Dap": 3979,
      "▁East": 3980,
      "▁pipo.\n": 3981,
      "artment": 3982,
      "▁university": 3983,
      "▁2,153": 3984,
      "▁mod": 3985,
      "▁imm": 3986,
      "▁am\n": 3987,
      "omb": 3988,
      "enger": 3989,
      "eavy": 3990,
      "▁mask": 3991,
      "▁int": 3992,
      "▁crash": 3993,
      "era": 3994,
      "eech": 3995,
      "▁vaccine": 3996,
      "▁Mo": 3997,
      "▁Human": 3998,
      "▁groups": 3999,
      "▁present": 4000,
      "▁eng": 4001,
      "▁Before": 4002,
      "bn": 4003,
      "ogle": 4004,
      "▁justice": 4005,
      "▁Presido": 4006,
      "▁Ganduje": 4007,
      "▁naira": 4008,
      "▁re-": 4009,
      "▁sport": 4010,
      "▁Reg": 4011,
      "▁league": 4012,
      "iop": 4013,
      "atta": 4014,
      "▁site": 4015,
      "▁governorship": 4016,
      "▁tor": 4017,
      "▁2021": 4018,
      "▁mid": 4019,
      "▁Mos": 4020,
      "▁Bukola": 4021,
      "uge": 4022,
      "▁pos": 4023,
      "▁langu": 4024,
      "o.\n": 4025,
      "▁Day:": 4026,
      "▁provide": 4027,
      "▁Nn": 4028,
      "▁eas": 4029,
      "▁Adam": 4030,
      "▁warning": 4031,
      "▁time,": 4032,
      "▁Ministry": 4033,
      "ierra": 4034,
      "-m": 4035,
      "IV": 4036,
      "▁resume": 4037,
      "▁Education": 4038,
      "▁gbab": 4039,
      "lymp": 4040,
      "▁Rights": 4041,
      "▁Argent": 4042,
      "▁Central": 4043,
      "uma": 4044,
      "▁Leone": 4045,
      "▁Osinb": 4046,
      "yr": 4047,
      "▁trial": 4048,
      "▁emer": 4049,
      "▁rain": 4050,
      "ellow": 4051,
      "▁morning": 4052,
      "▁Sowore": 4053,
      "▁ND": 4054,
      "▁dem9": 4055,
      "▁chairman": 4056,
      "▁friends": 4057,
      "amf": 4058,
      "▁Chairman": 4059,
      "▁Ebola": 4060,
      "▁survive": 4061,
      "/A": 4062,
      "▁debate": 4063,
      "▁esc": 4064,
      "▁drag": 4065,
      "▁link": 4066,
      "▁Bu": 4067,
      "▁anything": 4068,
      "▁clos": 4069,
      "esters": 4070,
      "▁battle": 4071,
      "▁birth": 4072,
      "▁agreement": 4073,
      "▁project": 4074,
      "▁judgement": 4075,
      "lobal": 4076,
      "arm": 4077,
      "sa": 4078,
      "▁Social": 4079,
      "▁criminal": 4080,
      "▁Security": 4081,
      "▁proper": 4082,
      "ho": 4083,
      "ym": 4084,
      "No": 4085,
      "▁ille": 4086,
      "▁Association": 4087,
      "▁India": 4088,
      "▁Red": 4089,
      "▁Christian": 4090,
      "cad": 4091,
      "▁Sw": 4092,
      "▁speech": 4093,
      "▁Google": 4094,
      "▁boss": 4095,
      "▁Rober": 4096,
      "ogr": 4097,
      "▁This": 4098,
      "▁victims": 4099,
      "▁Ethiop": 4100,
      "▁sum": 4101,
      "icine": 4102,
      "▁FA": 4103,
      "ked": 4104,
      "▁period": 4105,
      "▁Video": 4106,
      "▁Brazil": 4107,
      "▁0,": 4108,
      "iff": 4109,
      "▁table": 4110,
      "▁self": 4111,
      "▁Ful": 4112,
      "▁serv": 4113,
      "▁techn": 4114,
      "elev": 4115,
      "▁what": 4116,
      "▁Win": 4117,
      "▁instead": 4118,
      "chlight": 4119,
      "▁companies": 4120,
      "▁Melaye": 4121,
      "olo": 4122,
      "▁Iv": 4123,
      "ied": 4124,
      "▁enjoy": 4125,
      "ft": 4126,
      "▁migr": 4127,
      "abo": 4128,
      "▁bud": 4129,
      "▁spoil": 4130,
      "▁single": 4131,
      "▁rice": 4132,
      "▁clean": 4133,
      "▁behind": 4134,
      "▁few": 4135,
      "▁Men": 4136,
      "▁lectur": 4137,
      "▁page": 4138,
      "▁petition": 4139,
      "▁prep": 4140,
      "▁Commissioner": 4141,
      "vir": 4142,
      "anz": 4143,
      "▁nine": 4144,
      "as,": 4145,
      "ers.\n": 4146,
      "▁current": 4147,
      "uggle": 4148,
      "arget": 4149,
      "▁demand": 4150,
      "▁research": 4151,
      "▁parts": 4152,
      "▁manager": 4153,
      "erve": 4154,
      "▁station": 4155,
      "▁then": 4156,
      "▁2,154": 4157,
      "▁positive": 4158,
      "▁tey": 4159,
      "▁Sierra": 4160,
      "▁Mah": 4161,
      "▁Igb": 4162,
      "▁Force": 4163,
      "▁budget": 4164,
      "▁net": 4165,
      "▁information": 4166,
      "▁Born": 4167,
      "-k": 4168,
      "ients": 4169,
      "▁Mac": 4170,
      "▁'We": 4171,
      "▁border": 4172,
      "▁torchlight": 4173,
      "y:": 4174,
      "▁Spain": 4175,
      "▁hol": 4176,
      "▁Now": 4177,
      "▁First": 4178,
      "▁Olymp": 4179,
      "▁future": 4180,
      "▁rich": 4181,
      "▁trib": 4182,
      "▁Pan": 4183,
      "▁them": 4184,
      "▁boil9": 4185,
      "CO": 4186,
      "▁Mag": 4187,
      "ffair": 4188,
      "▁years.\n": 4189,
      "▁Alex": 4190,
      "▁Str": 4191,
      "▁relig": 4192,
      "▁0:": 4193,
      "▁Secretary": 4194,
      "▁burial": 4195,
      "▁DR": 4196,
      "FCON": 4197,
      "gi": 4198,
      "▁Dino": 4199,
      "▁defeat": 4200,
      "▁Special": 4201,
      "▁tear": 4202,
      "emn": 4203,
      "▁crime": 4204,
      "▁Johnson": 4205,
      "ouble": 4206,
      "IT": 4207,
      "yd": 4208,
      "▁raise": 4209,
      "▁War": 4210,
      "▁you4": 4211,
      "▁(S": 4212,
      "▁question": 4213,
      "-p": 4214,
      "ban": 4215,
      "▁laik": 4216,
      "▁Moroc": 4217,
      "▁custom": 4218,
      "▁Two": 4219,
      "onia": 4220,
      "▁normal": 4221,
      "▁nation": 4222,
      "▁viral": 4223,
      "▁sense": 4224,
      "▁target": 4225,
      "▁York": 4226,
      "▁population": 4227,
      "▁prepare": 4228,
      "▁Since": 4229,
      "▁names": 4230,
      "▁Us": 4231,
      "ender": 4232,
      "▁.\n": 4233,
      "▁touch": 4234,
      "▁Southern": 4235,
      "▁conv": 4236,
      "alog": 4237,
      "▁journalist": 4238,
      "▁hair": 4239,
      "▁Jul": 4240,
      "▁Electoral": 4241,
      "▁Emmanuel": 4242,
      "▁world.\n": 4243,
      "▁robber": 4244,
      "▁years,": 4245,
      "▁Jonathan": 4246,
      "y.\n": 4247,
      "▁risk": 4248,
      "▁Gar": 4249,
      "▁reject": 4250,
      "ifa": 4251,
      "oul": 4252,
      "▁eviction": 4253,
      "▁para": 4254,
      "ependence": 4255,
      "▁citizens": 4256,
      "vironment": 4257,
      "▁rapper": 4258,
      "▁nack": 4259,
      "▁agency": 4260,
      "▁arrange": 4261,
      "▁Nd": 4262,
      "▁Od": 4263,
      "▁informate": 4264,
      "▁yab": 4265,
      "▁Econom": 4266,
      "▁\"B": 4267,
      "▁Ya": 4268,
      "▁lawyers": 4269,
      "▁officer": 4270,
      "pap": 4271,
      "▁doc": 4272,
      "▁Crisis": 4273,
      "▁again.\n": 4274,
      "hood": 4275,
      "▁purs": 4276,
      "▁2019.\n": 4277,
      "aries": 4278,
      "olution": 4279,
      "▁they": 4280,
      "▁thank": 4281,
      "orial": 4282,
      "▁Robert": 4283,
      "▁–": 4284,
      "▁Tog": 4285,
      "elevision": 4286,
      "18": 4287,
      "emen": 4288,
      "▁gift": 4289,
      "▁thousand": 4290,
      "▁constitution": 4291,
      "NG": 4292,
      "come": 4293,
      "▁ty": 4294,
      "▁codeine": 4295,
      "unal": 4296,
      "▁notice": 4297,
      "▁condemn": 4298,
      "▁60": 4299,
      "▁Austral": 4300,
      "iom": 4301,
      "iri": 4302,
      "▁Samuel": 4303,
      "▁Kogi": 4304,
      "▁Sex": 4305,
      "ider": 4306,
      "▁update:": 4307,
      "58": 4308,
      "▁figh": 4309,
      "▁die.\n": 4310,
      "▁pursue": 4311,
      "atives": 4312,
      "ico": 4313,
      "▁less": 4314,
      "▁Zamf": 4315,
      "▁Coast": 4316,
      "ederation": 4317,
      "▁Wal": 4318,
      "▁advice": 4319,
      "▁votes": 4320,
      "-G": 4321,
      "▁Dat": 4322,
      "avour": 4323,
      "ambia": 4324,
      "-final": 4325,
      "▁Daniel": 4326,
      "PO": 4327,
      "by": 4328,
      "▁Maur": 4329,
      "tern": 4330,
      "osec": 4331,
      "acha": 4332,
      "▁everi": 4333,
      "▁Guine": 4334,
      "▁Victor": 4335,
      "-c": 4336,
      "uw": 4337,
      "▁ident": 4338,
      "ubu": 4339,
      "▁AFCON": 4340,
      "▁Williams": 4341,
      "omi": 4342,
      "▁Anoda": 4343,
      "/Getty": 4344,
      "▁illegal": 4345,
      "-l": 4346,
      "▁san": 4347,
      "oud": 4348,
      "▁Commit": 4349,
      "▁surp": 4350,
      "▁fun": 4351,
      "▁twitter": 4352,
      "▁cal": 4353,
      "oms": 4354,
      "▁moment": 4355,
      "▁Make": 4356,
      "▁Girl": 4357,
      "▁there": 4358,
      "▁Amnesty": 4359,
      "▁invol": 4360,
      "▁based": 4361,
      "eman": 4362,
      "▁Gun": 4363,
      "rise": 4364,
      "▁Marley": 4365,
      "▁Trans": 4366,
      "ophob": 4367,
      "-S": 4368,
      "▁Ng": 4369,
      "▁march": 4370,
      "▁Michael": 4371,
      "oid": 4372,
      "▁forward": 4373,
      "its": 4374,
      "▁\"F": 4375,
      "▁anytin": 4376,
      "▁(C": 4377,
      "▁transfer": 4378,
      "▁shared": 4379,
      "ili": 4380,
      "▁contract": 4381,
      "▁Bamenda": 4382,
      "▁Dapchi": 4383,
      "▁sist": 4384,
      "▁hide": 4385,
      "▁front": 4386,
      "unish": 4387,
      "▁opport": 4388,
      "ertificate": 4389,
      "BO": 4390,
      "how": 4391,
      "▁Bill": 4392,
      "▁study": 4393,
      "▁emergency": 4394,
      "inem": 4395,
      "▁Pat": 4396,
      "▁Chan": 4397,
      "▁jail": 4398,
      "▁language": 4399,
      "▁visa": 4400,
      "▁hotel": 4401,
      "▁Osinbajo": 4402,
      "▁answer": 4403,
      "enophob": 4404,
      "▁ones": 4405,
      "▁La": 4406,
      "▁minimum": 4407,
      "encies": 4408,
      "▁Committee": 4409,
      "ph": 4410,
      "▁togeda": 4411,
      "▁heavy": 4412,
      "▁Nana": 4413,
      "▁gb": 4414,
      "The": 4415,
      "ja,": 4416,
      "▁Africans": 4417,
      "▁saf": 4418,
      "▁'W": 4419,
      "ugur": 4420,
      "▁cloth": 4421,
      "▁Ade": 4422,
      "▁Obi": 4423,
      "▁webs": 4424,
      "ugu": 4425,
      "▁resident": 4426,
      "▁cross": 4427,
      "▁address": 4428,
      "▁reality": 4429,
      "▁Iran": 4430,
      "▁reply": 4431,
      "▁talk.\n": 4432,
      "▁Akp": 4433,
      "▁kind": 4434,
      "▁Kanye": 4435,
      "▁wrong": 4436,
      "▁Fulani": 4437,
      "win": 4438,
      "00,000": 4439,
      "ampion": 4440,
      "anger": 4441,
      "BI": 4442,
      "▁Ez": 4443,
      "▁breast": 4444,
      "▁manage": 4445,
      "▁partic": 4446,
      "▁employ": 4447,
      "▁European": 4448,
      "▁comment": 4449,
      "▁\"d": 4450,
      "illing": 4451,
      "ghen": 4452,
      "▁applic": 4453,
      "▁medicine": 4454,
      "▁sug": 4455,
      "ailable": 4456,
      "▁Argentina": 4457,
      "▁tourn": 4458,
      "▁Bel": 4459,
      "▁Accra": 4460,
      "UN": 4461,
      "mi": 4462,
      "▁accept": 4463,
      "▁Season": 4464,
      "▁great": 4465,
      "▁Manag": 4466,
      "oadcast": 4467,
      "▁sharp": 4468,
      "▁NDDC": 4469,
      "▁punish": 4470,
      "▁cup": 4471,
      "ed.\n": 4472,
      "ago": 4473,
      "▁Common": 4474,
      "▁mass": 4475,
      "urder": 4476,
      "imb": 4477,
      "ourage": 4478,
      "▁shut": 4479,
      "AMB": 4480,
      "▁Dou": 4481,
      "▁exc": 4482,
      "▁jam": 4483,
      "▁Harry": 4484,
      "ministration": 4485,
      "IS": 4486,
      "▁Es": 4487,
      "bu": 4488,
      "▁gov": 4489,
      "▁complete": 4490,
      "▁approve": 4491,
      "▁obey": 4492,
      "ental": 4493,
      "▁freed": 4494,
      "▁content": 4495,
      "▁Abdul": 4496,
      "▁Zamfara": 4497,
      "▁Aisha": 4498,
      "▁Fay": 4499,
      "ustry": 4500,
      "▁Akin": 4501,
      "▁cerem": 4502,
      "▁requ": 4503,
      "engers": 4504,
      "orry": 4505,
      "▁class": 4506,
      "▁Election:": 4507,
      "▁available": 4508,
      "▁incident": 4509,
      "▁neg": 4510,
      "▁primary": 4511,
      "vent": 4512,
      "▁Femi": 4513,
      "▁time.\n": 4514,
      "▁victory": 4515,
      "▁Oshiom": 4516,
      "orter": 4517,
      "▁council": 4518,
      "▁protesters": 4519,
      "▁tournament": 4520,
      "inu": 4521,
      "▁Aw": 4522,
      "▁line": 4523,
      "▁discuss": 4524,
      "▁Music": 4525,
      "▁gada": 4526,
      "▁anti": 4527,
      "▁whether": 4528,
      "▁house.\n": 4529,
      "▁drive": 4530,
      "▁Elections": 4531,
      "cement": 4532,
      "▁Den": 4533,
      "ets": 4534,
      "rick": 4535,
      "▁assist": 4536,
      "▁Ekiti": 4537,
      "▁ide": 4538,
      "▁Lagos\"": 4539,
      "▁work.\n": 4540,
      "uthority": 4541,
      "ependent": 4542,
      "▁room": 4543,
      "s'": 4544,
      "▁impr": 4545,
      "▁boil8": 4546,
      "▁produc": 4547,
      "▁shot": 4548,
      "▁trend": 4549,
      "▁Stud": 4550,
      "▁Local": 4551,
      "▁freedom": 4552,
      "▁[": 4553,
      "▁35": 4554,
      "even": 4555,
      "▁refer": 4556,
      "▁victim": 4557,
      "▁judge": 4558,
      "ini": 4559,
      "▁Dub": 4560,
      "orrow": 4561,
      "▁website": 4562,
      "zi": 4563,
      "▁low": 4564,
      "▁finally": 4565,
      "ica": 4566,
      "▁stadium": 4567,
      "▁supporters": 4568,
      "▁Sim": 4569,
      "▁product": 4570,
      "▁desc": 4571,
      "▁Uganda": 4572,
      "27": 4573,
      "wealth": 4574,
      "▁mist": 4575,
      "▁northern": 4576,
      "imate": 4577,
      "▁within": 4578,
      "▁Cardi": 4579,
      "▁Franc": 4580,
      "▁Centre": 4581,
      "▁\"Ondo": 4582,
      "▁Keny": 4583,
      "▁YouT": 4584,
      "▁youths": 4585,
      "▁Peter": 4586,
      "rup": 4587,
      "▁Africa.\n": 4588,
      "ashir": 4589,
      "▁senior": 4590,
      "▁Chris": 4591,
      "▁enough": 4592,
      "25": 4593,
      "View": 4594,
      "iwa": 4595,
      "ilty": 4596,
      "▁tok\n": 4597,
      "▁blow": 4598,
      "ization": 4599,
      "▁respond": 4600,
      "RE": 4601,
      "▁Kh": 4602,
      "ular": 4603,
      "▁now.\n": 4604,
      "▁Paris": 4605,
      "▁dream": 4606,
      "▁bail": 4607,
      "▁mother": 4608,
      "ateg": 4609,
      "▁vice": 4610,
      "▁places": 4611,
      "▁west": 4612,
      "oyd": 4613,
      "▁ceremony": 4614,
      "▁penal": 4615,
      "▁couple": 4616,
      "och": 4617,
      "▁soci": 4618,
      "▁pan": 4619,
      "▁2013": 4620,
      "▁country.\n": 4621,
      "▁Northwest": 4622,
      "▁traffic": 4623,
      "▁Islamic": 4624,
      "▁harassment": 4625,
      "GO": 4626,
      "▁comed": 4627,
      "gether": 4628,
      "▁Chad": 4629,
      "noghen": 4630,
      "▁Mart": 4631,
      "▁Labour": 4632,
      "eoples": 4633,
      "▁bury": 4634,
      "iest": 4635,
      "ction": 4636,
      "▁It": 4637,
      "▁Onnoghen": 4638,
      "▁remember": 4639,
      "▁everything": 4640,
      "▁Play": 4641,
      "▁Airport": 4642,
      "▁From": 4643,
      "aji": 4644,
      "▁Ms": 4645,
      "▁Aj": 4646,
      "▁do.\n": 4647,
      "▁electionone": 4648,
      "ushp": 4649,
      "▁Parliament": 4650,
      "ali": 4651,
      "▁story": 4652,
      "▁shine": 4653,
      "▁abr": 4654,
      "▁expert": 4655,
      "▁lo": 4656,
      "▁(P": 4657,
      "▁Mali": 4658,
      "▁advise": 4659,
      "▁Morocco": 4660,
      "▁epp": 4661,
      "▁murder": 4662,
      "▁these": 4663,
      "▁Afcon": 4664,
      "ograph": 4665,
      "ushpupp": 4666,
      "▁race": 4667,
      "▁Develop": 4668,
      "▁matches": 4669,
      "▁lives": 4670,
      "▁2012": 4671,
      "▁State.\n": 4672,
      "▁fever": 4673,
      "▁escape": 4674,
      "▁away": 4675,
      "assa": 4676,
      "▁quarter": 4677,
      "▁taim": 4678,
      "▁ben": 4679,
      "▁Meg": 4680,
      "▁Jap": 4681,
      "ancial": 4682,
      "lement": 4683,
      "▁appeal": 4684,
      "▁Joseph": 4685,
      "▁secret": 4686,
      "▁Shi": 4687,
      "UU": 4688,
      "mo": 4689,
      "▁wound": 4690,
      "atak": 4691,
      "cons": 4692,
      "▁Professor": 4693,
      "▁Progressives": 4694,
      "▁trade": 4695,
      "▁crit": 4696,
      "▁guilty": 4697,
      "▁feat": 4698,
      "▁found": 4699,
      "▁push": 4700,
      "▁Sol": 4701,
      "▁Public": 4702,
      "iyu": 4703,
      "▁mal": 4704,
      "▁oth": 4705,
      "▁patients": 4706,
      "▁Miss": 4707,
      "▁rise": 4708,
      "adan": 4709,
      "▁struggle": 4710,
      "▁suspects": 4711,
      "▁IGP": 4712,
      "▁YouTube": 4713,
      "▁mos": 4714,
      "▁More": 4715,
      "▁choose": 4716,
      "▁'b": 4717,
      "▁Imo": 4718,
      "▁movement": 4719,
      "▁CAF": 4720,
      "▁her.\n": 4721,
      "▁recent": 4722,
      "45": 4723,
      "▁Mat": 4724,
      "▁Good": 4725,
      "▁Last": 4726,
      "ude": 4727,
      "▁separatists": 4728,
      "▁midf": 4729,
      "▁Igh": 4730,
      "▁arg": 4731,
      "▁Deputy": 4732,
      "bassad": 4733,
      "▁easy": 4734,
      "▁benef": 4735,
      "EO": 4736,
      "iga": 4737,
      "▁fraud": 4738,
      "▁Gen": 4739,
      "▁joll": 4740,
      "▁deputy": 4741,
      "mins:": 4742,
      "▁Meanwhile,": 4743,
      "▁Chinese": 4744,
      "▁surprise": 4745,
      "▁abroad": 4746,
      "▁'s": 4747,
      "quine": 4748,
      "▁kontries": 4749,
      "▁fix": 4750,
      "▁search": 4751,
      "▁hail": 4752,
      "▁Tanz": 4753,
      "hole": 4754,
      "▁est": 4755,
      "ami": 4756,
      "▁dem5": 4757,
      "irus:": 4758,
      "iddle": 4759,
      "ET": 4760,
      "▁forget": 4761,
      "▁fresh": 4762,
      "▁JAMB": 4763,
      "▁Ghana,": 4764,
      "onder": 4765,
      "▁legal": 4766,
      "▁suspension": 4767,
      "iation": 4768,
      "ox": 4769,
      "▁enc": 4770,
      "▁tank": 4771,
      "▁disapp": 4772,
      "▁Floyd": 4773,
      "ita": 4774,
      "▁meas": 4775,
      "▁(M": 4776,
      "▁Africa,": 4777,
      "▁Yaound": 4778,
      ".3": 4779,
      "KA": 4780,
      "▁pred": 4781,
      "▁After": 4782,
      "▁movie": 4783,
      ".8": 4784,
      "▁fac": 4785,
      "emy": 4786,
      "▁Peoples": 4787,
      "riend": 4788,
      "uba": 4789,
      "ensive": 4790,
      "▁Awards": 4791,
      "▁Commonwealth": 4792,
      "idi": 4793,
      "icide": 4794,
      "undred": 4795,
      "▁together": 4796,
      "▁Don": 4797,
      "▁ago": 4798,
      "▁infection": 4799,
      "dr": 4800,
      "▁tiff": 4801,
      "▁role": 4802,
      "iving": 4803,
      "▁Ly": 4804,
      "▁Development": 4805,
      "▁perc": 4806,
      "alent": 4807,
      "▁democr": 4808,
      "ocus": 4809,
      "▁BBC.\n": 4810,
      "ashion": 4811,
      "▁invite": 4812,
      "▁gas": 4813,
      "iano": 4814,
      "▁#E": 4815,
      "▁Serena": 4816,
      "▁pastor": 4817,
      "▁Inside": 4818,
      "ugees": 4819,
      "▁Dubai": 4820,
      "▁dam": 4821,
      "▁Most": 4822,
      "▁Hushpupp": 4823,
      "▁Ins": 4824,
      "▁evidence": 4825,
      "uka": 4826,
      "A)": 4827,
      "ES": 4828,
      "▁Fifa": 4829,
      "▁loss": 4830,
      "ahi": 4831,
      "▁Borno": 4832,
      "▁flight": 4833,
      "▁industry": 4834,
      "▁Germany": 4835,
      "AL": 4836,
      "▁Hospital": 4837,
      "aga": 4838,
      "▁•": 4839,
      "▁Som": 4840,
      "oway": 4841,
      "estern": 4842,
      "▁personal": 4843,
      "▁director": 4844,
      "trod": 4845,
      "▁holiday": 4846,
      "▁describe": 4847,
      "ed,": 4848,
      "lege": 4849,
      "ighb": 4850,
      "▁conn": 4851,
      "▁Liberia": 4852,
      "TO": 4853,
      "▁cele": 4854,
      "▁die,": 4855,
      "▁Alger": 4856,
      "▁Panther": 4857,
      "olic": 4858,
      "obe": 4859,
      "▁points": 4860,
      "▁threaten": 4861,
      "-K": 4862,
      "ij": 4863,
      "igration": 4864,
      "aster": 4865,
      "▁Yemi": 4866,
      "▁seize": 4867,
      "▁Italy": 4868,
      "▁danger": 4869,
      "▁kick": 4870,
      "▁Guinea": 4871,
      "hy": 4872,
      "▁dey.\n": 4873,
      "▁Agb": 4874,
      "umour": 4875,
      "ancing": 4876,
      "▁common": 4877,
      "▁Second": 4878,
      "en,": 4879,
      "ense": 4880,
      "''": 4881,
      "lor": 4882,
      "▁View": 4883,
      "egn": 4884,
      "▁avoid": 4885,
      "▁Arabia": 4886,
      "▁gold": 4887,
      "▁sorry": 4888,
      "▁Pal": 4889,
      "▁Def": 4890,
      "▁Church": 4891,
      "ielder": 4892,
      "▁training": 4893,
      "▁cur": 4894,
      "eti": 4895,
      "▁Tur": 4896,
      "▁champions": 4897,
      "▁promote": 4898,
      "▁Agency": 4899,
      "amo": 4900,
      "▁screen": 4901,
      "▁television": 4902,
      "▁Mc": 4903,
      "▁farmers": 4904,
      "▁operate": 4905,
      "▁pet": 4906,
      "umb": 4907,
      "very": 4908,
      "▁percent": 4909,
      "less": 4910,
      "unle": 4911,
      "▁Lassa": 4912,
      "▁passengers": 4913,
      "tact": 4914,
      "▁white": 4915,
      "▁\"If": 4916,
      "▁Although": 4917,
      "▁Comp": 4918,
      "▁writ": 4919,
      "▁Economic": 4920,
      "▁sey": 4921,
      "▁Sus": 4922,
      "▁politics": 4923,
      "▁mis": 4924,
      "▁Authorities": 4925,
      "▁Bell": 4926,
      "▁196": 4927,
      "▁postp": 4928,
      "▁champion": 4929,
      "▁elections:": 4930,
      "▁agencies": 4931,
      "▁Abuja,": 4932,
      "▁90": 4933,
      "▁Ivory": 4934,
      "▁Mil": 4935,
      "urg": 4936,
      "edi": 4937,
      "otten": 4938,
      "▁Neng": 4939,
      "ots": 4940,
      "▁becos": 4941,
      "orce": 4942,
      "▁cir": 4943,
      "▁Ike": 4944,
      "▁Nigeria\n": 4945,
      "▁patient": 4946,
      "▁sickness": 4947,
      "illa": 4948,
      "▁anyhow": 4949,
      "▁opportunity": 4950,
      "ling": 4951,
      "ature": 4952,
      "urther": 4953,
      "▁'E": 4954,
      "▁mata,": 4955,
      "oroquine": 4956,
      "▁Crisis:": 4957,
      "▁traditional": 4958,
      "ating": 4959,
      "olu": 4960,
      "▁Tun": 4961,
      "▁improve": 4962,
      "pir": 4963,
      "ett": 4964,
      "oyin": 4965,
      "▁Chib": 4966,
      "▁Leban": 4967,
      "▁Abdull": 4968,
      "▁swear": 4969,
      "▁communities": 4970,
      "▁sch": 4971,
      "▁gather": 4972,
      "▁solution": 4973,
      "bege": 4974,
      "▁senator": 4975,
      "▁ASUU": 4976,
      "eroon,": 4977,
      "ighbour": 4978,
      "▁wonder": 4979,
      "aly": 4980,
      "▁may": 4981,
      "che": 4982,
      "orture": 4983,
      "▁val": 4984,
      "▁Road": 4985,
      "▁When": 4986,
      "▁unit": 4987,
      "▁drama": 4988,
      "▁settle": 4989,
      "er:": 4990,
      "▁focus": 4991,
      "▁voice": 4992,
      "roat": 4993,
      "▁provoke": 4994,
      "▁Japan": 4995,
      "yn": 4996,
      "▁Met": 4997,
      "▁lar": 4998,
      "▁Post": 4999,
      "▁Cath": 5000,
      "▁imsef": 5001,
      "▁Gram": 5002,
      "▁should": 5003,
      "undi": 5004,
      "ekw": 5005,
      "▁syrup": 5006,
      "/@": 5007,
      "baz": 5008,
      "fl": 5009,
      "erial": 5010,
      "▁lef": 5011,
      "▁PD": 5012,
      "▁Prod": 5013,
      "▁Main": 5014,
      "osa": 5015,
      "▁sotay": 5016,
      "▁further": 5017,
      "omm": 5018,
      "▁Rec": 5019,
      "▁Bridge": 5020,
      "De": 5021,
      "wide": 5022,
      "▁emb": 5023,
      "▁hom": 5024,
      "▁lady": 5025,
      "▁wella": 5026,
      "▁document": 5027,
      "▁Hushpuppi": 5028,
      "PA": 5029,
      "sy": 5030,
      "▁families": 5031,
      "ted": 5032,
      "▁wash": 5033,
      "▁certificate": 5034,
      "▁2018,": 5035,
      "▁nomination": 5036,
      "’t": 5037,
      "▁Dan": 5038,
      "▁Women's": 5039,
      "▁Presidency": 5040,
      "▁midfielder": 5041,
      "rew": 5042,
      "▁east": 5043,
      "▁being": 5044,
      "▁Kar": 5045,
      "▁River": 5046,
      "▁ministry": 5047,
      "iddon": 5048,
      "FF": 5049,
      "▁cough": 5050,
      "▁gbege": 5051,
      "▁introd": 5052,
      "▁Dr.": 5053,
      "-2": 5054,
      "-up": 5055,
      "▁dey,": 5056,
      "▁katak": 5057,
      "▁express": 5058,
      "▁design": 5059,
      "▁cure": 5060,
      "▁obs": 5061,
      "▁ria": 5062,
      "▁Ke": 5063,
      "▁armed": 5064,
      "▁collabo": 5065,
      "▁organis": 5066,
      "▁Musa": 5067,
      "▁Meanwhile": 5068,
      "▁migrants": 5069,
      "ault": 5070,
      "ky": 5071,
      "xy": 5072,
      "▁dig": 5073,
      "▁Bor": 5074,
      "▁Bus": 5075,
      "▁boil7": 5076,
      "rael": 5077,
      "▁organise": 5078,
      "▁development": 5079,
      "▁property": 5080,
      "▁Ethiopia": 5081,
      "▁wel": 5082,
      "ida": 5083,
      "▁kontri,": 5084,
      "'am": 5085,
      "You": 5086,
      "▁ach": 5087,
      "▁33": 5088,
      "isa": 5089,
      "▁\"Dis": 5090,
      "ification": 5091,
      "▁Xenophob": 5092,
      "▁baby": 5093,
      "yle": 5094,
      "sec": 5095,
      "▁along": 5096,
      "fort": 5097,
      "idel": 5098,
      "▁NY": 5099,
      "▁deadi": 5100,
      "▁happun.\n": 5101,
      "▁central": 5102,
      "▁issues": 5103,
      "▁Herdsmen": 5104,
      "▁Media": 5105,
      "▁Macron": 5106,
      "▁petrol": 5107,
      "▁so,": 5108,
      "▁N1": 5109,
      "▁Oda": 5110,
      "▁HIV": 5111,
      "▁me,": 5112,
      "▁contact": 5113,
      "ifer": 5114,
      "alogue": 5115,
      "oz": 5116,
      "▁aud": 5117,
      "▁yan": 5118,
      "▁\"P": 5119,
      "▁Cameroon,": 5120,
      "▁Adele": 5121,
      "▁defence": 5122,
      "▁Cross": 5123,
      "-h": 5124,
      "▁DSS": 5125,
      "▁Gab": 5126,
      "▁ath": 5127,
      "▁Cup:": 5128,
      "▁mistake": 5129,
      "▁Nun": 5130,
      "▁Jenn": 5131,
      "opy": 5132,
      "▁sym": 5133,
      "▁pressure": 5134,
      "▁MP": 5135,
      "▁5,": 5136,
      "▁7,": 5137,
      "▁Akwa": 5138,
      "▁charges": 5139,
      "▁kidnappers": 5140,
      "▁Doct": 5141,
      "bassador": 5142,
      "▁tour": 5143,
      "overty": 5144,
      "▁1:00": 5145,
      "MI": 5146,
      "▁Other": 5147,
      "▁Stadium": 5148,
      "▁electricity": 5149,
      "▁divorce": 5150,
      "▁Akpabi": 5151,
      "ca": 5152,
      "▁Mb": 5153,
      "▁What": 5154,
      "▁advert": 5155,
      "es:": 5156,
      "▁Mov": 5157,
      "▁'C": 5158,
      "▁Ambod": 5159,
      "ventus": 5160,
      "▁Francis": 5161,
      "▁others": 5162,
      "▁favour": 5163,
      "▁2022": 5164,
      "▁meat": 5165,
      "▁house,": 5166,
      "▁70": 5167,
      "ffairs": 5168,
      "37": 5169,
      "sex": 5170,
      "asala": 5171,
      "▁42": 5172,
      "▁blame": 5173,
      "▁scata": 5174,
      "▁\"Dem": 5175,
      "▁Kamto": 5176,
      "▁penalty": 5177,
      "▁society": 5178,
      "▁2020:": 5179,
      "ova": 5180,
      "illions": 5181,
      "led": 5182,
      "▁:": 5183,
      "▁sama": 5184,
      "itute": 5185,
      "▁Grand": 5186,
      "/F": 5187,
      "▁sad": 5188,
      "▁culture": 5189,
      "▁NC": 5190,
      "▁hands": 5191,
      "aguda": 5192,
      "pite": 5193,
      "▁rate": 5194,
      "ama,": 5195,
      "▁equal": 5196,
      "▁stars": 5197,
      "▁monitor": 5198,
      "▁8,": 5199,
      "▁videos": 5200,
      "▁everybody": 5201,
      "▁dollars": 5202,
      "▁encourage": 5203,
      "-M": 5204,
      "GA": 5205,
      "alo": 5206,
      "▁airl": 5207,
      "▁hundred": 5208,
      "▁yet": 5209,
      "▁space": 5210,
      "▁seka": 5211,
      "▁Plenti": 5212,
      "la": 5213,
      "amdi": 5214,
      "elly": 5215,
      "▁Israel": 5216,
      "▁Southwest": 5217,
      "▁surr": 5218,
      "essional": 5219,
      "▁consider": 5220,
      "44": 5221,
      "uter": 5222,
      "▁fish": 5223,
      "▁Aud": 5224,
      "▁WA": 5225,
      "▁nobody": 5226,
      "▁Ann": 5227,
      "gina": 5228,
      "▁scatter": 5229,
      "▁ens": 5230,
      "▁super": 5231,
      "▁Oshiomhole": 5232,
      "where": 5233,
      "int": 5234,
      "▁seat": 5235,
      "▁bar": 5236,
      "▁Nas": 5237,
      "▁Fat": 5238,
      "▁Command": 5239,
      "▁respons": 5240,
      "▁bomb": 5241,
      "▁cinem": 5242,
      "iaf": 5243,
      "▁once": 5244,
      "▁you'": 5245,
      "usi": 5246,
      "▁Prot": 5247,
      "friend": 5248,
      "ately": 5249,
      "in,": 5250,
      "icop": 5251,
      "unt": 5252,
      "▁pract": 5253,
      "▁clash": 5254,
      "gree": 5255,
      "ves": 5256,
      "▁yi": 5257,
      "▁Ear": 5258,
      "▁Croat": 5259,
      "▁adj": 5260,
      "▁senate": 5261,
      "26": 5262,
      "ju": 5263,
      "▁z": 5264,
      "▁radio": 5265,
      "▁2011": 5266,
      "▁prosec": 5267,
      "▁(@M": 5268,
      "▁polling": 5269,
      "VC": 5270,
      "iola": 5271,
      "million": 5272,
      "▁festival": 5273,
      "atorial": 5274,
      "▁Fore": 5275,
      "▁Gov": 5276,
      "estic": 5277,
      "▁kam": 5278,
      "▁alive": 5279,
      "▁2017.\n": 5280,
      "▁drugs": 5281,
      "-Z": 5282,
      "gas": 5283,
      "▁Milit": 5284,
      "▁EU": 5285,
      "▁Lady": 5286,
      "▁series": 5287,
      "▁suspected": 5288,
      "▁refugees": 5289,
      "▁separatist": 5290,
      "ottenham": 5291,
      "▁pil": 5292,
      "elect": 5293,
      "▁'O": 5294,
      "▁neighbour": 5295,
      "▁48": 5296,
      "▁Nnamdi": 5297,
      "LE": 5298,
      "▁dialogue": 5299,
      "icle": 5300,
      "▁Caf": 5301,
      "▁197": 5302,
      "▁Woman": 5303,
      "▁Lionel": 5304,
      "urb": 5305,
      "▁'th": 5306,
      "oye": 5307,
      "▁Buhari,": 5308,
      "aire": 5309,
      "▁announcement": 5310,
      "▁Open": 5311,
      "▁PDT": 5312,
      "36": 5313,
      "tori": 5314,
      "▁Net": 5315,
      "▁rumour": 5316,
      "▁Wild": 5317,
      "ried": 5318,
      "▁Dia": 5319,
      "▁Merc": 5320,
      "▁chair": 5321,
      "▁weekend": 5322,
      "▁—": 5323,
      "▁do,": 5324,
      "▁pub": 5325,
      "▁lit": 5326,
      "▁Jud": 5327,
      "▁Godwin": 5328,
      "sel": 5329,
      "▁Bos": 5330,
      "▁2010": 5331,
      "▁passport": 5332,
      "▁brain": 5333,
      "▁10,": 5334,
      "ourney": 5335,
      "▁songs": 5336,
      "▁malaria": 5337,
      "▁Algeria": 5338,
      "▁Sweet": 5339,
      "▁alone": 5340,
      "▁militants": 5341,
      "▁Abdullahi": 5342,
      "▁cook": 5343,
      "▁Virus:": 5344,
      "▁'c": 5345,
      "▁(F": 5346,
      "▁before.\n": 5347,
      "▁Usman": 5348,
      "ique": 5349,
      "jo": 5350,
      "▁weap": 5351,
      "▁today,": 5352,
      "OU": 5353,
      "imp": 5354,
      "▁Juventus": 5355,
      "▁impeach": 5356,
      "icopter": 5357,
      ".6": 5358,
      "29": 5359,
      "▁Fire": 5360,
      "▁Weah": 5361,
      "change": 5362,
      "▁(G": 5363,
      "▁Frank": 5364,
      "▁video:": 5365,
      "▁Adeleke": 5366,
      "TM": 5367,
      "icester": 5368,
      "▁rank": 5369,
      "▁worth": 5370,
      "▁media.\n": 5371,
      "aily": 5372,
      "▁14,": 5373,
      "▁Charles": 5374,
      "▁katakata": 5375,
      "▁Ambode": 5376,
      "CR": 5377,
      "▁southern": 5378,
      "▁Mak": 5379,
      "▁material": 5380,
      "▁Fayose": 5381,
      "▁file": 5382,
      "▁semi": 5383,
      "▁Nine": 5384,
      "▁lic": 5385,
      "aso": 5386,
      "▁CH": 5387,
      "▁anybodi": 5388,
      "▁Executive": 5389,
      "▁Tanzania": 5390,
      "▁Jennifer": 5391,
      "▁Sani": 5392,
      "empt": 5393,
      "▁rush": 5394,
      "▁king": 5395,
      "▁'f": 5396,
      "▁'m": 5397,
      "aint": 5398,
      "▁Camp": 5399,
      "/T": 5400,
      "off": 5401,
      "▁Emer": 5402,
      "▁Yus": 5403,
      "▁6,": 5404,
      "▁Daniels": 5405,
      "PE": 5406,
      "s)": 5407,
      "▁bag": 5408,
      "▁election,": 5409,
      "ogn": 5410,
      "▁Canada": 5411,
      "▁birthday": 5412,
      "▁amb": 5413,
      "▁Kanu": 5414,
      "▁Buhari:": 5415,
      "▁cow": 5416,
      "▁Bau": 5417,
      "▁shame": 5418,
      "▁journey": 5419,
      "▁graduate": 5420,
      "▁environment": 5421,
      "▁killings:": 5422,
      "▁rub": 5423,
      "▁Tottenham": 5424,
      "▁nothing": 5425,
      "▁pregn": 5426,
      "▁Debate": 5427,
      "▁command": 5428,
      "▁terrorist": 5429,
      "lack": 5430,
      "mas": 5431,
      "erence": 5432,
      "omestic": 5433,
      "▁totori": 5434,
      "▁2,155th": 5435,
      "▁College": 5436,
      "▁ensure": 5437,
      "▁ple": 5438,
      "ation.\n": 5439,
      "▁colon": 5440,
      "▁submit": 5441,
      "▁Acad": 5442,
      "▁AKA": 5443,
      "▁gof": 5444,
      "▁\"di": 5445,
      "▁'T": 5446,
      "▁squad": 5447,
      "evolution": 5448,
      "▁12,": 5449,
      "▁Angel": 5450,
      "▁prisoners": 5451,
      "▁Prof.": 5452,
      "▁circ": 5453,
      "▁Chibok": 5454,
      ":00": 5455,
      "▁FBI": 5456,
      "▁Bre": 5457,
      "▁'F": 5458,
      "▁voting": 5459,
      "eka": 5460,
      "▁Share": 5461,
      "fficial": 5462,
      "ternal": 5463,
      "▁feature": 5464,
      "▁WAEC": 5465,
      "▁fund": 5466,
      "▁Magu": 5467,
      "▁disqual": 5468,
      "▁Journalist": 5469,
      "▁Cons": 5470,
      "▁lecturers": 5471,
      "▁Tunis": 5472,
      "▁gofment": 5473,
      "lier": 5474,
      "▁gat": 5475,
      "▁Of": 5476,
      "eek": 5477,
      "▁tok,": 5478,
      "▁Madam": 5479,
      "▁Department": 5480,
      "!!": 5481,
      ".1": 5482,
      "CT": 5483,
      "▁gay": 5484,
      "▁Meghan": 5485,
      "24": 5486,
      "s19th": 5487,
      "▁bridge": 5488,
      "▁unto": 5489,
      "ishop": 5490,
      "▁19,": 5491,
      "▁Lawy": 5492,
      "▁Falcons": 5493,
      "OR": 5494,
      "oom": 5495,
      "▁aw": 5496,
      "▁gym": 5497,
      "▁By": 5498,
      "unic": 5499,
      "▁boil4th": 5500,
      "▁laws": 5501,
      "▁add.\n": 5502,
      "▁1,4": 5503,
      "▁Burundi": 5504,
      "▁injure": 5505,
      "▁fighters": 5506,
      "55": 5507,
      "▁tick": 5508,
      "▁millions": 5509,
      "▁Ev": 5510,
      "agas": 5511,
      "▁2017,": 5512,
      "▁Joe": 5513,
      "200": 5514,
      "▁lab": 5515,
      "▁Luc": 5516,
      "ribute": 5517,
      "▁Muslim": 5518,
      "▁tanker": 5519,
      "▁welcome": 5520,
      "ameroon": 5521,
      "▁(I": 5522,
      "-tr": 5523,
      "ydro": 5524,
      "bazonia": 5525,
      "anish": 5526,
      "▁Sis": 5527,
      "ural": 5528,
      "▁global": 5529,
      "▁II": 5530,
      "▁Wenger": 5531,
      "unmi": 5532,
      "▁'d": 5533,
      "▁grant": 5534,
      "▁knock": 5535,
      "pector": 5536,
      "esterday": 5537,
      "▁loan": 5538,
      "esi": 5539,
      "▁Teach": 5540,
      "▁happen.\n": 5541,
      "▁goalkeep": 5542,
      "▁Regina": 5543,
      "▁independence": 5544,
      "▁injury": 5545,
      "▁Muslims": 5546,
      "gun": 5547,
      "▁ship": 5548,
      "▁alias": 5549,
      "▁Leicester": 5550,
      "▁somet": 5551,
      "▁thousands": 5552,
      ".4": 5553,
      ".7": 5554,
      "▁fig": 5555,
      "▁gl": 5556,
      "▁Opp": 5557,
      "▁Vot": 5558,
      "▁dem8": 5559,
      "▁Bad": 5560,
      "▁2019,": 5561,
      "▁portal6": 5562,
      "▁recently": 5563,
      "▁Royal": 5564,
      "▁killings": 5565,
      "▁Ali": 5566,
      "▁Beyonce": 5567,
      "▁Monday,": 5568,
      "▁shooting": 5569,
      "▁politician": 5570,
      "▁Yaoundé": 5571,
      "ekwes": 5572,
      "▁Yusuf": 5573,
      "HE": 5574,
      "oe": 5575,
      "esus": 5576,
      "▁Tin": 5577,
      "▁court.\n": 5578,
      "▁skin": 5579,
      "-in": 5580,
      "▁poverty": 5581,
      "▁Jack": 5582,
      "▁inside.\n": 5583,
      "▁data": 5584,
      "▁world,": 5585,
      "▁performance": 5586,
      "▁Ezekwes": 5587,
      "▁Foreign": 5588,
      "▁Ter": 5589,
      "▁Tar": 5590,
      "▁Kelly": 5591,
      "▁compete": 5592,
      "▁economic": 5593,
      "▁introduce": 5594,
      "▁Ned": 5595,
      "▁Game": 5596,
      "▁board": 5597,
      "▁'H": 5598,
      "▁Kum": 5599,
      "▁45": 5600,
      "▁work,": 5601,
      "clus": 5602,
      "▁secondary": 5603,
      "▁11,": 5604,
      "ournalists": 5605,
      "▁Av": 5606,
      "▁equ": 5607,
      "▁Watch": 5608,
      "▁steal": 5609,
      "▁style": 5610,
      "▁Any": 5611,
      "▁deport": 5612,
      "▁Nengi": 5613,
      "ides": 5614,
      "▁although": 5615,
      "quar": 5616,
      "ample": 5617,
      "▁clubs": 5618,
      "POB": 5619,
      "▁suggest": 5620,
      "DA": 5621,
      "ua": 5622,
      "▁MT": 5623,
      "ame,": 5624,
      "▁Per": 5625,
      "▁President,": 5626,
      "▁portalone": 5627,
      "aho": 5628,
      "emble": 5629,
      "ptoms": 5630,
      "▁Independent": 5631,
      "▁Ibom": 5632,
      "▁benefit": 5633,
      "draw": 5634,
      "▁categ": 5635,
      "▁Federation": 5636,
      "▁Lat": 5637,
      "▁grand": 5638,
      "▁union": 5639,
      "▁Maurice": 5640,
      "▁postpone": 5641,
      "eum": 5642,
      "▁\"s": 5643,
      "▁boat": 5644,
      "▁key": 5645,
      "▁Anas": 5646,
      "▁Child": 5647,
      "weight": 5648,
      "▁appointment": 5649,
      "aus": 5650,
      "anch": 5651,
      "▁torture": 5652,
      "▁mad": 5653,
      "▁Peace": 5654,
      "eau": 5655,
      "ockdown": 5656,
      "▁administration": 5657,
      "▁deaths": 5658,
      "▁houses": 5659,
      "▁2007": 5660,
      "▁iP": 5661,
      "▁diffic": 5662,
      "andan": 5663,
      "utin": 5664,
      "▁Stars": 5665,
      "▁While": 5666,
      "▁minute": 5667,
      "▁retire": 5668,
      "▁emp": 5669,
      "▁Tok": 5670,
      "▁NYSC": 5671,
      "▁won": 5672,
      "▁wake": 5673,
      "ly,": 5674,
      "▁Rw": 5675,
      "IG": 5676,
      "aec": 5677,
      "lin": 5678,
      "▁conference": 5679,
      "▁fourth": 5680,
      "▁alleged": 5681,
      "▁captain": 5682,
      "▁burst": 5683,
      "▁defender": 5684,
      "10m": 5685,
      "▁technology": 5686,
      "-kill": 5687,
      "aut": 5688,
      "iet": 5689,
      "▁mob": 5690,
      "▁Dang": 5691,
      "▁2020,": 5692,
      "▁Wale": 5693,
      "▁Umar": 5694,
      "bra": 5695,
      "▁recogn": 5696,
      "azz": 5697,
      "▁centres": 5698,
      "▁application": 5699,
      "▁gatz": 5700,
      "com": 5701,
      "ius": 5702,
      "atform": 5703,
      "ality": 5704,
      "▁gang": 5705,
      "▁Trib": 5706,
      "▁Eric": 5707,
      "▁elections.\n": 5708,
      "ardash": 5709,
      "ences": 5710,
      "▁Mrs": 5711,
      "▁activities": 5712,
      "▁apolog": 5713,
      "54": 5714,
      "▁wish": 5715,
      "▁base": 5716,
      "▁coun": 5717,
      "▁CEO": 5718,
      "opa": 5719,
      "▁external": 5720,
      "▁area.\n": 5721,
      "▁Hel": 5722,
      "▁troway": 5723,
      "agascar": 5724,
      "▁Killing": 5725,
      "▁offence": 5726,
      "▁Austria": 5727,
      "▁paper": 5728,
      "▁customers": 5729,
      "▁Croatia": 5730,
      "▁fair": 5731,
      "arian": 5732,
      "▁'G": 5733,
      "ega": 5734,
      "▁1,00": 5735,
      "▁electoral": 5736,
      "▁reasons": 5737,
      "▁Ramaph": 5738,
      "▁Smith": 5739,
      "gium": 5740,
      "-sh": 5741,
      "16": 5742,
      "▁ma": 5743,
      "amin": 5744,
      "▁prize": 5745,
      "▁winners": 5746,
      "ika": 5747,
      "▁acting": 5748,
      "▁Young": 5749,
      "ICE": 5750,
      "▁Inspector": 5751,
      "uff": 5752,
      "▁Mand": 5753,
      "▁Pope": 5754,
      "eap": 5755,
      "merc": 5756,
      "▁Third": 5757,
      "▁Represent": 5758,
      "▁Sanwo": 5759,
      "▁extra": 5760,
      "▁(B": 5761,
      "ah,": 5762,
      "ashola": 5763,
      "▁policy": 5764,
      "▁Region": 5765,
      "▁left": 5766,
      "▁Produc": 5767,
      "▁publish": 5768,
      "EL": 5769,
      "▁Pier": 5770,
      "▁Coach": 5771,
      "▁Falz": 5772,
      "▁animals": 5773,
      "▁Ky": 5774,
      "▁Nwoko": 5775,
      "BT": 5776,
      "few": 5777,
      "ston": 5778,
      "oday": 5779,
      "ersey": 5780,
      "▁troph": 5781,
      "▁attack:": 5782,
      "▁Isa": 5783,
      "▁Govnorship": 5784,
      "▁awards": 5785,
      "▁Christmas": 5786,
      "▁sometin": 5787,
      "▁Belgium": 5788,
      "atural": 5789,
      "▁model": 5790,
      "▁cinemas,": 5791,
      "▁difficult": 5792,
      "28": 5793,
      "59": 5794,
      "▁Sing": 5795,
      "▁access": 5796,
      "▁Thron": 5797,
      "▁newspap": 5798,
      "-R": 5799,
      "ycle": 5800,
      "▁Su": 5801,
      "▁AN": 5802,
      "▁lif": 5803,
      "▁With": 5804,
      "▁Up": 5805,
      "▁well.\n": 5806,
      "▁worse": 5807,
      "ancy": 5808,
      "▁cell": 5809,
      "▁Ig": 5810,
      "▁Jac": 5811,
      "ips": 5812,
      "▁plans": 5813,
      "▁17,": 5814,
      "▁foreigners": 5815,
      "▁Me": 5816,
      "▁rac": 5817,
      "▁prove": 5818,
      "▁Shatta": 5819,
      "▁1999": 5820,
      "▁'My": 5821,
      "▁Bauchi": 5822,
      "48": 5823,
      "frica": 5824,
      "▁Food": 5825,
      "ified": 5826,
      "▁Yor": 5827,
      "▁driver": 5828,
      "▁Thom": 5829,
      "▁29,": 5830,
      "▁involve": 5831,
      "▁Akpabio": 5832,
      "WAS": 5833,
      "▁fashion": 5834,
      "▁Biaf": 5835,
      "▁Ham": 5836,
      "▁withdraw": 5837,
      "▁Princ": 5838,
      "▁leadership": 5839,
      "ever,": 5840,
      "▁Management": 5841,
      "▁idea": 5842,
      "CC": 5843,
      "uke": 5844,
      "▁fellow": 5845,
      "ayode": 5846,
      "▁Ife": 5847,
      "ainab": 5848,
      "avi": 5849,
      "aku": 5850,
      "efa": 5851,
      "▁Speak": 5852,
      "▁particip": 5853,
      "zer": 5854,
      "▁20,": 5855,
      "▁Ma": 5856,
      "▁hang": 5857,
      "▁Ow": 5858,
      "▁Adamu": 5859,
      "▁separate": 5860,
      "▁30,": 5861,
      "▁nearly": 5862,
      "▁Official": 5863,
      "-r": 5864,
      "▁DJ": 5865,
      "▁Nor": 5866,
      "▁Iwo": 5867,
      "▁stations": 5868,
      "▁Kardash": 5869,
      "▁helicopter": 5870,
      "ristiano": 5871,
      "▁guidel": 5872,
      "▁deliver": 5873,
      "owd": 5874,
      "▁PI": 5875,
      "▁EK": 5876,
      "ances": 5877,
      "▁edition": 5878,
      "▁Apple": 5879,
      "▁Martin": 5880,
      "ahoo-": 5881,
      "▁Ap": 5882,
      "▁Evert": 5883,
      "▁spas": 5884,
      "▁Senior": 5885,
      "ery,": 5886,
      "▁Ahmad": 5887,
      "▁Flor": 5888,
      "▁Sanwo-O": 5889,
      "▁·": 5890,
      "iah": 5891,
      "iev": 5892,
      "▁school.\n": 5893,
      "ocket": 5894,
      "▁opening": 5895,
      "▁Oby": 5896,
      "▁Haram:": 5897,
      "▁Madagascar": 5898,
      "▁Report": 5899,
      "▁religious": 5900,
      "▁type": 5901,
      "AP": 5902,
      "▁middle": 5903,
      "▁Ther": 5904,
      "▁sue": 5905,
      "▁offer": 5906,
      "▁#End": 5907,
      "▁Mercy": 5908,
      "▁did": 5909,
      "urance": 5910,
      "▁Tins": 5911,
      "addy": 5912,
      "▁kasala": 5913,
      "▁word": 5914,
      "▁Abacha": 5915,
      "▁Image": 5916,
      "▁flag": 5917,
      "▁presidency": 5918,
      "/AFP": 5919,
      "▁celebs": 5920,
      "▁'thank": 5921,
      "mercial": 5922,
      "ede": 5923,
      "▁'L": 5924,
      "▁(L": 5925,
      "▁week,": 5926,
      "▁15,": 5927,
      "▁Friday,": 5928,
      "▁Military": 5929,
      "▁ticket": 5930,
      "▁Pierre": 5931,
      "esa": 5932,
      "▁Sey": 5933,
      "▁demsef": 5934,
      "ibility": 5935,
      "▁Obama": 5936,
      "▁2009": 5937,
      "▁concert": 5938,
      "▁friendly": 5939,
      "▁27,": 5940,
      "▁£10m": 5941,
      "▁sports": 5942,
      "▁Bello": 5943,
      "flix": 5944,
      "BA": 5945,
      "UT": 5946,
      "ler": 5947,
      "nel": 5948,
      "yber": 5949,
      "yahoo": 5950,
      "att": 5951,
      "▁Sta": 5952,
      "▁NDC": 5953,
      "▁gall": 5954,
      "▁38": 5955,
      "▁'N": 5956,
      "▁Elections:": 5957,
      "▁gunmen": 5958,
      "'o": 5959,
      "57": 5960,
      "ei": 5961,
      "iot": 5962,
      "ource": 5963,
      "▁platform": 5964,
      "▁shout": 5965,
      "ually": 5966,
      "▁assault": 5967,
      "▁Movement": 5968,
      "▁Sisiku": 5969,
      "▁deb": 5970,
      "▁Ret": 5971,
      "▁Abiola": 5972,
      "ibo": 5973,
      "▁Muhammad": 5974,
      "anya:": 5975,
      "▁Australia": 5976,
      ".2": 5977,
      "▁Mn": 5978,
      "▁yesterday": 5979,
      "▁prost": 5980,
      "▁Rel": 5981,
      "▁youngest": 5982,
      "rez": 5983,
      "▁assembly": 5984,
      "▁services": 5985,
      "▁father": 5986,
      "▁aut": 5987,
      "▁met": 5988,
      "▁Over": 5989,
      "▁Eid": 5990,
      "▁ECO": 5991,
      "▁dog": 5992,
      "▁Africa:": 5993,
      "▁reports": 5994,
      "▁professional": 5995,
      "itin": 5996,
      "▁Uz": 5997,
      "▁track": 5998,
      "▁Zainab": 5999,
      "▁scor": 6000,
      "▁Shell": 6001,
      "ucture": 6002,
      "▁phys": 6003,
      "▁Ramaphosa": 6004,
      ".9": 6005,
      ".'\n": 6006,
      "wick": 6007,
      "▁mil": 6008,
      "▁Des": 6009,
      "▁Pri": 6010,
      "▁Anam": 6011,
      "▁trust": 6012,
      "▁executive": 6013,
      "▁mins:": 6014,
      "▁safety": 6015,
      "▁Tribunal": 6016,
      "▁Cameroonian": 6017,
      "▁day,": 6018,
      "▁matter.\n": 6019,
      "▁28,": 6020,
      "▁gift19th": 6021,
      "▁Defence": 6022,
      "▁gyms19th": 6023,
      "ein": 6024,
      "yo": 6025,
      "▁rap": 6026,
      "▁Tiwa": 6027,
      "▁Found": 6028,
      "▁orig": 6029,
      "▁#M": 6030,
      "47": 6031,
      "ories": 6032,
      "ers:": 6033,
      "unde": 6034,
      "▁49": 6035,
      "▁Stella": 6036,
      "-time": 6037,
      "▁mosqu": 6038,
      "▁Grammy": 6039,
      "2019": 6040,
      "▁mental": 6041,
      "▁Mary": 6042,
      "ils": 6043,
      "▁Aminu": 6044,
      "▁questions": 6045,
      "▁Plenty": 6046,
      "▁Lyon": 6047,
      "▁weti": 6048,
      "▁siddon": 6049,
      "▁cities": 6050,
      "▁25,": 6051,
      "▁kwanta": 6052,
      "▁Adams": 6053,
      "▁Togo": 6054,
      "OT": 6055,
      "xit": 6056,
      "or,": 6057,
      "▁mention": 6058,
      "▁toil": 6059,
      "▁Joy": 6060,
      "ofi": 6061,
      "▁conduct": 6062,
      "▁capital,": 6063,
      "chloroquine": 6064,
      "▁airline": 6065,
      "34": 6066,
      "luck": 6067,
      "inho": 6068,
      "▁Sabi": 6069,
      "▁mourn": 6070,
      "▁nova": 6071,
      "▁ansa": 6072,
      "▁mins": 6073,
      "▁corner": 6074,
      "▁9,": 6075,
      "▁Work": 6076,
      "▁footballer": 6077,
      "▁continent": 6078,
      "▁traders": 6079,
      "mark": 6080,
      "▁richest": 6081,
      "▁referee": 6082,
      "▁dangerous": 6083,
      "▁Kardashian": 6084,
      "gold": 6085,
      "▁Ne": 6086,
      "▁Tay": 6087,
      "▁Fun": 6088,
      "▁Free": 6089,
      "▁Cristiano": 6090,
      "ipe": 6091,
      "▁\"G": 6092,
      "utions": 6093,
      "ffort": 6094,
      "okes": 6095,
      "▁bush": 6096,
      "real": 6097,
      "tainment": 6098,
      "azine": 6099,
      "▁23,": 6100,
      "▁Phil": 6101,
      "▁Appeal": 6102,
      "▁Douala": 6103,
      "▁connect": 6104,
      "cow": 6105,
      "▁cash": 6106,
      "▁During": 6107,
      "▁Eto": 6108,
      "▁resemble": 6109,
      "▁smoke": 6110,
      "▁24,": 6111,
      "▁Acting": 6112,
      "ING": 6113,
      "▁engine": 6114,
      "▁democracy": 6115,
      "▁Sanwo-Olu": 6116,
      "cell": 6117,
      "▁sector": 6118,
      "▁Cap": 6119,
      "▁Lagos:": 6120,
      "▁govnors": 6121,
      "▁sister": 6122,
      "zak": 6123,
      "▁mach": 6124,
      "otion": 6125,
      "▁displ": 6126,
      "▁Gh": 6127,
      "▁scar": 6128,
      "▁progress": 6129,
      "-fight": 6130,
      "▁citizen": 6131,
      "▁curfew": 6132,
      "▁equip": 6133,
      "inn": 6134,
      "▁Sok": 6135,
      "ites": 6136,
      "▁hala": 6137,
      "▁amount": 6138,
      "ugal": 6139,
      "▁before,": 6140,
      "▁maintain": 6141,
      "ED": 6142,
      "ION": 6143,
      "miss": 6144,
      "yan": 6145,
      "eline": 6146,
      "▁Our": 6147,
      "ington": 6148,
      "▁EPA": 6149,
      "▁(T": 6150,
      "▁uni": 6151,
      "▁Als": 6152,
      "▁expose": 6153,
      "▁Ebony": 6154,
      "▁delay": 6155,
      "▁\"For": 6156,
      "▁Lebanon": 6157,
      "▁goalkeeper": 6158,
      "▁Everton": 6159,
      "G)": 6160,
      "▁Fela": 6161,
      "▁Ogb": 6162,
      "▁jaguda": 6163,
      "▁1,0": 6164,
      "▁life.\n": 6165,
      "▁attempt": 6166,
      "▁26,": 6167,
      "▁Italian": 6168,
      "▁snake": 6169,
      "''\n": 6170,
      "St": 6171,
      "▁bull": 6172,
      "berg": 6173,
      "▁winning": 6174,
      "▁Oluw": 6175,
      "▁Officer": 6176,
      "aviour": 6177,
      "NPC": 6178,
      "ority": 6179,
      "▁Dog": 6180,
      "▁His": 6181,
      "▁attention": 6182,
      "▁currently": 6183,
      "▁restrict": 6184,
      "▁damage": 6185,
      "▁Dangote": 6186,
      "43": 6187,
      "hold": 6188,
      "ract": 6189,
      "▁hydro": 6190,
      "▁37": 6191,
      "▁lost": 6192,
      "▁PS": 6193,
      "overs": 6194,
      "iser": 6195,
      "▁(@A": 6196,
      "▁Bright": 6197,
      "▁president,": 6198,
      "▁cars": 6199,
      "▁pesin,": 6200,
      "▁phot": 6201,
      "▁Kingdom": 6202,
      "▁Content": 6203,
      "▁argue": 6204,
      "▁adjourn": 6205,
      "▁2000": 6206,
      "▁Tom": 6207,
      "▁IPOB": 6208,
      "▁\"H": 6209,
      "▁truck": 6210,
      "▁media,": 6211,
      "ugee": 6212,
      "▁Medical": 6213,
      "▁Catholic": 6214,
      "-true": 6215,
      "▁Killings:": 6216,
      "urt": 6217,
      "▁Lu": 6218,
      "▁Lions": 6219,
      "ability": 6220,
      "angag": 6221,
      "ritin": 6222,
      "▁critic": 6223,
      "▁Xenophobia:": 6224,
      "▁ECOWAS": 6225,
      "atory": 6226,
      "▁bed": 6227,
      "▁Not": 6228,
      "ols": 6229,
      "▁Fans": 6230,
      "▁Candid": 6231,
      "▁UTO": 6232,
      "▁broadcast": 6233,
      "▁investment": 6234,
      "▁coronavirus.\n": 6235,
      "ukwu": 6236,
      "▁University,": 6237,
      "▁21,": 6238,
      "▁Mohamed": 6239,
      "▁extend": 6240,
      "▁EKPE": 6241,
      "▁UTOMI": 6242,
      "49": 6243,
      "MB": 6244,
      "esom": 6245,
      "▁Sil": 6246,
      "irit": 6247,
      "osun": 6248,
      "umu": 6249,
      "▁owner": 6250,
      "▁ministers": 6251,
      "▁management": 6252,
      "▁availableView": 6253,
      "▁PIUS": 6254,
      "▁Anambra": 6255,
      "nes": 6256,
      "par": 6257,
      "▁one,": 6258,
      "▁trap": 6259,
      "▁scient": 6260,
      "▁pikin,": 6261,
      "▁Ambazonia": 6262,
      "▁colle": 6263,
      "▁primaries": 6264,
      "▁Garba": 6265,
      "▁Staff": 6266,
      "eless": 6267,
      "ia)": 6268,
      "▁effort": 6269,
      "▁Waec": 6270,
      "▁PVC": 6271,
      "▁commercial": 6272,
      "eath": 6273,
      "▁day.\n": 6274,
      "▁Democracy": 6275,
      "▁Techn": 6276,
      "▁pilot": 6277,
      "▁EKPEI": 6278,
      "▁Seven": 6279,
      "▁Mour": 6280,
      "ocate": 6281,
      "▁ord": 6282,
      "▁Minimum": 6283,
      "asket": 6284,
      "▁slav": 6285,
      "▁semi-final": 6286,
      "▁toilet": 6287,
      "▁uniform": 6288,
      "▁Sir": 6289,
      "▁Lead": 6290,
      "▁one.\n": 6291,
      "▁(£": 6292,
      "▁43": 6293,
      "▁jump": 6294,
      "▁detail": 6295,
      "▁activist": 6296,
      "▁Player": 6297,
      "▁Somal": 6298,
      "▁domot": 6299,
      "▁domestic": 6300,
      "▁field": 6301,
      "▁Sch": 6302,
      "▁Oke": 6303,
      "▁yahoo": 6304,
      "▁Lim": 6305,
      "▁medal": 6306,
      "▁party,": 6307,
      "▁peaceful": 6308,
      "▁approv": 6309,
      "▁\"My": 6310,
      "▁athlet": 6311,
      "▁Wilder": 6312,
      "▁Taylor": 6313,
      "io,": 6314,
      "▁u": 6315,
      "▁Uk": 6316,
      "abin": 6317,
      "▁Yak": 6318,
      "▁sever": 6319,
      "▁users": 6320,
      "▁beginning": 6321,
      "raft": 6322,
      "▁Portugal": 6323,
      "▁practice": 6324,
      "▁Brexit": 6325,
      "▁Mnangag": 6326,
      "4,": 6327,
      "err": 6328,
      "▁cam": 6329,
      "▁Tim": 6330,
      "▁32": 6331,
      "▁witness": 6332,
      "▁congr": 6333,
      "019th": 6334,
      "▁despite": 6335,
      "▁22,": 6336,
      "▁Tinubu": 6337,
      "▁Theresa": 6338,
      "ih": 6339,
      "▁Maid": 6340,
      "andon": 6341,
      "▁300": 6342,
      "▁Bak": 6343,
      "▁Jesus": 6344,
      "hank": 6345,
      "▁(E": 6346,
      "▁accus": 6347,
      "▁too.\n": 6348,
      "▁detention": 6349,
      "▁Sanusi": 6350,
      "inary": 6351,
      "▁pen": 6352,
      "▁cult": 6353,
      "▁aka": 6354,
      "▁Affairs": 6355,
      "▁Codeine": 6356,
      "▁thief": 6357,
      "▁Kats": 6358,
      "▁Twitter/@": 6359,
      "▁choice": 6360,
      "▁blind": 6361,
      "▁lockdown:": 6362,
      "▁Nyesom": 6363,
      "▁traffick": 6364,
      "▁summit": 6365,
      "▁predict": 6366,
      "▁Posted": 6367,
      "clusive": 6368,
      "▁gallery,": 6369,
      "▁lim": 6370,
      "▁Menz": 6371,
      "security": 6372,
      "augur": 6373,
      "rel": 6374,
      "td": 6375,
      "atan": 6376,
      "▁Mik": 6377,
      "▁Oding": 6378,
      "▁Ref": 6379,
      "▁46": 6380,
      "▁upandan": 6381,
      "▁pictures": 6382,
      "▁infect": 6383,
      "▁thoughts": 6384,
      "▁well-well.\n": 6385,
      "▁Britain": 6386,
      "▁fan": 6387,
      "▁mem": 6388,
      "▁Fashola": 6389,
      "▁IS": 6390,
      "▁Gambia": 6391,
      "▁\"No": 6392,
      "▁entr": 6393,
      "▁expensive": 6394,
      "-talk": 6395,
      "▁housemate": 6396,
      "▁nominate": 6397,
      "▁IGP,": 6398,
      "▁Goodluck": 6399,
      "▁Yoruba": 6400,
      "bal": 6401,
      "▁worship": 6402,
      "▁Ngo": 6403,
      "ential": 6404,
      "▁Lolo": 6405,
      "▁law.\n": 6406,
      "▁clin": 6407,
      "▁Ony": 6408,
      "▁1:40": 6409,
      "▁production": 6410,
      "Nigerian": 6411,
      "▁skill": 6412,
      "▁Artist": 6413,
      "▁Organization": 6414,
      "▁punishment": 6415,
      "39": 6416,
      "DF": 6417,
      "PY": 6418,
      "▁Number": 6419,
      "▁1-0": 6420,
      "ources": 6421,
      "leg": 6422,
      "▁Kofi": 6423,
      "▁Rem": 6424,
      "▁Yobe": 6425,
      "▁office.\n": 6426,
      "▁patrol?2": 6427,
      "▁disturb": 6428,
      "▁behaviour": 6429,
      "30,000": 6430,
      "▁Olympic": 6431,
      "▁Boseman": 6432,
      "-D": 6433,
      ".0": 6434,
      "burg": 6435,
      "ees": 6436,
      "▁lack": 6437,
      "▁pass.\n": 6438,
      "▁Rock": 6439,
      "▁51": 6440,
      "▁compare": 6441,
      "▁Shari": 6442,
      "▁influ": 6443,
      "▁Flood": 6444,
      "▁Finance": 6445,
      "EMA": 6446,
      "vention": 6447,
      "ura": 6448,
      "irement": 6449,
      "▁Hollywood": 6450,
      "▁Und": 6451,
      "▁worst": 6452,
      "evin": 6453,
      "▁People's": 6454,
      "▁Polit": 6455,
      "▁(APC": 6456,
      "▁0.0": 6457,
      "▁identify": 6458,
      "xychloroquine": 6459,
      "▁Menzgold": 6460,
      "▁Today": 6461,
      "▁Sept.": 6462,
      "▁Bol": 6463,
      "ired": 6464,
      "allow": 6465,
      "▁view": 6466,
      "▁fight-fight": 6467,
      "▁Lawal": 6468,
      "ahoo-yahoo": 6469,
      "RI": 6470,
      "ann": 6471,
      "eye": 6472,
      "ar,": 6473,
      "▁Mun": 6474,
      "▁Pep": 6475,
      "▁Ghana.\n": 6476,
      "ogo": 6477,
      "▁Area": 6478,
      "▁Waya\"": 6479,
      "▁\"Terry": 6480,
      "▁observe": 6481,
      "/Facebook": 6482,
      "▁Thomas": 6483,
      "za": 6484,
      "▁Authority": 6485,
      "ila": 6486,
      "ipal": 6487,
      "▁'l": 6488,
      "▁princ": 6489,
      "▁trip": 6490,
      "▁again,": 6491,
      "▁Minute": 6492,
      "▁week.\n": 6493,
      "▁Abuja.\n": 6494,
      "▁titles": 6495,
      "In": 6496,
      "▁tom": 6497,
      "▁Pris": 6498,
      "asi": 6499,
      "ising": 6500,
      "▁nobodi": 6501,
      "▁Ka": 6502,
      "usegun": 6503,
      "ieh": 6504,
      "▁500": 6505,
      "▁Lagos.\n": 6506,
      "▁declar": 6507,
      "▁Ifun": 6508,
      "▁Control": 6509,
      "▁Secondary": 6510,
      "▁equipment": 6511,
      "-n": 6512,
      "▁gain": 6513,
      "owo": 6514,
      "▁Games": 6515,
      "▁ameroon": 6516,
      "▁Drake": 6517,
      "▁2016,": 6518,
      "▁reopening": 6519,
      "▁residents": 6520,
      "▁category": 6521,
      "▁madam": 6522,
      "iately": 6523,
      "mall": 6524,
      "sp": 6525,
      "▁alert": 6526,
      "▁47": 6527,
      "akzak": 6528,
      "▁school,": 6529,
      "▁drivers": 6530,
      "▁Adv": 6531,
      "▁Assist": 6532,
      "▁request": 6533,
      "▁panel": 6534,
      "▁iPhone": 6535,
      ")\n": 6536,
      "500": 6537,
      "?,": 6538,
      "banj": 6539,
      "light": 6540,
      "ito": 6541,
      "▁Mam": 6542,
      "▁Bon": 6543,
      "▁imself": 6544,
      "▁Inec": 6545,
      "▁suicide": 6546,
      "▁Adeb": 6547,
      "▁coff": 6548,
      "▁18,": 6549,
      "▁d'": 6550,
      "▁session": 6551,
      "ceed": 6552,
      "▁joke": 6553,
      "▁kill-kill": 6554,
      "▁earlier": 6555,
      "▁slow": 6556,
      "▁deleg": 6557,
      "▁Igbo": 6558,
      "▁Chadwick": 6559,
      "▁Mod": 6560,
      "▁Cat": 6561,
      "▁be,": 6562,
      "astr": 6563,
      "▁abandon": 6564,
      "▁Int": 6565,
      "▁Kut": 6566,
      "ically": 6567,
      "▁Tunisia": 6568,
      "▁lift": 6569,
      "▁labour": 6570,
      "eder": 6571,
      "▁Equ": 6572,
      "ellig": 6573,
      "▁Information": 6574,
      "▁Yah": 6575,
      "▁crowd": 6576,
      "▁region.\n": 6577,
      "▁Oyo": 6578,
      "TMPY": 6579,
      "▁Jacob": 6580,
      "▁were": 6581,
      "▁tem": 6582,
      "▁UFC": 6583,
      "ress,": 6584,
      "▁door": 6585,
      "▁supply": 6586,
      "▁\"As": 6587,
      "▁Office": 6588,
      "▁Olympics": 6589,
      "▁producer": 6590,
      "▁Boris": 6591,
      "▁Nunieh": 6592,
      "bah": 6593,
      "ney": 6594,
      "▁borrow": 6595,
      "▁authority": 6596,
      "▁Chi": 6597,
      "▁Zuma": 6598,
      "▁Alh": 6599,
      "▁Aliyu": 6600,
      "▁evening": 6601,
      "▁statue": 6602,
      "▁13,": 6603,
      "▁2008": 6604,
      "▁Exp": 6605,
      "▁billionaire": 6606,
      "▁roads": 6607,
      "▁calm": 6608,
      "▁Taraba": 6609,
      "HCR": 6610,
      "▁ur": 6611,
      "▁tire": 6612,
      "▁sound": 6613,
      "▁band": 6614,
      "▁hy": 6615,
      "▁non": 6616,
      "▁chem": 6617,
      "▁journalists": 6618,
      "▁evritin": 6619,
      "▁State:": 6620,
      "▁#S": 6621,
      "▁Ambassador": 6622,
      "▁flights": 6623,
      "▁Olusegun": 6624,
      "▁Ifunanya:": 6625,
      "EFA": 6626,
      "▁dem\n": 6627,
      "▁Leah": 6628,
      "iana": 6629,
      "▁Rob": 6630,
      "▁Radio": 6631,
      "▁Trade": 6632,
      "▁Cameroon.\n": 6633,
      "▁partner": 6634,
      "▁secession": 6635,
      "▁(@S": 6636,
      "▁musicians": 6637,
      "▁Spanish": 6638,
      "▁streets": 6639,
      "▁products": 6640,
      "3,": 6641,
      "de": 6642,
      "▁Az": 6643,
      "olate": 6644,
      "▁river": 6645,
      "▁Bid": 6646,
      "osh": 6647,
      "▁trouble": 6648,
      "essary": 6649,
      "▁41": 6650,
      "▁Whats": 6651,
      "▁12:": 6652,
      "ext": 6653,
      "▁religion": 6654,
      "▁1,4019th": 6655,
      "quarters": 6656,
      "▁Biafra": 6657,
      "35": 6658,
      "bes": 6659,
      "nia": 6660,
      "re,": 6661,
      "▁foot": 6662,
      "▁rival": 6663,
      "▁Vill": 6664,
      "▁people.\n": 6665,
      "▁QTMPY": 6666,
      "▁Att": 6667,
      "stitu": 6668,
      "▁Wednesday,": 6669,
      "▁Baba": 6670,
      "▁negot": 6671,
      "▁disappear": 6672,
      "▁Milan": 6673,
      "▁Maidugur": 6674,
      ".''\n": 6675,
      "2,": 6676,
      "craft": 6677,
      "den": 6678,
      "▁Cond": 6679,
      "▁brut": 6680,
      "▁happen,": 6681,
      "abeth": 6682,
      "▁Kwesi": 6683,
      "▁Walter": 6684,
      "-General": 6685,
      "▁sometimes": 6686,
      "AD": 6687,
      "city": 6688,
      "▁dash": 6689,
      "▁ful": 6690,
      "▁Daur": 6691,
      "▁Festival": 6692,
      "am,": 6693,
      "▁Baf": 6694,
      "▁CBN": 6695,
      "▁Gift": 6696,
      "▁Kidn": 6697,
      "▁However,": 6698,
      "▁wind": 6699,
      "▁biograph": 6700,
      "▁2015,": 6701,
      "▁lawmaker": 6702,
      "▁Financial": 6703,
      "e:": 6704,
      "ibr": 6705,
      "lord": 6706,
      "▁Div": 6707,
      "▁Mans": 6708,
      "▁Aub": 6709,
      "ades": 6710,
      "char": 6711,
      "irt": 6712,
      "▁Liga": 6713,
      "▁Kevin": 6714,
      "▁proud": 6715,
      "▁(D": 6716,
      "▁Broadcast": 6717,
      "▁park": 6718,
      "▁listen": 6719,
      "▁Conf": 6720,
      "▁Ayuk": 6721,
      "▁tribunal": 6722,
      "▁original": 6723,
      "Now": 6724,
      "▁Times": 6725,
      "▁Out": 6726,
      "ipp": 6727,
      "▁her,": 6728,
      "▁Rom": 6729,
      "▁Eliz": 6730,
      "▁Communic": 6731,
      "▁Resident": 6732,
      "▁Grace": 6733,
      "▁testing": 6734,
      "▁largest": 6735,
      "▁Ezekwesili": 6736,
      "▁Aviation": 6737,
      "▁congrat": 6738,
      "-W": 6739,
      "uy": 6740,
      "inda": 6741,
      "▁2006": 6742,
      "▁going": 6743,
      "▁'k": 6744,
      "▁well,": 6745,
      "▁Winner": 6746,
      "/Twitter": 6747,
      "▁disqualify": 6748,
      "▁athletes": 6749,
      "coh": 6750,
      "▁tanda": 6751,
      "▁2023": 6752,
      "▁mor": 6753,
      "▁mama,": 6754,
      "▁occ": 6755,
      "▁2-1": 6756,
      "▁Cal": 6757,
      "▁Coll": 6758,
      "▁impl": 6759,
      "▁Uefa": 6760,
      "▁(W": 6761,
      "iful": 6762,
      "▁words": 6763,
      "▁talk-talk": 6764,
      "▁USA": 6765,
      "▁permission": 6766,
      "▁shops": 6767,
      "▁gener": 6768,
      "▁Mahama": 6769,
      "▁assistant": 6770,
      "▁Shiite": 6771,
      "▁Princess": 6772,
      "':": 6773,
      "App": 6774,
      "rob": 6775,
      "wey": 6776,
      "▁Bishop": 6777,
      "▁Je": 6778,
      "▁Global": 6779,
      "▁review": 6780,
      "ocent": 6781,
      "▁priest": 6782,
      "▁dia.\n": 6783,
      "▁extr": 6784,
      "▁arm": 6785,
      "▁spirit": 6786,
      "▁value": 6787,
      "▁achieve": 6788,
      "▁Mikel": 6789,
      "▁Ngozi": 6790,
      "ging": 6791,
      "▁ign": 6792,
      "erk": 6793,
      "▁Squ": 6794,
      "▁ria:": 6795,
      "▁Oz": 6796,
      "amey": 6797,
      "▁Love": 6798,
      "▁Kal": 6799,
      "riculture": 6800,
      "▁protests": 6801,
      "others": 6802,
      "▁Bureau": 6803,
      "▁experts": 6804,
      "▁guidelines": 6805,
      "OS": 6806,
      "▁would": 6807,
      "▁Sum": 6808,
      "▁Six": 6809,
      "▁NGO": 6810,
      "▁rent": 6811,
      "enty": 6812,
      "erself": 6813,
      "▁jolly": 6814,
      "▁man,": 6815,
      "ewa": 6816,
      "▁voter": 6817,
      "▁League:": 6818,
      "▁depend": 6819,
      "▁airports": 6820,
      "▁Kwara": 6821,
      "▁sotey": 6822,
      "▁embass": 6823,
      "▁Speaker": 6824,
      "-C": 6825,
      "?\"\n": 6826,
      "mys": 6827,
      "▁mission": 6828,
      "arp": 6829,
      "▁\"we": 6830,
      "upt": 6831,
      "▁example": 6832,
      "ogba": 6833,
      "▁Zambia": 6834,
      "▁(@B": 6835,
      "▁arrive": 6836,
      "▁Godsw": 6837,
      "▁evribodi": 6838,
      "▁ballot": 6839,
      "▁Iwobi": 6840,
      "▁Sokoto": 6841,
      "OK": 6842,
      "ni": 6843,
      "▁wuru": 6844,
      "▁biz": 6845,
      "▁acad": 6846,
      "▁Mall": 6847,
      "▁Famil": 6848,
      "▁inaugur": 6849,
      "amber": 6850,
      "▁comb": 6851,
      "ised": 6852,
      "utor": 6853,
      "▁truth": 6854,
      "▁witout": 6855,
      "▁Your": 6856,
      "▁Imm": 6857,
      "▁Drug": 6858,
      "▁senators": 6859,
      "▁powerful": 6860,
      "▁Road,": 6861,
      "14": 6862,
      "kin": 6863,
      "time": 6864,
      "▁Mama": 6865,
      "▁Female": 6866,
      "▁laugh": 6867,
      "▁demma": 6868,
      "lear": 6869,
      "leach": 6870,
      "▁admit": 6871,
      "▁Sunday,": 6872,
      "▁Tuesday,": 6873,
      "▁organisation": 6874,
      "▁remaining": 6875,
      "▁closure": 6876,
      "▁Swed": 6877,
      "▁network": 6878,
      "▁comedy": 6879,
      "▁Elizabeth": 6880,
      "ameyang": 6881,
      "NA": 6882,
      "e.\n": 6883,
      "omit": 6884,
      "itan": 6885,
      "▁herself": 6886,
      "▁Gamb": 6887,
      "▁ver": 6888,
      "▁exchange": 6889,
      "ples": 6890,
      "ancer": 6891,
      "▁Community": 6892,
      "▁finals": 6893,
      "▁UNHCR": 6894,
      "▁Petrol": 6895,
      "▁commissioner": 6896,
      "▁dollar": 6897,
      "▁newspaper": 6898,
      "ui": 6899,
      "▁tie": 6900,
      "▁bri": 6901,
      "itch": 6902,
      "▁NNPC": 6903,
      "igil": 6904,
      "oli": 6905,
      "▁god": 6906,
      "▁57": 6907,
      "▁secretary": 6908,
      "▁money,": 6909,
      "▁Malaw": 6910,
      "▁movies": 6911,
      "▁re-election": 6912,
      "▁Mainland": 6913,
      "cohol": 6914,
      "▁sat": 6915,
      "▁sid": 6916,
      "▁sil": 6917,
      "▁forest": 6918,
      "▁Nam": 6919,
      "▁Civil": 6920,
      "▁Roh": 6921,
      "▁Sports": 6922,
      "▁baby,": 6923,
      "▁Organisation": 6924,
      "▁screening": 6925,
      "▁Assistant": 6926,
      "▁Aubameyang": 6927,
      "LL": 6928,
      "ha": 6929,
      "▁x": 6930,
      "▁Popul": 6931,
      "ovic": 6932,
      "▁goment.\n": 6933,
      "▁Prim": 6934,
      "▁reporter": 6935,
      "▁contribute": 6936,
      "aith": 6937,
      "▁Sarah": 6938,
      "▁Constitution": 6939,
      "▁Footballer": 6940,
      "▁proof": 6941,
      "▁involv": 6942,
      "▁Under": 6943,
      "IA": 6944,
      "Pr": 6945,
      "RC": 6946,
      "WC": 6947,
      "▁fee": 6948,
      "▁bore": 6949,
      "▁forg": 6950,
      "aron": 6951,
      "▁Thank": 6952,
      "▁Hen": 6953,
      "ody": 6954,
      "▁immediately": 6955,
      "▁election\n": 6956,
      "antine": 6957,
      "▁Europa": 6958,
      "▁district": 6959,
      "▁Team": 6960,
      "▁self-": 6961,
      "▁Opposition": 6962,
      "▁Mnangagwa": 6963,
      "Read": 6964,
      "▁Airl": 6965,
      "▁lot": 6966,
      "▁September,": 6967,
      "ason,": 6968,
      "▁Custom": 6969,
      "▁Hon": 6970,
      "iant": 6971,
      "▁Kom": 6972,
      "▁Kab": 6973,
      "▁comot.\n": 6974,
      "▁computer": 6975,
      "ophet": 6976,
      "▁Bayern": 6977,
      "▁'Why": 6978,
      "▁motherhood": 6979,
      "▁Annan": 6980,
      "▁several": 6981,
      "▁Katsina": 6982,
      "▁Ball": 6983,
      "▁Roma": 6984,
      "▁Which": 6985,
      "▁all.\n": 6986,
      "▁admission": 6987,
      "▁Brown": 6988,
      "▁protection": 6989,
      "▁photo": 6990,
      "▁division": 6991,
      "▁said": 6992,
      "▁covid": 6993,
      "arity": 6994,
      "itation": 6995,
      "▁D'": 6996,
      "▁lik": 6997,
      "▁Lam": 6998,
      "▁Disease": 6999,
      "▁subs": 7000,
      "▁oronavirus": 7001,
      "▁Immanuel": 7002,
      "aju": 7003,
      "▁Saturday,": 7004,
      "▁guy": 7005,
      "▁delete": 7006,
      "▁symptoms": 7007,
      "▁tack": 7008,
      "▁Swit": 7009,
      "olas": 7010,
      "▁degree": 7011,
      "▁killi": 7012,
      "▁financial": 7013,
      "▁Institute": 7014,
      "▁Research": 7015,
      "▁everybodi": 7016,
      "▁Park": 7017,
      "▁Netflix": 7018,
      "▁participate": 7019,
      "inst": 7020,
      "▁pure": 7021,
      "▁royal": 7022,
      "▁demon": 7023,
      "▁Every": 7024,
      "▁Jose": 7025,
      "▁Um": 7026,
      "▁veh": 7027,
      "▁'r": 7028,
      "▁regret": 7029,
      "▁feed": 7030,
      "▁hearing": 7031,
      "▁earth": 7032,
      "ployment": 7033,
      "▁apologise": 7034,
      "RA": 7035,
      "now": 7036,
      "rop": 7037,
      "▁dipl": 7038,
      "▁Dj": 7039,
      "▁NFF": 7040,
      "eta": 7041,
      "▁ren": 7042,
      "▁2:53": 7043,
      "iance": 7044,
      "▁nec": 7045,
      "▁(@O": 7046,
      "▁happun,": 7047,
      "▁legend": 7048,
      "▁pollution": 7049,
      "▁#EndSARS": 7050,
      "pers": 7051,
      "▁34": 7052,
      "▁luck": 7053,
      "▁Bong": 7054,
      "▁Cyr": 7055,
      "▁be.\n": 7056,
      "▁\"m": 7057,
      "▁Live": 7058,
      "▁2,53": 7059,
      "▁'h": 7060,
      "aila": 7061,
      "▁money.\n": 7062,
      "▁report.\n": 7063,
      "▁today.\n": 7064,
      "▁Nick": 7065,
      "▁NAF": 7066,
      "une": 7067,
      "▁kiss": 7068,
      "▁Revolution": 7069,
      "ulation": 7070,
      "▁Album": 7071,
      "▁cred": 7072,
      "ankw": 7073,
      "▁Okoro": 7074,
      "▁Club": 7075,
      "▁exams": 7076,
      "EST": 7077,
      "writ": 7078,
      "▁fif": 7079,
      "▁Mex": 7080,
      "▁Western": 7081,
      "▁Jay": 7082,
      "▁\"You": 7083,
      "▁rev": 7084,
      "▁Las": 7085,
      "istan": 7086,
      "▁green": 7087,
      "iko": 7088,
      "roach": 7089,
      "▁soldier": 7090,
      "▁virus.\n": 7091,
      "▁Zimbabwe:": 7092,
      "▁NCDC": 7093,
      "fect": 7094,
      "li": 7095,
      "▁tight": 7096,
      "▁Sl": 7097,
      "▁AC": 7098,
      "▁Ot": 7099,
      "▁fotos": 7100,
      "inees": 7101,
      "▁cheap": 7102,
      "▁insult": 7103,
      "▁Kenyatta": 7104,
      "ben": 7105,
      "hen": 7106,
      "▁tak": 7107,
      "▁Simi": 7108,
      "▁Tax": 7109,
      "▁Lai": 7110,
      "▁Kano,": 7111,
      "orney": 7112,
      "▁FacebookDe": 7113,
      "▁nationwide": 7114,
      "▁trophy": 7115,
      "sk": 7116,
      "omatic": 7117,
      "▁natural": 7118,
      "▁Far": 7119,
      "▁Er": 7120,
      "▁dismiss": 7121,
      "is,": 7122,
      "▁'K": 7123,
      "▁400": 7124,
      "▁party.\n": 7125,
      "▁charact": 7126,
      "▁season.\n": 7127,
      "▁conditions": 7128,
      "antaky": 7129,
      "▁founder": 7130,
      "▁Rwanda": 7131,
      "▁Godswill": 7132,
      "▁dump": 7133,
      "anga": 7134,
      "▁bas": 7135,
      "▁SDF": 7136,
      "▁rally": 7137,
      "▁leak": 7138,
      "▁go.\n": 7139,
      "osed": 7140,
      "▁'Na": 7141,
      "▁'No": 7142,
      "room": 7143,
      "▁celebration": 7144,
      "▁Nyantaky": 7145,
      "▁Turkey": 7146,
      "▁Thrones": 7147,
      "elligence": 7148,
      "▁tackle": 7149,
      "fu": 7150,
      "gie": 7151,
      "▁Nob": 7152,
      "igation": 7153,
      "▁I'": 7154,
      "▁opt": 7155,
      "▁Universities": 7156,
      "▁March,": 7157,
      "▁Ort": 7158,
      "▁villages": 7159,
      "▁negative": 7160,
      "▁MPs": 7161,
      "ICEF": 7162,
      "▁Yakubu": 7163,
      "▁2,5311th": 7164,
      "AG": 7165,
      "LC": 7166,
      "kina": 7167,
      "take": 7168,
      "▁Full": 7169,
      "▁Ij": 7170,
      "▁Kol": 7171,
      "▁am.\"\n": 7172,
      "▁55": 7173,
      "▁Star": 7174,
      "▁Mr.": 7175,
      "▁refugee": 7176,
      "▁qualif": 7177,
      "zerland": 7178,
      "▁bizness": 7179,
      "RM": 7180,
      "▁Hu": 7181,
      "▁ven": 7182,
      "▁shift": 7183,
      "▁myself": 7184,
      "▁colour": 7185,
      "▁civilian": 7186,
      "▁communic": 7187,
      "▁mobile": 7188,
      "▁Switzerland": 7189,
      "Di": 7190,
      "fe,": 7191,
      "rastr": 7192,
      "▁cour": 7193,
      "alition": 7194,
      "eness": 7195,
      "▁moon": 7196,
      "igbo": 7197,
      "olation": 7198,
      "▁Wil": 7199,
      "▁Hope": 7200,
      "▁jersey": 7201,
      "▁Deh": 7202,
      "▁people,": 7203,
      "▁creat": 7204,
      "inka": 7205,
      "▁policemen": 7206,
      "▁Audio,": 7207,
      "▁rubber": 7208,
      "▁sidon": 7209,
      "41": 7210,
      "BNaija": 7211,
      "IM": 7212,
      "i.\n": 7213,
      "low": 7214,
      "ps": 7215,
      "▁task": 7216,
      "▁pocket": 7217,
      "▁hust": 7218,
      "▁Wit": 7219,
      "▁weight": 7220,
      "▁\"b": 7221,
      "▁you,": 7222,
      "▁Lil": 7223,
      "▁Zl": 7224,
      "▁show,": 7225,
      "-years": 7226,
      "▁refuse": 7227,
      "▁disappoint": 7228,
      "akzaky": 7229,
      "RO": 7230,
      "field": 7231,
      "o)": 7232,
      "▁due": 7233,
      "▁Sy": 7234,
      "▁gist": 7235,
      "▁Bas": 7236,
      "▁Laur": 7237,
      "odun": 7238,
      "▁premi": 7239,
      "▁trous": 7240,
      "▁agent": 7241,
      "▁August,": 7242,
      "▁Zeal": 7243,
      "wards": 7244,
      "▁Corr": 7245,
      "rene": 7246,
      "▁31,": 7247,
      "▁Palace": 7248,
      "▁Lucy": 7249,
      "''.\n": 7250,
      "03": 7251,
      "reg": 7252,
      "orse": 7253,
      "▁Supp": 7254,
      "▁AF": 7255,
      "ia.\n": 7256,
      "▁loc": 7257,
      "▁Bashir": 7258,
      "▁\"f": 7259,
      "▁Police,": 7260,
      "▁banks": 7261,
      "▁gov't": 7262,
      "▁Academy": 7263,
      "▁MTN": 7264,
      "▁necessary": 7265,
      "-20": 7266,
      "eem": 7267,
      "zy": 7268,
      "▁double": 7269,
      "▁sens": 7270,
      "▁pour": 7271,
      "arn": 7272,
      "▁Fah": 7273,
      "▁IM": 7274,
      "▁Jer": 7275,
      "▁July,": 7276,
      "▁show.\n": 7277,
      "▁Andrew": 7278,
      "▁Progressive": 7279,
      "▁comedian": 7280,
      "▁Ighalo": 7281,
      "▁Representatives": 7282,
      "▁Eto'o": 7283,
      "60": 7284,
      "wor": 7285,
      "▁duty": 7286,
      "▁cyber": 7287,
      "▁Tony": 7288,
      "▁Tiam": 7289,
      "▁Val": 7290,
      "▁Valent": 7291,
      "▁\"C": 7292,
      "▁plant": 7293,
      "ulu": 7294,
      "quick": 7295,
      "▁state\n": 7296,
      "▁#F": 7297,
      "uclear": 7298,
      "▁gunsh": 7299,
      "▁except": 7300,
      "▁(PDP": 7301,
      "▁measures": 7302,
      "▁Odinga": 7303,
      ".S": 7304,
      "rs": 7305,
      "▁fill": 7306,
      "es\n": 7307,
      "▁hun": 7308,
      "▁donate": 7309,
      "isi": 7310,
      "odu": 7311,
      "▁alcohol": 7312,
      "▁such": 7313,
      "verage": 7314,
      "▁spons": 7315,
      "▁true-true": 7316,
      "▁quarter-final": 7317,
      "iary": 7318,
      "▁sun": 7319,
      "▁Song": 7320,
      "ing\n": 7321,
      "irut": 7322,
      "▁Chim": 7323,
      "ante": 7324,
      "▁start.\n": 7325,
      "▁BBNaija:": 7326,
      "▁artists": 7327,
      "▁detain": 7328,
      "letico": 7329,
      "alifor": 7330,
      "▁Also,": 7331,
      "▁Mourinho": 7332,
      "TY": 7333,
      "UR": 7334,
      "ture": 7335,
      "▁reign": 7336,
      "oyele": 7337,
      "▁climb": 7338,
      "order": 7339,
      "ordin": 7340,
      "▁scr": 7341,
      "▁owners": 7342,
      "▁Russian": 7343,
      "etherland": 7344,
      "▁details": 7345,
      "▁window": 7346,
      "noon": 7347,
      "xual": 7348,
      "▁sea": 7349,
      "▁pull": 7350,
      "ion,": 7351,
      "▁Northern": 7352,
      "▁Ox": 7353,
      "▁yahoo-yahoo": 7354,
      "▁Califor": 7355,
      "▁beaut": 7356,
      "ecause": 7357,
      "▁Environment": 7358,
      "▁problems": 7359,
      "▁dirty": 7360,
      "▁challeng": 7361,
      "ned": 7362,
      "▁pot": 7363,
      "▁made": 7364,
      "▁39": 7365,
      "amide": 7366,
      "▁Press": 7367,
      "▁Eti": 7368,
      "▁Hous": 7369,
      "▁innocent": 7370,
      "▁Mane": 7371,
      "▁joinbodi": 7372,
      "....": 7373,
      "▁Foundation": 7374,
      "▁hydroxychloroquine": 7375,
      "▁Minute,": 7376,
      "-3": 7377,
      "h,": 7378,
      "m)": 7379,
      "pet": 7380,
      "▁Duke": 7381,
      "▁Fever": 7382,
      "▁Bud": 7383,
      "▁Hot": 7384,
      "▁me'": 7385,
      "▁goment,": 7386,
      "▁February,": 7387,
      "▁belong": 7388,
      "▁hospital.\n": 7389,
      "▁Championship": 7390,
      "▁currency": 7391,
      "▁operations": 7392,
      "abinet": 7393,
      "▁QTMPY:": 7394,
      "▁ignore": 7395,
      "a)": 7396,
      "ez": 7397,
      "eel": 7398,
      "ycl": 7399,
      "▁pep": 7400,
      "▁bribe": 7401,
      "omet": 7402,
      "ammer": 7403,
      "▁dis,": 7404,
      "▁worker": 7405,
      "▁afternoon": 7406,
      "ajide": 7407,
      "▁wanted": 7408,
      "▁payment": 7409,
      "▁running": 7410,
      "▁Christians": 7411,
      "▁Ibadan": 7412,
      "▁Article": 7413,
      "▁fighter": 7414,
      "▁Gabon": 7415,
      "▁Family": 7416,
      "52": 7417,
      "__": 7418,
      "ey,": 7419,
      "▁average": 7420,
      "arawa": 7421,
      "▁Kemi": 7422,
      "▁prime": 7423,
      "ity.\n": 7424,
      "▁($": 7425,
      "iki": 7426,
      "▁confidence": 7427,
      "▁16,469": 7428,
      "▁mostly": 7429,
      "▁sett": 7430,
      "▁Kwankw": 7431,
      "▁Buea": 7432,
      "▁Business": 7433,
      "▁hundreds": 7434,
      "rastructure": 7435,
      "-g": 7436,
      "AY": 7437,
      "ko": 7438,
      "oor": 7439,
      "ily": 7440,
      "▁loot": 7441,
      "▁Putin": 7442,
      "▁Jen": 7443,
      "▁weather": 7444,
      "▁vers": 7445,
      "▁Ru": 7446,
      "▁wife,": 7447,
      "▁crew": 7448,
      "▁eyes": 7449,
      "▁Monday.\n": 7450,
      "▁Beirut": 7451,
      "▁Clin": 7452,
      "▁distancing": 7453,
      "▁Burkina": 7454,
      "▁tradition": 7455,
      "▁Morgan": 7456,
      "▁lecturer": 7457,
      "▁Girls": 7458,
      "▁Doctor": 7459,
      "▁CHAN": 7460,
      "▁Return": 7461,
      "▁bullet": 7462,
      "DAC": 7463,
      "Un": 7464,
      "wed": 7465,
      "▁Fre": 7466,
      "▁eat": 7467,
      "▁weak": 7468,
      "▁44": 7469,
      "▁Adey": 7470,
      "▁#N": 7471,
      "▁1,000": 7472,
      "o-m": 7473,
      "▁'Di": 7474,
      "▁civilians": 7475,
      "▁Science": 7476,
      "▁Monkey": 7477,
      "oyinbo": 7478,
      "ommend": 7479,
      "▁hustle": 7480,
      "!—": 7481,
      ".#": 7482,
      "IP": 7483,
      "ae": 7484,
      "ping": 7485,
      "▁sac": 7486,
      "thod": 7487,
      "▁Nav": 7488,
      "▁Eye": 7489,
      "▁\"no": 7490,
      "▁Lives": 7491,
      "▁chase": 7492,
      "bridge": 7493,
      "▁ener": 7494,
      "▁Thursday,": 7495,
      "-small": 7496,
      "▁FCFA": 7497,
      "stituency": 7498,
      "TA": 7499,
      "TER": 7500,
      "rate": 7501,
      "eprene": 7502,
      "▁CCT": 7503,
      "opyr": 7504,
      "usion": 7505,
      "▁kp": 7506,
      "▁Life": 7507,
      "▁Inf": 7508,
      "ulations": 7509,
      "▁news:": 7510,
      "▁agenda": 7511,
      "▁Imam": 7512,
      "▁Marvel": 7513,
      "▁secure": 7514,
      "▁#R": 7515,
      "▁recommend": 7516,
      "▁everyone": 7517,
      "inde": 7518,
      "▁Musk": 7519,
      "▁Omoyele": 7520,
      "▁Small": 7521,
      "selves": 7522,
      "▁weapon": 7523,
      "▁(APC)": 7524,
      "▁options": 7525,
      "opyright": 7526,
      "-quick": 7527,
      "lad": 7528,
      "▁pension": 7529,
      "▁bott": 7530,
      "ala,": 7531,
      "etable": 7532,
      "▁2-0": 7533,
      "ers'": 7534,
      "▁Key": 7535,
      "▁following": 7536,
      "▁status": 7537,
      "▁sitting": 7538,
      "itiative": 7539,
      "anyi": 7540,
      "▁machine": 7541,
      "aru": 7542,
      "▁Wu": 7543,
      "▁Wath": 7544,
      "▁Cape": 7545,
      "▁UEFA": 7546,
      "▁LGA": 7547,
      "▁Nair": 7548,
      "▁ago,": 7549,
      "▁partners": 7550,
      "▁April,": 7551,
      "▁#A": 7552,
      "▁allegation": 7553,
      "▁area,": 7554,
      "▁UNICEF": 7555,
      "▁(NG)": 7556,
      "▁insist": 7557,
      "▁jobs": 7558,
      "▁Markle": 7559,
      "▁Rohr": 7560,
      "▁Zlatan": 7561,
      "?19th": 7562,
      "▁pow": 7563,
      "▁cedi": 7564,
      "▁Saint": 7565,
      "elec": 7566,
      "▁Et": 7567,
      "▁\"L": 7568,
      "▁May,": 7569,
      "▁law,": 7570,
      "▁house\n": 7571,
      "▁numbers": 7572,
      "▁Ebuka": 7573,
      "▁2016.\n": 7574,
      "ribution": 7575,
      "▁Colon": 7576,
      "▁quarantine": 7577,
      "▁controvers": 7578,
      "▁engage": 7579,
      "▁milk": 7580,
      "▁PSG": 7581,
      "hab": 7582,
      "ray": 7583,
      "▁/": 7584,
      "ids": 7585,
      "▁mix": 7586,
      "▁inform": 7587,
      "ada,": 7588,
      "▁Prez": 7589,
      "▁Pinn": 7590,
      "isher": 7591,
      "▁deep": 7592,
      "▁LA": 7593,
      "▁suc": 7594,
      "▁Adem": 7595,
      "▁queen": 7596,
      "▁court,": 7597,
      "elson": 7598,
      "▁affected": 7599,
      "▁1990": 7600,
      "agues": 7601,
      "▁majority": 7602,
      "08": 7603,
      "ten": 7604,
      "ic,": 7605,
      "▁Tak": 7606,
      "▁Vol": 7607,
      "▁Person": 7608,
      "elling": 7609,
      "unk": 7610,
      "ablish": 7611,
      "oku": 7612,
      "▁2017:": 7613,
      "▁speed": 7614,
      "▁bless": 7615,
      "▁(@D": 7616,
      "▁$2": 7617,
      "▁Internet": 7618,
      "▁Indian": 7619,
      "▁examination": 7620,
      "▁quick-quick": 7621,
      "▁\"Wen": 7622,
      "▁Strike": 7623,
      "▁Ngig": 7624,
      "▁materials": 7625,
      "▁Kyari": 7626,
      "▁brief": 7627,
      "▁Sias": 7628,
      "▁Dam": 7629,
      "▁Muse": 7630,
      "▁hat": 7631,
      "▁Ney": 7632,
      "ivid": 7633,
      "alla": 7634,
      "▁Kont": 7635,
      "▁prepar": 7636,
      "▁Abba": 7637,
      "▁Emeka": 7638,
      "▁stra": 7639,
      "▁Atl": 7640,
      "▁Olamide": 7641,
      "▁Moz": 7642,
      "▁Alexand": 7643,
      "▁Sharibu": 7644,
      "▁Biden": 7645,
      "▁brutality": 7646,
      "-pl": 7647,
      "ither": 7648,
      "load": 7649,
      "▁Jean": 7650,
      "▁praise": 7651,
      "▁(R": 7652,
      "▁Trad": 7653,
      "▁75": 7654,
      "▁Show": 7655,
      "▁Enugu": 7656,
      "▁deadline": 7657,
      "▁quarrel": 7658,
      "▁Julius": 7659,
      "▁Prize": 7660,
      "▁Attorney": 7661,
      "▁Pinnick": 7662,
      "▁mer": 7663,
      "▁Dist": 7664,
      "▁Dab": 7665,
      "▁Daily": 7666,
      "▁MD": 7667,
      "ilities": 7668,
      "▁Ur": 7669,
      "▁kana": 7670,
      "uls": 7671,
      "ression": 7672,
      "▁Steph": 7673,
      "ies,": 7674,
      "▁Pro": 7675,
      "▁accol": 7676,
      "▁attract": 7677,
      "▁quality": 7678,
      "▁Arsene": 7679,
      "▁missing": 7680,
      "▁mago-m": 7681,
      "▁Adeosun": 7682,
      "▁pregnant": 7683,
      "▁Mandela": 7684,
      "▁Zealand": 7685,
      "1)": 7686,
      "ble": 7687,
      "▁select": 7688,
      "andal": 7689,
      "▁Netherland": 7690,
      "olera": 7691,
      "▁\"p": 7692,
      "▁hero": 7693,
      "▁Ades": 7694,
      "▁Angola": 7695,
      "afi": 7696,
      "▁small-small": 7697,
      "▁Reps": 7698,
      "▁claims": 7699,
      "▁reaction": 7700,
      "-F": 7701,
      "▁cust": 7702,
      "▁N5": 7703,
      "▁Agy": 7704,
      "▁Anti": 7705,
      "▁'sh": 7706,
      "▁arrang": 7707,
      "▁Thousand": 7708,
      "▁Wednesday.\n": 7709,
      "▁Doctors": 7710,
      "▁surrender": 7711,
      "▁beautiful": 7712,
      "▁Neymar": 7713,
      "▁straight": 7714,
      "-leg": 7715,
      "▁Sant": 7716,
      "▁N30,000": 7717,
      "▁Tank": 7718,
      "▁Lit": 7719,
      "▁herbal": 7720,
      "osexual": 7721,
      "▁climate": 7722,
      "▁dat.\n": 7723,
      "▁Cup.\n": 7724,
      "▁head.\n": 7725,
      "▁corrupt": 7726,
      "▁magazine": 7727,
      "▁Operation": 7728,
      "▁tomorrow": 7729,
      "▁Petroleum": 7730,
      "▁Valentine": 7731,
      ");": 7732,
      "▁copy": 7733,
      "▁Sym": 7734,
      "▁Nap": 7735,
      "▁Nelson": 7736,
      "▁Wash": 7737,
      "▁Check": 7738,
      "ies.\n": 7739,
      "▁Forbes": 7740,
      "▁attack.\n": 7741,
      "▁throw": 7742,
      "▁regional": 7743,
      "▁Build": 7744,
      "▁technical": 7745,
      "▁particular": 7746,
      "▁govment": 7747,
      "▁mosquito": 7748,
      "-d": 7749,
      "ziz": 7750,
      "▁tough": 7751,
      "▁section": 7752,
      "▁Sub": 7753,
      "▁Dum": 7754,
      "▁Ts": 7755,
      "amad": 7756,
      "▁PA": 7757,
      "▁Happ": 7758,
      "ist,": 7759,
      "▁Deont": 7760,
      "▁working": 7761,
      "▁explode": 7762,
      "▁$3": 7763,
      "▁kidnapping": 7764,
      "ermain": 7765,
      "▁kwes": 7766,
      "▁Deontay": 7767,
      "rey": 7768,
      "▁walk": 7769,
      "▁nuclear": 7770,
      "igen": 7771,
      "▁ring": 7772,
      "▁I’": 7773,
      "cha": 7774,
      "ips:": 7775,
      "▁Like": 7776,
      "uments": 7777,
      "ie,": 7778,
      "▁Pidgin.\n": 7779,
      "▁landlord": 7780,
      "▁Goal": 7781,
      "237": 7782,
      "▁terrorism": 7783,
      "▁WhatsApp": 7784,
      "ao": 7785,
      "bell": 7786,
      "je": 7787,
      "▁tay": 7788,
      "▁Semen": 7789,
      "the": 7790,
      "▁Domin": 7791,
      "▁had": 7792,
      "olve": 7793,
      "oper": 7794,
      "▁Les": 7795,
      "▁June,": 7796,
      "▁Naomi": 7797,
      "▁option": 7798,
      "▁monkey": 7799,
      "▁married": 7800,
      "eaking": 7801,
      "EC)": 7802,
      "▁back.\n": 7803,
      "▁else": 7804,
      "▁office,": 7805,
      "▁divide": 7806,
      "▁Scient": 7807,
      "▁shutdown": 7808,
      "▁Latest": 7809,
      "▁Ghc": 7810,
      "▁Malawi": 7811,
      "girl": 7812,
      "n't": 7813,
      "▁cattle": 7814,
      "▁Sah": 7815,
      "▁tools": 7816,
      "▁ID": 7817,
      "ashe": 7818,
      "▁1000": 7819,
      "abor": 7820,
      "▁agents": 7821,
      "▁Administration": 7822,
      "▁Embass": 7823,
      "▁match.\n": 7824,
      "▁Harcourt,": 7825,
      "▁Crimes": 7826,
      "▁accounts": 7827,
      "castle": 7828,
      "▁Moses": 7829,
      "▁Australian": 7830,
      "▁Akinw": 7831,
      "▁Hisbah": 7832,
      "▁embassy": 7833,
      "04": 7834,
      "Or": 7835,
      "RS": 7836,
      "▁cabinet": 7837,
      "omen": 7838,
      "▁Matter": 7839,
      "agb": 7840,
      "▁prices": 7841,
      "▁get.\n": 7842,
      "▁#C": 7843,
      "▁Facebook,": 7844,
      "▁difference": 7845,
      "▁country,": 7846,
      "▁headquarters": 7847,
      "▁night.\n": 7848,
      "ylum": 7849,
      "▁gbas": 7850,
      "▁documentary": 7851,
      "▁Customs": 7852,
      "ividual": 7853,
      "gg": 7854,
      "mund": 7855,
      "▁wat": 7856,
      "▁pidgin": 7857,
      "ems": 7858,
      "▁Oil": 7859,
      "▁demself": 7860,
      "▁stress": 7861,
      "▁Jamm": 7862,
      "▁killer": 7863,
      "▁events": 7864,
      "▁kontri\n": 7865,
      "▁But,": 7866,
      "▁us,": 7867,
      "▁US,": 7868,
      "rister": 7869,
      "▁probe": 7870,
      "▁consult": 7871,
      "▁Winter": 7872,
      "▁moments": 7873,
      "▁zone": 7874,
      "▁Tiamiyu": 7875,
      "▁Mozamb": 7876,
      "arant": 7877,
      "el,": 7878,
      "iadom": 7879,
      "▁Tex": 7880,
      "▁THE": 7881,
      "▁Ogbonge": 7882,
      "▁veg": 7883,
      "▁preach": 7884,
      "▁Rug": 7885,
      "▁Chair": 7886,
      "▁Qat": 7887,
      "▁determ": 7888,
      "▁FCT": 7889,
      "-Bashir": 7890,
      "▁typ": 7891,
      "▁Onnoghen:": 7892,
      "▁establish": 7893,
      "▁license": 7894,
      "▁Funke": 7895,
      "▁Munich": 7896,
      "▁secessionist": 7897,
      "▁Popular": 7898,
      "▁determine": 7899,
      "▁male": 7900,
      "urse": 7901,
      "▁go,": 7902,
      "▁IDP": 7903,
      "otal": 7904,
      "▁coming": 7905,
      "▁Lew": 7906,
      "▁constr": 7907,
      "▁regular": 7908,
      "▁time\n": 7909,
      "▁women,": 7910,
      "fferent": 7911,
      "▁Atletico": 7912,
      "▁oppon": 7913,
      "▁list:": 7914,
      "iction:": 7915,
      "▁Market": 7916,
      "▁declaration": 7917,
      "▁implement": 7918,
      "omitable": 7919,
      "-east": 7920,
      "42": 7921,
      "▁bite": 7922,
      "▁2005": 7923,
      "▁ogas": 7924,
      "▁nom": 7925,
      "▁lad": 7926,
      "▁storm": 7927,
      "▁October,": 7928,
      "▁CP": 7929,
      "▁Count": 7930,
      "▁asylum": 7931,
      "egr": 7932,
      "▁hand.\n": 7933,
      "acity": 7934,
      "▁pikins": 7935,
      "▁Oscar": 7936,
      "▁celebrities": 7937,
      "▁infrastructure": 7938,
      "▁Ugand": 7939,
      "ETTY": 7940,
      "▁criticise": 7941,
      "charge": 7942,
      "▁talent": 7943,
      "▁cold": 7944,
      "▁gats": 7945,
      "▁Fani": 7946,
      "▁Hou": 7947,
      "▁aspir": 7948,
      "▁Anton": 7949,
      "▁85": 7950,
      "▁case.\n": 7951,
      "▁Barrister": 7952,
      "uju": 7953,
      "▁plead": 7954,
      "▁Lawyer": 7955,
      "▁Isaac": 7956,
      "▁life,": 7957,
      "?20th": 7958,
      "AU": 7959,
      "▁co-": 7960,
      "ette": 7961,
      "▁gate": 7962,
      "▁eth": 7963,
      "▁Bern": 7964,
      "▁PM": 7965,
      "▁stab": 7966,
      "eatre": 7967,
      "▁police,": 7968,
      "▁broda": 7969,
      "▁season,": 7970,
      "▁president.\n": 7971,
      "▁Sunday.\n": 7972,
      "▁month,": 7973,
      "▁Arotile": 7974,
      "▁Omar": 7975,
      "▁Poland": 7976,
      "▁Ramadan": 7977,
      "▁responsible": 7978,
      "▁Jeff": 7979,
      "▁Immigration": 7980,
      "-to": 7981,
      "0,000": 7982,
      "pire": 7983,
      "set": 7984,
      "▁cart": 7985,
      "▁owe": 7986,
      "▁hammer": 7987,
      "urun": 7988,
      "chukwu": 7989,
      "▁bod": 7990,
      "▁Afrob": 7991,
      "ance,": 7992,
      "▁Cambridge": 7993,
      "iversary": 7994,
      "▁Also": 7995,
      "▁relax": 7996,
      "▁month.\n": 7997,
      "▁days.\n": 7998,
      "▁bodi.\n": 7999
    },
    "merges": [
      [
        "▁",
        "d"
      ],
      [
        "e",
        "r"
      ],
      [
        "o",
        "n"
      ],
      [
        "▁",
        "f"
      ],
      [
        "o",
        "r"
      ],
      [
        "a",
        "n"
      ],
      [
        "▁",
        "w"
      ],
      [
        "a",
        "t"
      ],
      [
        "i",
        "n"
      ],
      [
        "2",
        "0"
      ],
      [
        "▁",
        "t"
      ],
      [
        "▁",
        "s"
      ],
      [
        "▁d",
        "i"
      ],
      [
        "e",
        "y"
      ],
      [
        "▁",
        "p"
      ],
      [
        "▁",
        "b"
      ],
      [
        "e",
        "s"
      ],
      [
        "▁",
        "c"
      ],
      [
        "a",
        "l"
      ],
      [
        "▁",
        "20"
      ],
      [
        "▁",
        "S"
      ],
      [
        "e",
        "n"
      ],
      [
        "▁f",
        "or"
      ],
      [
        "e",
        "m"
      ],
      [
        "t",
        "h"
      ],
      [
        "o",
        "u"
      ],
      [
        "o",
        "m"
      ],
      [
        "i",
        "d"
      ],
      [
        "▁",
        "a"
      ],
      [
        "i",
        "on"
      ],
      [
        "▁",
        "m"
      ],
      [
        "a",
        "y"
      ],
      [
        "s",
        "t"
      ],
      [
        "a",
        "r"
      ],
      [
        "i",
        "t"
      ],
      [
        "b",
        "er"
      ],
      [
        "▁",
        "o"
      ],
      [
        "▁t",
        "o"
      ],
      [
        "c",
        "t"
      ],
      [
        "▁",
        "D"
      ],
      [
        "▁",
        "M"
      ],
      [
        "an",
        "d"
      ],
      [
        "▁",
        "h"
      ],
      [
        "i",
        "c"
      ],
      [
        "u",
        "r"
      ],
      [
        "▁",
        "n"
      ],
      [
        "▁20",
        "20"
      ],
      [
        "▁",
        "N"
      ],
      [
        "▁w",
        "ey"
      ],
      [
        "▁d",
        "ey"
      ],
      [
        "▁",
        "A"
      ],
      [
        "e",
        "t"
      ],
      [
        "▁",
        "g"
      ],
      [
        "e",
        "l"
      ],
      [
        "i",
        "g"
      ],
      [
        "o",
        "l"
      ],
      [
        "id",
        "e"
      ],
      [
        "i",
        "a"
      ],
      [
        "at",
        "ion"
      ],
      [
        "▁",
        "and"
      ],
      [
        "▁",
        "r"
      ],
      [
        "▁",
        "T"
      ],
      [
        "▁",
        "3"
      ],
      [
        "▁",
        "F"
      ],
      [
        ".",
        "\n"
      ],
      [
        "e",
        "p"
      ],
      [
        "o",
        ","
      ],
      [
        "▁",
        "O"
      ],
      [
        "▁",
        "I"
      ],
      [
        "▁o",
        "f"
      ],
      [
        "en",
        "t"
      ],
      [
        "i",
        "l"
      ],
      [
        "i",
        "m"
      ],
      [
        "▁d",
        "on"
      ],
      [
        "▁",
        "2"
      ],
      [
        "▁",
        "V"
      ],
      [
        "em",
        "ber"
      ],
      [
        "ig",
        "er"
      ],
      [
        "k",
        "e"
      ],
      [
        "▁N",
        "iger"
      ],
      [
        "o",
        "w"
      ],
      [
        "▁",
        "l"
      ],
      [
        "▁V",
        "ide"
      ],
      [
        "▁Vide",
        "o,"
      ],
      [
        "n",
        "d"
      ],
      [
        "▁",
        "in"
      ],
      [
        "e",
        "d"
      ],
      [
        "in",
        "g"
      ],
      [
        "a",
        "m"
      ],
      [
        "ep",
        "t"
      ],
      [
        "▁d",
        "em"
      ],
      [
        "▁S",
        "ept"
      ],
      [
        "▁Sept",
        "ember"
      ],
      [
        "s",
        "e"
      ],
      [
        "c",
        "e"
      ],
      [
        "at",
        "e"
      ],
      [
        "▁",
        "e"
      ],
      [
        "▁",
        "B"
      ],
      [
        "▁",
        "W"
      ],
      [
        "▁Niger",
        "ia"
      ],
      [
        "o",
        "t"
      ],
      [
        "▁f",
        "r"
      ],
      [
        "a",
        "d"
      ],
      [
        "▁20",
        "1"
      ],
      [
        "▁D",
        "ur"
      ],
      [
        "▁Dur",
        "ation"
      ],
      [
        "▁",
        "P"
      ],
      [
        "c",
        "h"
      ],
      [
        "▁s",
        "ay"
      ],
      [
        "▁",
        "y"
      ],
      [
        "▁",
        "E"
      ],
      [
        "a",
        "s"
      ],
      [
        "▁di",
        "s"
      ],
      [
        "▁s",
        "t"
      ],
      [
        "o",
        "v"
      ],
      [
        "o",
        "ber"
      ],
      [
        "▁O",
        "ct"
      ],
      [
        "▁Oct",
        "ober"
      ],
      [
        "▁",
        "C"
      ],
      [
        "a",
        "ke"
      ],
      [
        "el",
        "l"
      ],
      [
        "▁",
        "on"
      ],
      [
        "▁",
        "1"
      ],
      [
        "▁c",
        "om"
      ],
      [
        "▁b",
        "e"
      ],
      [
        "▁",
        "J"
      ],
      [
        "i",
        "p"
      ],
      [
        "ou",
        "r"
      ],
      [
        "▁w",
        "e"
      ],
      [
        "i",
        "s"
      ],
      [
        "i",
        "v"
      ],
      [
        "▁",
        "im"
      ],
      [
        "▁d",
        "e"
      ],
      [
        "i",
        "r"
      ],
      [
        "▁fr",
        "om"
      ],
      [
        "e",
        "ct"
      ],
      [
        "t",
        "er"
      ],
      [
        "▁n",
        "a"
      ],
      [
        "e",
        "et"
      ],
      [
        "▁g",
        "o"
      ],
      [
        "A",
        "R"
      ],
      [
        "AR",
        "S"
      ],
      [
        "▁",
        "G"
      ],
      [
        "o",
        "p"
      ],
      [
        "▁",
        "H"
      ],
      [
        "▁",
        "\""
      ],
      [
        "o",
        "s"
      ],
      [
        "ic",
        "e"
      ],
      [
        "e",
        "e"
      ],
      [
        "ou",
        "t"
      ],
      [
        "a",
        "g"
      ],
      [
        "▁t",
        "h"
      ],
      [
        "es",
        "t"
      ],
      [
        "▁M",
        "eet"
      ],
      [
        "p",
        "p"
      ],
      [
        "▁b",
        "o"
      ],
      [
        "▁r",
        "e"
      ],
      [
        "l",
        "y"
      ],
      [
        "▁b",
        "an"
      ],
      [
        "▁y",
        "ou"
      ],
      [
        "u",
        "n"
      ],
      [
        "▁3",
        ","
      ],
      [
        "2",
        "2"
      ],
      [
        "▁3",
        ":"
      ],
      [
        "u",
        "t"
      ],
      [
        "a",
        "st"
      ],
      [
        "u",
        "s"
      ],
      [
        "▁",
        "U"
      ],
      [
        "▁a",
        "s"
      ],
      [
        "▁",
        "k"
      ],
      [
        "as",
        "s"
      ],
      [
        "al",
        "l"
      ],
      [
        "▁",
        "L"
      ],
      [
        "or",
        "t"
      ],
      [
        "▁n",
        "o"
      ],
      [
        "r",
        "es"
      ],
      [
        "o",
        "d"
      ],
      [
        "i",
        "st"
      ],
      [
        "or",
        "i"
      ],
      [
        "a",
        "ce"
      ],
      [
        "f",
        "or"
      ],
      [
        "S",
        "ARS"
      ],
      [
        "▁",
        "v"
      ],
      [
        "l",
        "e"
      ],
      [
        "▁com",
        "e"
      ],
      [
        "et",
        "in"
      ],
      [
        "▁p",
        "ass"
      ],
      [
        "2",
        "1"
      ],
      [
        "ip",
        "o"
      ],
      [
        "s",
        "ide"
      ],
      [
        "▁A",
        "n"
      ],
      [
        "ol",
        "ice"
      ],
      [
        "h",
        "an"
      ],
      [
        "▁2",
        ","
      ],
      [
        "▁p",
        "ipo"
      ],
      [
        "er",
        "s"
      ],
      [
        "▁2",
        ":"
      ],
      [
        "▁in",
        "side"
      ],
      [
        "▁201",
        "8"
      ],
      [
        "i",
        "an"
      ],
      [
        "▁",
        "'"
      ],
      [
        "▁m",
        "ake"
      ],
      [
        "▁p",
        "l"
      ],
      [
        "▁s",
        "h"
      ],
      [
        "▁n",
        "e"
      ],
      [
        "il",
        "l"
      ],
      [
        "d",
        "a"
      ],
      [
        "▁on",
        "e"
      ],
      [
        "o",
        "c"
      ],
      [
        "▁a",
        "b"
      ],
      [
        "▁f",
        "it"
      ],
      [
        "r",
        "ol"
      ],
      [
        "▁I",
        "n"
      ],
      [
        "o",
        "st"
      ],
      [
        "▁f",
        "ace"
      ],
      [
        "▁p",
        "at"
      ],
      [
        "u",
        "nd"
      ],
      [
        "e",
        "at"
      ],
      [
        "▁",
        "K"
      ],
      [
        "▁o",
        "da"
      ],
      [
        "g",
        "h"
      ],
      [
        "▁pat",
        "rol"
      ],
      [
        "▁",
        "an"
      ],
      [
        "▁",
        "-"
      ],
      [
        "g",
        "e"
      ],
      [
        "a",
        "b"
      ],
      [
        "▁p",
        "r"
      ],
      [
        "\"",
        ","
      ],
      [
        "▁f",
        "ot"
      ],
      [
        "▁h",
        "er"
      ],
      [
        "at",
        "es"
      ],
      [
        "f",
        "f"
      ],
      [
        "0",
        "6"
      ],
      [
        "0",
        "5"
      ],
      [
        "th",
        "er"
      ],
      [
        "▁F",
        "SARS"
      ],
      [
        "▁di",
        "a"
      ],
      [
        "t",
        "a"
      ],
      [
        "▁",
        "R"
      ],
      [
        "▁w",
        "h"
      ],
      [
        "▁ab",
        "out"
      ],
      [
        "▁h",
        "our"
      ],
      [
        "4",
        "th"
      ],
      [
        "u",
        "p"
      ],
      [
        "e",
        "ar"
      ],
      [
        "i",
        "ke"
      ],
      [
        "▁",
        "al"
      ],
      [
        "u",
        "l"
      ],
      [
        "a",
        "ct"
      ],
      [
        "▁S",
        "ee"
      ],
      [
        "e",
        "c"
      ],
      [
        "▁D",
        "i"
      ],
      [
        "▁m",
        "e"
      ],
      [
        "or",
        "s"
      ],
      [
        "▁t",
        "r"
      ],
      [
        "▁p",
        "ost"
      ],
      [
        "i",
        "al"
      ],
      [
        "w",
        "it"
      ],
      [
        "▁hour",
        "s"
      ],
      [
        "q",
        "u"
      ],
      [
        "▁201",
        "9"
      ],
      [
        "u",
        "m"
      ],
      [
        "wit",
        "ter"
      ],
      [
        "▁h",
        "ow"
      ],
      [
        "▁w",
        "ell"
      ],
      [
        "▁w",
        "it"
      ],
      [
        "in",
        "e"
      ],
      [
        "u",
        "se"
      ],
      [
        "▁w",
        "i"
      ],
      [
        "2",
        "nd"
      ],
      [
        "iv",
        "e"
      ],
      [
        "u",
        "st"
      ],
      [
        "a",
        ","
      ],
      [
        "om",
        "ent"
      ],
      [
        "o",
        "ther"
      ],
      [
        "▁t",
        "ake"
      ],
      [
        "ur",
        "n"
      ],
      [
        "ig",
        "h"
      ],
      [
        "▁E",
        "nd"
      ],
      [
        "ell",
        "i"
      ],
      [
        "ar",
        "y"
      ],
      [
        "▁U",
        "gh"
      ],
      [
        "▁Ugh",
        "elli"
      ],
      [
        "e",
        "a"
      ],
      [
        "▁a",
        "m"
      ],
      [
        "▁F",
        "und"
      ],
      [
        "8",
        "th"
      ],
      [
        "▁post",
        ","
      ],
      [
        "▁a",
        "pp"
      ],
      [
        "▁c",
        "on"
      ],
      [
        "▁H",
        "ow"
      ],
      [
        "ect",
        "ion"
      ],
      [
        "▁W",
        "etin"
      ],
      [
        "▁g",
        "oment"
      ],
      [
        "0",
        "1"
      ],
      [
        "es",
        "s"
      ],
      [
        "▁t",
        "ori"
      ],
      [
        "▁M",
        "ay"
      ],
      [
        "▁T",
        "witter"
      ],
      [
        "▁w",
        "om"
      ],
      [
        "▁Niger",
        "ian"
      ],
      [
        "▁wi",
        "th"
      ],
      [
        "om",
        "e"
      ],
      [
        "id",
        "ent"
      ],
      [
        "c",
        "k"
      ],
      [
        "▁g",
        "et"
      ],
      [
        "a",
        "p"
      ],
      [
        "s",
        ","
      ],
      [
        "▁an",
        "y"
      ],
      [
        "0",
        "th"
      ],
      [
        "for",
        "m"
      ],
      [
        "a",
        "in"
      ],
      [
        "5",
        "th"
      ],
      [
        "r",
        "i"
      ],
      [
        "▁p",
        "olice"
      ],
      [
        "h",
        "u"
      ],
      [
        "▁th",
        "ing"
      ],
      [
        "at",
        "ch"
      ],
      [
        "res",
        "s"
      ],
      [
        "▁e",
        "x"
      ],
      [
        "▁t",
        "im"
      ],
      [
        "iv",
        "al"
      ],
      [
        "ur",
        "v"
      ],
      [
        "▁c",
        "all"
      ],
      [
        "ic",
        "al"
      ],
      [
        "ay",
        "s"
      ],
      [
        "r",
        "d"
      ],
      [
        "h",
        "er"
      ],
      [
        "n",
        "g"
      ],
      [
        "M",
        "E"
      ],
      [
        "3",
        "rd"
      ],
      [
        "▁d",
        "o"
      ],
      [
        "res",
        "ident"
      ],
      [
        "N",
        "a"
      ],
      [
        "▁S",
        "urv"
      ],
      [
        "ov",
        "e"
      ],
      [
        "▁m",
        "y"
      ],
      [
        "S",
        "ME"
      ],
      [
        "▁Surv",
        "ival"
      ],
      [
        "▁M",
        "SME"
      ],
      [
        "it",
        "y"
      ],
      [
        "▁app",
        "ly"
      ],
      [
        "b",
        "od"
      ],
      [
        "▁c",
        "han"
      ],
      [
        "m",
        "ed"
      ],
      [
        "▁b",
        "u"
      ],
      [
        "m",
        "ent"
      ],
      [
        "a",
        "v"
      ],
      [
        "i",
        "e"
      ],
      [
        "r",
        "ic"
      ],
      [
        "▁T",
        "ori"
      ],
      [
        "en",
        "d"
      ],
      [
        "ff",
        "ect"
      ],
      [
        "▁",
        "("
      ],
      [
        "form",
        "ate"
      ],
      [
        "u",
        "el"
      ],
      [
        "▁m",
        "ed"
      ],
      [
        "an",
        "s"
      ],
      [
        "▁An",
        "other"
      ],
      [
        "ar",
        "t"
      ],
      [
        "▁wom",
        "an"
      ],
      [
        "▁",
        "4"
      ],
      [
        "▁chan",
        "ge"
      ],
      [
        "1",
        "st"
      ],
      [
        "▁In",
        "formate"
      ],
      [
        "y",
        "s"
      ],
      [
        "▁P",
        "olice"
      ],
      [
        "▁w",
        "ay"
      ],
      [
        "a",
        "w"
      ],
      [
        "▁T",
        "op"
      ],
      [
        "▁a",
        "f"
      ],
      [
        "▁you",
        "ng"
      ],
      [
        "o",
        "ol"
      ],
      [
        "▁fot",
        "o"
      ],
      [
        "▁wh",
        "y"
      ],
      [
        "▁",
        "up"
      ],
      [
        "on",
        "y"
      ],
      [
        "▁\"",
        "I"
      ],
      [
        "▁ne",
        "ed"
      ],
      [
        "2",
        "8th"
      ],
      [
        "▁w",
        "etin"
      ],
      [
        "el",
        "ection"
      ],
      [
        "2",
        "5th"
      ],
      [
        "r",
        "y"
      ],
      [
        "▁t",
        "urn"
      ],
      [
        "i",
        "f"
      ],
      [
        "bod",
        "y"
      ],
      [
        "3",
        "0th"
      ],
      [
        "▁a",
        "r"
      ],
      [
        "u",
        "it"
      ],
      [
        "o",
        "k"
      ],
      [
        "▁",
        "at"
      ],
      [
        "▁W",
        "ia"
      ],
      [
        "▁J",
        "os"
      ],
      [
        "i",
        "ate"
      ],
      [
        "▁from",
        ","
      ],
      [
        "▁F",
        "G"
      ],
      [
        "▁e",
        "ffect"
      ],
      [
        "▁y",
        "ear"
      ],
      [
        "▁im",
        "med"
      ],
      [
        "▁w",
        "or"
      ],
      [
        "▁med",
        "ia"
      ],
      [
        "▁G",
        "han"
      ],
      [
        "▁",
        "Y"
      ],
      [
        "ad",
        "s"
      ],
      [
        "on",
        ","
      ],
      [
        "▁c",
        "h"
      ],
      [
        "▁s",
        "qu"
      ],
      [
        "ov",
        "er"
      ],
      [
        "▁immed",
        "iate"
      ],
      [
        "▁bu",
        "y"
      ],
      [
        "▁bo",
        "il"
      ],
      [
        "a",
        "k"
      ],
      [
        "▁",
        "j"
      ],
      [
        "▁s",
        "u"
      ],
      [
        "▁Ghan",
        "a"
      ],
      [
        "at",
        "ors"
      ],
      [
        "act",
        "ical"
      ],
      [
        "▁k",
        "ill"
      ],
      [
        "▁Jos",
        "hu"
      ],
      [
        "▁t",
        "actical"
      ],
      [
        "▁squ",
        "ads"
      ],
      [
        "▁bo",
        "x"
      ],
      [
        "▁re",
        "g"
      ],
      [
        "▁f",
        "uel"
      ],
      [
        "th",
        "ony"
      ],
      [
        "u",
        "ary"
      ],
      [
        "w",
        "ays"
      ],
      [
        "ast",
        "e"
      ],
      [
        "▁st",
        "ates"
      ],
      [
        "ch",
        "ool"
      ],
      [
        "▁any",
        "body"
      ],
      [
        "ol",
        "d"
      ],
      [
        "v",
        "er"
      ],
      [
        "▁g",
        "r"
      ],
      [
        "▁al",
        "ways"
      ],
      [
        "▁D",
        "e"
      ],
      [
        "▁l",
        "ove"
      ],
      [
        "▁w",
        "atch"
      ],
      [
        "0",
        "0"
      ],
      [
        "▁A",
        "f"
      ],
      [
        "▁in",
        "n"
      ],
      [
        "u",
        "e"
      ],
      [
        "▁M",
        "ike"
      ],
      [
        "an",
        "ce"
      ],
      [
        "eat",
        "her"
      ],
      [
        "▁T",
        "ys"
      ],
      [
        "▁fr",
        "uit"
      ],
      [
        "ov",
        "ators"
      ],
      [
        "▁face",
        ","
      ],
      [
        "▁S",
        "ARS"
      ],
      [
        "w",
        "eather"
      ],
      [
        "▁May",
        "weather"
      ],
      [
        "for",
        "e"
      ],
      [
        "▁Joshu",
        "a,"
      ],
      [
        "igh",
        "t"
      ],
      [
        "▁inn",
        "ovators"
      ],
      [
        "▁3:",
        "05"
      ],
      [
        "▁3:",
        "21"
      ],
      [
        "▁3,",
        "05"
      ],
      [
        "▁3,",
        "21"
      ],
      [
        "▁2,",
        "22"
      ],
      [
        "▁2:",
        "22"
      ],
      [
        "▁2:",
        "06"
      ],
      [
        "▁2,",
        "06"
      ],
      [
        "▁2,22",
        "25th"
      ],
      [
        "▁3,21",
        "28th"
      ],
      [
        "▁3,05",
        "2nd"
      ],
      [
        "▁2,06",
        "30th"
      ],
      [
        "▁An",
        "thony"
      ],
      [
        "u",
        "g"
      ],
      [
        "▁to",
        "k"
      ],
      [
        "▁\"",
        "Na"
      ],
      [
        "▁3",
        "6"
      ],
      [
        "ou",
        "se"
      ],
      [
        "ast",
        "ic"
      ],
      [
        "o",
        "y"
      ],
      [
        "▁w",
        "aste"
      ],
      [
        "e",
        "ad"
      ],
      [
        "▁d",
        "ress"
      ],
      [
        "▁s",
        "chool"
      ],
      [
        "oc",
        "ial"
      ],
      [
        "▁pl",
        "astic"
      ],
      [
        "ou",
        "th"
      ],
      [
        "▁box",
        "ing"
      ],
      [
        "▁r",
        "out"
      ],
      [
        "s",
        "4th"
      ],
      [
        "ar",
        "i"
      ],
      [
        "▁b",
        "in"
      ],
      [
        "▁rout",
        "ine"
      ],
      [
        "▁fuel",
        ","
      ],
      [
        "▁Tys",
        "on,"
      ],
      [
        "▁patrol",
        "s4th"
      ],
      [
        "▁about",
        "1st"
      ],
      [
        "▁fruit",
        "\","
      ],
      [
        "▁boxing",
        "\","
      ],
      [
        "ag",
        "os"
      ],
      [
        "p",
        "ort"
      ],
      [
        "▁be",
        "fore"
      ],
      [
        "▁",
        "5"
      ],
      [
        "?",
        "\n"
      ],
      [
        "▁L",
        "agos"
      ],
      [
        "▁s",
        "ocial"
      ],
      [
        "▁v",
        "s"
      ],
      [
        "▁tim",
        "es"
      ],
      [
        "6",
        "th"
      ],
      [
        "b",
        "r"
      ],
      [
        "▁C",
        "h"
      ],
      [
        "l",
        "d"
      ],
      [
        "a",
        "ck"
      ],
      [
        "▁S",
        "t"
      ],
      [
        "▁J",
        "un"
      ],
      [
        "am",
        "il"
      ],
      [
        "c",
        "c"
      ],
      [
        "▁w",
        "an"
      ],
      [
        "▁fot",
        "o,"
      ],
      [
        "ar",
        "e"
      ],
      [
        "ag",
        "e"
      ],
      [
        "u",
        "h"
      ],
      [
        "▁P",
        "resident"
      ],
      [
        "w",
        "o"
      ],
      [
        "▁re",
        "ad"
      ],
      [
        "ur",
        "e"
      ],
      [
        "▁f",
        "amil"
      ],
      [
        "▁W",
        "h"
      ],
      [
        "a",
        "pp"
      ],
      [
        "▁com",
        "ot"
      ],
      [
        "o",
        "se"
      ],
      [
        "r",
        "ation"
      ],
      [
        "▁Af",
        "ric"
      ],
      [
        "ic",
        "k"
      ],
      [
        "▁201",
        "7"
      ],
      [
        "d",
        "o"
      ],
      [
        "▁",
        "all"
      ],
      [
        "▁famil",
        "y"
      ],
      [
        "▁af",
        "ta"
      ],
      [
        "u",
        "d"
      ],
      [
        "▁r",
        "es"
      ],
      [
        "▁s",
        "ome"
      ],
      [
        "▁reg",
        "ist"
      ],
      [
        "on",
        "d"
      ],
      [
        "j",
        "a"
      ],
      [
        "▁End",
        "SARS"
      ],
      [
        "ut",
        "e"
      ],
      [
        "g",
        "in"
      ],
      [
        "▁",
        "election"
      ],
      [
        "2",
        "3rd"
      ],
      [
        "a",
        "use"
      ],
      [
        "▁p",
        "ort"
      ],
      [
        "▁S",
        "k"
      ],
      [
        "ol",
        "l"
      ],
      [
        "▁regist",
        "ration"
      ],
      [
        "▁",
        "or"
      ],
      [
        "▁be",
        "c"
      ],
      [
        "e",
        "g"
      ],
      [
        "▁ne",
        "w"
      ],
      [
        "▁b",
        "ut"
      ],
      [
        "▁A",
        "b"
      ],
      [
        "▁Sk",
        "ip"
      ],
      [
        "▁b",
        "us"
      ],
      [
        "▁t",
        "in"
      ],
      [
        "▁port",
        "al"
      ],
      [
        "on",
        "t"
      ],
      [
        "ou",
        "n"
      ],
      [
        "▁3:",
        "01"
      ],
      [
        "▁3,",
        "01"
      ],
      [
        "i",
        "se"
      ],
      [
        "▁l",
        "aw"
      ],
      [
        "▁B",
        "B"
      ],
      [
        "u",
        "b"
      ],
      [
        "o",
        "on"
      ],
      [
        "▁st",
        "ep"
      ],
      [
        "ar",
        "d"
      ],
      [
        "▁th",
        "e"
      ],
      [
        "ab",
        "i"
      ],
      [
        "▁N",
        "a"
      ],
      [
        "in",
        "ess"
      ],
      [
        "▁a",
        "g"
      ],
      [
        "▁b",
        "r"
      ],
      [
        "▁d",
        "ance"
      ],
      [
        "o",
        "g"
      ],
      [
        "▁I",
        "m"
      ],
      [
        "▁sh",
        "e"
      ],
      [
        "▁bo",
        "y"
      ],
      [
        "▁in",
        "ter"
      ],
      [
        "h",
        "e"
      ],
      [
        "on",
        "g"
      ],
      [
        "▁st",
        "ate"
      ],
      [
        "1",
        "5"
      ],
      [
        "▁f",
        "ir"
      ],
      [
        "▁w",
        "in"
      ],
      [
        "▁K",
        "an"
      ],
      [
        "on",
        "e"
      ],
      [
        "▁bus",
        "iness"
      ],
      [
        "▁k",
        "n"
      ],
      [
        "i",
        "es"
      ],
      [
        "▁h",
        "eat"
      ],
      [
        "▁su",
        "pp"
      ],
      [
        "1",
        "3"
      ],
      [
        "uh",
        "ari"
      ],
      [
        "over",
        "n"
      ],
      [
        "er",
        ","
      ],
      [
        "▁c",
        "ute"
      ],
      [
        "▁step",
        "s,"
      ],
      [
        "▁3,01",
        "23rd"
      ],
      [
        "▁h",
        "ouse"
      ],
      [
        "▁di",
        "e"
      ],
      [
        "▁o",
        "p"
      ],
      [
        "▁C",
        "am"
      ],
      [
        "a",
        "h"
      ],
      [
        "p",
        "l"
      ],
      [
        "e",
        "op"
      ],
      [
        "▁tr",
        "ans"
      ],
      [
        "▁h",
        "app"
      ],
      [
        "v",
        "est"
      ],
      [
        "i",
        "k"
      ],
      [
        "▁m",
        "an"
      ],
      [
        "▁B",
        "uhari"
      ],
      [
        "▁M",
        "ar"
      ],
      [
        "▁s",
        "abi"
      ],
      [
        "▁kn",
        "ow"
      ],
      [
        "e",
        "w"
      ],
      [
        "▁wor",
        "k"
      ],
      [
        "h",
        "ip"
      ],
      [
        "or",
        "e"
      ],
      [
        "▁l",
        "ike"
      ],
      [
        "eop",
        "le"
      ],
      [
        "▁s",
        "p"
      ],
      [
        "er",
        "oon"
      ],
      [
        "e",
        "br"
      ],
      [
        "▁year",
        "s"
      ],
      [
        "▁b",
        "l"
      ],
      [
        "our",
        "t"
      ],
      [
        "d",
        "ay"
      ],
      [
        "▁m",
        "in"
      ],
      [
        "▁T",
        "r"
      ],
      [
        "▁J",
        "an"
      ],
      [
        "oc",
        "k"
      ],
      [
        "ow",
        "n"
      ],
      [
        "▁g",
        "ive"
      ],
      [
        "▁A",
        "ug"
      ],
      [
        "▁J",
        "u"
      ],
      [
        "▁m",
        "on"
      ],
      [
        "and",
        "id"
      ],
      [
        "t",
        "y"
      ],
      [
        "▁Aug",
        "ust"
      ],
      [
        "i",
        "ja"
      ],
      [
        "▁s",
        "e"
      ],
      [
        "7",
        "th"
      ],
      [
        "▁c",
        "l"
      ],
      [
        "a",
        "ch"
      ],
      [
        "▁Cam",
        "eroon"
      ],
      [
        "um",
        "p"
      ],
      [
        "▁k",
        "ont"
      ],
      [
        "r",
        "is"
      ],
      [
        "o",
        "b"
      ],
      [
        "m",
        "er"
      ],
      [
        "▁trans",
        "port"
      ],
      [
        "it",
        "e"
      ],
      [
        "▁c",
        "andid"
      ],
      [
        "▁1",
        "6"
      ],
      [
        "▁t",
        "ell"
      ],
      [
        "▁h",
        "and"
      ],
      [
        "▁f",
        "in"
      ],
      [
        "▁D",
        "em"
      ],
      [
        "e",
        ","
      ],
      [
        "ie",
        "w"
      ],
      [
        "▁Ju",
        "ly"
      ],
      [
        "ation",
        "al"
      ],
      [
        "es",
        "in"
      ],
      [
        "▁e",
        "v"
      ],
      [
        "ul",
        "t"
      ],
      [
        "▁p",
        "eople"
      ],
      [
        "a",
        "se"
      ],
      [
        "▁pl",
        "ay"
      ],
      [
        "▁transport",
        "ation"
      ],
      [
        "▁A",
        "r"
      ],
      [
        "o",
        "ok"
      ],
      [
        "▁Fund",
        "s"
      ],
      [
        "▁tin",
        "s"
      ],
      [
        "▁business",
        "2nd"
      ],
      [
        "▁",
        "use"
      ],
      [
        "an",
        "t"
      ],
      [
        "▁",
        "6"
      ],
      [
        "▁Jan",
        "uary"
      ],
      [
        "is",
        "s"
      ],
      [
        "▁fir",
        "st"
      ],
      [
        "▁",
        "Q"
      ],
      [
        "ad",
        "u"
      ],
      [
        "▁Jun",
        "e"
      ],
      [
        "ir",
        "l"
      ],
      [
        "▁F",
        "or"
      ],
      [
        "▁Ughelli",
        "?\n"
      ],
      [
        "1",
        "6th"
      ],
      [
        "ig",
        "n"
      ],
      [
        "▁",
        "Z"
      ],
      [
        "r",
        "e"
      ],
      [
        "▁op",
        "en"
      ],
      [
        "▁p",
        "art"
      ],
      [
        "▁St",
        "ate"
      ],
      [
        "or",
        "d"
      ],
      [
        "▁",
        "un"
      ],
      [
        "▁to",
        "p"
      ],
      [
        "▁s",
        "ec"
      ],
      [
        "ir",
        "us"
      ],
      [
        "▁N",
        "ov"
      ],
      [
        "am",
        "e"
      ],
      [
        "▁sh",
        "ow"
      ],
      [
        "is",
        "h"
      ],
      [
        "▁of",
        "f"
      ],
      [
        "v",
        "e"
      ],
      [
        "it",
        "ion"
      ],
      [
        "▁P",
        "r"
      ],
      [
        "▁y",
        "our"
      ],
      [
        "▁Nov",
        "ember"
      ],
      [
        "p",
        "r"
      ],
      [
        "▁",
        "ent"
      ],
      [
        "1",
        "9"
      ],
      [
        "20",
        "th"
      ],
      [
        "▁",
        "8"
      ],
      [
        "▁Y",
        "outh"
      ],
      [
        "s",
        "o"
      ],
      [
        "▁a",
        "d"
      ],
      [
        "iv",
        "ers"
      ],
      [
        "▁a",
        "cc"
      ],
      [
        "ebr",
        "uary"
      ],
      [
        "▁F",
        "ebruary"
      ],
      [
        "ors",
        "hip"
      ],
[...]
