{
  "version": "1.0",
  "truncation": null,
  "padding": null,
  "added_tokens": [
    {
      "id": 0,
      "content": "<pad>",
      "single_word": false,
      "lstrip": false,
      "rstrip": false,
      "normalized": false,
      "special": true
    },
    {
      "id": 1,
      "content": "<unk>",
      "single_word": false,
      "lstrip": false,
      "rstrip": false,
      "normalized": false,
      "special": true
    },
    {
      "id": 2,
      "content": "<s>",
      "single_word": false,
      "lstrip": false,
      "rstrip": false,
      "normalized": false,
      "special": true
    },
    {
      "id": 3,
      "content": "</s>",
      "single_word": false,
      "lstrip": false,
      "rstrip": false,
      "normalized": false,
      "special": true
    }
  ],
  "normalizer": {
    "type": "NFC"
  },
  "pre_tokenizer": {
    "type": "Metaspace",
    "replacement": "▁",
    "prepend_scheme": "always",
    "split": true
  },
  "post_processor": null,
  "decoder": {
    "type": "Metaspace",
    "replacement": "▁",
    "prepend_scheme": "always",
    "split": true
  },
  "model": {
    "type": "BPE",
    "dropout": null,
    "unk_token": "<unk>",
    "continuing_subword_prefix": null,
    "end_of_word_suffix": null,
    "fuse_unk": false,
    "byte_fallback": false,
    "ignore_merges": false,
    "vocab": {
      "<pad>": 0,
      "<unk>": 1,
      "<s>": 2,
      "</s>": 3,
      "\t": 4,
      "\n": 5,
      "!": 6,
      "\"": 7,
      "#": 8,
      "$": 9,
      "%": 10,
      "&": 11,
      "'": 12,
      "(": 13,
      ")": 14,
      "*": 15,
      "+": 16,
      ",": 17,
      "-": 18,
      ".": 19,
      "/": 20,
      "0": 21,
      "1": 22,
      "2": 23,
      "3": 24,
      "4": 25,
      "5": 26,
      "6": 27,
      "7": 28,
      "8": 29,
      "9": 30,
      ":": 31,
      ";": 32,
      "<": 33,
      "=": 34,
      ">": 35,
      "?": 36,
      "@": 37,
      "A": 38,
      "B": 39,
      "C": 40,
      "D": 41,
      "E": 42,
      "F": 43,
      "G": 44,
      "H": 45,
      "I": 46,
      "J": 47,
      "K": 48,
      "L": 49,
      "M": 50,
      "N": 51,
      "O": 52,
      "P": 53,
      "Q": 54,
      "R": 55,
      "S": 56,
      "T": 57,
      "U": 58,
      "V": 59,
      "W": 60,
      "X": 61,
      "Y": 62,
      "Z": 63,
      "[": 64,
      "\\": 65,
      "]": 66,
      "_": 67,
      "`": 68,
      "a": 69,
      "b": 70,
      "c": 71,
      "d": 72,
      "e": 73,
      "f": 74,
      "g": 75,
      "h": 76,
      "i": 77,
      "j": 78,
      "k": 79,
      "l": 80,
      "m": 81,
      "n": 82,
      "o": 83,
      "p": 84,
      "q": 85,
      "r": 86,
      "s": 87,
      "t": 88,
      "u": 89,
      "v": 90,
      "w": 91,
      "x": 92,
      "y": 93,
      "z": 94,
      "{": 95,
      "|": 96,
      "}": 97,
      " ": 98,
      "¡": 99,
      "£": 100,
      "©": 101,
      "­": 102,
      "®": 103,
      "°": 104,
      "·": 105,
      "¸": 106,
      "¼": 107,
      "½": 108,
      "À": 109,
      "Á": 110,
      "Ã": 111,
      "Å": 112,
      "Ç": 113,
      "È": 114,
      "É": 115,
      "Ê": 116,
      "Ì": 117,
      "Í": 118,
      "Î": 119,
      "Ò": 120,
      "Ó": 121,
      "Ô": 122,
      "Ö": 123,
      "Ù": 124,
      "Ú": 125,
      "Ü": 126,
      "ß": 127,
      "à": 128,
      "á": 129,
      "â": 130,
      "ã": 131,
      "ä": 132,
      "å": 133,
      "æ": 134,
      "ç": 135,
      "è": 136,
      "é": 137,
      "ê": 138,
      "ë": 139,
      "ì": 140,
      "í": 141,
      "î": 142,
      "ï": 143,
      "ñ": 144,
      "ò": 145,
      "ó": 146,
      "ô": 147,
      "õ": 148,
      "ö": 149,
      "÷": 150,
      "ø": 151,
      "ù": 152,
      "ú": 153,
      "û": 154,
      "ü": 155,
      "ý": 156,
      "ā": 157,
      "ă": 158,
      "ą": 159,
      "ć": 160,
      "Ĉ": 161,
      "Ċ": 162,
      "č": 163,
      "ē": 164,
      "ę": 165,
      "ě": 166,
      "Ĩ": 167,
      "ĩ": 168,
      "ī": 169,
      "ĭ": 170,
      "İ": 171,
      "ı": 172,
      "ĺ": 173,
      "ľ": 174,
      "Ł": 175,
      "ł": 176,
      "Ń": 177,
      "ń": 178,
      "ō": 179,
      "ő": 180,
      "ŕ": 181,
      "ř": 182,
      "ś": 183,
      "Ş": 184,
      "ş": 185,
      "Š": 186,
      "š": 187,
      "ţ": 188,
      "ť": 189,
      "ũ": 190,
      "ū": 191,
      "ŭ": 192,
      "ů": 193,
      "ź": 194,
      "Ż": 195,
      "ż": 196,
      "Ž": 197,
      "ž": 198,
      "ǎ": 199,
      "ǐ": 200,
      "ǒ": 201,
      "ǔ": 202,
      "ǵ": 203,
      "Ǹ": 204,
      "ǹ": 205,
      "Ș": 206,
      "ș": 207,
      "Ȧ": 208,
      "ȩ": 209,
      "ɓ": 210,
      "ɔ": 211,
      "ʹ": 212,
      "ʼ": 213,
      "ʽ": 214,
      "̀": 215,
      "́": 216,
      "̂": 217,
      "̃": 218,
      "̄": 219,
      "̆": 220,
      "̇": 221,
      "̌": 222,
      "̗": 223,
      "̣": 224,
      "̩": 225,
      "͂": 226,
      "ͅ": 227,
      "΄": 228,
      "α": 229,
      "ό": 230,
      "Б": 231,
      "а": 232,
      "в": 233,
      "д": 234,
      "е": 235,
      "ж": 236,
      "и": 237,
      "м": 238,
      "н": 239,
      "о": 240,
      "п": 241,
      "р": 242,
      "с": 243,
      "т": 244,
      "х": 245,
      "ю": 246,
      "є": 247,
      "і": 248,
      "ׁ": 249,
      "ה": 250,
      "ו": 251,
      "י": 252,
      "נ": 253,
      "פ": 254,
      "ש": 255,
      "Ḥ": 256,
      "ḥ": 257,
      "ḱ": 258,
      "ḿ": 259,
      "ṃ": 260,
      "ṅ": 261,
      "ṇ": 262,
      "ṕ": 263,
      "Ṣ": 264,
      "ṣ": 265,
      "Ṭ": 266,
      "ṭ": 267,
      "ẁ": 268,
      "ẃ": 269,
      "ạ": 270,
      "Ẹ": 271,
      "ẹ": 272,
      "ẽ": 273,
      "Ị": 274,
      "ị": 275,
      "Ọ": 276,
      "ọ": 277,
      "ụ": 278,
      "ỳ": 279,
      "ỵ": 280,
      " ": 281,
      "​": 282,
      "‎": 283,
      "‏": 284,
      "‐": 285,
      "–": 286,
      "—": 287,
      "‘": 288,
      "’": 289,
      "‛": 290,
      "“": 291,
      "”": 292,
      "•": 293,
      "․": 294,
      "…": 295,
      "‬": 296,
      " ": 297,
      "″": 298,
      "⁠": 299,
      "₦": 300,
      "€": 301,
      "™": 302,
      "←": 303,
      "↑": 304,
      "→": 305,
      "↓": 306,
      "⇨": 307,
      "⇩": 308,
      "−": 309,
      "∫": 310,
      "▁": 311,
      "■": 312,
      "□": 313,
      "▪": 314,
      "▴": 315,
      "▸": 316,
      "◀": 317,
      "◆": 318,
      "◇": 319,
      "○": 320,
      "●": 321,
      "◯": 322,
      "☞": 323,
      "♪": 324,
      "♫": 325,
      "✔": 326,
      "❏": 327,
      "❑": 328,
      "❖": 329,
      "": 330,
      "﻿": 331,
      "🙂": 332,
      "▁t": 333,
      "ọ́": 334,
      "▁n": 335,
      "ẹ̀": 336,
      "▁l": 337,
      "▁à": 338,
      "ẹ́": 339,
      "▁k": 340,
      "▁w": 341,
      "gb": 342,
      "▁s": 343,
      "ọ̀": 344,
      "ọn": 345,
      "▁m": 346,
      "▁ì": 347,
      "▁ní": 348,
      "▁,": 349,
      "▁p": 350,
      "▁b": 351,
      "wọn": 352,
      "▁.": 353,
      "▁f": 354,
      "▁a": 355,
      "▁ṣ": 356,
      "▁tí": 357,
      "▁r": 358,
      "▁o": 359,
      "un": 360,
      "▁.\n": 361,
      "▁àwọn": 362,
      "ún": 363,
      "an": 364,
      "▁ń": 365,
      "àn": 366,
      "ti": 367,
      "▁y": 368,
      "▁tó": 369,
      "▁i": 370,
      "ọ́n": 371,
      "▁j": 372,
      "▁pé": 373,
      "▁ọ": 374,
      "▁gb": 375,
      "rí": 376,
      "▁d": 377,
      "▁ṣe": 378,
      "▁lá": 379,
      "▁sí": 380,
      "▁sì": 381,
      "▁ó": 382,
      "▁ni": 383,
      "▁ti": 384,
      "ra": 385,
      "áa": 386,
      "▁è": 387,
      "▁wọ́n": 388,
      "lẹ̀": 389,
      "▁ò": 390,
      "in": 391,
      "áà": 392,
      "▁máa": 393,
      "nú": 394,
      "▁ẹ": 395,
      "▁J": 396,
      "▁bá": 397,
      "▁ọ̀": 398,
      "▁fún": 399,
      "ìn": 400,
      "▁Ọ": 401,
      "▁fi": 402,
      "gbà": 403,
      "▁wọn": 404,
      "▁kí": 405,
      "▁jẹ́": 406,
      "▁rẹ̀": 407,
      "▁náà": 408,
      "▁ló": 409,
      "ìí": 410,
      "jú": 411,
      "ùn": 412,
      "▁B": 413,
      "▁àti": 414,
      "ni": 415,
      "▁láti": 416,
      "▁kan": 417,
      "▁ẹ̀": 418,
      "run": 419,
      "▁K": 420,
      "▁“": 421,
      "▁bí": 422,
      "lọ́": 423,
      "hun": 424,
      "▁lè": 425,
      "▁À": 426,
      "▁N": 427,
      "yàn": 428,
      "▁sọ": 429,
      "▁kò": 430,
      "mọ": 431,
      "▁wà": 432,
      "▁”": 433,
      "▁-": 434,
      "▁wá": 435,
      "▁nínú": 436,
      "lọ́run": 437,
      "án": 438,
      "pa": 439,
      "▁ohun": 440,
      "▁Ọlọ́run": 441,
      "▁:": 442,
      "▁Ì": 443,
      "lé": 444,
      "kan": 445,
      "lú": 446,
      "fà": 447,
      "ṣẹ́": 448,
      "▁Ní": 449,
      "gbo": 450,
      "rọ̀": 451,
      "▁ọmọ": 452,
      "rin": 453,
      "▁wa": 454,
      "▁lọ": 455,
      "▁mi": 456,
      "wọ́": 457,
      "rú": 458,
      "orí": 459,
      "▁O": 460,
      "óò": 461,
      "▁ìw": 462,
      "bí": 463,
      "yé": 464,
      "tí": 465,
      "lá": 466,
      "▁lọ́": 467,
      "▁M": 468,
      "mọ́": 469,
      "lì": 470,
      "▁rí": 471,
      "ogbo": 472,
      "▁A": 473,
      "yí": 474,
      "▁?": 475,
      "hó": 476,
      ".\n": 477,
      "▁yìí": 478,
      "▁g": 479,
      "▁Jè": 480,
      "▁Jèhó": 481,
      "▁1": 482,
      "▁Jèhófà": 483,
      "èyàn": 484,
      "▁kó": 485,
      "ín": 486,
      "▁mú": 487,
      "▁gbogbo": 488,
      "ba": 489,
      "▁L": 490,
      "rò": 491,
      "▁?\n": 492,
      "▁Bí": 493,
      "ní": 494,
      "▁Ẹ": 495,
      "▁T": 496,
      "ri": 497,
      "sí": 498,
      "jọ": 499,
      "yìn": 500,
      "ẹn": 501,
      "▁dá": 502,
      "▁pa": 503,
      "▁ká": 504,
      "▁S": 505,
      "▁tá": 506,
      "▁nípa": 507,
      "▁yóò": 508,
      "nì": 509,
      "rá": 510,
      "torí": 511,
      "àá": 512,
      "▁”\n": 513,
      "er": 514,
      "ẹ́ẹ̀": 515,
      "▁èèyàn": 516,
      "sù": 517,
      "mi": 518,
      "bi": 519,
      "pọ̀": 520,
      "kàn": 521,
      "▁ẹni": 522,
      "yà": 523,
      "▁mo": 524,
      "ràn": 525,
      "jọ́": 526,
      "▁mọ́": 527,
      "tà": 528,
      "bé": 529,
      "lù": 530,
      "▁mí": 531,
      "▁Ó": 532,
      "ṣe": 533,
      "▁gbé": 534,
      "▁Àwọn": 535,
      "▁ara": 536,
      "de": 537,
      "▁rẹ": 538,
      "▁í": 539,
      "ọ̀n": 540,
      "kọ": 541,
      "▁gbà": 542,
      "lẹ́": 543,
      "tọ́": 544,
      "dún": 545,
      "mí": 546,
      "▁nígbà": 547,
      "▁ìd": 548,
      "▁fẹ́": 549,
      "kọ́": 550,
      "▁á": 551,
      "jì": 552,
      "▁ayé": 553,
      "kùn": 554,
      "▁I": 555,
      "dè": 556,
      "▁iṣẹ́": 557,
      "ta": 558,
      "wa": 559,
      "▁lẹ́": 560,
      "kò": 561,
      "▁h": 562,
      "mọ̀": 563,
      "▁tà": 564,
      "▁bẹ́ẹ̀": 565,
      "▁—": 566,
      "ló": 567,
      "▁Jé": 568,
      "▁lé": 569,
      "ǹkan": 570,
      "▁pẹ̀": 571,
      "bẹ̀": 572,
      "▁G": 573,
      "gbọ́n": 574,
      "▁Ṣ": 575,
      "▁W": 576,
      "▁di": 577,
      "▁nǹkan": 578,
      "bélì": 579,
      "▁Bíbélì": 580,
      "rẹ̀": 581,
      "▁lórí": 582,
      "▁P": 583,
      "dà": 584,
      "▁tún": 585,
      "kọ̀": 586,
      "▁Jésù": 587,
      "▁pẹ̀lú": 588,
      "nu": 589,
      "úr": 590,
      "▁orí": 591,
      "▁ilẹ̀": 592,
      "▁èyí": 593,
      "▁kì": 594,
      "▁ọ̀rọ̀": 595,
      "kó": 596,
      "▁tàbí": 597,
      "dọ̀": 598,
      "▁yín": 599,
      "▁òun": 600,
      "▁lọ́wọ́": 601,
      "▁ìgbà": 602,
      "nà": 603,
      "kú": 604,
      "▁nítorí": 605,
      "▁2": 606,
      "ájú": 607,
      "▁kú": 608,
      "▁e": 609,
      "ris": 610,
      "rùn": 611,
      "là": 612,
      "▁ìy": 613,
      "wó": 614,
      "▁gbọ́": 615,
      "▁Kí": 616,
      "▁kọ́": 617,
      "bá": 618,
      "▁ará": 619,
      "kùnrin": 620,
      "gbé": 621,
      "ára": 622,
      "▁È": 623,
      "rè": 624,
      "▁Nígbà": 625,
      "▁Kris": 626,
      "▁Ọ̀": 627,
      "▁alá": 628,
      "▁kọ": 629,
      "▁àp": 630,
      "▁nì": 631,
      "▁ọdún": 632,
      "▁èdè": 633,
      "▁ilé": 634,
      "▁dé": 635,
      "▁lára": 636,
      "gun": 637,
      "▁D": 638,
      "kì": 639,
      "wé": 640,
      "fẹ́": 641,
      "▁já": 642,
      "nìyàn": 643,
      "sìn": 644,
      "▁mọ̀": 645,
      "▁R": 646,
      "▁mọ": 647,
      "▁gba": 648,
      "mù": 649,
      "gẹ́": 650,
      "ere": 651,
      "pá": 652,
      "▁ìṣ": 653,
      "▁bẹ̀": 654,
      "▁pà": 655,
      "▁inú": 656,
      "lò": 657,
      "▁hàn": 658,
      "▁wí": 659,
      "ye": 660,
      "▁má": 661,
      "dé": 662,
      "▁wo": 663,
      "▁ènìyàn": 664,
      "tì": 665,
      "▁ìwé": 666,
      "sì": 667,
      "ro": 668,
      "rù": 669,
      "yè": 670,
      "rẹ́": 671,
      "▁ìjọ": 672,
      "▁yẹ": 673,
      "▁yẹn": 674,
      "▁bó": 675,
      "▁oní": 676,
      "rẹ": 677,
      "li": 678,
      "▁mẹ́": 679,
      "ọ̀rọ̀": 680,
      "▁ọjọ́": 681,
      "▁dà": 682,
      "▁mé": 683,
      "▁ọ̀nà": 684,
      "▁an": 685,
      "kẹ́": 686,
      "▁Bá": 687,
      "ẹni": 688,
      "▁tú": 689,
      "ùgbọ́n": 690,
      "sẹ̀": 691,
      "kè": 692,
      "dí": 693,
      "ótọ́": 694,
      "tọ̀": 695,
      "▁F": 696,
      "▁tẹ̀": 697,
      "▁ṣà": 698,
      "jẹ́": 699,
      "kà": 700,
      "▁ojú": 701,
      "▁jẹ": 702,
      "▁Ò": 703,
      "di": 704,
      "ẹ́gẹ́": 705,
      "▁pé,": 706,
      "▁pọ̀": 707,
      "▁sílẹ̀": 708,
      "▁ba": 709,
      "▁gan": 710,
      "▁Àmọ́": 711,
      "▁ọ̀pọ̀": 712,
      "▁ìr": 713,
      "do": 714,
      "ara": 715,
      "bìn": 716,
      "bìnrin": 717,
      "dá": 718,
      "▁ìp": 719,
      "ọ́ọ̀": 720,
      "dì": 721,
      "wo": 722,
      "▁lo": 723,
      "▁irú": 724,
      "le": 725,
      "tò": 726,
      "▁ọkàn": 727,
      "▁la": 728,
      "tẹni": 729,
      "▁bẹ̀rẹ̀": 730,
      "▁ké": 731,
      "▁un": 732,
      "rìí": 733,
      "▁dí": 734,
      "▁ìdí": 735,
      "▁ibi": 736,
      "▁Kristẹni": 737,
      "▁(": 738,
      "jà": 739,
      "lọ": 740,
      "▁jù": 741,
      "kọ̀ọ́": 742,
      "bù": 743,
      "▁kúrò": 744,
      "▁sá": 745,
      "▁ṣè": 746,
      "▁yí": 747,
      "èrè": 748,
      "gbára": 749,
      "▁ìt": 750,
      "▁tẹ́": 751,
      "▁ìlú": 752,
      "urú": 753,
      "▁Í": 754,
      "▁sọ̀rọ̀": 755,
      "▁ìwà": 756,
      "pò": 757,
      "▁gẹ́gẹ́": 758,
      "gbẹ́": 759,
      "hùn": 760,
      "▁Wọ́n": 761,
      "ṣẹ̀": 762,
      "ẹẹ": 763,
      "ṣẹ": 764,
      "kù": 765,
      "já": 766,
      "wájú": 767,
      "▁èmi": 768,
      "▁ṣẹ": 769,
      "▁orílẹ̀": 770,
      "fí": 771,
      "▁táwọn": 772,
      "▁ìwọ": 773,
      "▁là": 774,
      "fi": 775,
      "▁Mo": 776,
      "▁Nítorí": 777,
      "▁jáde": 778,
      "▁wò": 779,
      "▁3": 780,
      "ẹ̀ẹ́": 781,
      "▁bà": 782,
      "yìí": 783,
      "ojú": 784,
      "▁ìyẹn": 785,
      "wò": 786,
      "▁jọ": 787,
      "wà": 788,
      "lúwa": 789,
      "re": 790,
      "▁H": 791,
      "kun": 792,
      "ró": 793,
      "gbọ́": 794,
      "▁rere": 795,
      "▁ọba": 796,
      "▁ẹ̀mí": 797,
      "ran": 798,
      "▁oló": 799,
      "yin": 800,
      "▁‘": 801,
      "ka": 802,
      "▁Á": 803,
      "úró": 804,
      "dọ́": 805,
      "▁Ẹlẹ́": 806,
      "lí": 807,
      "la": 808,
      "ko": 809,
      "fin": 810,
      "ọ́nà": 811,
      "▁Lá": 812,
      "rín": 813,
      "da": 814,
      "rì": 815,
      "▁àtà": 816,
      "▁Y": 817,
      "rúkọ": 818,
      "▁tọ́": 819,
      "jẹ": 820,
      "▁ọ́": 821,
      "▁lẹ́yìn": 822,
      "▁Olúwa": 823,
      "▁ìfẹ́": 824,
      "▁lójú": 825,
      "ẹẹrẹ": 826,
      "▁ìgbé": 827,
      "tàkì": 828,
      "ré": 829,
      "▁Ẹ̀": 830,
      "▁àì": 831,
      "▁ati": 832,
      "bọ̀": 833,
      "yẹn": 834,
      "▁;": 835,
      "ọ́ọ̀lù": 836,
      "gbè": 837,
      "ánì": 838,
      "▁títí": 839,
      "▁àkó": 840,
      "mú": 841,
      "bà": 842,
      "▁ńlá": 843,
      "jí": 844,
      "yọ̀": 845,
      "▁pàtàkì": 846,
      "▁lò": 847,
      "ẹ́yìn": 848,
      "sè": 849,
      "gún": 850,
      "▁!": 851,
      "sá": 852,
      "so": 853,
      "kí": 854,
      "té": 855,
      "▁só": 856,
      "mu": 857,
      "gi": 858,
      "tá": 859,
      "▁àtàwọn": 860,
      "úrà": 861,
      "▁pè": 862,
      "▁[": 863,
      "▁]": 864,
      "▁ọkùnrin": 865,
      "ya": 866,
      "▁E": 867,
      "▁ju": 868,
      "▁)": 869,
      "▁Ẹlẹ́rìí": 870,
      "▁rán": 871,
      "▁wọ̀n": 872,
      "▁bíi": 873,
      "àní": 874,
      "kún": 875,
      "▁’": 876,
      "▁olù": 877,
      "▁ṣẹlẹ̀": 878,
      "ṣù": 879,
      "▁ka": 880,
      "bọ": 881,
      "▁méjì": 882,
      "▁aṣ": 883,
      "▁ìdá": 884,
      "òro": 885,
      "ná": 886,
      "▁àkókò": 887,
      "▁jí": 888,
      "bú": 889,
      "sọ": 890,
      "rà": 891,
      "▁Tí": 892,
      "tẹ́": 893,
      "▁míì": 894,
      "▁àwa": 895,
      "ṣà": 896,
      "▁Ohun": 897,
      "▁19": 898,
      "▁padà": 899,
      "lu": 900,
      "▁mímọ́": 901,
      "▁ṣùgbọ́n": 902,
      "▁ta": 903,
      "▁kọ̀": 904,
      "▁ro": 905,
      "ké": 906,
      "▁ke": 907,
      "wọ̀n": 908,
      "ìíràn": 909,
      "▁dúró": 910,
      "yàwó": 911,
      "▁ogun": 912,
      "fẹ̀ẹ́": 913,
      "▁àpẹẹrẹ": 914,
      "▁mìíràn": 915,
      "▁mu": 916,
      "gọ́": 917,
      "▁dáa": 918,
      "▁Ísí": 919,
      "rẹ́lì": 920,
      "▁Ìwé": 921,
      "▁kẹ́": 922,
      "gùn": 923,
      "▁Ísírẹ́lì": 924,
      "▁ṣeé": 925,
      "▁ṣí": 926,
      "▁orúkọ": 927,
      "▁Pọ́ọ̀lù": 928,
      "▁ọwọ́": 929,
      "▁àmọ́": 930,
      "òótọ́": 931,
      "dúrà": 932,
      "▁èrò": 933,
      "00": 934,
      "▁Sí": 935,
      "yá": 936,
      "fààní": 937,
      "▁yà": 938,
      "▁Gb": 939,
      "jò": 940,
      "▁Tó": 941,
      "▁Ìjọ": 942,
      "ǹfààní": 943,
      "▁ẹnì": 944,
      "▁gbọ́dọ̀": 945,
      "▁báyìí": 946,
      "▁Bó": 947,
      "▁kún": 948,
      "▁ìdílé": 949,
      "▁Kò": 950,
      "▁Kristi": 951,
      "▁rẹ̀,": 952,
      "bò": 953,
      "▁làwọn": 954,
      "▁Báwo": 955,
      "▁4": 956,
      "es": 957,
      "▁wọ̀nyí": 958,
      "▁ṣi": 959,
      "pẹ́": 960,
      "ká": 961,
      "▁níbẹ̀": 962,
      "▁dára": 963,
      "”\n": 964,
      "▁ẹ̀yin": 965,
      "▁láì": 966,
      "lo": 967,
      "óo": 968,
      "wọ̀": 969,
      "yan": 970,
      "wá": 971,
      "go": 972,
      "▁!\n": 973,
      "títọ́": 974,
      "▁dùn": 975,
      "ẹli": 976,
      "▁Mí": 977,
      "▁ronú": 978,
      "▁ẹ̀kọ́": 979,
      "▁obìnrin": 980,
      "▁torí": 981,
      "▁omi": 982,
      "dùn": 983,
      "▁owó": 984,
      "▁àní": 985,
      "▁Ṣùgbọ́n": 986,
      "ru": 987,
      "hìn": 988,
      "▁kà": 989,
      "▁C": 990,
      "rún": 991,
      "▁wàá": 992,
      "▁ìmọ̀": 993,
      "▁ún": 994,
      "▁lọ́nà": 995,
      "▁ọ̀run": 996,
      "▁lọ́kàn": 997,
      "ṣì": 998,
      "▁tiẹ̀": 999,
      "▁tì": 1000,
      "tó": 1001,
      "eré": 1002,
      "árá": 1003,
      "gbẹ̀": 1004,
      "▁Ìjọba": 1005,
      "áwọn": 1006,
      "▁àá": 1007,
      "▁sínú": 1008,
      "áájú": 1009,
      "▁túbọ̀": 1010,
      "bẹ́": 1011,
      "▁ìjọba": 1012,
      "ki": 1013,
      "innu": 1014,
      "wọ": 1015,
      "▁Ń": 1016,
      "▁agbára": 1017,
      "▁wọ": 1018,
      "▁Ọ̀rọ̀": 1019,
      "we": 1020,
      "ani": 1021,
      "▁òbí": 1022,
      "▁fà": 1023,
      "▁tilẹ̀": 1024,
      "▁yóo": 1025,
      "ọ̀kan": 1026,
      "si": 1027,
      "▁pe": 1028,
      "ga": 1029,
      "▁da": 1030,
      "▁fara": 1031,
      "jẹ̀": 1032,
      "▁Ṣé": 1033,
      "▁ìgbàgbọ́": 1034,
      "▁sọ́": 1035,
      "▁díẹ̀": 1036,
      "sin": 1037,
      "kòó": 1038,
      "▁nìkan": 1039,
      "WA": 1040,
      "▁Lẹ́yìn": 1041,
      "▁yọ": 1042,
      "▁ìṣòro": 1043,
      "rìn": 1044,
      "únjẹ": 1045,
      "tàn": 1046,
      "▁rò": 1047,
      "mì": 1048,
      "Ǹjẹ́": 1049,
      "▁ṣiṣẹ́": 1050,
      "LU": 1051,
      "▁kàn": 1052,
      "LUWA": 1053,
      "▁láàá": 1054,
      "pé": 1055,
      "▁òfin": 1056,
      "▁ìrán": 1057,
      "sàn": 1058,
      "sa": 1059,
      "▁ràn": 1060,
      "▁Sá": 1061,
      "▁àgbà": 1062,
      "gba": 1063,
      "▁nífẹ̀ẹ́": 1064,
      "▁káwọn": 1065,
      "ji": 1066,
      "▁Ǹjẹ́": 1067,
      "▁tán": 1068,
      "je": 1069,
      "tun": 1070,
      "▁Má": 1071,
      "tù": 1072,
      "▁ipò": 1073,
      "▁dì": 1074,
      "▁àà": 1075,
      "▁Ba": 1076,
      "▁aláì": 1077,
      "dodo": 1078,
      "▁5": 1079,
      "▁fáwọn": 1080,
      "dò": 1081,
      "▁OLUWA": 1082,
      "▁ńṣe": 1083,
      "ànà": 1084,
      "má": 1085,
      "▁ṣì": 1086,
      "▁ẹran": 1087,
      "▁lẹ́nu": 1088,
      "ọkàn": 1089,
      "▁láà": 1090,
      "úù": 1091,
      "▁ìrò": 1092,
      "▁ìsìn": 1093,
      "▁le": 1094,
      "▁sin": 1095,
      "▁òtítọ́": 1096,
      "▁Èyí": 1097,
      "lẹ": 1098,
      "▁ètò": 1099,
      "gbá": 1100,
      "wọ́n": 1101,
      "▁ìbá": 1102,
      "▁láàárín": 1103,
      "▁fa": 1104,
      "▁Mímọ́": 1105,
      "▁náà,": 1106,
      ".”\n": 1107,
      "▁ẹ̀ṣẹ̀": 1108,
      "▁fí": 1109,
      "▁É": 1110,
      "dìí": 1111,
      "▁nìyẹn": 1112,
      "▁oúnjẹ": 1113,
      "▁burú": 1114,
      "▁bọ́": 1115,
      "lànà": 1116,
      "làyé": 1117,
      "bo": 1118,
      "▁bú": 1119,
      "▁pá": 1120,
      "▁níbi": 1121,
      "gbò": 1122,
      "▁Dá": 1123,
      "▁Èmi": 1124,
      "▁bọ̀": 1125,
      "▁mi,": 1126,
      "▁bẹ": 1127,
      "pàá": 1128,
      "yẹ": 1129,
      "▁dájú": 1130,
      "▁rọ": 1131,
      "▁6": 1132,
      "ọ́ni": 1133,
      "on": 1134,
      "▁Is": 1135,
      "▁túmọ̀": 1136,
      "ke": 1137,
      "▁ìgbésí": 1138,
      "▁ọlọ́": 1139,
      "▁si": 1140,
      "▁Ọmọ": 1141,
      "dáa": 1142,
      "▁ọkọ": 1143,
      "▁òkè": 1144,
      "▁é": 1145,
      "▁bé": 1146,
      "ṣin": 1147,
      "▁ọ̀kan": 1148,
      "▁gbá": 1149,
      "▁ìránṣẹ́": 1150,
      "▁yan": 1151,
      "wù": 1152,
      "ọ́sí": 1153,
      "▁àjọ": 1154,
      "▁Gbogbo": 1155,
      "há": 1156,
      "▁ọ̀dọ́": 1157,
      "▁pẹ́": 1158,
      "te": 1159,
      "▁ìlànà": 1160,
      "óòótọ́": 1161,
      "▁kù": 1162,
      "sẹ": 1163,
      "▁ẹlẹ́": 1164,
      "▁dáadáa": 1165,
      "ṣi": 1166,
      "▁tẹ̀mí": 1167,
      "▁óo": 1168,
      "gbó": 1169,
      "kẹ́kọ̀ọ́": 1170,
      "úpọ̀": 1171,
      "▁ikú": 1172,
      "▁fì": 1173,
      "▁ran": 1174,
      "▁ẹ́": 1175,
      "▁Isra": 1176,
      "▁kọjá": 1177,
      "▁ọ̀ràn": 1178,
      "télì": 1179,
      "tẹ̀": 1180,
      "ilẹ̀": 1181,
      "lọrun": 1182,
      "▁Israẹli": 1183,
      "▁jà": 1184,
      "▁baba": 1185,
      "▁Ọba": 1186,
      "àásù": 1187,
      "▁arákùnrin": 1188,
      "▁òkú": 1189,
      "▁sún": 1190,
      "untun": 1191,
      "▁wọn,": 1192,
      "▁Jẹ́": 1193,
      "ṣí": 1194,
      "▁bi": 1195,
      "lòmí": 1196,
      "▁ninu": 1197,
      "bu": 1198,
      "en": 1199,
      "ọ́sítélì": 1200,
      "▁yá": 1201,
      "rán": 1202,
      "▁Ṣe": 1203,
      "ma": 1204,
      "▁ẹnu": 1205,
      "▁rìn": 1206,
      "▁púpọ̀": 1207,
      "niyan": 1208,
      "▁Ọlọrun": 1209,
      "▁igi": 1210,
      "▁hù": 1211,
      "fídì": 1212,
      "▁Dáfídì": 1213,
      "dín": 1214,
      "▁apá": 1215,
      "▁Kó": 1216,
      "▁ọ̀rẹ́": 1217,
      "▁Ẹni": 1218,
      "▁àkọ́": 1219,
      "jè": 1220,
      "▁pẹ": 1221,
      "▁ẹ̀rí": 1222,
      "▁tọ": 1223,
      "ìní": 1224,
      "▁ol": 1225,
      "ha": 1226,
      "▁Ká": 1227,
      "▁níwájú": 1228,
      "▁ẹlòmí": 1229,
      "tẹ́lẹ̀": 1230,
      "▁Nínú": 1231,
      "ánù": 1232,
      "burú": 1233,
      "▁tòótọ́": 1234,
      "▁15": 1235,
      "▁ṣẹ̀": 1236,
      "gá": 1237,
      "▁eniyan": 1238,
      "▁ìròyìn": 1239,
      "▁ki": 1240,
      "àdé": 1241,
      "▁Ma": 1242,
      "gbọn": 1243,
      "▁Ọ̀pọ̀": 1244,
      "pin": 1245,
      "▁síbẹ̀": 1246,
      "kẹ́ni": 1247,
      "dó": 1248,
      "mánì": 1249,
      "to": 1250,
      "▁tẹ́lẹ̀": 1251,
      "▁’\n": 1252,
      "dù": 1253,
      "sán": 1254,
      "▁kejì": 1255,
      "▁pí": 1256,
      "▁ọ̀dọ̀": 1257,
      "▁ọkọ̀": 1258,
      "▁pàá": 1259,
      "béèrè": 1260,
      "▁àlù": 1261,
      "▁ẹ̀yìn": 1262,
      "▁nìdí": 1263,
      "lérí": 1264,
      "▁oò": 1265,
      "▁wàásù": 1266,
      "rọ": 1267,
      "tánì": 1268,
      "▁tuntun": 1269,
      "▁ẹgbẹ́": 1270,
      "▁kẹ́kọ̀ọ́": 1271,
      "se": 1272,
      "▁ẹbọ": 1273,
      "▁Mó": 1274,
      "▁aṣọ": 1275,
      "▁pàápàá": 1276,
      "▁béèrè": 1277,
      "▁kéèyàn": 1278,
      "làá": 1279,
      "▁ya": 1280,
      "éèyàn": 1281,
      "▁Pé": 1282,
      "▁ìpín": 1283,
      "gbọ̀n": 1284,
      "▁rárá": 1285,
      "▁lí": 1286,
      "ọwọ́": 1287,
      "▁mẹ́ta": 1288,
      "láà": 1289,
      "▁sórí": 1290,
      "ójú": 1291,
      "▁kọ́kọ́": 1292,
      "▁ọgbọ́n": 1293,
      "▁búburú": 1294,
      "ríà": 1295,
      "▁8": 1296,
      "▁7": 1297,
      "▁kankan": 1298,
      "pì": 1299,
      "fíà": 1300,
      "idi": 1301,
      "líì": 1302,
      "▁ìf": 1303,
      "▁ẹ̀dá": 1304,
      "tún": 1305,
      "▁fúnra": 1306,
      "▁Jo": 1307,
      "gbọ": 1308,
      "▁ṣàlàyé": 1309,
      "▁láwọn": 1310,
      "▁lọ́dọ̀": 1311,
      "▁yàn": 1312,
      "he": 1313,
      "fáà": 1314,
      "▁mà": 1315,
      "▁tẹ": 1316,
      "▁gbàdúrà": 1317,
      "▁bàbá": 1318,
      "tu": 1319,
      "▁jó": 1320,
      "yọ": 1321,
      "sílẹ̀": 1322,
      "▁iye": 1323,
      "▁aya": 1324,
      "▁àsọ": 1325,
      "▁nwọn": 1326,
      "and": 1327,
      "▁run": 1328,
      "òh": 1329,
      "nìí": 1330,
      "pẹ": 1331,
      "pẹ̀": 1332,
      "mẹ́": 1333,
      "▁Torí": 1334,
      "▁lágbára": 1335,
      "yànjú": 1336,
      "▁10": 1337,
      "áàmù": 1338,
      "▁Síbẹ̀": 1339,
      "▁Ìdí": 1340,
      "ṣọ́": 1341,
      "etí": 1342,
      "▁rú": 1343,
      "▁Sátánì": 1344,
      "▁oṣù": 1345,
      "▁Jó": 1346,
      "▁Àp": 1347,
      "wu": 1348,
      "▁ìyàwó": 1349,
      "▁tíì": 1350,
      "▁ẹ̀yà": 1351,
      "▁gidi": 1352,
      "▁Bẹ́ẹ̀": 1353,
      "▁Lọ́": 1354,
      "▁yàtọ̀": 1355,
      "▁Je": 1356,
      "▁àṣẹ": 1357,
      "▁ọgọ́": 1358,
      "▁11": 1359,
      "▁pinnu": 1360,
      "▁ṣá": 1361,
      "▁án": 1362,
      "▁ìyà": 1363,
      "▁alà": 1364,
      "▁ìtàn": 1365,
      "gbègbè": 1366,
      "▁ìyá": 1367,
      "ṣo": 1368,
      "▁ìbéèrè": 1369,
      "làáfíà": 1370,
      "▁àmì": 1371,
      "▁yò": 1372,
      "padà": 1373,
      "kóso": 1374,
      "kẹ̀": 1375,
      "▁Fi": 1376,
      "▁dìde": 1377,
      "▁12": 1378,
      "gùntàn": 1379,
      "▁àrùn": 1380,
      "gbẹ̀rún": 1381,
      "▁àkọ́kọ́": 1382,
      "▁ìbí": 1383,
      "▁òní": 1384,
      "▁wù": 1385,
      "▁ẹnikẹ́ni": 1386,
      "▁àlùfáà": 1387,
      "hún": 1388,
      "▁olórí": 1389,
      "▁nílò": 1390,
      "▁ko": 1391,
      "ku": 1392,
      "▁kẹ": 1393,
      "▁Láti": 1394,
      "ẹ́lì": 1395,
      "▁yíò": 1396,
      "▁eré": 1397,
      "▁sìn": 1398,
      "▁Tá": 1399,
      "▁9": 1400,
      "ríkà": 1401,
      "▁Já": 1402,
      "▁Gí": 1403,
      "ṣè": 1404,
      "ja": 1405,
      "▁ẹ̀sìn": 1406,
      "▁àṣà": 1407,
      "ugbọn": 1408,
      "▁àyà": 1409,
      "▁Ni": 1410,
      "▁gbó": 1411,
      "▁tè": 1412,
      "mó": 1413,
      "▁rántí": 1414,
      "▁gbọ": 1415,
      "▁Júù": 1416,
      "▁láé": 1417,
      "gàn": 1418,
      "▁àǹfààní": 1419,
      "▁Jòh": 1420,
      "▁Sa": 1421,
      "▁bóyá": 1422,
      "▁láyé": 1423,
      "kẹ": 1424,
      "▁dáhùn": 1425,
      "bì": 1426,
      "▁òdodo": 1427,
      "▁yín,": 1428,
      "jo": 1429,
      "or": 1430,
      "▁20": 1431,
      "gà": 1432,
      "▁àpọ́sítélì": 1433,
      "rọ́": 1434,
      "tè": 1435,
      "▁14": 1436,
      "lọ́wọ́": 1437,
      "rètí": 1438,
      "▁Mósè": 1439,
      "▁/": 1440,
      "▁olóòótọ́": 1441,
      "▁ìwàásù": 1442,
      "▁kíyè": 1443,
      "lọ̀": 1444,
      "▁Ti": 1445,
      "▁ayọ̀": 1446,
      "▁Ilé": 1447,
      "▁nwọ́n": 1448,
      "▁ibẹ̀": 1449,
      "pó": 1450,
      "▁lọ́dún": 1451,
      "▁ìpa": 1452,
      "▁sáwọn": 1453,
      "▁Da": 1454,
      "ilẹ̀kọ": 1455,
      "▁ṣo": 1456,
      "▁rẹ̀.\n": 1457,
      "▁lọ́jọ́": 1458,
      "▁iná": 1459,
      "▁balẹ̀": 1460,
      "▁àdúrà": 1461,
      "▁bo": 1462,
      "sáyà": 1463,
      "▁téèyàn": 1464,
      "▁iwájú": 1465,
      "▁Ìgbà": 1466,
      "èjì": 1467,
      "▁bàa": 1468,
      "▁sábà": 1469,
      "▁Baba": 1470,
      "▁ṣáájú": 1471,
      "pọ": 1472,
      "▁méjè": 1473,
      "▁gbí": 1474,
      "▁àlàáfíà": 1475,
      "▁yẹ̀": 1476,
      "▁Ló": 1477,
      "▁dàgbà": 1478,
      "▁to": 1479,
      "keré": 1480,
      "▁​": 1481,
      "▁sọ́dọ̀": 1482,
      "▁ẹ̀jẹ̀": 1483,
      "▁Ju": 1484,
      "▁táa": 1485,
      "▁burúkú": 1486,
      "▁Jòhánù": 1487,
      "▁látinú": 1488,
      "▁ṣíṣe": 1489,
      "▁méjèèjì": 1490,
      "▁wáyé": 1491,
      "▁nípasẹ̀": 1492,
      "▁pátá": 1493,
      "bẹ": 1494,
      "▁rẹ,": 1495,
      "térù": 1496,
      "▁Pétérù": 1497,
      "lógún": 1498,
      "▁gí": 1499,
      "yẹ̀": 1500,
      "▁fojú": 1501,
      "▁sẹ́": 1502,
      "▁ìhìn": 1503,
      "▁Ìwọ": 1504,
      "▁ìwọ̀n": 1505,
      "▁Kọ́": 1506,
      "▁Mi": 1507,
      "▁13": 1508,
      "po": 1509,
      "lọpọ̀": 1510,
      "▁ìpàdé": 1511,
      "▁ìdájọ́": 1512,
      "▁gbádùn": 1513,
      "dere": 1514,
      "▁bójú": 1515,
      "▁lábẹ́": 1516,
      "mìn": 1517,
      "▁sókè": 1518,
      "bùn": 1519,
      "▁Rẹ̀": 1520,
      "▁Wọn": 1521,
      "▁kọ̀wé": 1522,
      "ho": 1523,
      "▁kedere": 1524,
      "▁kọ̀ọ̀kan": 1525,
      "▁lónìí": 1526,
      "róró": 1527,
      "▁aṣáájú": 1528,
      "óòmù": 1529,
      "▁Máa": 1530,
      "▁Róòmù": 1531,
      "wàá": 1532,
      "▁àgùntàn": 1533,
      "▁Nípa": 1534,
      "▁wé": 1535,
      "▁ìran": 1536,
      "▁ìṣẹ̀": 1537,
      "▁rọrùn": 1538,
      "tan": 1539,
      "mo": 1540,
      "▁fun": 1541,
      "rúsá": 1542,
      "wùjọ": 1543,
      "ṣó": 1544,
      "▁in": 1545,
      "▁ìyè": 1546,
      "▁kìí": 1547,
      "▁Gẹ́gẹ́": 1548,
      "▁san": 1549,
      "▁lórílẹ̀": 1550,
      "▁Ará": 1551,
      "▁àjọṣe": 1552,
      "▁kékeré": 1553,
      "▁yòó": 1554,
      "▁nílẹ̀": 1555,
      "jíṣẹ́": 1556,
      "▁ẹlòmíràn": 1557,
      "ge": 1558,
      "▁ìjọsìn": 1559,
      "▁Hé": 1560,
      "▁dán": 1561,
      "▁rẹ̀\n": 1562,
      "▁sa": 1563,
      "▁ín": 1564,
      "rúurú": 1565,
      "fún": 1566,
      "▁káà": 1567,
      "▁Bákan": 1568,
      "▁Ka": 1569,
      "▁parí": 1570,
      "▁wọ̀": 1571,
      "▁17": 1572,
      "▁ìbẹ̀": 1573,
      "rànlọ́wọ́": 1574,
      "èé": 1575,
      "▁ṣẹ́": 1576,
      "▁Orí": 1577,
      "▁sẹ́yìn": 1578,
      "lẹ́mù": 1579,
      "gbọràn": 1580,
      "▁wú": 1581,
      "▁18": 1582,
      "rúsálẹ́mù": 1583,
      "▁bẹ̀rù": 1584,
      "▁Inú": 1585,
      "gẹ́lì": 1586,
      "▁16": 1587,
      "▁nílé": 1588,
      "▁lọ,": 1589,
      "▁gbẹ́": 1590,
      "▁ẹsẹ̀": 1591,
      "▁Olù": 1592,
      "▁nã": 1593,
      "▁òróró": 1594,
      "▁lóye": 1595,
      "▁pèsè": 1596,
      "▁gbọdọ̀": 1597,
      "▁darí": 1598,
      "wòrán": 1599,
      "▁Ne": 1600,
      "fo": 1601,
      "▁ìjà": 1602,
      "▁ọ̀tá": 1603,
      "▁ẹrú": 1604,
      "▁ga": 1605,
      "▁Jes": 1606,
      "gbe": 1607,
      "anu": 1608,
      "▁yọ̀": 1609,
      "▁àpilẹ̀kọ": 1610,
      "▁ìgbéyàwó": 1611,
      "▁Sáàmù": 1612,
      "eru": 1613,
      "lùú": 1614,
      "▁fẹ́ràn": 1615,
      "▁ìmọ̀ràn": 1616,
      ",\n": 1617,
      "dàá": 1618,
      "▁Pa": 1619,
      "▁dú": 1620,
      "kòókò": 1621,
      "tara": 1622,
      "▁Oní": 1623,
      "fá": 1624,
      "sà": 1625,
      "th": 1626,
      "▁ṣé": 1627,
      "▁síwájú": 1628,
      "▁alàgbà": 1629,
      "kóhun": 1630,
      "▁márùn": 1631,
      "▁•": 1632,
      "▁ná": 1633,
      "▁fò": 1634,
      "bàá": 1635,
      "ẹnu": 1636,
      "▁Yo": 1637,
      "gó": 1638,
      "yì": 1639,
      "sùn": 1640,
      "▁èso": 1641,
      "▁ṣoṣo": 1642,
      "▁oòrùn": 1643,
      "jù": 1644,
      "fù": 1645,
      "▁àfi": 1646,
      "▁òjíṣẹ́": 1647,
      "▁àsọtẹ́lẹ̀": 1648,
      "dájú": 1649,
      "▁rọ̀": 1650,
      "mẹ́ríkà": 1651,
      "ria": 1652,
      "▁ọmọdé": 1653,
      "bọmi": 1654,
      "▁hùwà": 1655,
      "▁ìṣe": 1656,
      "▁Ta": 1657,
      "▁débi": 1658,
      "jáde": 1659,
      "kejì": 1660,
      "▁fọwọ́": 1661,
      "▁wòlíì": 1662,
      "inlẹ̀": 1663,
      "ọ́nì": 1664,
      "▁Amẹ́ríkà": 1665,
      "▁àjò": 1666,
      "bùkún": 1667,
      "lẹ́yìn": 1668,
      "èdè": 1669,
      "▁Kì": 1670,
      "▁mò": 1671,
      "yi": 1672,
      "▁ipa": 1673,
      "▁Irú": 1674,
      "▁Iṣẹ́": 1675,
      "▁ja": 1676,
      "▁ọmọbìnrin": 1677,
      "pátá": 1678,
      "▁ìtẹ́": 1679,
      "wú": 1680,
      "ńgẹ́lì": 1681,
      "hà": 1682,
      "▁ìtọ́": 1683,
      "▁Lé": 1684,
      "▁ẹ̀bùn": 1685,
      "▁ọgọ́rùn": 1686,
      "lera": 1687,
      "▁ìrètí": 1688,
      "▁ọmọkùnrin": 1689,
      "▁ẹsẹ": 1690,
      "▁àgọ́": 1691,
      "▁Ábú": 1692,
      "▁pátápátá": 1693,
      "▁gbì": 1694,
      "▁Ja": 1695,
      "yín": 1696,
      "▁ṣẹ̀ṣẹ̀": 1697,
      "▁ìpinnu": 1698,
      "▁Jesu": 1699,
      "yẹ̀wò": 1700,
      "édé": 1701,
      "▁dó": 1702,
      "▁ohunkóhun": 1703,
      "▁onírúurú": 1704,
      "ira": 1705,
      "ch": 1706,
      "▁Sàn": 1707,
      "▁Òun": 1708,
      "be": 1709,
      "▁Alá": 1710,
      "▁olú": 1711,
      "▁Kódà": 1712,
      "▁bù": 1713,
      "000": 1714,
      "tíù": 1715,
      "ni,": 1716,
      "san": 1717,
      "úni": 1718,
      "▁ha": 1719,
      "ròrò": 1720,
      "▁òkun": 1721,
      "▁wọn.\n": 1722,
      "▁ìrí": 1723,
      "▁ogún": 1724,
      "▁sun": 1725,
      "me": 1726,
      "sẹ́": 1727,
      "▁lu": 1728,
      "na": 1729,
      "lòó": 1730,
      "▁Oló": 1731,
      "▁orin": 1732,
      "fa": 1733,
      "▁ẹgbẹ̀rún": 1734,
      "▁kìíní": 1735,
      "▁kalẹ̀": 1736,
      "fì": 1737,
      "▁Fún": 1738,
      "▁lẹ́kọ̀ọ́": 1739,
      "▁nìṣó": 1740,
      "▁wọn\n": 1741,
      "▁tò": 1742,
      "▁Wo": 1743,
      "kọsílẹ̀": 1744,
      "▁pàṣẹ": 1745,
      "▁Ẹ̀mí": 1746,
      "▁yé": 1747,
      "▁Ọ̀nà": 1748,
      "▁wá,": 1749,
      "▁àìní": 1750,
      "▁Mátíù": 1751,
      "▁jókòó": 1752,
      "▁láyọ̀": 1753,
      "▁jìn": 1754,
      "▁múra": 1755,
      "▁Hébé": 1756,
      "tú": 1757,
      "▁Hébérù": 1758,
      "▁ọ̀rún": 1759,
      "▁Òwe": 1760,
      "ọ́ọ̀ṣì": 1761,
      "bin": 1762,
      "kọ́bù": 1763,
      "▁láǹfààní": 1764,
      "▁ẹranko": 1765,
      "▁Sànmánì": 1766,
      "▁tọ̀": 1767,
      "úgbò": 1768,
      "gbì": 1769,
      "sun": 1770,
      "sìkò": 1771,
      "▁ìtu": 1772,
      "sé": 1773,
      "▁pín": 1774,
      "pè": 1775,
      "▁aráyé": 1776,
      "▁ṣọ́": 1777,
      "▁ìpínlẹ̀": 1778,
      "▁Wa": 1779,
      "kiri": 1780,
      "▁ìlérí": 1781,
      "▁mẹ́rin": 1782,
      "▁ibù": 1783,
      "▁so": 1784,
      "▁mẹ́wàá": 1785,
      "▁Ábúrá": 1786,
      "▁ọ̀rúndún": 1787,
      "▁ọ̀pọ̀lọpọ̀": 1788,
      "rùbá": 1789,
      "▁nílùú": 1790,
      "▁ipá": 1791,
      "▁rẹ́": 1792,
      "kítà": 1793,
      "▁ọ̀hún": 1794,
      "▁àìsàn": 1795,
      "▁Se": 1796,
      "▁gbìyànjú": 1797,
      "kunrin": 1798,
      "rìíra": 1799,
      "▁ọ̀tọ̀": 1800,
      "▁àjà": 1801,
      "▁ìkó": 1802,
      "wẹ̀": 1803,
      "▁mélòó": 1804,
      "▁méje": 1805,
      "▁Ké": 1806,
      "▁ẹ̀ka": 1807,
      "du": 1808,
      "mọ́lẹ̀": 1809,
      "▁ọn": 1810,
      "▁ògo": 1811,
      "kéyìí": 1812,
      "jìn": 1813,
      "?\n": 1814,
      "▁So": 1815,
      "ẹ̀yìn": 1816,
      "▁Jerúsálẹ́mù": 1817,
      "ore": 1818,
      "▁déédé": 1819,
      "▁Fa": 1820,
      "▁tọ́jú": 1821,
      "▁wọlé": 1822,
      "▁lóde": 1823,
      "▁pàdé": 1824,
      "rìṣà": 1825,
      "▁láàrin": 1826,
      "kọ̀wé": 1827,
      "▁ọmọ-": 1828,
      "▁ọrọ̀": 1829,
      "▁ra": 1830,
      "us": 1831,
      "▁ìrànlọ́wọ́": 1832,
      "▁Àti": 1833,
      "rẹ̀lẹ̀": 1834,
      "▁Yorùbá": 1835,
      "tẹ": 1836,
      "▁sùn": 1837,
      "▁dojú": 1838,
      "ar": 1839,
      "▁jì": 1840,
      "▁ọgbà": 1841,
      "▁èyíkéyìí": 1842,
      "▁òpin": 1843,
      "▁Só": 1844,
      "▁dín": 1845,
      "kọta": 1846,
      ",000": 1847,
      "▁odò": 1848,
      "gbẹ": 1849,
      "fu": 1850,
      "▁bò": 1851,
      "▁pẹlu": 1852,
      "gidi": 1853,
      "ójútó": 1854,
      "júwe": 1855,
      "tọkàn": 1856,
      "fidi": 1857,
      "▁retí": 1858,
      "▁òye": 1859,
      "▁gbàgbé": 1860,
      "hi": 1861,
      "sinsìn": 1862,
      "▁àwùjọ": 1863,
      "▁tètè": 1864,
      "▁ohùn": 1865,
      "▁tirẹ̀": 1866,
      "▁kéré": 1867,
      "dọ": 1868,
      "dínlógún": 1869,
      "mà": 1870,
      "▁Òfin": 1871,
      "hámù": 1872,
      "áàbò": 1873,
      "▁Láì": 1874,
      "ọ̀nà": 1875,
      "rẹ̀ẹ́": 1876,
      "▁láàyè": 1877,
      "▁Aí": 1878,
      "▁òkúta": 1879,
      "▁*": 1880,
      "ríì": 1881,
      "▁àgbègbè": 1882,
      "▁báwo": 1883,
      "ojúmọ́": 1884,
      "andan": 1885,
      "vi": 1886,
      "▁Dafidi": 1887,
      "▁Jú": 1888,
      "mìnira": 1889,
      "fúnni": 1890,
      "▁èké": 1891,
      "tọ": 1892,
      "el": 1893,
      "lùkù": 1894,
      "▁na": 1895,
      "▁áńgẹ́lì": 1896,
      "ńtì": 1897,
      "▁ìb": 1898,
      "wí": 1899,
      "▁àṣe": 1900,
      "-èdè": 1901,
      "▁agbo": 1902,
      "▁déédéé": 1903,
      "▁Ábúráhámù": 1904,
      "▁àwòrán": 1905,
      "bítì": 1906,
      "ǹde": 1907,
      "Ọ́": 1908,
      "▁àpé": 1909,
      "jíbítì": 1910,
      "▁dẹ́": 1911,
      "▁Gíríì": 1912,
      "▁de": 1913,
      "joojúmọ́": 1914,
      "ju": 1915,
      "ini": 1916,
      "mọ̀ràn": 1917,
      "▁ànímọ́": 1918,
      "▁yìí,": 1919,
      "▁ìní": 1920,
      "▁òṣì": 1921,
      "▁ṣàkóso": 1922,
      "▁àrí": 1923,
      "▁ìkẹ́kọ̀ọ́": 1924,
      "yèsí": 1925,
      "▁gidigidi": 1926,
      "▁àbá": 1927,
      "kọtaya": 1928,
      "▁káàkiri": 1929,
      "ber": 1930,
      "jẹ̀mú": 1931,
      "Ẹ́": 1932,
      "▁wu": 1933,
      "▁fífi": 1934,
      "▁óò": 1935,
      "▁Fí": 1936,
      "▁ìṣẹ́": 1937,
      "▁Ilẹ̀": 1938,
      "▁ìrà": 1939,
      "▁pípé": 1940,
      "▁tan": 1941,
      "▁ọ̀gá": 1942,
      "et": 1943,
      "hàn": 1944,
      "▁24": 1945,
      "▁etí": 1946,
      "Ní": 1947,
      "▁kódà": 1948,
      "▁Al": 1949,
      "▁21": 1950,
      "▁fúnni": 1951,
      "▁bọ": 1952,
      "▁lóhùn": 1953,
      "▁Na": 1954,
      "▁Lè": 1955,
      "kúlùkù": 1956,
      "ṣìí": 1957,
      "▁àádọ́": 1958,
      "▁ọ̀kẹ́": 1959,
      "▁lọ́rùn": 1960,
      "▁orílẹ̀-èdè": 1961,
      "▁ṣòro": 1962,
      "▁Bà": 1963,
      "▁Ẹ̀kọ́": 1964,
      "mé": 1965,
      "▁kókó": 1966,
      "▁ìwá": 1967,
      "▁Si": 1968,
      "▁ìbùkún": 1969,
      "gọ̀": 1970,
      "▁oko": 1971,
      "▁dàbí": 1972,
      "▁sílé": 1973,
      "pà": 1974,
      "▁Aísáyà": 1975,
      "▁tipa": 1976,
      "gbìmọ̀": 1977,
      "▁Arákùnrin": 1978,
      "▁àd": 1979,
      "▁Àwa": 1980,
      "▁ìṣẹ̀lẹ̀": 1981,
      "▁lóòótọ́": 1982,
      "tán": 1983,
      "▁ré": 1984,
      "▁Mà": 1985,
      "▁dípò": 1986,
      "▁kẹ̀": 1987,
      "▁tu": 1988,
      "▁sapá": 1989,
      "▁lẹ́tà": 1990,
      "▁arábìnrin": 1991,
      "▁gíga": 1992,
      "▁ẹ̀rọ": 1993,
      "▁Kọ́rí": 1994,
      "▁Kọ́ríńtì": 1995,
      "▁olódodo": 1996,
      "▁fọ́": 1997,
      "▁Dí": 1998,
      "▁Kà": 1999,
      "▁wa,": 2000,
      "▁22": 2001,
      "fun": 2002,
      "yẹ́": 2003,
      "mọ́nì": 2004,
      "▁dúpẹ́": 2005,
      "gí": 2006,
      "gboyà": 2007,
      "▁òótọ́": 2008,
      "pìlì": 2009,
      "lúù": 2010,
      "▁ú": 2011,
      "▁kọ́ni": 2012,
      "▁Bẹ́": 2013,
      "▁ìsọ": 2014,
      "▁àyí": 2015,
      "ẹ́sí": 2016,
      "fò": 2017,
      "▁dáàbò": 2018,
      "▁ẹlòmíì": 2019,
      "▁Ńṣe": 2020,
      "▁lẹ́ẹ̀": 2021,
      "ẹ̀ẹ́sì": 2022,
      "pọlọ": 2023,
      "dẹ": 2024,
      "sinsìnyí": 2025,
      "▁Ìyẹn": 2026,
      "▁Yà": 2027,
      "▁U": 2028,
      "▁ìrìn": 2029,
      "▁kiri": 2030,
      "▁Ẹ̀yin": 2031,
      "▁gbè": 2032,
      "▁ọmọlẹ́yìn": 2033,
      "▁àtijọ́": 2034,
      "óòbù": 2035,
      "▁ọlá": 2036,
      "▁dandan": 2037,
      "▁tiwọn": 2038,
      "▁me": 2039,
      "▁Nà": 2040,
      "▁Bàbá": 2041,
      "pù": 2042,
      "▁Gẹ̀ẹ́sì": 2043,
      "▁ìlà": 2044,
      "▁Ìṣe": 2045,
      "▁ìmọ́lẹ̀": 2046,
      "▁ọrẹ": 2047,
      "▁lati": 2048,
      "angba": 2049,
      "▁pẹpẹ": 2050,
      "il": 2051,
      "▁Ná": 2052,
      "▁wúrà": 2053,
      "▁tọkọtaya": 2054,
      "▁àpéjọ": 2055,
      "bó": 2056,
      "▁jíròrò": 2057,
      "▁Jóòbù": 2058,
      "▁rèé": 2059,
      "▁ìṣà": 2060,
      "Ẹ̀": 2061,
      "▁ṣètò": 2062,
      "mótì": 2063,
      "▁tẹ̀lé": 2064,
      "▁sàn": 2065,
      "▁ìyanu": 2066,
      "▁ìwádìí": 2067,
      "▁tẹ́ń": 2068,
      "▁ní,": 2069,
      "▁àánú": 2070,
      "▁Ojú": 2071,
      "kẹyìn": 2072,
      "▁Juda": 2073,
      "▁létí": 2074,
      "▁ìtumọ̀": 2075,
      "▁borí": 2076,
      "▁mẹ́rìn": 2077,
      "▁gbẹ́kẹ̀": 2078,
      "▁Sóló": 2079,
      "▁Ṣugbọn": 2080,
      "ọ̀ngàn": 2081,
      "▁àárín": 2082,
      "▁mẹ́fà": 2083,
      "ọ́njú": 2084,
      "▁oògùn": 2085,
      "▁ìbínú": 2086,
      "ànú": 2087,
      "wádìí": 2088,
      "rànwọ́": 2089,
      "▁abẹ́": 2090,
      "▁jinlẹ̀": 2091,
      "hálà": 2092,
      "ṣá": 2093,
      "▁yòókù": 2094,
      "▁Rẹ": 2095,
      "▁ọtí": 2096,
      "▁síbi": 2097,
      "▁Jeru": 2098,
      "▁Ádá": 2099,
      "gbàgbọ́": 2100,
      "▁po": 2101,
      "▁Tímótì": 2102,
      "ọ̀nù": 2103,
      "▁Yàtọ̀": 2104,
      "▁idà": 2105,
      "binrin": 2106,
      "jé": 2107,
      "▁yin": 2108,
      "▁mọ́ra": 2109,
      "▁líle": 2110,
      "▁ìtẹ̀": 2111,
      "▁ìhà": 2112,
      "gbáyé": 2113,
      "ṣa": 2114,
      "▁sọ́nà": 2115,
      "gójì": 2116,
      "▁Jerusa": 2117,
      "▁tù": 2118,
      "▁Ayé": 2119,
      "▁bínú": 2120,
      "▁dárí": 2121,
      "▁ma": 2122,
      "▁Le": 2123,
      "▁gbò": 2124,
      "ánwò": 2125,
      "▁lásán": 2126,
      "▁Jákọ́bù": 2127,
      "▁rà": 2128,
      "gbìn": 2129,
      "▁ni,": 2130,
      "▁sọ̀": 2131,
      "▁Ádámù": 2132,
      "▁ìmú": 2133,
      "▁àkọsílẹ̀": 2134,
      "▁Ẹlẹ́dàá": 2135,
      "lẹmu": 2136,
      "▁ǹ": 2137,
      "sẹ́fù": 2138,
      "▁23": 2139,
      "▁Jósẹ́fù": 2140,
      "▁ṣèlérí": 2141,
      "bíni": 2142,
      "▁òǹ": 2143,
      "lára": 2144,
      "dúró": 2145,
      "▁èlò": 2146,
      "lè": 2147,
      "▁Ọjọ́": 2148,
      "▁An": 2149,
      "▁ìdà": 2150,
      "▁òde": 2151,
      "ubú": 2152,
      "▁àf": 2153,
      "din": 2154,
      "▁Júdà": 2155,
      "ah": 2156,
      "▁ààbò": 2157,
      "▁kan,": 2158,
      "▁Jerusalẹmu": 2159,
      "▁lélẹ̀": 2160,
      "▁kíkún": 2161,
      "▁▪": 2162,
      "▁tàn": 2163,
      "kọ̀ọ̀kan": 2164,
      "▁Kàkà": 2165,
      "▁akẹ́kọ̀ọ́": 2166,
      "▁ṣa": 2167,
      "▁olúkúlùkù": 2168,
      "sọ̀": 2169,
      "dùúgbò": 2170,
      "▁ró": 2171,
      "▁kórìíra": 2172,
      "▁mọ́lẹ̀": 2173,
      "▁yanjú": 2174,
      "kòrò": 2175,
      "▁ṣègbé": 2176,
      "▁mẹ́tà": 2177,
      "dẹ́": 2178,
      "ótí": 2179,
      "líọ̀nù": 2180,
      "▁òṣìṣẹ́": 2181,
      "wàásù": 2182,
      "▁màá": 2183,
      "▁rọ́": 2184,
      "ànújẹ́": 2185,
      "▁Di": 2186,
      "▁wàhálà": 2187,
      "ání": 2188,
      "láàá": 2189,
      "▁ṣọ̀": 2190,
      "▁Gíríìkì": 2191,
      "rora": 2192,
      "▁fẹ̀": 2193,
      "áná": 2194,
      "▁Ha": 2195,
      "▁májẹ̀mú": 2196,
      "▁V": 2197,
      "▁wọ́": 2198,
      "▁i,": 2199,
      "▁ẹjọ́": 2200,
      "ṣinṣin": 2201,
      "▁ri": 2202,
      "úùkù": 2203,
      "▁Lúùkù": 2204,
      "gbàá": 2205,
      "▁alágbára": 2206,
      "fú": 2207,
      "▁aláṣẹ": 2208,
      "▁Ro": 2209,
      "bíye": 2210,
      "▁ṣọ́ọ̀ṣì": 2211,
      "▁ránṣẹ́": 2212,
      "▁máà": 2213,
      "▁200": 2214,
      "▁Èṣù": 2215,
      "▁Orílẹ̀": 2216,
      "▁múlẹ̀": 2217,
      "lòpọ̀": 2218,
      "jíríà": 2219,
      "sàlẹ̀": 2220,
      "pẹ̀kun": 2221,
      "kúṣe": 2222,
      "▁Àpọ́sítélì": 2223,
      "▁olùkọ́": 2224,
      "▁ẹrù": 2225,
      "▁fetí": 2226,
      "▁ìpọ́njú": 2227,
      ";\n": 2228,
      "▁Ìṣí": 2229,
      "▁mọ́kàn": 2230,
      "lónì": 2231,
      "▁tabi": 2232,
      "▁Èdè": 2233,
      "▁yi": 2234,
      "▁mẹ́nu": 2235,
      "kàtí": 2236,
      "mìí": 2237,
      "ṣọ́n": 2238,
      "▁Mose": 2239,
      "▁La": 2240,
      "lówó": 2241,
      "▁tẹ́ńpìlì": 2242,
      "lejò": 2243,
      "àyè": 2244,
      "máyà": 2245,
      "ṣò": 2246,
      "▁tàwọn": 2247,
      "tọ̀dọ̀": 2248,
      "fọ̀": 2249,
      "míràn": 2250,
      "▁kúkú": 2251,
      "▁ìtọ́jú": 2252,
      "▁wọ̀nyẹn": 2253,
      "▁mọ́,": 2254,
      "▁jìnnà": 2255,
      "▁jo": 2256,
      "sọ́nà": 2257,
      "▁akọ": 2258,
      "rìbọmi": 2259,
      "▁jọ́": 2260,
      "▁Pẹ̀": 2261,
      "yọrí": 2262,
      "nárì": 2263,
      "Ọ̀": 2264,
      "pàdé": 2265,
      "ájúdájú": 2266,
      "▁rẹ̀.": 2267,
      "▁Ìfẹ́": 2268,
      "▁fẹ́rẹ̀ẹ́": 2269,
      "ṣọ́nnárì": 2270,
      "▁The": 2271,
      "▁ṣàì": 2272,
      "▁gé": 2273,
      "▁ewu": 2274,
      "▁Sólómọ́nì": 2275,
      "▁Níwọ̀n": 2276,
      "▁tara": 2277,
      "nù": 2278,
      "▁irin": 2279,
      "▁Jere": 2280,
      "lagbà": 2281,
      "▁ẹnìkan": 2282,
      "▁kárí": 2283,
      "▁gbangba": 2284,
      "kùnkùn": 2285,
      "al": 2286,
      "árín": 2287,
      "▁ọpọlọ": 2288,
      "úrù": 2289,
      "▁Jẹ́n": 2290,
      "únibíni": 2291,
      "▁tóun": 2292,
      "▁25": 2293,
      "dú": 2294,
      "▁tẹ́wọ́": 2295,
      "ẹ́ẹ̀tì": 2296,
      "▁ìdáhùn": 2297,
      "▁tóbi": 2298,
      "▁199": 2299,
      "ce": 2300,
      "▁níwọ̀n": 2301,
      "òrùn": 2302,
      "▁jọ́sìn": 2303,
      "▁ìbálòpọ̀": 2304,
      "▁of": 2305,
      "▁Bi": 2306,
      "▁mi\n": 2307,
      "▁kìlọ̀": 2308,
      "▁ìbẹ̀rù": 2309,
      "▁bọ́gbọ́n": 2310,
      "▁tiwa": 2311,
      "▁lẹ̀": 2312,
      "▁ẹyẹ": 2313,
      "òkè": 2314,
      "▁pada": 2315,
      "▁ǹjẹ́": 2316,
      "úrẹ́": 2317,
      "▁Lóòótọ́": 2318,
      "▁olùṣọ́": 2319,
      "ṣìṣe": 2320,
      "uni": 2321,
      "▁lókun": 2322,
      "▁Bábí": 2323,
      "▁Íń": 2324,
      "túnṣe": 2325,
      "yanu": 2326,
      "▁ṣèrìbọmi": 2327,
      "▁ìbànújẹ́": 2328,
      "▁bẹ̃": 2329,
      "ṣèlú": 2330,
      "ríṣi": 2331,
      "▁lákòókò": 2332,
      "▁ìwò": 2333,
      "▁Dájúdájú": 2334,
      "▁tútù": 2335,
      "ṣìírí": 2336,
      "▁péré": 2337,
      "▁jọba": 2338,
      "▁tọkàn": 2339,
      "▁látọ̀dọ̀": 2340,
      "▁Ọdún": 2341,
      "▁ìgbàlà": 2342,
      "▁míṣọ́nnárì": 2343,
      "ṣíà": 2344,
      "▁Bábílónì": 2345,
      "▁lọ́pọ̀": 2346,
      "▁Sámú": 2347,
      "ṣiríṣi": 2348,
      "lon": 2349,
      "▁nù": 2350,
      "rírì": 2351,
      "▁ìsọfúnni": 2352,
      "▁aláìní": 2353,
      "ulu": 2354,
      "▁wó": 2355,
      "▁àgbàlagbà": 2356,
      "▁èé": 2357,
      "▁báwọn": 2358,
      "fé": 2359,
      "▁mọyì": 2360,
      "▁onífẹ̀ẹ́": 2361,
      "eṣẹ́": 2362,
      "▁àìnípẹ̀kun": 2363,
      "▁kán": 2364,
      "▁dè": 2365,
      "hò": 2366,
      "▁elé": 2367,
      "▁Ọ̀kan": 2368,
      "payá": 2369,
      "▁ère": 2370,
      "▁Lọ": 2371,
      "▁Co": 2372,
      "▁ṣubú": 2373,
      "▁onímọ̀": 2374,
      "▁ìparun": 2375,
      "▁Pẹ̀lú": 2376,
      "ne": 2377,
      "▁èrè": 2378,
      "▁tọ́ka": 2379,
      "▁gbẹ̀": 2380,
      "▁bu": 2381,
      "pi": 2382,
      "ǹda": 2383,
      "▁fọkàn": 2384,
      "▁Ẹ́": 2385,
      "ìsì": 2386,
      "▁mẹ": 2387,
      "dísè": 2388,
      "▁ìrònú": 2389,
      "árádísè": 2390,
      "úsù": 2391,
      "ùúrù": 2392,
      "▁wákàtí": 2393,
      "▁òpó": 2394,
      "▁òrìṣà": 2395,
      "▁tèmi": 2396,
      "ọ̀wọ́": 2397,
      "▁Nàì": 2398,
      "▁nítò": 2399,
      "▁ìṣè": 2400,
      "▁28": 2401,
      "kalẹ̀": 2402,
      "▁lòdì": 2403,
      "▁jẹun": 2404,
      "▁Íjíbítì": 2405,
      "óà": 2406,
      "tìgbà": 2407,
      "▁òmìnira": 2408,
      "▁bára": 2409,
      "▁Gbọ̀ngàn": 2410,
      "▁se": 2411,
      "▁yọrí": 2412,
      "▁àyíká": 2413,
      "▁yìn": 2414,
      "jèjì": 2415,
      "▁\"": 2416,
      "▁ẹ̀wọ̀n": 2417,
      "land": 2418,
      "▁àlàyé": 2419,
      "▁Re": 2420,
      "▁sílò": 2421,
      "papọ̀": 2422,
      "▁ẹ̀rù": 2423,
      "▁gún": 2424,
      "▁kẹ̀kẹ́": 2425,
      "▁gòkè": 2426,
      "▁èyítí": 2427,
      "▁Mar": 2428,
      "▁òru": 2429,
      "yẹyẹ": 2430,
      "▁Wà": 2431,
      "▁ìtọ́ni": 2432,
      "yún": 2433,
      "▁Lára": 2434,
      "▁àpótí": 2435,
      "▁Ara": 2436,
      "▁ìbílẹ̀": 2437,
      "▁wúlò": 2438,
      "▁ìyìn": 2439,
      "▁ṣe,": 2440,
      "èwé": 2441,
      "búrò": 2442,
      "▁Ọ̀dọ́": 2443,
      "tọ̀hún": 2444,
      "longo": 2445,
      "▁ṣugbọn": 2446,
      "▁ṣègbọràn": 2447,
      "▁ru": 2448,
      "▁rúbọ": 2449,
      "▁fọ": 2450,
      "dájọ́": 2451,
      "bòójútó": 2452,
      ".’": 2453,
      "jọ̀": 2454,
      "ẹ́sísì": 2455,
      "▁ọ̀pá": 2456,
      "▁Jẹ́nẹ́sísì": 2457,
      "▁bẹ́": 2458,
      "▁Ke": 2459,
      "▁New": 2460,
      "ter": 2461,
      "▁Nóà": 2462,
      "kọjá": 2463,
      "▁sùúrù": 2464,
      "▁ew": 2465,
      "àmú": 2466,
      "▁Ibi": 2467,
      "▁ẹ̀gbọ́n": 2468,
      "kán": 2469,
      "dára": 2470,
      "▁Rí": 2471,
      "ṣọ": 2472,
      "lóhùn": 2473,
      "▁Ìṣípayá": 2474,
      "jíǹde": 2475,
      "▁níyànjú": 2476,
      "▁Ṣí": 2477,
      "▁kéde": 2478,
      "▁mi.\n": 2479,
      "▁Èlí": 2480,
      "▁Ọlọ́run,": 2481,
      "▁sọ́kàn": 2482,
      "▁rá": 2483,
      "▁dọ́": 2484,
      "▁bọ̀wọ̀": 2485,
      "▁òjò": 2486,
      "bàjẹ́": 2487,
      "sinmi": 2488,
      "ròyìn": 2489,
      "▁ìbẹ̀rẹ̀": 2490,
      "gẹ": 2491,
      "▁nìyí": 2492,
      "▁sílẹ̀,": 2493,
      "sĩ": 2494,
      "▁ìrì": 2495,
      "só": 2496,
      "▁lẹ": 2497,
      "▁àkà": 2498,
      "▁títọ́": 2499,
      "▁Àjọ": 2500,
      "▁ìṣí": 2501,
      "gin": 2502,
      "ṣú": 2503,
      "▁Wò": 2504,
      "▁yòówù": 2505,
      ".”": 2506,
      "▁táá": 2507,
      "▁dara": 2508,
      "▁tọkàntọkàn": 2509,
      "dánù": 2510,
      "▁ìjì": 2511,
      "▁màlúù": 2512,
      "pẹẹrẹ": 2513,
      "▁ọ̀tún": 2514,
      "▁igbó": 2515,
      "ìnì": 2516,
      "▁pápá": 2517,
      "▁síra": 2518,
      "▁odi": 2519,
      "▁Ab": 2520,
      "▁sísọ": 2521,
      "▁ọ̀la": 2522,
      "▁Gá": 2523,
      "ọni": 2524,
      "▁pọn": 2525,
      "raga": 2526,
      "▁náà\n": 2527,
      "ci": 2528,
      "▁Sámúẹ́lì": 2529,
      "óòpù": 2530,
      "▁Fílí": 2531,
      "▁fẹ": 2532,
      "▁ìbámu": 2533,
      "▁ọjà": 2534,
      "▁inúnibíni": 2535,
      "▁ìrẹ̀lẹ̀": 2536,
      "▁gbára": 2537,
      "▁Mú": 2538,
      "▁mílíọ̀nù": 2539,
      "▁alábòójútó": 2540,
      "▁òwú": 2541,
      "áàárín": 2542,
      "▁pé:": 2543,
      "▁ibo": 2544,
      "ca": 2545,
      "ly": 2546,
      "▁kojú": 2547,
      "▁Òótọ́": 2548,
      "▁pu": 2549,
      "▁Àní": 2550,
      "▁ku": 2551,
      "ana": 2552,
      "▁òkùnkùn": 2553,
      "▁àpè": 2554,
      "ua": 2555,
      "▁Párádísè": 2556,
      "gbẹ́ni": 2557,
      "▁ìlera": 2558,
      "▁Dání": 2559,
      "dínlọ́": 2560,
      "▁mún": 2561,
      "▁ṣò": 2562,
      "▁fíf": 2563,
      "▁ọ̀sẹ̀": 2564,
      "▁wọn.": 2565,
      "▁lójoojúmọ́": 2566,
      "▁ewé": 2567,
      "nítorí": 2568,
      "▁tẹli": 2569,
      "sinsin": 2570,
      "▁Nǹkan": 2571,
      "▁ète": 2572,
      "▁“Ẹ": 2573,
      "hù": 2574,
      "ur": 2575,
      "▁dídùn": 2576,
      "▁awọn": 2577,
      "▁àríwá": 2578,
      "eli": 2579,
      "▁àbí": 2580,
      "▁Dáníẹ́lì": 2581,
      "▁ọlọ́pàá": 2582,
      "co": 2583,
      "pín": 2584,
      "▁fo": 2585,
      "▁Nàìjíríà": 2586,
      "▁láìsí": 2587,
      "▁jagun": 2588,
      "▁méjìlá": 2589,
      "pe": 2590,
      "▁jíjẹ́": 2591,
      "▁jáwọ́": 2592,
      "▁lù": 2593,
      "▁kìkì": 2594,
      "▁Lẹ́": 2595,
      "▁jùlọ": 2596,
      "▁ọgbọ̀n": 2597,
      "▁Rere": 2598,
      "jó": 2599,
      "gan": 2600,
      "▁àbúrò": 2601,
      "▁ẹlẹ": 2602,
      "GB": 2603,
      "▁Jù": 2604,
      "tumọ̀": 2605,
      "anì": 2606,
      "▁sára": 2607,
      "▁ṣẹ́gun": 2608,
      "▁Mè": 2609,
      "▁lásìkò": 2610,
      "▁Ìṣọ́": 2611,
      "lẹ́kọ̀ọ́": 2612,
      "▁lépa": 2613,
      "▁ìtì": 2614,
      "▁Jeremáyà": 2615,
      "▁ìkẹyìn": 2616,
      "▁àjíǹde": 2617,
      "▁náà.\n": 2618,
      "▁Éfé": 2619,
      "àwọn": 2620,
      "▁lédè": 2621,
      "▁ìgbẹ́": 2622,
      "takò": 2623,
      "▁ńkọ́": 2624,
      "darí": 2625,
      "▁ẹ̀tọ́": 2626,
      "▁To": 2627,
      "▁pàdánù": 2628,
      "ọ̀tọ̀": 2629,
      "▁jẹ̀": 2630,
      "▁sọ́tọ̀": 2631,
      "▁onítọ̀hún": 2632,
      "▁ìrírí": 2633,
      "▁26": 2634,
      "▁Ìwà": 2635,
      "kùṣù": 2636,
      "kọ́ni": 2637,
      "▁Àpẹẹrẹ": 2638,
      "▁jẹ́rìí": 2639,
      "▁alààyè": 2640,
      "▁ṣàyẹ̀wò": 2641,
      "▁àkàn": 2642,
      "▁ìrora": 2643,
      "▁àgbàyanu": 2644,
      "▁ṣègbéyàwó": 2645,
      "ọdún": 2646,
      "▁pàtó": 2647,
      "gbẹ̀ẹ́": 2648,
      "▁ìgbè": 2649,
      "fín": 2650,
      "▁Lọ́dún": 2651,
      "▁ṣáá": 2652,
      "mọye": 2653,
      "mìnà": 2654,
      "▁Mèsáyà": 2655,
      "-o": 2656,
      "▁iléeṣẹ́": 2657,
      "▁sísun": 2658,
      "sítì": 2659,
      "dùma": 2660,
      "▁ìṣàkóso": 2661,
      "▁Ogun": 2662,
      "▁kópa": 2663,
      "▁Wá": 2664,
      "▁29": 2665,
      "▁Yóò": 2666,
      "▁yẹra": 2667,
      "lélógún": 2668,
      "▁yín.\n": 2669,
      "▁sẹ́ni": 2670,
      "sọ̀rọ̀": 2671,
      "▁àlejò": 2672,
      "tion": 2673,
      "▁lọ\n": 2674,
      "▁jàǹfààní": 2675,
      "▁33": 2676,
      "▁màmá": 2677,
      "▁Màríà": 2678,
      "▁para": 2679,
      "dùmarè": 2680,
      "▁àjèjì": 2681,
      "▁àṣìṣe": 2682,
      "▁mẹ́ẹ̀": 2683,
      "▁okun": 2684,
      "▁ìgbàanì": 2685,
      "▁ayẹyẹ": 2686,
      "▁Jí": 2687,
      "▁Èèyàn": 2688,
      "▁ènìyàn,": 2689,
      "ónì": 2690,
      "úúsù": 2691,
      "▁ibì": 2692,
      "yípadà": 2693,
      "mu,": 2694,
      "▁ọ́n": 2695,
      "▁yàrá": 2696,
      "it": 2697,
      "▁ẹṣin": 2698,
      "▁ìràpadà": 2699,
      "▁afẹ́": 2700,
      "▁ìdáni": 2701,
      "uru": 2702,
      "▁NÍ": 2703,
      "▁onígbàgbọ́": 2704,
      "▁ìpè": 2705,
      "▁ìsinmi": 2706,
      "▁kígbe": 2707,
      "▁ọlọ́gbọ́n": 2708,
      "▁Dípò": 2709,
      "Èmi": 2710,
      "tẹ́lì": 2711,
      "pèjúwe": 2712,
      "▁ṣèrànwọ́": 2713,
      "▁funfun": 2714,
      "▁èṣù": 2715,
      "▁gùn": 2716,
      "▁Ọkùnrin": 2717,
      "▁Sọ́ọ̀lù": 2718,
      "▁èròjà": 2719,
      "-ún": 2720,
      "▁lọ.\n": 2721,
      "tánẹ́ẹ̀tì": 2722,
      "▁fín": 2723,
      "▁àwo": 2724,
      "▁ọlọ́run": 2725,
      "▁Éfà": 2726,
      "▁àjàrà": 2727,
      "gbèé": 2728,
      "giri": 2729,
      "▁Bẹ́tẹ́lì": 2730,
      "▁Àà": 2731,
      "▁tẹ́tí": 2732,
      "▁aládùúgbò": 2733,
      "líìkì": 2734,
      "▁dẹ́ṣẹ̀": 2735,
      "▁ah": 2736,
      "▁ori": 2737,
      "wẹ̀sì": 2738,
      "▁gbẹ": 2739,
      "riwo": 2740,
      "▁31": 2741,
      "▁pípa": 2742,
      "▁kẹta": 2743,
      "▁ìgbìmọ̀": 2744,
      "▁oo": 2745,
      "ry": 2746,
      "▁Kan": 2747,
      "▁Jámánì": 2748,
      "dẹ̀": 2749,
      "▁nísinsìnyí": 2750,
      "▁sáré": 2751,
      "▁Joh": 2752,
      "▁kíyèsĩ": 2753,
      "▁201": 2754,
      "▁kùn": 2755,
      "díà": 2756,
      "▁adúró": 2757,
      "▁dẹni": 2758,
      "▁Sọ": 2759,
      "▁gbólóhùn": 2760,
      "▁àjá": 2761,
      "▁síyẹn": 2762,
      "▁27": 2763,
      "▁nítòsí": 2764,
      "▁OLUWA,": 2765,
      "▁ìbáwí": 2766,
      "pẹtẹ": 2767,
      "▁àyè": 2768,
      "▁Ca": 2769,
      "fe": 2770,
      "mber": 2771,
      "búlé": 2772,
      "kìlọ̀": 2773,
      "▁dájúdájú": 2774,
      "▁Èé": 2775,
      "▁)\n": 2776,
      "▁dókítà": 2777,
      "▁kòkòrò": 2778,
      "mọ̀wé": 2779,
      "▁Ọkàn": 2780,
      "▁gó": 2781,
      "▁Olódùmarè": 2782,
      "▁194": 2783,
      "▁gbógun": 2784,
      "jìnlẹ̀": 2785,
      "▁ìfara": 2786,
      "▁àdánwò": 2787,
      "-à": 2788,
      "▁ọ,": 2789,
      "▁Gi": 2790,
      "▁lílo": 2791,
      "▁agbègbè": 2792,
      "▁ẹ̀dùn": 2793,
      "▁Eli": 2794,
      "▁aa": 2795,
      "▁Òkun": 2796,
      "dákà": 2797,
      "▁u": 2798,
      "▁ìgboyà": 2799,
      "▁ji": 2800,
      "gbẹẹ": 2801,
      "▁igba": 2802,
      "▁òdì": 2803,
      "▁lókè": 2804,
      "▁yálà": 2805,
      "▁lẹ́ẹ̀kan": 2806,
      "▁sú": 2807,
      "▁lọ́mọ": 2808,
      "fíríkà": 2809,
      "▁jìyà": 2810,
      "▁Mọ́": 2811,
      "▁ọ̀tọ̀ọ̀tọ̀": 2812,
      "▁òṣù": 2813,
      "ina": 2814,
      "lah": 2815,
      "▁the": 2816,
      "▁bì": 2817,
      "▁láàrín": 2818,
      "síwájú": 2819,
      "▁Íńtánẹ́ẹ̀tì": 2820,
      "▁ìtọ́sọ́nà": 2821,
      "èké": 2822,
      "▁wípé": 2823,
      "▁ojúṣe": 2824,
      "▁fìdí": 2825,
      "▁àsọyé": 2826,
      "▁ìṣekúṣe": 2827,
      "▁rẹ\n": 2828,
      "?”\n": 2829,
      "▁Kátó": 2830,
      "▁àrà": 2831,
      "▁yín\n": 2832,
      "tímọ́": 2833,
      "▁àlá": 2834,
      "gbodò": 2835,
      "rere": 2836,
      "▁pamọ́": 2837,
      "▁meji": 2838,
      "▁Kátólíìkì": 2839,
      "▁láṣẹ": 2840,
      "▁wáìnì": 2841,
      "▁Áfíríkà": 2842,
      "▁ṣọ́ra": 2843,
      "▁ìwọ̀": 2844,
      "▁fàdákà": 2845,
      "▁ẹlẹgbẹ́": 2846,
      "Kí": 2847,
      "ṣọ̀n": 2848,
      "▁irọ́": 2849,
      "▁30": 2850,
      "▁mẹ́ẹ̀ẹ́": 2851,
      "▁oríṣiríṣi": 2852,
      "díò": 2853,
      "▁òwúrọ̀": 2854,
      "▁Àì": 2855,
      "▁sípò": 2856,
      "dọ́ta": 2857,
      "▁rẹpẹtẹ": 2858,
      "faa": 2859,
      "▁Há": 2860,
      "day": 2861,
      "gò": 2862,
      "moni": 2863,
      "▁ìrìbọmi": 2864,
      "lẹ̀,": 2865,
      "▁Ọlọ́run\n": 2866,
      "fíìsì": 2867,
      "ỌN": 2868,
      "▁erékùṣù": 2869,
      "àti": 2870,
      "▁wọnú": 2871,
      "▁ìgbésẹ̀": 2872,
      "lufaa": 2873,
      "▁nídìí": 2874,
      "▁In": 2875,
      "▁Éfésù": 2876,
      "óònù": 2877,
      "▁múnú": 2878,
      "lélọ́": 2879,
      "i,": 2880,
      "▁ojúlówó": 2881,
      "▁ṣàpèjúwe": 2882,
      "▁ikọ̀": 2883,
      "kéde": 2884,
      "▁àsìkò": 2885,
      "▁“Ní": 2886,
      "▁ìjí": 2887,
      "▁tóó": 2888,
      "▁ìyàtọ̀": 2889,
      "▁“B": 2890,
      "▁Ìhìn": 2891,
      "ri,": 2892,
      "fáì": 2893,
      "gbèrè": 2894,
      "▁rin": 2895,
      "▁He": 2896,
      "▁láìpẹ́": 2897,
      "▁'": 2898,
      "mọ́tímọ́": 2899,
      "▁ìtù": 2900,
      "▁ìda": 2901,
      "▁ìtara": 2902,
      "▁Be": 2903,
      "▁De": 2904,
      "▁ìṣẹ̀dá": 2905,
      "▁àádọ́ta": 2906,
      "ṣòro": 2907,
      "▁Allah": 2908,
      "▁Gbé": 2909,
      "dógún": 2910,
      "▁àjálù": 2911,
      "▁ìgbò": 2912,
      "▁jogún": 2913,
      "▁àkànṣe": 2914,
      "rónì": 2915,
      "▁ọmọ-ẹ̀yìn": 2916,
      "kègbodò": 2917,
      "rayé": 2918,
      "ánu": 2919,
      "▁Bíi": 2920,
      "▁mọrírì": 2921,
      "wàdà": 2922,
      "▁àtàtà": 2923,
      "▁láyè": 2924,
      "▁ìtùnú": 2925,
      "▁níṣìírí": 2926,
      "rúgbó": 2927,
      "▁tímọ́tímọ́": 2928,
      "▁kéé": 2929,
      "sapá": 2930,
      "▁Ra": 2931,
      "bùkù": 2932,
      "dọọdún": 2933,
      "▁ògiri": 2934,
      "▁ìṣọ̀kan": 2935,
      "▁wẹ́": 2936,
      "▁sòótọ́": 2937,
      "▁Lo": 2938,
      "▁Ga": 2939,
      "▁han": 2940,
      "úróòpù": 2941,
      "▁Òkè": 2942,
      "▁Yúróòpù": 2943,
      "inṣin": 2944,
      "▁Obìnrin": 2945,
      "kèèké": 2946,
      "méjì": 2947,
      "òrò": 2948,
      "▁rẹ.\n": 2949,
      "▁lẹ́nì": 2950,
      "▁Israẹli,": 2951,
      "▁15\n": 2952,
      "▁oore": 2953,
      "▁ìdúró": 2954,
      "▁191": 2955,
      "▁195": 2956,
      "fè": 2957,
      "fọ́": 2958,
      "ti,": 2959,
      "láé": 2960,
      "jádò": 2961,
      "daràn": 2962,
      "▁Ch": 2963,
      "▁ọkunrin": 2964,
      "▁àbájáde": 2965,
      "laa": 2966,
      "▁kéékèèké": 2967,
      "▁obinrin": 2968,
      "▁kìló": 2969,
      "▁Lọ́jọ́": 2970,
      "▁àpèjúwe": 2971,
      "▁forí": 2972,
      "▁ṣó": 2973,
      "mọ́ra": 2974,
      "▁jíjẹ": 2975,
      "▁ahọ́n": 2976,
      "▁ọkà": 2977,
      "ǹbá": 2978,
      "▁ọ́fíìsì": 2979,
      "▁ẹ̀dà": 2980,
      "▁yọ̀ǹda": 2981,
      "▁ìyípadà": 2982,
      "lis": 2983,
      "▁Ìrán": 2984,
      "▁Nífáì": 2985,
      "▁wọnyi": 2986,
      "▁àpá": 2987,
      "▁ìgbòkègbodò": 2988,
      "▁ọlọ́rọ̀": 2989,
      "▁àìmọye": 2990,
      "ǹsì": 2991,
      "▁pọ́n": 2992,
      "▁dáradára": 2993,
      "▁ìdààmú": 2994,
      "▁ìta": 2995,
      "luwa": 2996,
      "▁ihò": 2997,
      "▁mẹ́jọ": 2998,
      "▁fìfẹ́": 2999,
      "▁pì": 3000,
      "▁Olú": 3001,
      "láàsì": 3002,
      "▁Bo": 3003,
      "WỌN": 3004,
      "ṣán": 3005,
      "▁wulẹ̀": 3006,
      "▁Máà": 3007,
      "▁àgbé": 3008,
      "ènì": 3009,
      "▁gbáà": 3010,
      "▁Po": 3011,
      "mónì": 3012,
      "▁ibùdó": 3013,
      "▁olóró": 3014,
      "kọbu": 3015,
      "mítà": 3016,
      "▁kọrin": 3017,
      "▁yára": 3018,
      "láàyè": 3019,
      "▁ìràwọ̀": 3020,
      "ìyàn": 3021,
      "▁irun": 3022,
      "▁ọ̀daràn": 3023,
      "ransé": 3024,
      "▁sinu": 3025,
      "▁ìjìnlẹ̀": 3026,
      "▁gbin": 3027,
      "láti": 3028,
      "▁mímú": 3029,
      "▁mímu": 3030,
      "yẹ́ǹsì": 3031,
      "wẹ́": 3032,
      "▁ṣinṣin": 3033,
      "▁ṣeré": 3034,
      "ginjù": 3035,
      "▁Faransé": 3036,
      "kára": 3037,
      "▁lọ̀rọ̀": 3038,
      "▁àgbáyé": 3039,
      "▁ayérayé": 3040,
      "▁sà": 3041,
      "▁iran": 3042,
      "▁asán": 3043,
      "▁gbọn": 3044,
      "▁ẹja": 3045,
      "▁ẹlẹ́ṣẹ̀": 3046,
      "kìkí": 3047,
      "▁Orúkọ": 3048,
      "gbẹẹgbẹ̀rún": 3049,
      "▁alákòókò": 3050,
      "▁fàyè": 3051,
      "▁alẹ́": 3052,
      "yebíye": 3053,
      "▁sọ̀kalẹ̀": 3054,
      "lọ́rùn": 3055,
      "▁bẹ̃ni,": 3056,
      "▁adúróṣinṣin": 3057,
      "ure": 3058,
      "▁Lọ́nà": 3059,
      "▁jákè": 3060,
      "▁fá": 3061,
      "▁àwọ̀": 3062,
      "ine": 3063,
      "▁1\n": 3064,
      "▁Olúwa\n": 3065,
      "▁baà": 3066,
      "▁sinmi": 3067,
      "▁gbígbé": 3068,
      "▁lẹ́sẹ̀": 3069,
      "lójú": 3070,
      "bọ́": 3071,
      "ogun": 3072,
      "▁mì": 3073,
      "▁ogójì": 3074,
      "▁Aa": 3075,
      "▁pan": 3076,
      "▁bè": 3077,
      "▁32": 3078,
      "▁ire": 3079,
      "▁Ìgbìmọ̀": 3080,
      "roni": 3081,
      "▁wọ́n,": 3082,
      "▁(i": 3083,
      "▁dání": 3084,
      "▁alufaa": 3085,
      "▁èyí,": 3086,
      "▁ìwòsàn": 3087,
      "▁èwe": 3088,
      "▁bákan": 3089,
      "▁pìwà": 3090,
      "Àwọn": 3091,
      "▁ìsapá": 3092,
      "bẹ́ẹ̀": 3093,
      "▁ọ̀sán": 3094,
      "ṣọ̀": 3095,
      "▁Jakọbu": 3096,
      "ùnnú": 3097,
      "▁sóhun": 3098,
      "▁béèyàn": 3099,
      "gì": 3100,
      "ing": 3101,
      "▁ìdùnnú": 3102,
      "ll": 3103,
      "ókù": 3104,
      "▁afẹ́fẹ́": 3105,
      "úra": 3106,
      "▁aginjù": 3107,
      "mùgọ̀": 3108,
      "▁Ìgbé": 3109,
      "líá": 3110,
      "oni": 3111,
      "ṣírí": 3112,
      "-ì": 3113,
      "▁Tẹ": 3114,
      "▁Gbà": 3115,
      "▁rìnrìn": 3116,
      "▁ilú": 3117,
      "▁gun": 3118,
      "kálẹ̀": 3119,
      "▁opó": 3120,
      "▁Fílípì": 3121,
      "▁ológun": 3122,
      "ràá": 3123,
      "▁ìsàlẹ̀": 3124,
      "▁Ge": 3125,
      "▁sáyẹ́ǹsì": 3126,
      "ṣúà": 3127,
      "▁àtúnṣe": 3128,
      "▁àgbèrè": 3129,
      "▁polongo": 3130,
      "▁olúwa": 3131,
      "▁ẹ̀gbẹ́": 3132,
      "sáàmù": 3133,
      "▁arìn": 3134,
      "àníyàn": 3135,
      "▁ìrántí": 3136,
      "ńlá": 3137,
      "▁Tẹ́": 3138,
      "▁En": 3139,
      "▁òmíràn": 3140,
      "▁dáwọ́": 3141,
      "▁Saulu": 3142,
      "▁tẹnu": 3143,
      "▁fọ̀rọ̀": 3144,
      "▁naa": 3145,
      "▁àpáta": 3146,
      "▁bímọ": 3147,
      "gù": 3148,
      "ṣé": 3149,
      "▁Ìdá": 3150,
      "mímọ́": 3151,
      "ọ́ọ̀sì": 3152,
      "▁Tiwa": 3153,
      "▁iranṣẹ": 3154,
      "▁ô": 3155,
      "▁ìkà": 3156,
      "▁Me": 3157,
      "▁ọba,": 3158,
      "▁àgbẹ̀": 3159,
      "▁ìfi": 3160,
      "▁níní": 3161,
      "▁Ki": 3162,
      "▁Iji": 3163,
      "▁lógún": 3164,
      "▁òǹkọ̀wé": 3165,
      "▁Èlíjà": 3166,
      "gé": 3167,
      "▁koko": 3168,
      "▁kìlómítà": 3169,
      "▁Máàkù": 3170,
      "▁àpò": 3171,
      "▁wọ́pọ̀": 3172,
      "▁Ijip": 3173,
      "▁Jóṣúà": 3174,
      "▁ìkọ̀": 3175,
      "▁Ìlú": 3176,
      "▁lọ́run": 3177,
      "▁Lámánì": 3178,
      "ese": 3179,
      "▁ẹ̀nìyàn": 3180,
      "▁Li": 3181,
      "▁Láàárín": 3182,
      "▁ìmọ": 3183,
      "kòóso": 3184,
      "tisí": 3185,
      "▁nwọn,": 3186,
      "▁ọ̀wọ̀": 3187,
      "▁Bẹ": 3188,
      "▁òṣèlú": 3189,
      "▁yòò": 3190,
      "▁báà": 3191,
      "▁abẹ": 3192,
      "▁jọ̀wọ́": 3193,
      "▁láéláé": 3194,
      "àánú": 3195,
      "▁ìwàláàyè": 3196,
      "▁Lórí": 3197,
      "fuuru": 3198,
      "fuurufú": 3199,
      "▁“M": 3200,
      "▁Ẹnì": 3201,
      "lógójì": 3202,
      "dia": 3203,
      "jòyè": 3204,
      "dun": 3205,
      "yọ́": 3206,
      "▁ibò": 3207,
      "kókò": 3208,
      "▁búra": 3209,
      "▁ni\n": 3210,
      "-ín": 3211,
      "▁No": 3212,
      "▁jákèjádò": 3213,
      "▁Èrò": 3214,
      "▁aláìpé": 3215,
      "▁Bu": 3216,
      "▁ọ̀wọ́n": 3217,
      "kíyèsí": 3218,
      "▁fọ́n": 3219,
      "▁ròyìn": 3220,
      "kẹ̀lé": 3221,
      "lọ́gọ̀": 3222,
      "▁ọmọ-ogun": 3223,
      "ṣeyọrí": 3224,
      "▁títa": 3225,
      "▁gbọ́n": 3226,
      "▁ar": 3227,
      "▁kíkọ́": 3228,
      "▁Àgbáyé": 3229,
      "jọba": 3230,
      "▁Ẹgbẹ́": 3231,
      "▁Eji": 3232,
      "ck": 3233,
      "st": 3234,
      "▁nímọ̀ràn": 3235,
      "▁okùn": 3236,
      "foní": 3237,
      "fojì": 3238,
      "▁lẹ́bi": 3239,
      "▁ìṣúra": 3240,
      "les": 3241,
      "▁abúlé": 3242,
      "▁ẹ̀ẹ̀": 3243,
      "▁ÀWỌN": 3244,
      "▁ìdíje": 3245,
      "pìtàn": 3246,
      "▁jíǹde": 3247,
      "fonífojì": 3248,
      "▁Fara": 3249,
      "▁ìtẹ̀jáde": 3250,
      "▁yó": 3251,
      "▁dẹ": 3252,
      "▁súnmọ́": 3253,
      "▁ìmúṣẹ": 3254,
      "▁òmùgọ̀": 3255,
      "▁ààfin": 3256,
      "mò": 3257,
      "▁ẹ̀sùn": 3258,
      "bè": 3259,
      "ph": 3260,
      "▁ṣáà": 3261,
      "▁Ejibi": 3262,
      "▁fè": 3263,
      "▁ẹ̀wù": 3264,
      "tọ̀ọ́": 3265,
      "▁dìgbà": 3266,
      "▁gẹ́": 3267,
      "▁Lefi": 3268,
      "▁ẹlẹ́sìn": 3269,
      "▁àkọ́bí": 3270,
      "ther": 3271,
      "▁lọ̀": 3272,
      "▁ṣú": 3273,
      "ọmọ": 3274,
      "pìwàdà": 3275,
      "▁․": 3276,
      "▁ìjòyè": 3277,
      ",tí": 3278,
      "▁kìn": 3279,
      "▁ìkìlọ̀": 3280,
      "▁òò": 3281,
      "▁Oòrùn": 3282,
      "▁olówó": 3283,
      "álẹ̀": 3284,
      "fíṣọ̀n": 3285,
      "▁òfuurufú": 3286,
      "▁mímọ̀": 3287,
      "▁àníyàn": 3288,
      "▁pò": 3289,
      "▁kíláàsì": 3290,
      "dàájọ́": 3291,
      "abu": 3292,
      "▁Ìgbàgbọ́": 3293,
      "horo": 3294,
      "mọn": 3295,
      "ómì": 3296,
      "▁Mẹ́": 3297,
      "▁àdá": 3298,
      ":\n": 3299,
      "▁ìṣírí": 3300,
      "▁dò": 3301,
      "▁Su": 3302,
      "▁olùfẹ́": 3303,
      "▁gbàgbọ́": 3304,
      "ve": 3305,
      "▁ṣe\n": 3306,
      "▁kíyèsĩ,": 3307,
      "jinlẹ̀": 3308,
      "▁“O": 3309,
      "▁ìyàn": 3310,
      "▁ìni": 3311,
      "▁agbá": 3312,
      "▁lohun": 3313,
      "▁aláìmọ́": 3314,
      "▁sìgá": 3315,
      "▁ìpì": 3316,
      "jàánu": 3317,
      "▁ìgbèkùn": 3318,
      "sisì": 3319,
      "▁òkèèrè": 3320,
      "▁ìrọ̀": 3321,
      "▁ọ́,": 3322,
      "▁àìpẹ́": 3323,
      "▁Ààrẹ": 3324,
      "▁yĩ": 3325,
      "inu": 3326,
      "▁BÍ": 3327,
      "ínì": 3328,
      "▁Ṣà": 3329,
      "is": 3330,
      "▁aá": 3331,
      "▁lọ́wọ́,": 3332,
      "▁alábàá": 3333,
      "▁àtì": 3334,
      "▁kú,": 3335,
      "▁meje": 3336,
      "▁ìpìlẹ̀": 3337,
      "▁sé": 3338,
      "▁Kẹ́": 3339,
      "▁Jérúsálẹ́mù": 3340,
      "▁fìyà": 3341,
      "▁gígùn": 3342,
      "▁dù": 3343,
      "▁èè": 3344,
      "▁lèyí": 3345,
      "▁lọ́hùn": 3346,
      "mpi": 3347,
      "àbí": 3348,
      "▁ìbátan": 3349,
      "-un": 3350,
      "▁ẹgbẹẹgbẹ̀rún": 3351,
      "▁sójú": 3352,
      "gu": 3353,
      "va": 3354,
      "ÀN": 3355,
      "▁yè": 3356,
      "▁dun": 3357,
      "▁Báyìí": 3358,
      "ary": 3359,
      "son": 3360,
      "▁àṣírí": 3361,
      "▁iyebíye": 3362,
      "▁rẹ̀;": 3363,
      "bẹ̀rẹ̀": 3364,
      "sisìyí": 3365,
      "pú": 3366,
      "gbin": 3367,
      "▁ẹbí": 3368,
      "▁ìbàjẹ́": 3369,
      "▁kóun": 3370,
      "▁aláwọ̀": 3371,
      "▁lòun": 3372,
      "tóbi": 3373,
      "▁rì": 3374,
      "▁ayé,": 3375,
      "▁Pá": 3376,
      "▁ìṣò": 3377,
      "▁Kejì": 3378,
      "▁Ọ̀gá": 3379,
      "▁ogunlọ́gọ̀": 3380,
      "▁sáà": 3381,
      "▁Ikú": 3382,
      "▁aláìsàn": 3383,
      "lẹ̀kùn": 3384,
      "▁tẹlifíṣọ̀n": 3385,
      "pinnu": 3386,
      "▁láwùjọ": 3387,
      "▁ẹgbàá": 3388,
      "bẹ̀wò": 3389,
      "▁gẹ́gẹ́bí": 3390,
      "beli": 3391,
      "▁mọ́.\n": 3392,
      "▁Pet": 3393,
      "ẹ́dẹ́": 3394,
      "▁lówó": 3395,
      "▁Bé": 3396,
      "▁ìṣẹ́jú": 3397,
      "▁àtọ": 3398,
      "níkà": 3399,
      "▁ṣàkó": 3400,
      "▁ó,": 3401,
      "▁nira": 3402,
      "▁34": 3403,
      "▁ewúrẹ́": 3404,
      "▁arìnrìn": 3405,
      "lẹ́nu": 3406,
      "▁àtọ̀": 3407,
      "▁yo": 3408,
      "lákà": 3409,
      "▁Kíyè": 3410,
      "àrà": 3411,
      "▁kíá": 3412,
      "wèé": 3413,
      "ǹlà": 3414,
      "▁ọ̀mọ̀wé": 3415,
      "▁wá\n": 3416,
      "▁gúúsù": 3417,
      "▁epo": 3418,
      "ńbà": 3419,
      "▁Àbí": 3420,
      "déhùn": 3421,
      "▁àìmọ́": 3422,
      "LẸ̀": 3423,
      "ọnu": 3424,
      "▁Àǹfààní": 3425,
      "▁ìdára": 3426,
      "▁Go": 3427,
      "ld": 3428,
      "▁Éjíbítì": 3429,
      "▁Léfì": 3430,
      "▁mi.": 3431,
      "▁lulẹ̀": 3432,
      "nã": 3433,
      "ẹẹsẹ": 3434,
      "▁jáde,": 3435,
      "▁Láwọn": 3436,
      "rd": 3437,
      "▁àrò": 3438,
      "▁Ọ̀gbẹ́ni": 3439,
      "sẹẹsẹ": 3440,
      "▁Jékọ́bù": 3441,
      "▁193": 3442,
      "▁léwu": 3443,
      "▁Pí": 3444,
      "▁ajé": 3445,
      "kẹ́tẹ́": 3446,
      "▁olóye": 3447,
      "▁ńláǹlà": 3448,
      "sọtẹ́lẹ̀": 3449,
      "▁Jeho": 3450,
      "áráò": 3451,
      "▁Arábìnrin": 3452,
      "pútà": 3453,
      "▁ìgbọ̀n": 3454,
      "▁irúgbìn": 3455,
      "wárí": 3456,
      "▁Yẹ": 3457,
      "gẹ̀": 3458,
      "▁198": 3459,
      "▁Láìsí": 3460,
      "▁àdúgbò": 3461,
      "▁ìdárayá": 3462,
      "AN": 3463,
      "▁Lójú": 3464,
      "▁nítorítí": 3465,
      "▁egun": 3466,
      "▁Fáráò": 3467,
      "▁kàkà": 3468,
      "▁oorun": 3469,
      "▁ẹyọ": 3470,
      "▁ìwọ̀nba": 3471,
      "▁pé\n": 3472,
      "▁ìgbéraga": 3473,
      "tẹ́kẹ́tẹ́": 3474,
      "▁Ńlá": 3475,
      "turu": 3476,
      ".’\n": 3477,
      "▁Abra": 3478,
      "▁lápá": 3479,
      "▁rí,": 3480,
      "▁dé,": 3481,
      "▁jáì": 3482,
      "▁oníwà": 3483,
      "▁ìró": 3484,
      "▁Tuntun": 3485,
      "ṣàkóso": 3486,
      "▁ọ̀sìn": 3487,
      "▁wà,": 3488,
      "bẹ̀rù": 3489,
      "bájọ": 3490,
      "▁Lọ́wọ́": 3491,
      "▁Lédè": 3492,
      "Ìwọ": 3493,
      "ǹpútà": 3494,
      "wọ́gbà": 3495,
      "▁35": 3496,
      "▁láìka": 3497,
      "▁ìparí": 3498,
      "bọ̀rìṣà": 3499,
      "ani,": 3500,
      "▁igbe": 3501,
      "▁Abi": 3502,
      "▁Ṣá": 3503,
      "kin": 3504,
      "dindi": 3505,
      "jọ̀gbọ́n": 3506,
      "▁ògbó": 3507,
      "▁gbọ́,": 3508,
      "▁alákòóso": 3509,
      "▁àtẹ̀": 3510,
      "▁Lí": 3511,
      "▁dídá": 3512,
      "▁37": 3513,
      "▁Síwájú": 3514,
      "▁Èkó": 3515,
      "!\n": 3516,
      "▁ṣojú": 3517,
      "▁yọ́": 3518,
      "▁ìdẹ": 3519,
      "▁Àpilẹ̀kọ": 3520,
      "ork": 3521,
      "▁látìgbà": 3522,
      "áàlú": 3523,
      "▁Àkókò": 3524,
      "▁ibùgbé": 3525,
      "▁tinú": 3526,
      "▁òwe": 3527,
      "inú": 3528,
      "▁ẹ̀tàn": 3529,
      "▁olè": 3530,
      "▁ọlọ": 3531,
      "▁dìí": 3532,
      "▁ejò": 3533,
      "▁mẹ́sàn": 3534,
      "▁tìrẹ": 3535,
      "▁fíì": 3536,
      "ena": 3537,
      "mẹ̀": 3538,
      "ÚN": 3539,
      "▁lã": 3540,
      "▁Ri": 3541,
      "▁yípadà": 3542,
      "▁un,": 3543,
      "gbẹ̀yìn": 3544,
      "▁Solo": 3545,
      "líádì": 3546,
      "\t\t": 3547,
      "▁olóò": 3548,
      "▁nà": 3549,
      "▁sí,": 3550,
      "ero": 3551,
      "kọ̀ọ́kọ́": 3552,
      "▁yanturu": 3553,
      "yò": 3554,
      "para": 3555,
      "pan": 3556,
      "▁bani": 3557,
      "▁gorí": 3558,
      "▁ebi": 3559,
      "▁tóo": 3560,
      "▁ṣèwádìí": 3561,
      "▁kẹ́tẹ́kẹ́tẹ́": 3562,
      "▁gbilẹ̀": 3563,
      "▁bèèrè": 3564,
      "ńtí": 3565,
      "balẹ̀": 3566,
      "▁pípẹ́": 3567,
      "▁bìkítà": 3568,
      "▁àwò": 3569,
      "▁dákẹ́": 3570,
      "hẹ́": 3571,
      "▁kẹ́yìn": 3572,
      "▁Ẹ̀rí": 3573,
      "▁keje": 3574,
      "▁ẹ̀ẹ́dẹ́": 3575,
      "rugẹ": 3576,
      "▁Ìdílé": 3577,
      "tọkànwá": 3578,
      "▁rọ́pò": 3579,
      "wer": 3580,
      "▁Mu": 3581,
      "▁ríran": 3582,
      "▁gbajú": 3583,
      "ṣòwò": 3584,
      "sh": 3585,
      "▁awa": 3586,
      "▁akọ̀wé": 3587,
      "▁197": 3588,
      "▁àgbá": 3589,
      "▁àṣeyọrí": 3590,
      "▁ọnà": 3591,
      "▁sípàdé": 3592,
      "▁Oluwa": 3593,
      "▁kọ̀ǹpútà": 3594,
      "▁tọ̀nà": 3595,
      "▁Ọwọ́": 3596,
      "▁York": 3597,
      "▁Ejibiti": 3598,
      "RÍ": 3599,
      "túmọ̀": 3600,
      "▁egungun": 3601,
      "UN": 3602,
      "▁Ọ́": 3603,
      "▁Lu": 3604,
      "▁lẹ́gbẹ̀ẹ́": 3605,
      "kátà": 3606,
      "▁wí,": 3607,
      "▁ìdánilójú": 3608,
      "▁Z": 3609,
      "▁tìtorí": 3610,
      "▁nã,": 3611,
      "▁ibojì": 3612,
      "bójútó": 3613,
      "ǹtì": 3614,
      "▁adi": 3615,
      "▁iléèwé": 3616,
      "▁ìtìjú": 3617,
      "rẹ́rẹ́": 3618,
      "▁Gílíádì": 3619,
      "▁Lónìí": 3620,
      "ṣọ̀kan": 3621,
      "▁ọpọlọpọ": 3622,
      "▁aráàlú": 3623,
      "▁ṣàníyàn": 3624,
      "▁kára": 3625,
      "▁nígbàgbọ́": 3626,
      "gbàáyé": 3627,
      "gbèésí": 3628,
      "?”": 3629,
      "ble": 3630,
      "▁ìrẹ̀": 3631,
      "▁hu": 3632,
      "▁ẹ̀bi": 3633,
      "ọ́nú": 3634,
      "▁Àgbà": 3635,
      "▁and": 3636,
      "dínlọ́gọ́": 3637,
      "▁ìjẹ́": 3638,
      "▁òsì": 3639,
      "▁“Kí": 3640,
      "▁Ìròyìn": 3641,
      "▁Kírí": 3642,
      "úrẹ́dì": 3643,
      "▁ẹ̀kún": 3644,
      "▁wádìí": 3645,
      "▁arakunrin": 3646,
      "▁àgà": 3647,
      "▁níhìn": 3648,
      "▁Abájọ": 3649,
      "▁Ábí": 3650,
      "jijì": 3651,
      "mpili": 3652,
      "▁ọ̀wọ́": 3653,
      "▁Ísá": 3654,
      "▁ìnira": 3655,
      "▁nígbèésí": 3656,
      "▁awọ": 3657,
      "▁gbéṣẹ́": 3658,
      "▁gbèsè": 3659,
      "▁kín": 3660,
      "▁oníṣẹ́": 3661,
      "▁àìlera": 3662,
      "▁Láìpẹ́": 3663,
      "▁dìídì": 3664,
      "▁Bọ́": 3665,
      "síbẹ̀": 3666,
      "kẹ́gbẹ́": 3667,
      "▁sán": 3668,
      "▁níjàánu": 3669,
      "▁ìdè": 3670,
      "▁Ho": 3671,
      "luku": 3672,
      "ilẹ̀ṣẹ̀": 3673,
      "▁ìrú": 3674,
      "▁àwọn\n": 3675,
      "oríko": 3676,
      "▁Pà": 3677,
      "▁pẹ̀lú,": 3678,
      "▁mẹ́ẹ̀ẹ́dógún": 3679,
      "kín": 3680,
      "▁àgbò": 3681,
      "▁Náà": 3682,
      "▁gbéra": 3683,
      "▁tàbi": 3684,
      "▁kàwé": 3685,
      "▁ìfaradà": 3686,
      "▁síta": 3687,
      "▁bíbá": 3688,
      "▁Ìṣòro": 3689,
      "▁Rán": 3690,
      "▁bàjẹ́": 3691,
      "▁tán,": 3692,
      "man": 3693,
      "▁àkọ": 3694,
      "▁ẹkún": 3695,
      "▁ọ̀kọ̀ọ̀kan": 3696,
      "▁fèrè": 3697,
      "▁alára": 3698,
      "▁ńláńlá": 3699,
      "ṣàrò": 3700,
      "▁ààyè": 3701,
      "gọ": 3702,
      "pí": 3703,
      "▁akéde": 3704,
      "▁sígbà": 3705,
      "▁ẹ̀bẹ̀": 3706,
      "▁wa\n": 3707,
      "▁lọ́lá": 3708,
      "kòkò": 3709,
      "▁aláyọ̀": 3710,
      "▁Rọ́": 3711,
      "▁fẹsẹ̀": 3712,
      "ver": 3713,
      "▁orísun": 3714,
      "gbẹ̀ta": 3715,
      "▁gbìn": 3716,
      "▁àtọmọ": 3717,
      "▁làá": 3718,
      "▁ẹlẹ́rìí": 3719,
      "ánà": 3720,
      "▁mọ́\n": 3721,
      "▁hí": 3722,
      "▁mọ̀ọ́": 3723,
      "▁tẹ́nì": 3724,
      "ànìyàn": 3725,
      "▁Omi": 3726,
      "▁mímọ́,": 3727,
      "▁John": 3728,
      "▁ẹ̀san": 3729,
      "▁Gbọ́": 3730,
      "gẹli": 3731,
      "▁yìí\n": 3732,
      "iṣẹ́": 3733,
      "yĩ": 3734,
      "èfè": 3735,
      "▁ẹwà": 3736,
      "▁Ìtàn": 3737,
      "▁ààbọ̀": 3738,
      "▁gómìnà": 3739,
      "▁lágbègbè": 3740,
      "dínláàá": 3741,
      "▁ìríra": 3742,
      "▁àkàrà": 3743,
      "▁Ayọ̀": 3744,
      "▁tọrọ": 3745,
      "▁nyín": 3746,
      "▁lárugẹ": 3747,
      "ul": 3748,
      "órùn": 3749,
      "▁Ko": 3750,
      "ona": 3751,
      "listi": 3752,
      "èfèrí": 3753,
      "▁olùgbé": 3754,
      "▁ráyè": 3755,
      "▁aago": 3756,
      "▁□": 3757,
      "▁òdò": 3758,
      "▁TÍ": 3759,
      "▁lójúfò": 3760,
      "▁ọ̀dọ́mọ": 3761,
      "▁báni": 3762,
      "▁nígbàtí": 3763,
      "▁ẹ̀jẹ́": 3764,
      "jọsìn": 3765,
      "▁onírẹ̀lẹ̀": 3766,
      "▁Filisti": 3767,
      "nìún": 3768,
      "▁mí,": 3769,
      "▁Ṣó": 3770,
      "▁ọ̀dọ́kùnrin": 3771,
      "▁kùnà": 3772,
      "▁mọ́lé": 3773,
      "▁oníṣòwò": 3774,
      "▁kin": 3775,
      "▁ààlà": 3776,
      "▁lọ.": 3777,
      "ṣágà": 3778,
      "▁Aaroni": 3779,
      "▁láìní": 3780,
      "▁batisí": 3781,
      "▁tipasẹ̀": 3782,
      "▁oriṣa": 3783,
      "tch": 3784,
      "▁oyè": 3785,
      "▁wẹ̀": 3786,
      "líà": 3787,
      "ṣiṣẹ́": 3788,
      "▁tẹrí": 3789,
      "▁ìsinsìnyí": 3790,
      "díẹ̀": 3791,
      "▁ìdajì": 3792,
      "▁Rọ́ṣíà": 3793,
      "ríjì": 3794,
      "▁Kírísítì": 3795,
      "▁rọra": 3796,
      "▁kẹrin": 3797,
      "▁Ìyá": 3798,
      "▁196": 3799,
      "▁ìṣèlú": 3800,
      "▁arúgbó": 3801,
      "▁Rá": 3802,
      "▁ìkàn": 3803,
      "▁lápapọ̀": 3804,
      "úùtù": 3805,
      "▁mó": 3806,
      "lẹ́bí": 3807,
      "▁tààrà": 3808,
      "▁ìyókù": 3809,
      "-a": 3810,
      "▁Gan": 3811,
      "▁Dó": 3812,
      "▁lọ́pọ̀lọpọ̀": 3813,
      "álì": 3814,
      "▁Tàbí": 3815,
      "▁sunkún": 3816,
      "ban": 3817,
      "▁●": 3818,
      "▁níbí": 3819,
      "▁ṣàánú": 3820,
      "▁ládùúgbò": 3821,
      "▁náà.": 3822,
      "tàrí": 3823,
      "▁onínú": 3824,
      "káyà": 3825,
      "hùwà": 3826,
      "▁Rúùtù": 3827,
      "▁jàǹbá": 3828,
      "▁ìtẹ́wọ́gbà": 3829,
      "▁Ẹ́kí": 3830,
      "▁panṣágà": 3831,
      "▁Ijipti": 3832,
      "pọn": 3833,
      "▁ìtẹ́lọ́rùn": 3834,
      "▁ìgbọ̀nwọ́": 3835,
      "-ọ̀": 3836,
      "▁nídè": 3837,
      "▁ojoojúmọ́": 3838,
      "lea": 3839,
      "▁Lóde": 3840,
      "ton": 3841,
      "▁búrẹ́dì": 3842,
      "rís": 3843,
      "▁òrù": 3844,
      "▁àádọ́rin": 3845,
      "▁ìgbẹ́kẹ̀lé": 3846,
      "▁fèsì": 3847,
      "▁nlá": 3848,
      "▁Ar": 3849,
      "tọ́jú": 3850,
      "sẹfu": 3851,
      "▁gbòòrò": 3852,
      "▁ṣàìsàn": 3853,
      "▁àyẹ̀wò": 3854,
      "▁lérò": 3855,
      "▁ìjíròrò": 3856,
      "▁àfonífojì": 3857,
      "▁Ọgbọ́n": 3858,
      "▁Ìrántí": 3859,
      "-an": 3860,
      "▁mi;": 3861,
      "▁Tọ́": 3862,
      "kòrí": 3863,
      "tútù": 3864,
      "láàánú": 3865,
      "▁ṣàn": 3866,
      "ṣègùn": 3867,
      "▁ìṣòtítọ́": 3868,
      "nes": 3869,
      "ṣu": 3870,
      "▁abo": 3871,
      "▁ṣeyebíye": 3872,
      "nia": 3873,
      "▁parun": 3874,
      "▁lẹ́mìí": 3875,
      "▁dópin": 3876,
      "▁àdéhùn": 3877,
      "▁lógo": 3878,
      "▁fòpin": 3879,
      "▁ìtura": 3880,
      "▁ìrẹ́": 3881,
      "tin": 3882,
      "▁gbo": 3883,
      "▁sábẹ́": 3884,
      "▁ìjìyà": 3885,
      "▁wọn;": 3886,
      "▁tálákà": 3887,
      "▁kọkàn": 3888,
      "▁mọ̀lẹ́bí": 3889,
      "sẹ̀yìn": 3890,
      "▁àjàkálẹ̀": 3891,
      "▁ṣàṣeyọrí": 3892,
      "▁àṣàrò": 3893,
      "▁lãrín": 3894,
      "▁ọpẹ́": 3895,
      "▁kíkà": 3896,
      "tì,": 3897,
      "▁ìrọ̀lẹ́": 3898,
      "▁Am": 3899,
      "gbóná": 3900,
      "▁ìrísí": 3901,
      "▁lóyún": 3902,
      "▁ìdì": 3903,
      "dọ́gbọ̀n": 3904,
      "▁bùkátà": 3905,
      "hu": 3906,
      "ànù": 3907,
      "▁ÌW": 3908,
      "sárì": 3909,
      "▁Ẹnikẹ́ni": 3910,
      "dínlọ́gbọ̀n": 3911,
      "▁Farao": 3912,
      "▁adití": 3913,
      "▁oyin": 3914,
      "▁lọ́dọọdún": 3915,
      "ọ́ọ̀bù": 3916,
      "▁Bóyá": 3917,
      "▁fìgbà": 3918,
      "áàdì": 3919,
      "▁jíjìn": 3920,
      "ràrí": 3921,
      "▁wọ̀nyí,": 3922,
      "▁Josẹfu": 3923,
      "▁Apá": 3924,
      "▁Hese": 3925,
      "ok": 3926,
      "▁oun": 3927,
      "▁gbójú": 3928,
      "lẹ́ń": 3929,
      "▁Gba": 3930,
      "▁ìṣọ́": 3931,
      "▁ìbú": 3932,
      "▁Ìyà": 3933,
      "▁lẹ́tọ̀ọ́": 3934,
      "▁dénú": 3935,
      "▁ìkórè": 3936,
      "▁mẹta": 3937,
      "▁“Bí": 3938,
      "▁Abraha": 3939,
      "fara": 3940,
      "▁nítumọ̀": 3941,
      "▁tórúkọ": 3942,
      "▁Ìbéèrè": 3943,
      "▁há": 3944,
      "▁Ẹ̀ka": 3945,
      "▁Sep": 3946,
      "▁agbé": 3947,
      "▁Adé": 3948,
      "kẹ́lẹ́": 3949,
      "▁Nai": 3950,
      "▁Bra": 3951,
      "▁Ètò": 3952,
      "i)": 3953,
      "ábù": 3954,
      "▁èkejì": 3955,
      "▁Kọ": 3956,
      "JÚ": 3957,
      "ẹ̀rẹ̀": 3958,
      "▁idẹ": 3959,
      "▁Ìsìn": 3960,
      "▁lẹ́hìn": 3961,
      "ati": 3962,
      "lósè": 3963,
      "▁jẹ,": 3964,
      "▁Kólósè": 3965,
      "▁Solomoni": 3966,
      "▁mọ́ni": 3967,
      "▁Ísírẹ́lì\n": 3968,
      "▁àgbàlá": 3969,
      "▁ìṣàpẹẹrẹ": 3970,
      "▁ìgbọ́": 3971,
      "▁Kìí": 3972,
      "ínà": 3973,
      "símímọ́": 3974,
      "▁ewì": 3975,
      "▁àto": 3976,
      "▁wa.\n": 3977,
      "tùtù": 3978,
      "▁Òǹ": 3979,
      "fóònù": 3980,
      "▁lágbàáyé": 3981,
      "▁Krís": 3982,
      "▁ẹlẹ́wọ̀n": 3983,
      "▁kìnnìún": 3984,
      "▁fipá": 3985,
      "▁kíkọ": 3986,
      "▁Sun": 3987,
      "▁Gó": 3988,
      "▁aṣojú": 3989,
      "tori": 3990,
      "▁fẹ́ẹ́": 3991,
      "▁Isa": 3992,
      "tani": 3993,
      "▁Ben": 3994,
      "▁táwa": 3995,
      "▁yín.": 3996,
      "▁ìtú": 3997,
      "▁aṣálẹ̀": 3998,
      "▁kúkúrú": 3999,
      "▁gbẹ̀mí": 4000,
      "ty": 4001,
      "ṣòótọ́": 4002,
      "▁jẹ́wọ́": 4003,
      "▁ìdáríjì": 4004,
      "▁níbẹ̀rẹ̀": 4005,
      "▁Rẹ̀\n": 4006,
      "▁tùràrí": 4007,
      "pọ́n": 4008,
      "▁koríko": 4009,
      "▁ìsá": 4010,
      "▁ìlẹ̀kùn": 4011,
      "hari": 4012,
      "▁àkọlé": 4013,
      "▁àmú": 4014,
      "▁ìtò": 4015,
      "▁ọmọn": 4016,
      "▁dọ̀": 4017,
      "▁ìdánwò": 4018,
      "mù,": 4019,
      "kíbi": 4020,
      "wọ̀nyí": 4021,
      "▁ìgbá": 4022,
      "▁ọ̀run,": 4023,
      "▁yọjú": 4024,
      "▁ààrẹ": 4025,
      "▁àfojú": 4026,
      "▁ṣọ̀fọ̀": 4027,
      "a,": 4028,
      "▁wíwá": 4029,
      "ṣua": 4030,
      "ṣekúṣe": 4031,
      "yèméjì": 4032,
      "▁ṣàkóbá": 4033,
      "fikún": 4034,
      "▁dúdú": 4035,
      "▁gbẹ̀san": 4036,
      "su": 4037,
      "míì": 4038,
      "▁pàà": 4039,
      "▁onísáàmù": 4040,
      "bodè": 4041,
      "▁Japan": 4042,
      "▁ìlọ́": 4043,
      "▁Ìlà": 4044,
      "▁wa.": 4045,
      "▁Mé": 4046,
      "▁pẹ̀lẹ́": 4047,
      "ya,": 4048,
      "▁àpapọ̀": 4049,
      "▁Ìwádìí": 4050,
      "▁Ade": 4051,
      "▁débẹ̀": 4052,
      "dọ́mọ": 4053,
      "▁fídíò": 4054,
      "wuye": 4055,
      "àlúù": 4056,
      "▁àtakò": 4057,
      "▁dún": 4058,
      "▁Ọsi": 4059,
      "▁Ìlànà": 4060,
      "▁Owó": 4061,
      "kigbà": 4062,
      "▁Israẹli.\n": 4063,
      "báni": 4064,
      "▁Rántí": 4065,
      "▁Mát": 4066,
      "▁Oníwàásù": 4067,
      "▁àfiyèsí": 4068,
      "▁Pe": 4069,
      "▁gbajúmọ̀": 4070,
      "▁àdà": 4071,
      "▁níyà": 4072,
      "▁jèrè": 4073,
      "▁Aha": 4074,
      "▁bẹ́ẹ̀,": 4075,
      "▁keji": 4076,
      "dínlógójì": 4077,
      "▁gbóná": 4078,
      "▁òdòdó": 4079,
      "▁ìkànnì": 4080,
      "▁ṣeni": 4081,
      "▁ẹ̀f": 4082,
      "lii": 4083,
      "▁mààlúù": 4084,
      "am": 4085,
      "▁ìfẹ́kú": 4086,
      "▁òṣùpá": 4087,
      "▁àtẹ́": 4088,
      "▁ìbà": 4089,
      "▁Tẹ̀": 4090,
      "▁ṣàṣàrò": 4091,
      "rélíà": 4092,
      "▁Diu": 4093,
      "▁Ọsirélíà": 4094,
      "▁ìrànwọ́": 4095,
      "▁ọ̀là": 4096,
      "▁ṣàǹfààní": 4097,
      "▁Ẹ́sí": 4098,
      "cha": 4099,
      "▁kọjú": 4100,
      "▁àfikún": 4101,
      "-oòrùn": 4102,
      "▁ìjá": 4103,
      "▁Ọlọ́": 4104,
      "▁ẹní": 4105,
      "▁lórúkọ": 4106,
      "▁Òtítọ́": 4107,
      "▁àyàfi": 4108,
      "lọ̀tẹ̀": 4109,
      "unifá": 4110,
      "wì": 4111,
      "▁ọ̀gbẹ́ni": 4112,
      "kòkòrò": 4113,
      "▁Ènìyàn": 4114,
      "▁ìpilẹ̀ṣẹ̀": 4115,
      "▁jẹ̀bi": 4116,
      "mini": 4117,
      "ug": 4118,
      "pata": 4119,
      "▁Iye": 4120,
      "▁gbogbo,": 4121,
      "-ò": 4122,
      "▁amọ̀": 4123,
      "▁Ìlérí": 4124,
      "▁ọmọlú": 4125,
      "▁lòpọ̀": 4126,
      "lélọ́gọ́": 4127,
      "▁Táwọn": 4128,
      "▁ìrẹ̀wẹ̀sì": 4129,
      "▁–": 4130,
      "▁gbe": 4131,
      "risí": 4132,
      "àájú": 4133,
      "▁ṣàpẹẹrẹ": 4134,
      "▁pupa": 4135,
      "bọ́ọ̀lù": 4136,
      "▁wẹ": 4137,
      "▁“Ṣ": 4138,
      "▁:\n": 4139,
      "▁Ipa": 4140,
      "▁àkóso": 4141,
      "▁ṣọ̀tẹ̀": 4142,
      "unifásítì": 4143,
      "▁du": 4144,
      "▁Mẹ́sí": 4145,
      "▁eé": 4146,
      ",000)": 4147,
      "▁Mẹ́síkò": 4148,
      "mes": 4149,
      "▁Dani": 4150,
      "dédé": 4151,
      "lẹbẹ": 4152,
      "▁Farisí": 4153,
      "ríyìn": 4154,
      "iní": 4155,
      "▁Ṣọ́ọ̀ṣì": 4156,
      "▁olùjọsìn": 4157,
      "jagun": 4158,
      "vid": 4159,
      "cto": 4160,
      "ẹsẹ̀": 4161,
      "▁lẹni": 4162,
      "▁gbọ̀n": 4163,
      "▁Tún": 4164,
      "▁Olúwa,": 4165,
      "péènì": 4166,
      "tọwọ́": 4167,
      "▁dójú": 4168,
      "▁Káná": 4169,
      "▁Sípéènì": 4170,
      "▁Wòlíì": 4171,
      "cy": 4172,
      "▁múni": 4173,
      "rai": 4174,
      "▁rẹ̀wẹ̀sì": 4175,
      "▁ẹ̀gàn": 4176,
      "▁Ìmọ̀ràn": 4177,
      "▁ìwú": 4178,
      "▁Bible": 4179,
      "ṣùgbọ́n": 4180,
      "ọ̀rún": 4181,
      "▁40": 4182,
      "▁ọ̀fọ̀": 4183,
      "▁San": 4184,
      "▁gbígbà": 4185,
      "dura": 4186,
      "▁bọlá": 4187,
      "▁Kánádà": 4188,
      "▁àsẹ̀yìn": 4189,
      "▁pó": 4190,
      "▁sí\n": 4191,
      "▁léra": 4192,
      "▁pẹlẹbẹ": 4193,
      "▁ìṣègùn": 4194,
      "▁er": 4195,
      "▁àjẹ": 4196,
      "▁òtò": 4197,
      "lẹyìn": 4198,
      "▁ìdẹwò": 4199,
      "▁ìbò": 4200,
      "▁ọlọ̀tẹ̀": 4201,
      "▁Àsọtẹ́lẹ̀": 4202,
      "òhò": 4203,
      "▁1914": 4204,
      "ire": 4205,
      " ‘": 4206,
      "▁níye": 4207,
      "ìnà": 4208,
      "▁ìpo": 4209,
      "▁Nebu": 4210,
      "ege": 4211,
      "▁níṣẹ́": 4212,
      "▁pẹ̀lú\n": 4213,
      "▁wí\n": 4214,
      "rì,": 4215,
      "▁báa": 4216,
      "▁Ibo": 4217,
      "▁ṢE": 4218,
      "▁Fẹ́": 4219,
      "résì": 4220,
      "hábù": 4221,
      "▁Tẹsa": 4222,
      "▁ìfẹ́kúfẹ̀ẹ́": 4223,
      "▁àbùkù": 4224,
      "▁“Ọ": 4225,
      "ÌN": 4226,
      "▁ìkẹ": 4227,
      "▁iyì": 4228,
      "▁láá": 4229,
      "▁Àdúrà": 4230,
      "lukú": 4231,
      "▁ìdúróṣinṣin": 4232,
      "▁àtọmọdọ́mọ": 4233,
      "▁ariwo": 4234,
      "tíà": 4235,
      "▁lẹ́ni": 4236,
      "▁Aṣ": 4237,
      "ẹ́ẹ̀lì": 4238,
      "lẹ́sẹẹsẹ": 4239,
      "yo": 4240,
      "▁ìnà": 4241,
      "▁péjọ": 4242,
      "▁ẹgbẹ": 4243,
      "guntan": 4244,
      "bùú": 4245,
      "▁Buhari": 4246,
      "▁alaa": 4247,
      "léra": 4248,
      "jùmọ̀": 4249,
      "▁Kìíní": 4250,
      "▁Oúnjẹ": 4251,
      "▁go": 4252,
      "▁ṣàtúnṣe": 4253,
      "▁ìlọ́po": 4254,
      "▁202": 4255,
      "▁Díẹ̀": 4256,
      "èdì": 4257,
      "▁l'": 4258,
      "ṣẹ̀ẹ́": 4259,
      "▁ìpínrọ̀": 4260,
      "▁fíìmù": 4261,
      "dán": 4262,
      "▁TÓ": 4263,
      "▁pé,\n": 4264,
      "▁Watch": 4265,
      "▁gbẹ́kẹ̀lé": 4266,
      "▁sọ̀rọ̀,": 4267,
      "▁Mọ": 4268,
      "nì,": 4269,
      "▁ẹnití": 4270,
      "▁agba": 4271,
      "▁gbájú": 4272,
      "▁Níbi": 4273,
      "▁(1": 4274,
      "▁Látìgbà": 4275,
      "▁fìtí": 4276,
      "bàámu": 4277,
      "▁ahoro": 4278,
      "▁títóbi": 4279,
      "ráyà": 4280,
      "▁ìyàsímímọ́": 4281,
      "sódù": 4282,
      "▁tóótun": 4283,
      "ia": 4284,
      "zil": 4285,
      "▁re": 4286,
      "▁Ìtumọ̀": 4287,
      "fọ́jú": 4288,
      "▁Ẹ́kísódù": 4289,
      "úrò": 4290,
      "lẹ̀\n": 4291,
      "▁ọ̀gb": 4292,
      "res": 4293,
      "▁láìjẹ́": 4294,
      "▁àkàwé": 4295,
      "▁níláti": 4296,
      "▁ilẹ̀kùn": 4297,
      "!”\n": 4298,
      "LÌ": 4299,
      "▁ìkù": 4300,
      "▁Rárá": 4301,
      "▁ìré": 4302,
      "▁tìkára": 4303,
      "TI": 4304,
      "▁ọ̀fẹ́": 4305,
      "tálì": 4306,
      "úùfù": 4307,
      "ust": 4308,
      "▁Tẹsaló": 4309,
      ",kí": 4310,
      "hin": 4311,
      "▁nkan": 4312,
      "▁àbójútó": 4313,
      "▁àkòrí": 4314,
      "▁nísinsin": 4315,
      "▁ìwẹ̀": 4316,
      "▁Ẹnu": 4317,
      "ts": 4318,
      "yán": 4319,
      "▁àmu": 4320,
      "▁Kọ́ni": 4321,
      "taró": 4322,
      "▁lae": 4323,
      "▁38": 4324,
      "BÉ": 4325,
      "rọ̀ọ̀rún": 4326,
      "▁yíká": 4327,
      "▁bíbí": 4328,
      "▁Ìmọ̀": 4329,
      "▁ṣàdédé": 4330,
      "▁bàtà": 4331,
      "lélọ́gbọ̀n": 4332,
      "▁Tẹsalóníkà": 4333,
      "▁ọ̀ṣọ́": 4334,
      "▁ẹ̀ṣọ́": 4335,
      "▁gẹ́lẹ́": 4336,
      "▁agbábọ́ọ̀lù": 4337,
      "▁Dókítà": 4338,
      "-ọn": 4339,
      "mọ̀nà": 4340,
      "▁apẹ̀": 4341,
      "▁òtútù": 4342,
      "▁“A": 4343,
      "sia": 4344,
      "ràádọ́ta": 4345,
      "▁ap": 4346,
      "▁ọ̀rá": 4347,
      "▁wá.\n": 4348,
      "▁àpáàdì": 4349,
      "▁sẹ́wọ̀n": 4350,
      "nilé": 4351,
      "▁“Èmi": 4352,
      "▁kóra": 4353,
      "▁Sm": 4354,
      "▁omijé": 4355,
      "▁ọgọ́ta": 4356,
      "▁dọ́là": 4357,
      "▁ọrùn": 4358,
      "▁Jẹ": 4359,
      "▁kálẹ̀": 4360,
      "▁Yí": 4361,
      "..": 4362,
      "dánì": 4363,
      "▁Mò": 4364,
      "▁Joṣua": 4365,
      "▁dènà": 4366,
      "▁ẹ̀kúnrẹ́rẹ́": 4367,
      "▁pani": 4368,
      "▁ṣe.\n": 4369,
      "▁ṣàwárí": 4370,
      "▁ṣèpinnu": 4371,
      "jọ̀dún": 4372,
      "▁Sunday": 4373,
      "▁àsè": 4374,
      "▁òjì": 4375,
      "níà": 4376,
      "úre": 4377,
      "▁ìyẹ̀": 4378,
      "▁Éṣíà": 4379,
      "tanú": 4380,
      "▁tẹlifóònù": 4381,
      "-ọ̀fẹ́": 4382,
      "▁jẹ́,": 4383,
      "▁wolii": 4384,
      "▁ìyọnu": 4385,
      "▁gan-an": 4386,
      "▁ìkórìíra": 4387,
      "▁òtòṣì": 4388,
      "nómì": 4389,
      "▁aláàánú": 4390,
      "▁lẹ́wà": 4391,
      "▁jálẹ̀": 4392,
      "▁kẹ́gbẹ́": 4393,
      "▁níbẹ̀,": 4394,
      "▁kẹrìn": 4395,
      "▁ìmúra": 4396,
      "▁Diutaró": 4397,
      "▁Diutarónómì": 4398,
      "ura": 4399,
      "’s": 4400,
      "▁Sara": 4401,
      "li,": 4402,
      "▁angẹli": 4403,
      "▁Títí": 4404,
      "▁Uni": 4405,
      "èmi": 4406,
      "▁gbẹ̀yìn": 4407,
      "lẹ̀kú": 4408,
      "▁ìwo": 4409,
      "jọ́sìn": 4410,
      "▁lílọ": 4411,
      "▁gbóríyìn": 4412,
      "▁dáná": 4413,
      "▁Kérésì": 4414,
      "lẹ̀kúlẹ̀": 4415,
      "▁ní\n": 4416,
      "▁onígbọràn": 4417,
      "▁oníṣègùn": 4418,
      "▁gbígbóná": 4419,
      "bẹ̃": 4420,
      "▁àtè": 4421,
      "yàyà": 4422,
      "▁járí": 4423,
      "wàbí": 4424,
      "tùú": 4425,
      "▁Ọlọrun,": 4426,
      "▁ìrúbọ": 4427,
      "▁ìs": 4428,
      "▁nípò": 4429,
      "▁gà": 4430,
      "búlẹ̀": 4431,
      "▁ogun,": 4432,
      "máríà": 4433,
      "bìlì": 4434,
      "▁Paulu": 4435,
      "GBÀ": 4436,
      "▁Brazil": 4437,
      "▁adájọ́": 4438,
      "▁Jọ́": 4439,
      "yànfẹ́": 4440,
      "kiti": 4441,
      "▁Ronú": 4442,
      "▁tipẹ́": 4443,
      "▁Ìsí": 4444,
      "▁Ìbùkún": 4445,
      "▁Akẹ́kọ̀ọ́": 4446,
      "▁mọ́tò": 4447,
      "▁Pẹ́": 4448,
      "▁atúmọ̀": 4449,
      "▁ṣọ̀kan": 4450,
      "▁Ap": 4451,
      "▁Gíríìsì": 4452,
      "ìwọ": 4453,
      "▁ọ̀tẹ̀": 4454,
      "▁Lọ́pọ̀": 4455,
      "▁nírú": 4456,
      "▁fóònù": 4457,
      "▁Nì": 4458,
      "▁dárúkọ": 4459,
      "▁ìyẹ́": 4460,
      "▁Lákọ̀ọ́kọ́": 4461,
      "▁kẹ́sẹ": 4462,
      "for": 4463,
      "men": 4464,
      "▁àtọkànwá": 4465,
      "▁bojú": 4466,
      "▁odindi": 4467,
      "▁wíwà": 4468,
      "kíẹ́lì": 4469,
      "si,": 4470,
      "▁ètùtù": 4471,
      "▁lóò": 4472,
      "látíà": 4473,
      "▁mẹ́ńbà": 4474,
      "díá": 4475,
      "▁sókè,": 4476,
      "▁mọ́kànlá": 4477,
      "sókè": 4478,
      "pínlẹ̀": 4479,
      "▁fìtílà": 4480,
      "àgbà": 4481,
      "▁yìnyín": 4482,
      "▁nírètí": 4483,
      "▁nísàlẹ̀": 4484,
      "▁ni.\n": 4485,
      "ribi": 4486,
      "▁Do": 4487,
      "▁ìdámẹ́": 4488,
      "▁Íńdíà": 4489,
      "▁ìtòlẹ́sẹẹsẹ": 4490,
      "▁Nebuka": 4491,
      "ṣugbọn": 4492,
      "▁sọkún": 4493,
      "▁Af": 4494,
      "▁Ọ̀rẹ́": 4495,
      "▁Ítálì": 4496,
      "▁Édẹ́": 4497,
      "▁sunwọ̀n": 4498,
      "▁Gálátíà": 4499,
      "▁ṣòfò": 4500,
      "▁fún\n": 4501,
      "▁sílẹ̀\n": 4502,
      "bàge": 4503,
      "▁pípéye": 4504,
      "▁mẹ́rìnlá": 4505,
      "▁afọ́jú": 4506,
      "▁AP": 4507,
      "▁Ísákì": 4508,
      "▁fọ̀": 4509,
      "▁ibòmíràn": 4510,
      "▁dànù": 4511,
      "▁Ṣọ́ọ̀lù": 4512,
      "▁Wí": 4513,
      "▁kúlẹ̀kúlẹ̀": 4514,
      "rékọjá": 4515,
      "▁àìṣe": 4516,
      "▁tẹmpili": 4517,
      "▁gbèjà": 4518,
      "▁wẹ́wẹ́": 4519,
      ").\n": 4520,
      "áyà": 4521,
      "▁àká": 4522,
      "tayọ̀": 4523,
      "▁Ọ̀ràn": 4524,
      "▁dìde,": 4525,
      "▁ìtà": 4526,
      "▁gbọ̀ngàn": 4527,
      "▁ọ̀gbìn": 4528,
      "gbogbo": 4529,
      "ril": 4530,
      "▁pata": 4531,
      "kélì": 4532,
      "▁ọmọlúwàbí": 4533,
      "▁ìm": 4534,
      "▁ẹyin": 4535,
      "▁kíkó": 4536,
      "▁oríṣi": 4537,
      "▁erù": 4538,
      "▁Édẹ́nì": 4539,
      "tinú": 4540,
      "▁ẹ̀yí": 4541,
      "▁káwa": 4542,
      "▁nítorínã": 4543,
      "▁Hẹ́": 4544,
      "▁àìlẹ́": 4545,
      "▁Olùdarí": 4546,
      "▁àfojúsùn": 4547,
      "▁ìkọ": 4548,
      "▁aṣẹ́": 4549,
      "▁Kèfèrí": 4550,
      "▁léè": 4551,
      "▁ṣàkíyèsí": 4552,
      "▁Láfikún": 4553,
      "yọ̀tayọ̀": 4554,
      "▁Gómìnà": 4555,
      "▁lèèyàn": 4556,
      "waju": 4557,
      "jókòó": 4558,
      "ǹgbò": 4559,
      "▁ètè": 4560,
      "▁òwò": 4561,
      "▁lẹ́jọ́": 4562,
      "▁ilẹ̀,": 4563,
      "▁eyín": 4564,
      "▁kọsẹ̀": 4565,
      "▁aláìlẹ́": 4566,
      "▁gbáko": 4567,
      "▁àtọ̀run": 4568,
      "▁jẹ́ẹ́": 4569,
      "▁Àkọsílẹ̀": 4570,
      "▁Téèyàn": 4571,
      "▁wò,": 4572,
      "▁ọlọgbọ́n": 4573,
      "▁lálẹ́": 4574,
      "▁onídàájọ́": 4575,
      "▁rẹ́rìn": 4576,
      "▁erùpẹ̀": 4577,
      "▁ìkòkò": 4578,
      "▁ogbó": 4579,
      "▁fúngbà": 4580,
      "▁gbédè": 4581,
      "▁Ru": 4582,
      "▁ìfò": 4583,
      "▁Béèrè": 4584,
      "▁té": 4585,
      "léláàá": 4586,
      "▁tábìlì": 4587,
      "gbéyẹ̀wò": 4588,
      "dọ́rin": 4589,
      "▁olùrànlọ́wọ́": 4590,
      "luj": 4591,
      "▁Kéná": 4592,
      "ámù": 4593,
      "▁nísisìyí": 4594,
      "▁tín": 4595,
      "▁oni": 4596,
      "▁ṣàrà": 4597,
      "▁ológo": 4598,
      "▁àìpé": 4599,
      "▁eniyan,": 4600,
      "▁sẹ": 4601,
      "▁títẹ̀": 4602,
      "▁Tú": 4603,
      "▁mọ́gbọ́n": 4604,
      "▁lẹ́bàá": 4605,
      "▁díẹ̀díẹ̀": 4606,
      "no": 4607,
      "sín": 4608,
      "▁ẹ̀gún": 4609,
      "rinrin": 4610,
      "▁Ísírẹ́lì,": 4611,
      "▁fẹ̀sùn": 4612,
      "▁af": 4613,
      "kọ́kọ́": 4614,
      "▁kọlu": 4615,
      "▁éèdì": 4616,
      "▁Nípasẹ̀": 4617,
      "▁ìdàgbà": 4618,
      "lan": 4619,
      "▁ife": 4620,
      "gboro": 4621,
      "kíá": 4622,
      "jiyàn": 4623,
      "▁Jónà": 4624,
      "▁wi": 4625,
      "▁Olùkọ́": 4626,
      "Nítorí": 4627,
      "▁ÌWÉ": 4628,
      "▁àlé": 4629,
      "▁àbù": 4630,
      "▁sọ,": 4631,
      "▁ìyọ́nú": 4632,
      "▁ẹnu-": 4633,
      "ọ́dún": 4634,
      "▁adé": 4635,
      "▁sídìí": 4636,
      "tọ̀ọ́sí": 4637,
      "▁sáyé": 4638,
      "▁192": 4639,
      "▁Míkà": 4640,
      "tẹ̀ẹ̀": 4641,
      "▁ṣètì": 4642,
      "▁36": 4643,
      "▁ìmọrírì": 4644,
      "▁Àlù": 4645,
      "bínú": 4646,
      "▁mẹ́rẹ̀": 4647,
      "ren": 4648,
      "▁Lákòókò": 4649,
      "jẹ̀ẹ́": 4650,
      "▁tuni": 4651,
      "fia": 4652,
      "▁rédíò": 4653,
      "▁“Mo": 4654,
      "▁níṣọ̀kan": 4655,
      "▁lóru": 4656,
      "yéfì": 4657,
      "▁lọ́kùnrin": 4658,
      "▁tọ́mọ": 4659,
      "bert": 4660,
      "ṣìíríṣìí": 4661,
      "bàgebè": 4662,
      "▁Kénáánì": 4663,
      "sọ́": 4664,
      "▁ajá": 4665,
      "▁ala": 4666,
      "▁Níbẹ̀": 4667,
      "▁ronúpìwàdà": 4668,
      "▁Èlíṣà": 4669,
      "▁mọ̀ọ́mọ̀": 4670,
      "tẹ̀ẹ̀ta": 4671,
      "clo": 4672,
      "ìkejì": 4673,
      "▁Àgùntàn": 4674,
      "▁pariwo": 4675,
      "▁egbò": 4676,
      "▁wíwàásù": 4677,
      "▁oníwàásù": 4678,
      "▁láàmú": 4679,
      "▁pọ́": 4680,
      "▁Ama": 4681,
      "▁Wàá": 4682,
      "▁Pu": 4683,
      "▁mutí": 4684,
      "▁run,": 4685,
      "▁wúwo": 4686,
      "▁Juda,": 4687,
      "▁sáàárín": 4688,
      "ọ̀sẹ̀": 4689,
      "▁Man": 4690,
      "▁lẹ́gbẹ́": 4691,
      "▁Juu": 4692,
      "▁àyípadà": 4693,
      "▁ìnàjú": 4694,
      "▁ìmí": 4695,
      "▁fani": 4696,
      "▁fẹnu": 4697,
      "▁oró": 4698,
      "▁Àwòrán": 4699,
      "yìnbó": 4700,
      "▁bẹ̀rẹ̀sí": 4701,
      "▁Sárà": 4702,
      "ham": 4703,
      "▁Jóná": 4704,
      "sọ̀ọ̀sẹ̀": 4705,
      "-n": 4706,
      "▁bílíọ̀nù": 4707,
      "▁wàrà": 4708,
      "▁Moabu": 4709,
      "▁ìmọ̀lára": 4710,
      "▁Bar": 4711,
      "▁Samáríà": 4712,
      "▁gbígba": 4713,
      "▁Màmá": 4714,
      "▁lẹ́ẹ̀kọ̀ọ̀kan": 4715,
      "ọnà": 4716,
      "▁Jona": 4717,
      "▁gẹ": 4718,
      "▁rẹ.": 4719,
      "▁Ibẹ̀": 4720,
      "▁lẹ́rù": 4721,
      "▁Gbí": 4722,
      "▁mẹ́tẹ̀ẹ̀ta": 4723,
      "▁Jerusalẹmu,": 4724,
      "tìn": 4725,
      "▁ak": 4726,
      "▁wọ́n.\n": 4727,
      "▁ẹ̀yẹ": 4728,
      "▁ká,": 4729,
      "▁Sì": 4730,
      "rorò": 4731,
      "▁àárẹ̀": 4732,
      "▁ọlọ́kàn": 4733,
      "▁Nàí": 4734,
      "▁Geor": 4735,
      "▁Peteru": 4736,
      "▁kan\n": 4737,
      "▁gá": 4738,
      "ọ́ọ̀tì": 4739,
      "▁Cha": 4740,
      "▁Májẹ̀mú": 4741,
      "▁Síbẹ̀síbẹ̀": 4742,
      "dọ́nì": 4743,
      "gẹ́dọ́nì": 4744,
      "▁làwa": 4745,
      "▁jọ,": 4746,
      "▁Samu": 4747,
      "▁ìbọn": 4748,
      "ẹ̀rin": 4749,
      "▁Ọkọ": 4750,
      "▁lómìnira": 4751,
      "▁ee": 4752,
      "▁Olórí": 4753,
      "▁eléyìí": 4754,
      "▁Ìsíkíẹ́lì": 4755,
      "▁bọ́ọ̀lù": 4756,
      "kọ́sì": 4757,
      "▁ṣèbẹ̀wò": 4758,
      "▁Aláṣẹ": 4759,
      "▁níbàámu": 4760,
      "▁kété": 4761,
      "tember": 4762,
      "parapọ̀": 4763,
      "▁ọ̀kọ̀": 4764,
      "mùú": 4765,
      "▁Báwọn": 4766,
      "gbẹ́yọ̀": 4767,
      "▁Kọ́r": 4768,
      "▁ọmọnìkejì": 4769,
      "▁ọ̀làwọ́": 4770,
      "▁ọgbẹ́": 4771,
      "▁“È": 4772,
      "▁eyi": 4773,
      "▁Nehe": 4774,
      "mòye": 4775,
      "▁September": 4776,
      "▁àìlẹ́tọ̀ọ́sí": 4777,
      "nọ́": 4778,
      "▁tó,": 4779,
      "▁igun": 4780,
      "▁igbá": 4781,
      "▁Àṣe": 4782,
      "▁Gúúsù": 4783,
      "▁àgbààgbà": 4784,
      "▁Aláyọ̀": 4785,
      "▁Fífi": 4786,
      "▁Ìdáhùn": 4787,
      "▁àtohun": 4788,
      "▁gbédègbẹ́yọ̀": 4789,
      "IN": 4790,
      "Ta": 4791,
      "▁adá": 4792,
      "run-un": 4793,
      "▁“Ìwọ": 4794,
      "▁“ ‘": 4795,
      "▁Àgọ́": 4796,
      "▁un.\n": 4797,
      "▁mẹ́tàlá": 4798,
      "▁àyànfẹ́": 4799,
      "▁Agbára": 4800,
      "▁ìṣẹ́gun": 4801,
      "▁mẹ́rẹ̀ẹ̀rin": 4802,
      "ste": 4803,
      "▁tóní": 4804,
      "▁Asi": 4805,
      "▁yẹ̀yẹ́": 4806,
      "▁Vi": 4807,
      "▁ṣàìgbọràn": 4808,
      "▁Naiji": 4809,
      "▁on": 4810,
      "▁“W": 4811,
      "▁Amá": 4812,
      "▁Te": 4813,
      "▁palẹ̀": 4814,
      "▁Pi": 4815,
      "▁sálọ": 4816,
      "▁aláìgbàgbọ́": 4817,
      "▁mẹ́ẹ̀ẹ́dọ́gbọ̀n": 4818,
      "▁Jọ́dánì": 4819,
      "▁àjọ̀dún": 4820,
      "▁ṣọ": 4821,
      "▁lóbìnrin": 4822,
      "▁Àpé": 4823,
      "yìndà": 4824,
      "ronú": 4825,
      "▁ṣíṣà": 4826,
      "▁Móábù": 4827,
      "▁mẹ́rìndínlógún": 4828,
      "▁Pàtàkì": 4829,
      "▁léraléra": 4830,
      "fẹ̀": 4831,
      "▁súre": 4832,
      "▁agb": 4833,
      "▁ayọ́": 4834,
      "▁MÁ": 4835,
      "▁Hi": 4836,
      "kẹsẹ̀": 4837,
      "▁Ṣíṣe": 4838,
      "▁òṣùwọ̀n": 4839,
      "▁fihàn": 4840,
      "▁ìpamọ́ra": 4841,
      "▁Gilea": 4842,
      "▁Chris": 4843,
      "▁Nàíjíríà": 4844,
      "▁jú": 4845,
      "▁Wil": 4846,
      "▁ọjọ́un": 4847,
      "▁Fran": 4848,
      "▁ẹ̀fúùfù": 4849,
      "sàájú": 4850,
      "yawo": 4851,
      "loni": 4852,
      "▁Con": 4853,
      "▁aláìlera": 4854,
      "▁ìkọ̀kọ̀": 4855,
      "▁ã": 4856,
      "kohun": 4857,
      "▁ọgọ́rọ̀ọ̀rún": 4858,
      "▁dùbúlẹ̀": 4859,
      "▁tààràtà": 4860,
      "né": 4861,
      "um": 4862,
      "ńgó": 4863,
      "▁oyún": 4864,
      "▁Aug": 4865,
      "síríà": 4866,
      "▁léèrè": 4867,
      "▁Báálì": 4868,
      "rínwó": 4869,
      "▁ìdálẹ́kọ̀ọ́": 4870,
      "▁dẹ́kun": 4871,
      "▁Àlùfáà": 4872,
      "▁ìh": 4873,
      "▁pọkàn": 4874,
      "▁tójú": 4875,
      "kọ́lé": 4876,
      "▁Láyé": 4877,
      "bẹ́lì": 4878,
      "▁60": 4879,
      "▁kíyèsí": 4880,
      "̩n": 4881,
      "▁ago": 4882,
      "▁kíkan": 4883,
      "▁kàyéfì": 4884,
      "▁àfọwọ́": 4885,
      "▁ibodè": 4886,
      "▁ìyẹ̀fun": 4887,
      "▁Naijiria": 4888,
      "▁aṣe": 4889,
      "▁ọfà": 4890,
      "▁lójijì": 4891,
      "▁ẹ̀tanú": 4892,
      "▁Ẹsẹ": 4893,
      "▁alátakò": 4894,
      "▁Yín": 4895,
      "▁El": 4896,
      "hòòhò": 4897,
      "▁Ìgbésí": 4898,
      "ali": 4899,
      "▁aguntan": 4900,
      "▁Jọ": 4901,
      "▁Ol": 4902,
      "▁gbéjà": 4903,
      "▁ṣẹ̀dá": 4904,
      "ṣòdodo": 4905,
      "lẹ́ńkẹ́": 4906,
      "jèrè": 4907,
      "ọnù": 4908,
      "▁Kena": 4909,
      "▁Ṣè": 4910,
      "▁nǹkankan": 4911,
      "kàrà": 4912,
      "▁ọ̀pọ̀tọ́": 4913,
      "fíì": 4914,
      "▁kànga": 4915,
      "▁kánrin": 4916,
      "▁aṣẹ́wó": 4917,
      "che": 4918,
      "▁àtún": 4919,
      "▁èdì": 4920,
      "▁mítà": 4921,
      "là,": 4922,
      "▁bẹ̀bẹ̀": 4923,
      "don": 4924,
      "▁Ẹ̀rù": 4925,
      "▁juwọ́": 4926,
      "▁ìfọkàn": 4927,
      "kánjú": 4928,
      "▁bí\n": 4929,
      "▁Dúró": 4930,
      "▁ṣèwà": 4931,
      "▁olùdarí": 4932,
      "▁Soci": 4933,
      "▁òpópó": 4934,
      "▁jiyàn": 4935,
      ")\n": 4936,
      "▁kálukú": 4937,
      "▁bẹ̀ẹ̀": 4938,
      "▁Amágẹ́dọ́nì": 4939,
      "pamọ́": 4940,
      "esa": 4941,
      "▁kẹtà": 4942,
      "▁ìkóra": 4943,
      "▁mẹ́tàdínlógún": 4944,
      "▁Abrahamu": 4945,
      "▁April": 4946,
      "▁iyọ̀": 4947,
      "▁ọdẹ": 4948,
      "▁Bro": 4949,
      "▁Àá": 4950,
      "▁payá": 4951,
      "den": 4952,
      "▁Ipò": 4953,
      "gọ́gù": 4954,
      "▁ìwọ̀nyí": 4955,
      "▁níléèwé": 4956,
      "bàámọ̀": 4957,
      "dìn": 4958,
      "▁sílùú": 4959,
      "▁Ọlọ́run.\n": 4960,
      "▁44": 4961,
      "▁Bẹ̃": 4962,
      "▁Nehemáyà": 4963,
      ",nítorí": 4964,
      "▁kun": 4965,
      "▁fó": 4966,
      "▁ẹgbẹ̀": 4967,
      "▁Ámó": 4968,
      "▁sóde": 4969,
      "▁Gíga": 4970,
      "▁márùn-ún": 4971,
      "Ọ́N": 4972,
      "▁gbèrò": 4973,
      "▁dòní": 4974,
      "▁kíákíá": 4975,
      "bala": 4976,
      "▁kọ́wọ́": 4977,
      "▁tẹ́tẹ́": 4978,
      "▁Babi": 4979,
      "▁ewéko": 4980,
      "lujára": 4981,
      "rg": 4982,
      "▁tíí": 4983,
      "▁dẹ̀": 4984,
      "▁kóo": 4985,
      "▁lọ́wọ́\n": 4986,
      "▁àjọyọ̀": 4987,
      "jamini": 4988,
      "▁ibùsùn": 4989,
      "gbàlà": 4990,
      "▁“K": 4991,
      "▁ìfẹ́ni": 4992,
      "▁méjìdínlógún": 4993,
      "▁Babeli": 4994,
      "▁púpọ̀,": 4995,
      "▁Násì": 4996,
      "▁fínra": 4997,
      "hí": 4998,
      "▁ìka": 4999,
      "▁jò": 5000,
      "▁Ìparapọ̀": 5001,
      "▁yìí.\n": 5002,
      "▁kórè": 5003,
      "▁aládé": 5004,
      "▁tẹ̀síwájú": 5005,
      "letò": 5006,
      "▁lọ́mọdé": 5007,
      "▁ẹnu-ọ̀nà": 5008,
      "ásì": 5009,
      "▁hó": 5010,
      "▁ṣán": 5011,
      "▁gẹ̀": 5012,
      "▁sowọ́": 5013,
      "▁ènìyàn\n": 5014,
      "leki": 5015,
      "▁karùn": 5016,
      "▁tako": 5017,
      "▁Filistini": 5018,
      "▁ìsádi": 5019,
      "mon": 5020,
      "lágà": 5021,
      "làlà": 5022,
      "▁bàbà": 5023,
      "▁OLUWA.\n": 5024,
      "-i": 5025,
      "▁ìké": 5026,
      "▁ìbọ̀rìṣà": 5027,
      "yànjiyàn": 5028,
      "▁rírẹ": 5029,
      "▁wíwo": 5030,
      "▁padà,": 5031,
      "ania": 5032,
      "▁gbòde": 5033,
      "-è": 5034,
      "mè": 5035,
      "lùfẹ́": 5036,
      "▁pẹ̀tẹ́lẹ̀": 5037,
      "▁Yá": 5038,
      "▁ààrùn": 5039,
      "▁kánjú": 5040,
      "▁èdìdì": 5041,
      "▁fiyè": 5042,
      "▁kòtò": 5043,
      "▁kábàámọ̀": 5044,
      "▁àìtọ́": 5045,
      "▁45": 5046,
      "kiwà": 5047,
      "ety": 5048,
      "▁ìhá": 5049,
      "▁ọ̀jọ̀gbọ́n": 5050,
      "▁Ìrékọjá": 5051,
      "jìká": 5052,
      "▁Dé": 5053,
      "▁kẹ́lẹ́": 5054,
      "▁pupọ": 5055,
      "▁ìlé": 5056,
      "▁ọ\n": 5057,
      "▁Kẹ": 5058,
      "rúgbìn": 5059,
      "lódé": 5060,
      "bọn": 5061,
      "▁ají": 5062,
      "wọ̀nsì": 5063,
      "▁ààrin": 5064,
      "▁ìfọ̀rọ̀": 5065,
      "▁fòfin": 5066,
      "),": 5067,
      "per": 5068,
      "ǹtí": 5069,
      "gbàa": 5070,
      "▁Bri": 5071,
      "▁lori": 5072,
      "fiyèsí": 5073,
      "▁tọ́rọ̀": 5074,
      "▁mejee": 5075,
      "▁àgàgà": 5076,
      "▁ìná": 5077,
      "▁ohunkohun": 5078,
      "▁Phi": 5079,
      "▁tìẹ": 5080,
      "▁Maria": 5081,
      "▁jagunjagun": 5082,
      "▁àràádọ́ta": 5083,
      "iná": 5084,
      "▁ẹkùn": 5085,
      "kíkan": 5086,
      "kẹ̀rẹ̀": 5087,
      "▁Látinú": 5088,
      "mùúṣẹ": 5089,
      "gbùn": 5090,
      "▁mẹ̀": 5091,
      "▁Lon": 5092,
      "▁oríkì": 5093,
      "▁42": 5094,
      "tóní": 5095,
      "▁bọ́rọ̀": 5096,
      "▁Dece": 5097,
      "▁oore-ọ̀fẹ́": 5098,
      "▁ìdàgbàsókè": 5099,
      "ṣan": 5100,
      "▁ibí": 5101,
      "▁ọjọ": 5102,
      "▁Àbá": 5103,
      "▁Rus": 5104,
      "len": 5105,
      "▁Hó": 5106,
      "▁Árónì": 5107,
      "daka": 5108,
      "▁fàlàlà": 5109,
      "▁àjàgà": 5110,
      "▁gbòǹgbò": 5111,
      "▁Ency": 5112,
      "ọ́dúnrún": 5113,
      "▁December": 5114,
      "▁Encyclo": 5115,
      "élì": 5116,
      "▁látorí": 5117,
      "ra,": 5118,
      "▁Ìbá": 5119,
      "▁Asa": 5120,
      "▁ṣíwájú": 5121,
      "▁Onírúurú": 5122,
      "▁Rẹ\n": 5123,
      "▁Krístì": 5124,
      "pu": 5125,
      "▁sọnù": 5126,
      "▁ìjẹ": 5127,
      "▁ni.": 5128,
      "▁Ṣa": 5129,
      "▁pàgọ́": 5130,
      "▁kúrò,": 5131,
      "jẹmu": 5132,
      "bòsí": 5133,
      "▁Énọ́": 5134,
      "dómù": 5135,
      "▁Jose": 5136,
      "ṣèré": 5137,
      "▁Gálí": 5138,
      "▁góńgó": 5139,
      "ue": 5140,
      "ǹdè": 5141,
      "▁yani": 5142,
      "▁wọ́n\n": 5143,
      "▁Tinu": 5144,
      "▁nítorípé": 5145,
      "▁Áá": 5146,
      "gídí": 5147,
      "mún": 5148,
      "▁Alà": 5149,
      "▁gì": 5150,
      "íná": 5151,
      "▁gbọ́ràn": 5152,
      "▁tutù": 5153,
      "▁fẹ̀mí": 5154,
      "mínì": 5155,
      "▁nímùúṣẹ": 5156,
      "▁sí.\n": 5157,
      "▁rírí": 5158,
      "▁Ste": 5159,
      "▁ṣèṣekúṣe": 5160,
      "▁àárin": 5161,
      "▁ìsìnkú": 5162,
      "▁réré": 5163,
      "kọ́nilẹ́kọ̀ọ́": 5164,
      "▁Mẹ́ta": 5165,
      "tẹnu": 5166,
      "▁sè": 5167,
      "▁idi": 5168,
      "▁gbọ́rọ̀": 5169,
      "▁darúgbó": 5170,
      "▁rékọjá": 5171,
      "sinsinyi": 5172,
      "▁Society": 5173,
      "▁Àkọ́kọ́": 5174,
      "▁Ìkún": 5175,
      "▁lọ́kọ": 5176,
      "▁Mana": 5177,
      "▁míràn": 5178,
      "▁jíjà": 5179,
      "túnwọ̀nsì": 5180,
      "▁Onídàájọ́": 5181,
      "▁tinútinú": 5182,
      "tùn": 5183,
      "ṣọ́ọ̀bù": 5184,
      "▁láre": 5185,
      "▁á,": 5186,
      "korò": 5187,
      "▁nwọn.\n": 5188,
      "▁àṣekára": 5189,
      "-lé": 5190,
      "iah": 5191,
      "ze": 5192,
      "▁sẹ́ẹ̀lì": 5193,
      "▁ìkan": 5194,
      "▁Awọn": 5195,
      "▁Lọ́ọ̀tì": 5196,
      "níjà": 5197,
      "▁Gé": 5198,
      "kúrò": 5199,
      "▁Kíró": 5200,
      "▁Fe": 5201,
      "▁ṣèdájọ́": 5202,
      "▁Lásá": 5203,
      "▁mẹrin": 5204,
      "▁Jùdíà": 5205,
      "▁ọ̀dọ́mọkùnrin": 5206,
      "▁Àlàáfíà": 5207,
      "▁olólùfẹ́": 5208,
      "rìrì": 5209,
      "▁kúnjú": 5210,
      "▁May": 5211,
      "▁Láìka": 5212,
      "kitiyan": 5213,
      "▁Nebukadin": 5214,
      "▁Lásárù": 5215,
      "can": 5216,
      "▁ayélujára": 5217,
      "▁àárọ̀": 5218,
      "lyn": 5219,
      "▁apẹ̀yìndà": 5220,
      "▁ayọ́kẹ́lẹ́": 5221,
      "▁Tinubu": 5222,
      "▁Q": 5223,
      "▁pin": 5224,
      "▁òórùn": 5225,
      "▁ṣàgbéyẹ̀wò": 5226,
      "▁Òkú": 5227,
      "▁39": 5228,
      "▁Ẹ̀yìn": 5229,
      "▁ọlọ́wọ̀": 5230,
      "▁sanwó": 5231,
      "▁ọ̀gágun": 5232,
      "▁òdìkejì": 5233,
      "▁Gálílì": 5234,
      "une": 5235,
      "▁síi": 5236,
      "▁1,": 5237,
      "▁Ọ̀mọ̀wé": 5238,
      "▁délẹ̀": 5239,
      "pèsè": 5240,
      "▁ìtẹ̀síwájú": 5241,
      "▁alaafia": 5242,
      "▁mejeeji": 5243,
      "▁Àrí": 5244,
      "▁papọ̀": 5245,
      "▁Ọ̀jọ̀gbọ́n": 5246,
      "▁Edo": 5247,
      "mas": 5248,
      "▁Seka": 5249,
      "jìnnì": 5250,
      "▁fọgbọ́n": 5251,
      "lífì": 5252,
      "▁akọni": 5253,
      "ǹgbà": 5254,
      "▁ìrun": 5255,
      "▁Sta": 5256,
      "▁oníṣ": 5257,
      "▁pọ̀,": 5258,
      "▁fọ́tò": 5259,
      "▁purọ́": 5260,
      "▁Pẹ́ńtí": 5261,
      "▁ìlò": 5262,
      "▁yán": 5263,
      "▁péye": 5264,
      "▁mi.”\n": 5265,
      "▁Odò": 5266,
      "kànlé": 5267,
      "fẹ́tì": 5268,
      "jẹrẹ": 5269,
      "▁fadaka": 5270,
      "boa": 5271,
      "▁ọlọ́lá": 5272,
      "▁Ọ̀pọ̀lọpọ̀": 5273,
      "▁ọgọ́rin": 5274,
      "▁1999": 5275,
      "▁ìpèsè": 5276,
      "▁alábàákẹ́gbẹ́": 5277,
      "-ọmọ": 5278,
      "SÍ": 5279,
      "fó": 5280,
      "jan": 5281,
      "ol": 5282,
      "uth": 5283,
      "ta,": 5284,
      "▁kinni": 5285,
      "▁APC": 5286,
      "oro": 5287,
      "▁sẹ̀": 5288,
      "▁Àṣà": 5289,
      "▁wàláà": 5290,
      "▁tayọ̀tayọ̀": 5291,
      "▁ìgbádùn": 5292,
      "▁tojú": 5293,
      "▁Ìṣẹ̀": 5294,
      "▁ríi": 5295,
      "árale": 5296,
      "▁wí:": 5297,
      "▁ojútùú": 5298,
      "▁gangan": 5299,
      "rus": 5300,
      "▁sibẹ": 5301,
      "ṣòtítọ́": 5302,
      "▁BÍBÉ": 5303,
      "▁àtèyí": 5304,
      "▁BÍBÉLÌ": 5305,
      " ”\n": 5306,
      "▁lóko": 5307,
      "▁ayé\n": 5308,
      "▁Ásíríà": 5309,
      "tótó": 5310,
      "▁jàǹ": 5311,
      "ill": 5312,
      "▁Pẹ́ńtíkọ́sì": 5313,
      "za": 5314,
      "▁yege": 5315,
      "▁Ale": 5316,
      "▁gbéni": 5317,
      "▁oríṣìíríṣìí": 5318,
      "▁Hí": 5319,
      "▁tónítóní": 5320,
      "borí": 5321,
      "lara": 5322,
      "áfì": 5323,
      "ùgbọn": 5324,
      "▁ìsọ̀": 5325,
      "▁tí\n": 5326,
      "▁síná": 5327,
      "▁nitori": 5328,
      "▁òṣèré": 5329,
      "▁wálé": 5330,
      "kàwé": 5331,
      "koko": 5332,
      "káwọ́": 5333,
      "▁kẹfà": 5334,
      "▁ìpalára": 5335,
      "▁ìkógun": 5336,
      "dọmọ": 5337,
      "▁Bẹ̃ni,": 5338,
      "ríko": 5339,
      "▁láyà": 5340,
      "síni": 5341,
      "▁ìṣeré": 5342,
      "▁sílẹ̀.\n": 5343,
      "▁41": 5344,
      "▁Onísáàmù": 5345,
      "chi": 5346,
      "-nlá": 5347,
      "aki": 5348,
      "▁ajẹ́": 5349,
      "▁òpìtàn": 5350,
      "▁ẹgbàa": 5351,
      "▁“L": 5352,
      "▁ayé.\n": 5353,
      "▁jẹjẹrẹ": 5354,
      "▁Hánà": 5355,
      "-ní": 5356,
      "▁kíka": 5357,
      "hìnrere": 5358,
      "▁àsọjáde": 5359,
      "binu": 5360,
      "▁Énọ́kù": 5361,
      "NÚ": 5362,
      "▁látàrí": 5363,
      "inì": 5364,
      "▁jẹ́\n": 5365,
      "▁OH": 5366,
      "látù": 5367,
      "▁2000": 5368,
      "▁ẹlẹ́mìí": 5369,
      "▁Kókó": 5370,
      "▁dórí": 5371,
      "▁ìdánilẹ́kọ̀ọ́": 5372,
      "▁ìmárale": 5373,
      "▁rẹ;": 5374,
      "▁kẹ́gàn": 5375,
      "▁ṣíwọ́": 5376,
      "NI": 5377,
      "fẹ": 5378,
      "ọ̀ọ́": 5379,
      "▁Níkẹyìn": 5380,
      "▁Ai": 5381,
      "▁parọ́": 5382,
      "rona": 5383,
      "jámínì": 5384,
      "▁etíkun": 5385,
      "▁“Nítorí": 5386,
      "▁Pílátù": 5387,
      "▁Aṣáájú": 5388,
      "▁adágún": 5389,
      "▁Jò": 5390,
      "▁ẹ̀wẹ̀": 5391,
      "lọ́kan": 5392,
      "tíré": 5393,
      "▁Gu": 5394,
      "▁àkópọ̀": 5395,
      "▁karí": 5396,
      "▁sini": 5397,
      "▁Náómì": 5398,
      "▁Ìránṣẹ́": 5399,
      "▁òòjọ́": 5400,
      "nilétí": 5401,
      "▁London": 5402,
      "▁lóṣù": 5403,
      "▁àbùdá": 5404,
      "Mo": 5405,
      "win": 5406,
      "▁àwọ̀n": 5407,
      "▁Janu": 5408,
      "▁eku": 5409,
      "▁Gbó": 5410,
      "▁láìfi": 5411,
      "àjò": 5412,
      "▁sís": 5413,
      "lic": 5414,
      "▁Eré": 5415,
      "▁ṣohun": 5416,
      "▁July": 5417,
      "▁nítòótọ́": 5418,
      "▁Àṣejèrè": 5419,
      "▁Asiria": 5420,
      "lẹ̀pìtàn": 5421,
      "lékì": 5422,
      "▁MI": 5423,
      "▁Lẹ": 5424,
      "▁wí.\n": 5425,
      "▁un\n": 5426,
      "▁aláìlá": 5427,
      "fẹ́tìfẹ́": 5428,
      "w.": 5429,
      "wàní": 5430,
      "▁yẹ́": 5431,
      "▁“À": 5432,
      "▁LÁ": 5433,
      "▁ńlá,": 5434,
      "▁David": 5435,
      "lukuluku": 5436,
      "íní": 5437,
      "ers": 5438,
      "di,": 5439,
      "▁yio": 5440,
      "▁òrùlé": 5441,
      "▁ìrékọjá": 5442,
      "▁alágbà": 5443,
      "▁;\n": 5444,
      "▁Ea": 5445,
      "▁Ìjọsìn": 5446,
      "▁ọlọ́dún": 5447,
      "▁ìrònúpìwàdà": 5448,
      "▁ìkọ̀sílẹ̀": 5449,
      "▁fèrèsé": 5450,
      "tíréṣọ̀": 5451,
      "Bí": 5452,
      "▁ọ.\n": 5453,
      "▁kíkẹ́kọ̀ọ́": 5454,
      "nígbà": 5455,
      "▁olóṣèlú": 5456,
      "gbèkùn": 5457,
      "▁ọ̀dọ́bìnrin": 5458,
      "▁Héb": 5459,
      "▁bùkún": 5460,
      "▁àgbélé": 5461,
      "▁ìpolongo": 5462,
      "gh": 5463,
      "ì,": 5464,
      "▁igbọn": 5465,
      "▁lọ́rọ̀": 5466,
      "▁Amo": 5467,
      "▁Tọ": 5468,
      "▁Wor": 5469,
      "ron": 5470,
      "▁àríyànjiyàn": 5471,
      "▁ṣalá": 5472,
      "▁awakọ̀": 5473,
      "▁Manase": 5474,
      "RA": 5475,
      "ńdíá": 5476,
      "▁àwọ": 5477,
      "▁fọn": 5478,
      "▁“G": 5479,
      "▁Àjà": 5480,
      "délẹ̀": 5481,
      "▁jùmọ̀": 5482,
      "gbaa": 5483,
      "rọ́dù": 5484,
      "▁tòun": 5485,
      "▁dẹ́rù": 5486,
      "▁èéfín": 5487,
      "eli,": 5488,
      "ele": 5489,
      "ti-": 5490,
      "▁látọ": 5491,
      "▁mọ́.": 5492,
      "▁lẹ́rú": 5493,
      "▁ìlú-nlá": 5494,
      "logun": 5495,
      "▁aláìkọ": 5496,
      "▁50": 5497,
      "▁ìlà-oòrùn": 5498,
      "▁òjìji": 5499,
      "▁bí?": 5500,
      "▁lẹ́wọ̀n": 5501,
      "▁pé,“": 5502,
      "▁ìlú,": 5503,
      "▁Han": 5504,
      "▁sójà": 5505,
      "▁fòye": 5506,
      "▁Kéènì": 5507,
      "▁síbì": 5508,
      "▁Jọ̀wọ́": 5509,
      "▁ọ̀ọ́dúnrún": 5510,
      "▁“J": 5511,
      "▁Ìyàwó": 5512,
      "kúpa": 5513,
      "▁ọ́\n": 5514,
      "térì": 5515,
      "▁sanra": 5516,
      "▁òǹrorò": 5517,
      "▁Òǹkọ̀wé": 5518,
      "raimu": 5519,
      "▁Àpéjọ": 5520,
      "▁ìrunú": 5521,
      "▁January": 5522,
      "▁adùn": 5523,
      "▁ibinu": 5524,
      "▁Ìwàásù": 5525,
      "▁Octo": 5526,
      "▁Tu": 5527,
      "▁dààmú": 5528,
      "▁ṣèpàdé": 5529,
      "▁dúró,": 5530,
      "keji": 5531,
      "▁ranti": 5532,
      "ṣèwádìí": 5533,
      "▁October": 5534,
      "bogbo": 5535,
      "ríkò": 5536,
      "▁dorí": 5537,
      "▁Ìkẹ́kọ̀ọ́": 5538,
      "oríkọ́": 5539,
      "lákì": 5540,
      "kọ́ṣe": 5541,
      "▁èyíinì": 5542,
      "▁Ọmọbìnrin": 5543,
      "▁yááfì": 5544,
      "▁jalè": 5545,
      "▁ṣamọ̀nà": 5546,
      "▁ooru": 5547,
      "▁Johanu": 5548,
      "▁àdáni": 5549,
      "▁àléé": 5550,
      "wàníhìn": 5551,
      ",ó": 5552,
      "▁Ú": 5553,
      "▁ìgboro": 5554,
      "▁Ìrètí": 5555,
      "nìkàn": 5556,
      "kìtì": 5557,
      "▁rere,": 5558,
      "▁Látìn": 5559,
      "▁Elé": 5560,
      "mìjí": 5561,
      "▁ààtò": 5562,
      "▁OHUN": 5563,
      "▁igbọnwọ": 5564,
      "▁iṣan": 5565,
      "▁látò": 5566,
      "▁dáni": 5567,
      "la,": 5568,
      "ene": 5569,
      "wit": 5570,
      "▁fàá": 5571,
      "▁Né": 5572,
      "▁ojúsàájú": 5573,
      "▁Ísọ̀": 5574,
      "jogún": 5575,
      "▁káàdì": 5576,
      "▁Dafidi,": 5577,
      "▁ibòmíì": 5578,
      "▁Joseph": 5579,
      "▁àlà": 5580,
      "▁àsá": 5581,
      "▁létò": 5582,
      "▁kọ́,": 5583,
      "▁ilé,": 5584,
      "▁Rè": 5585,
      "▁Áhábù": 5586,
      "00)": 5587,
      "▁sọ́wọ́": 5588,
      "▁àpéjọpọ̀": 5589,
      "langba": 5590,
      "▁abọ̀rìṣà": 5591,
      "▁síni": 5592,
      "▁Àrùn": 5593,
      "▁pa,": 5594,
      "sì,": 5595,
      "fini": 5596,
      "▁fífún": 5597,
      "▁Poland": 5598,
      "▁Samuẹli": 5599,
      "-1": 5600,
      "DP": 5601,
      "dan": 5602,
      "▁o,": 5603,
      "▁báyĩ": 5604,
      "▁Nísisìyí": 5605,
      "láyà": 5606,
      "sítá": 5607,
      "kìá": 5608,
      "▁(2": 5609,
      "hànnà": 5610,
      "▁ìmọtara": 5611,
      "▁Yálà": 5612,
      "▁ìnáwó": 5613,
      "mẹ": 5614,
      "tt": 5615,
      "▁i.\n": 5616,
      "▁rẹ̀.”\n": 5617,
      "▁Kú": 5618,
      "▁Ìbẹ̀rù": 5619,
      "▁Tì": 5620,
      "▁ìdọ̀": 5621,
      "▁wọ̀n-ọn": 5622,
      "▁jíjinlẹ̀": 5623,
      "▁omi,": 5624,
      "▁Joabu": 5625,
      "▁Sama": 5626,
      "Ẹ̀yin": 5627,
      "▁Olúkúlùkù": 5628,
      "▁ìfòye": 5629,
      "▁Alàgbà": 5630,
      "▁aláà": 5631,
      "▁lọ́ra": 5632,
      "▁Sc": 5633,
      "▁Ṣáájú": 5634,
      "▁Chi": 5635,
      "▁Gídí": 5636,
      "▁Rẹ̀,": 5637,
      "▁South": 5638,
      "▁tura": 5639,
      "▁ìwòye": 5640,
      "-àgùntàn": 5641,
      "▁rara": 5642,
      "▁iyawo": 5643,
      "▁rẹyìn": 5644,
      "▁kẹjọ": 5645,
      "▁gbígbẹ": 5646,
      "▁March": 5647,
      "▁sinimá": 5648,
      "ògùn": 5649,
      "▁nṣe": 5650,
      "▁níkẹyìn": 5651,
      "▁arọ": 5652,
      "áàkì": 5653,
      "▁KÍ": 5654,
      "▁ge": 5655,
      "▁ìṣù": 5656,
      "▁jọra": 5657,
      "▁ẹlẹ́yà": 5658,
      "kulẹ̀": 5659,
      "bìtì": 5660,
      "▁kánkán": 5661,
      "ity": 5662,
      "▁ṣókí": 5663,
      "▁ìhámọ́ra": 5664,
      "mina": 5665,
      "▁rù": 5666,
      "▁Sé": 5667,
      "▁Sún": 5668,
      "▁GB": 5669,
      "▁Yóo": 5670,
      "sari": 5671,
      "▁Lẹ́nu": 5672,
      "▁Páṣíà": 5673,
      "▁gágá": 5674,
      "gen": 5675,
      "stí": 5676,
      "ùngbùn": 5677,
      "▁gbadura": 5678,
      "▁onígboyà": 5679,
      "▁ìpẹ̀": 5680,
      "▁ṣẹgun": 5681,
      "rea": 5682,
      "▁tòsí": 5683,
      "▁ṣètìlẹ́yìn": 5684,
      "yóò": 5685,
      "▁òyìnbó": 5686,
      "ùngbẹ": 5687,
      "▁Ìwọ̀": 5688,
      "▁Mọ̀": 5689,
      "de,": 5690,
      "▁Ṣi": 5691,
      "▁ìpànìyàn": 5692,
      "▁irú-ọmọ": 5693,
      "▁aṣò": 5694,
      "búté": 5695,
      "▁ìbáni": 5696,
      "▁akọrin": 5697,
      "▁Hesekáyà": 5698,
      "▁Jónátánì": 5699,
      "▁àfọwọ́kọ": 5700,
      "-ẹ": 5701,
      "▁ìgbọràn": 5702,
      "▁ọdun": 5703,
      "▁“S": 5704,
      "▁Oṣù": 5705,
      "▁fẹ́ra": 5706,
      "▁ìṣọ̀": 5707,
      "▁jọjọ": 5708,
      "▁Ẹ̀sìn": 5709,
      "▁kẹ́dùn": 5710,
      "▁bọ̀,": 5711,
      "▁kodò": 5712,
      "▁dúkìá": 5713,
      "▁ọmọdékùnrin": 5714,
      "Ọ́R": 5715,
      "▁Tower": 5716,
      "▁aáwọ̀": 5717,
      "▁ẹ̀ẹ́dẹ́gbẹ̀ta": 5718,
      "▁Nìdí": 5719,
      "▁Sekaráyà": 5720,
      "▁àdí": 5721,
      "▁ìletò": 5722,
      "▁èsì": 5723,
      "▁ègún": 5724,
      "▁June": 5725,
      "▁wà\n": 5726,
      "ba,": 5727,
      "▁Ré": 5728,
      "▁maa": 5729,
      "▁And": 5730,
      "▁ìjímìjí": 5731,
      "à,": 5732,
      "tipẹ́": 5733,
      "▁ẹ̀bá": 5734,
      "▁Àárín": 5735,
      "▁Ìran": 5736,
      "▁gúsù": 5737,
      "▁olójú": 5738,
      "▁tọ́jọ́": 5739,
      "jíá": 5740,
      "pàà": 5741,
      "▁mọ́kàndínlógún": 5742,
      "▁Fílístí": 5743,
      "FÀ": 5744,
      "lin": 5745,
      "▁nnì": 5746,
      "▁àwọ́n": 5747,
      "rísí": 5748,
      "▁tiyín": 5749,
      "▁Jèhófà\n": 5750,
      "▁Ire": 5751,
      "▁Pọ̀": 5752,
      "▁díwọ̀n": 5753,
      "▁olùṣàkóso": 5754,
      "▁ẹnubodè": 5755,
      "▁tọwọ́": 5756,
      "▁Eng": 5757,
      "▁àtìpó": 5758,
      "▁sínágọ́gù": 5759,
      "ÁN": 5760,
      "▁fura": 5761,
      "▁agbe": 5762,
      "▁JẸ́": 5763,
      "▁ọ̀dà": 5764,
      "lélógójì": 5765,
      "yédè": 5766,
      "▁ìṣáájú": 5767,
      "▁wíwàníhìn": 5768,
      "lip": 5769,
      "▁tẹ́ni": 5770,
      "▁rẹ́rẹ́": 5771,
      "▁àsẹ̀yìnbọ̀": 5772,
      "Wọ́n": 5773,
      "kọnà": 5774,
      "’\n": 5775,
      "▁Ọ̀run": 5776,
      "▁Es": 5777,
      "bẹ́lú": 5778,
      "▁ranṣẹ": 5779,
      "▁Mari": 5780,
      "▁dọ́gba": 5781,
      "▁ìdarí": 5782,
      "▁níhìn-ín": 5783,
      "▁ìrẹ́pọ̀": 5784,
      "YÉ": 5785,
      "▁ẹhànnà": 5786,
      "▁Ìjà": 5787,
      "▁alága": 5788,
      "▁Ẹ̀bùn": 5789,
      "▁olùṣòtítọ́": 5790,
      "▁Élí": 5791,
      "▁8\n": 5792,
      "▁Àpótí": 5793,
      "▁gidigidi,": 5794,
      "▁Sólómónì": 5795,
      "▁Wàyí": 5796,
      "▁onínúure": 5797,
      "▁Brook": 5798,
      "mp": 5799,
      "▁ólífì": 5800,
      "▁rí\n": 5801,
      "ṣeé": 5802,
      "▁kọbi": 5803,
      "lia": 5804,
      "▁Yunifásítì": 5805,
      "▁Ef": 5806,
      "▁tìfẹ́tìfẹ́": 5807,
      "▁ògbógi": 5808,
      "▁àgàbàgebè": 5809,
      "od": 5810,
      "▁sọni": 5811,
      "▁ìj": 5812,
      "▁yíjú": 5813,
      "▁City": 5814,
      "kẹta": 5815,
      "pọlọpọ": 5816,
      "▁ribi": 5817,
      "▁2001": 5818,
      "▁gẹ́ẹ́": 5819,
      "▁látòkè": 5820,
      "dani": 5821,
      "han": 5822,
      "lã": 5823,
      "lmà": 5824,
      "▁níṣòro": 5825,
      "▁,\n": 5826,
      "▁lópin": 5827,
      "tọ́mọ̀": 5828,
      "▁ìgbàlódé": 5829,
      "sáré": 5830,
      "▁sẹ́nu": 5831,
      "▁wúńdíá": 5832,
      "▁August": 5833,
      "▁òpópónà": 5834,
      "▁ẹgbàajì": 5835,
      "tọ́mọ̀wà": 5836,
      "lle": 5837,
      "ńpẹ́": 5838,
      "▁mọ̀nà": 5839,
      "▁i\n": 5840,
      "▁ọrun": 5841,
      "▁do": 5842,
      "▁Máná": 5843,
      "▁Ẹjọ́": 5844,
      "▁St": 5845,
      "▁Sin": 5846,
      "▁mímọ": 5847,
      "▁Ṣẹ": 5848,
      "▁ìtẹ̀wé": 5849,
      "▁Jerusalẹmu.\n": 5850,
      "▁yoo": 5851,
      "▁ìgbọ́kànlé": 5852,
      "▁àkájọ": 5853,
      "▁Áárónì": 5854,
      "▁àgbélébùú": 5855,
      "▁nọ́": 5856,
      "▁am": 5857,
      "▁ile": 5858,
      "▁ṣetán": 5859,
      "▁sì\n": 5860,
      "▁lọ́sọ̀ọ̀sẹ̀": 5861,
      "ráẹ́lì": 5862,
      "dọ́gba": 5863,
      "▁Síríà": 5864,
      "jẹ̀lẹ́ńkẹ́": 5865,
      "▁àlùfáà,": 5866,
      "via": 5867,
      "▁ìbàlẹ̀": 5868,
      "▁Afri": 5869,
      "yl": 5870,
      "▁ijó": 5871,
      "▁lọ́sẹ̀": 5872,
      "▁dájọ́": 5873,
      "▁onílé": 5874,
      "▁Ẹ̀ṣẹ̀": 5875,
      "▁olùjọ́sìn": 5876,
      "▁lítíréṣọ̀": 5877,
      "màmà": 5878,
      "▁oníṣọ́ọ̀ṣì": 5879,
      "▁Gídíónì": 5880,
      "yó": 5881,
      "▁àbà": 5882,
      "▁oju": 5883,
      "▁ikùn": 5884,
      "▁nígbàkigbà": 5885,
      "▁lórí,": 5886,
      "▁Òṣèlú": 5887,
      "lemọ́": 5888,
      "▁bàlágà": 5889,
      "▁yàwòrán": 5890,
      "▁yàgò": 5891,
      "mejì": 5892,
      "ọ́lọ́": 5893,
      "▁ọ̀ta": 5894,
      "nìjìnnì": 5895,
      "▁ṣàṣìṣe": 5896,
      "▁dídi": 5897,
      "▁méjì,": 5898,
      "kére": 5899,
      "▁mìíràn,": 5900,
      "kiah": 5901,
      "▁farahàn": 5902,
      "▁láààyè": 5903,
      "▁ìṣesí": 5904,
      "Nígbà": 5905,
      "bóámù": 5906,
      "▁Isaaki": 5907,
      "ńjámínì": 5908,
      "ọ́rì": 5909,
      "ọ̀kàn": 5910,
      "▁ìje": 5911,
      "gbàgbé": 5912,
      "▁“Àwọn": 5913,
      "▁Aṣọ": 5914,
      "▁mọ́rán": 5915,
      "lógun": 5916,
      "▁ìyàlẹ́nu": 5917,
      "▁darapọ̀": 5918,
      "▁ìgbèríko": 5919,
      "ṣọ̀ọ́": 5920,
      "▁Kẹ́kọ̀ọ́": 5921,
      "▁àwọsán": 5922,
      "-án": 5923,
      "òró": 5924,
      "▁áàkì": 5925,
      "▁àga": 5926,
      "▁ìkọ́lé": 5927,
      "rònú": 5928,
      "bia": 5929,
      "▁àkójọ": 5930,
      "▁láàánú": 5931,
      "péré": 5932,
      "▁53": 5933,
      "bu,": 5934,
      "▁ìdámẹ́wàá": 5935,
      "▁ọbẹ̀": 5936,
      "▁Jan": 5937,
      "▁Kéèyàn": 5938,
      "mọ́lemọ́": 5939,
      "▁kú\n": 5940,
      "tọ̀wọ̀": 5941,
      "▁jẹ\n": 5942,
      "▁Òjíṣẹ́": 5943,
      "wọ̀tọ̀wọ̀": 5944,
      "pẹrẹ": 5945,
      "▁ṣọ̀rẹ́": 5946,
      "▁igbagbọ": 5947,
      "▁Mánásè": 5948,
      "wèrè": 5949,
      "údà": 5950,
      "▁abi": 5951,
      "▁Bẹ̀rẹ̀": 5952,
      "▁On": 5953,
      "kàyè": 5954,
      "▁43": 5955,
      "▁Car": 5956,
      "▁ààmì": 5957,
      "▁fìtara": 5958,
      "▁Bẹ́ńjámínì": 5959,
      "▁majẹmu": 5960,
      "▁bárakú": 5961,
      "wuyewuye": 5962,
      "▁Hẹ́rọ́dù": 5963,
      "▁Samaria": 5964,
      "Ọlọ́run": 5965,
      "▁c": 5966,
      "▁ai": 5967,
      "▁àti\n": 5968,
      "▁As": 5969,
      "▁àìṣòótọ́": 5970,
      "▁Síónì": 5971,
      "fáfá": 5972,
      "▁abẹ́rẹ́": 5973,
      "▁àforí": 5974,
      "▁taratara": 5975,
      "▁pérépéré": 5976,
      "▁wípé:": 5977,
      "▁nọ́ọ̀sì": 5978,
      "▁lọ́fẹ̀ẹ́": 5979,
      "▁délé": 5980,
      "mùtí": 5981,
      "sion": 5982,
      "▁ìṣísẹ̀": 5983,
      "▁“Nígbà": 5984,
      "▁òrùka": 5985,
      "DÈ": 5986,
      "ímù": 5987,
      "ǹbù": 5988,
      "▁níwà": 5989,
      "▁akitiyan": 5990,
      "▁ibà": 5991,
      "▁dọ̀rọ̀": 5992,
      "pada": 5993,
      "mọ̀ọ́": 5994,
      "▁ṣiyèméjì": 5995,
      "▁kẹ̀rẹ̀": 5996,
      "▁wúrà,": 5997,
      "▁Brooklyn": 5998,
      ",5": 5999,
      "▁ìgba": 6000,
      "▁ìyànjú": 6001,
      "▁imú": 6002,
      "▁Béèyàn": 6003,
      "parí": 6004,
      "▁oníjẹ̀lẹ́ńkẹ́": 6005,
      "▁ojúkòkòrò": 6006,
      "ràwọ̀": 6007,
      "▁dára,": 6008,
      "▁ìbẹ̀wò": 6009,
      "▁dojúkọ": 6010,
      "fúrá": 6011,
      "▁Ẹ́sítérì": 6012,
      "▁Mẹ́talọ́kan": 6013,
      "▁ìdọ̀tí": 6014,
      "▁Ǹ": 6015,
      "▁Ber": 6016,
      "▁gbogbo\n": 6017,
      "▁Ẹgbẹ̀rún": 6018,
      "kòyédè": 6019,
      "lómù": 6020,
      "rùngbọ̀n": 6021,
      "▁Ògo": 6022,
      "▁ọ̀dọ́langba": 6023,
      "viet": 6024,
      "▁Jíjẹ́": 6025,
      "▁awalẹ̀pìtàn": 6026,
      "▁ìjákulẹ̀": 6027,
      "kérekè": 6028,
      "▁nípàdé": 6029,
      "▁tóbẹ́ẹ̀": 6030,
      "▁Jero": 6031,
      "▁ẹ̀mi": 6032,
      "▁ọmọbinrin": 6033,
      "▁Aya": 6034,
      "▁túú": 6035,
      "▁yíyẹ": 6036,
      "▁fàwọn": 6037,
      "▁ìránnilétí": 6038,
      "▁Olùṣọ́": 6039,
      "▁Olùgbàlà": 6040,
      "▁Ábúsá": 6041,
      "▁Soviet": 6042,
      "▁jowú": 6043,
      "▁wólẹ̀": 6044,
      "▁ìbúra": 6045,
      "▁ìwúkàrà": 6046,
      "▁Ámósì": 6047,
      "▁ìmọ́": 6048,
      "▁gbani": 6049,
      "▁lọ́sàn": 6050,
      "ọ̀nyí": 6051,
      "kòwò": 6052,
      "▁lọ́wọ́.\n": 6053,
      "▁kọ́lé": 6054,
      "▁ọ̀nà,": 6055,
      "▁Fá": 6056,
      "dari": 6057,
      "▁aláìṣòótọ́": 6058,
      "▁Ébẹ́lì": 6059,
      "▁káàtó": 6060,
      "▁tọ̀wọ̀tọ̀wọ̀": 6061,
      "▁Ábúrámù": 6062,
      "mìílò": 6063,
      "▁NÍGBÀ": 6064,
      "▁àròsọ": 6065,
      "▁léèwọ̀": 6066,
      "fan": 6067,
      "▁àwá": 6068,
      "▁owú": 6069,
      "tic": 6070,
      "▁jan": 6071,
      "▁ninú": 6072,
      "▁kíkorò": 6073,
      "▁wáá": 6074,
      "▁ÌGB": 6075,
      "▁Lẹ́ẹ̀": 6076,
      "lóye": 6077,
      "▁Gò": 6078,
      "▁ìṣi": 6079,
      "tòótọ́": 6080,
      "▁Látàrí": 6081,
      "▁Siria": 6082,
      "▁tẹ́ńbẹ́lú": 6083,
      "▁gúnlẹ̀": 6084,
      "tional": 6085,
      "▁Ijipti,": 6086,
      "▁Kíróníkà": 6087,
      "minú": 6088,
      "sínì": 6089,
      "yóo": 6090,
      "▁0": 6091,
      "▁àtọwọ́": 6092,
      "tílẹ́": 6093,
      "▁lọ́rẹ̀ẹ́": 6094,
      "▁íṣe": 6095,
      "▁lẹ́bùn": 6096,
      "▁tẹ́ḿ": 6097,
      "▁Málákì": 6098,
      "▁ìrìnàjò": 6099,
      "▁ìdìbò": 6100,
      "tílẹ́hẹ́": 6101,
      "ed": 6102,
      "▁àsí": 6103,
      "▁ìlọ": 6104,
      "▁ìgò": 6105,
      "▁ańgẹ́lì": 6106,
      "rámù": 6107,
      "▁ṣòwò": 6108,
      "▁ìpèníjà": 6109,
      "boamu": 6110,
      "▁Jòsáyà": 6111,
      "apa": 6112,
      "▁ìbẹ́": 6113,
      "▁níhà": 6114,
      "▁ata": 6115,
      "▁ọdọọdún": 6116,
      "▁ti\n": 6117,
      "▁èbúté": 6118,
      "sítà": 6119,
      "▁ara,": 6120,
      "tọ́ka": 6121,
      "▁kọlù": 6122,
      "▁Tím": 6123,
      "▁kùtù": 6124,
      "▁kọjá,": 6125,
      "▁nã.\n": 6126,
      "▁mẹ́rìnlélógún": 6127,
      ".’ ”\n": 6128,
      "▁Ṣáínà": 6129,
      "▁títẹ̀lé": 6130,
      "▁George": 6131,
      "DÚN": 6132,
      "ọrọ": 6133,
      "▁ìgbì": 6134,
      "▁ìlara": 6135,
      "▁olukuluku": 6136,
      "▁jin": 6137,
      "▁dọ": 6138,
      "▁Àmì": 6139,
      "▁nínú\n": 6140,
      "▁Ìdájọ́": 6141,
      "▁lóríṣiríṣi": 6142,
      "▁òkè,": 6143,
      "hásì": 6144,
      "ted": 6145,
      "▁búburú,": 6146,
      "▁Bẹ́tílẹ́hẹ́": 6147,
      "▁forúkọ": 6148,
      "pedia": 6149,
      "▁(ii)": 6150,
      "▁patapata": 6151,
      "▁Ábúsálómù": 6152,
      "niní": 6153,
      "ńkì": 6154,
      "▁orílé": 6155,
      "▁Álmà": 6156,
      "▁díẹ̀,": 6157,
      "▁55": 6158,
      "▁65": 6159,
      "▁ṣẹ́kù": 6160,
      "▁dọ́gbọ́n": 6161,
      "▁Èéṣe": 6162,
      "ford": 6163,
      "▁rírẹlẹ̀": 6164,
      "ler": 6165,
      "àbọ̀": 6166,
      "▁ayò": 6167,
      "▁rè": 6168,
      "▁ọgọ": 6169,
      "▁ẹ̀tẹ̀": 6170,
      "▁sọ\n": 6171,
      "mọtara": 6172,
      "▁LÓ": 6173,
      "▁erin": 6174,
      "▁nìwọ̀nyí": 6175,
      "kámà": 6176,
      "▁James": 6177,
      "▁Màtá": 6178,
      "▁lílekoko": 6179,
      "▁Fílístínì": 6180,
      "sta": 6181,
      "▁akó": 6182,
      "rúbù": 6183,
      "▁oníròyìn": 6184,
      "▁Ọlọrun.\n": 6185,
      "▁(i)": 6186,
      "▁Kenaani": 6187,
      "fọkàn": 6188,
      "▁lóore": 6189,
      "▁kan.\n": 6190,
      "lìkámà": 6191,
      "▁Ahi": 6192,
      "▁mú,": 6193,
      "▁dáń": 6194,
      "rẹ́sì": 6195,
      "▁FI": 6196,
      "gbòó": 6197,
      "ṣoo": 6198,
      "▁halẹ̀": 6199,
      "meri": 6200,
      "▁rẹ́ni": 6201,
      "▁Kékeré": 6202,
      "▁Eliṣa": 6203,
      "▁ìtúmọ̀": 6204,
      "▁Babiloni": 6205,
      "-èyi": 6206,
      "▁Nebukadiné": 6207,
      "-ọ": 6208,
      "ùrò": 6209,
      "▁ìgbẹ̀yìn": 6210,
      "▁lálejò": 6211,
      "▁ọmọkunrin": 6212,
      "▁lẹ́kùn": 6213,
      "▁èdèkòyédè": 6214,
      "▁ènìyàn.\n": 6215,
      "▁ṣàkọsílẹ̀": 6216,
      "▁pẹ́ẹ́": 6217,
      "▁gaara": 6218,
      "▁nu": 6219,
      "▁ìn": 6220,
      "▁adì": 6221,
      "▁olu": 6222,
      "kúkù": 6223,
      "sáń": 6224,
      "▁níbẹ̀.\n": 6225,
      "sau": 6226,
      "▁ìtìlẹ́yìn": 6227,
      "báà": 6228,
      "▁bọ̀rọ̀": 6229,
      "▁lóró": 6230,
      "nigbàgbé": 6231,
      "▁Kọ̀": 6232,
      "míkà": 6233,
      "▁Dì": 6234,
      "jẹ́ẹ́": 6235,
      "▁ìwàkiwà": 6236,
      "▁èmi,": 6237,
      "▁tayọ": 6238,
      "▁ṣíṣ": 6239,
      "▁46": 6240,
      "▁48": 6241,
      "▁níbẹ̀\n": 6242,
      "▁òkun,": 6243,
      "▁Hábá": 6244,
      "ńbé": 6245,
      "▁ìkéde": 6246,
      "▁igbà": 6247,
      "▁Ìwọ̀n": 6248,
      "▁SỌ": 6249,
      "▁Pùrò": 6250,
      "risi": 6251,
      "▁Ọ̀dọ̀": 6252,
      "▁Ran": 6253,
      "kèé": 6254,
      "▁Ọmọdé": 6255,
      "pẹ̀lú": 6256,
      "moore": 6257,
      "▁yipada": 6258,
      "▁Elija": 6259,
      "▁Willi": 6260,
      "▁Hábákúkù": 6261,
      ",ṣugbọn": 6262,
      "ction": 6263,
      "èṣì": 6264,
      "▁lú": 6265,
      "tilẹ̀": 6266,
      "▁Orin": 6267,
      "▁òun,": 6268,
      "▁kú.\n": 6269,
      "▁gbayì": 6270,
      "▁onítara": 6271,
      "▁FÚN": 6272,
      "▁ìpà": 6273,
      "▁Ámónì": 6274,
      "▁àìrí": 6275,
      "▁fífúnni": 6276,
      "▁wẹ́kú": 6277,
      "▁ọ̀gbọ̀": 6278,
      "▁ìfòyemọ̀": 6279,
      "▁Bẹ́tílẹ́hẹ́mù": 6280,
      "wan": 6281,
      "ọ́wọ́": 6282,
      "ẹ́rẹ́": 6283,
      "▁iyè": 6284,
      "▁iṣẹ": 6285,
      "▁nipa": 6286,
      "▁kíkọ́ni": 6287,
      "▁Ìlera": 6288,
      "bẹ̀tẹ́lẹ̀": 6289,
      "▁lára,": 6290,
      "▁àtààbọ̀": 6291,
      "yọ̀ǹda": 6292,
      "▁níbikíbi": 6293,
      "▁siwaju": 6294,
      "mesì": 6295,
      "pàtàkì": 6296,
      "▁2002": 6297,
      "AR": 6298,
      "▁ọrọ": 6299,
      "▁titun": 6300,
      "▁“Ì": 6301,
      "▁Àfi": 6302,
      "▁Ninu": 6303,
      "▁Ada": 6304,
      "▁Pọ́": 6305,
      "ley": 6306,
      "▁olónìí": 6307,
      "mérì": 6308,
      "▁Nífáì,": 6309,
      "ment": 6310,
      "v)": 6311,
      "ÙN": 6312,
      "ápọn": 6313,
      "ìmọ̀": 6314,
      "▁àlìkámà": 6315,
      "▁ọ̀pẹ": 6316,
      "▁OJÚ": 6317,
      "▁báyìí,": 6318,
      "▁pála": 6319,
      "folú": 6320,
      "▁ẹ̀ẹ̀kan": 6321,
      "▁ribiribi": 6322,
      "▁Pùròtẹ́": 6323,
      "oni,": 6324,
      "álé": 6325,
      "▁jini": 6326,
      "nújẹ́": 6327,
      "lọ́lá": 6328,
      "wọ́pọ̀": 6329,
      "▁A!": 6330,
      "▁Ah": 6331,
      "▁Dà": 6332,
      "▁Dára": 6333,
      "▁olùṣèwádìí": 6334,
      "▁aṣi": 6335,
      "▁àgbàdo": 6336,
      "virus": 6337,
      "lands": 6338,
      "▁agbéraga": 6339,
      "▁aláìkọlà": 6340,
      "▁àdírẹ́sì": 6341,
      "▁àforíjì": 6342,
      "folúṣọ̀n": 6343,
      "▁Pùròtẹ́sítá": 6344,
      "MỌ̀": 6345,
      "OLUWA": 6346,
      "▁mànà": 6347,
      "▁títì": 6348,
      "▁ṣekú": 6349,
      "▁òùngbẹ": 6350,
      "▁Ọpẹ́": 6351,
      "létò": 6352,
      "▁ORÍ": 6353,
      "▁MO": 6354,
      "▁yìí.": 6355,
      "▁Ṣọ́": 6356,
      "kọ̀ròyìn": 6357,
      "▁run.\n": 6358,
      "▁lulẹ̀,": 6359,
      "▁nawọ́": 6360,
      "▁pé:\n": 6361,
      "▁paná": 6362,
      "▁Nove": 6363,
      "▁pópó": 6364,
      "▁World": 6365,
      "▁pálapà": 6366,
      "▁Pùròtẹ́sítáǹtì": 6367,
      "YÌN": 6368,
      "dy": 6369,
      "ọ̀ǹda": 6370,
      "▁nisinsinyi": 6371,
      "▁ọ̀mùtí": 6372,
      "▁ọba.\n": 6373,
      "▁Lábẹ́": 6374,
      "tẹ́gùn": 6375,
      "▁Jord": 6376,
      "▁ẹ̀ẹ̀rùn": 6377,
      "mẹ̀yà": 6378,
      "▁ìmísí": 6379,
      "▁Alex": 6380,
      "báàtì": 6381,
      "▁November": 6382,
      "úpẹ́": 6383,
      "▁ó!": 6384,
      "▁èjìká": 6385,
      "▁bíkò": 6386,
      "békà": 6387,
      "▁lọ́nàkọnà": 6388,
      "▁Éfúrá": 6389,
      "gbòdì": 6390,
      "▁lílé": 6391,
      "▁nwọn;": 6392,
      "▁sẹ́gbẹ̀ẹ́": 6393,
      "▁jìnnìjìnnì": 6394,
      "▁làálàá": 6395,
      "▁láárí": 6396,
      "▁Kérésìmesì": 6397,
      "▁tipẹ́tipẹ́": 6398,
      "▁Rèbékà": 6399,
      "niníṣẹ̀ẹ́": 6400,
      "▁pálapàla": 6401,
      "bra": 6402,
      "ii)": 6403,
      "kara": 6404,
      "ven": 6405,
      "▁sáàmù": 6406,
      "▁lóun": 6407,
      "▁Ìrànlọ́wọ́": 6408,
      "▁lọwọ": 6409,
      "▁fẹ́,": 6410,
      "▁yín;": 6411,
      "▁Ọ̀R": 6412,
      "mùrè": 6413,
      "▁ṣèèṣì": 6414,
      "▁jáde\n": 6415,
      "▁rẹ̀,\n": 6416,
      "▁fìwà": 6417,
      "▁Filí": 6418,
      "▁Léfí": 6419,
      "▁àléébù": 6420,
      "▁wọ̀n-ọn-": 6421,
      "ÌÍ": 6422,
      "ẽdé": 6423,
      "▁yunifásítì": 6424,
      "▁ÀTI": 6425,
      "▁Nífẹ̀ẹ́": 6426,
      "óòlù": 6427,
      "bíà": 6428,
      "▁Alẹ́": 6429,
      "▁SÍ": 6430,
      "▁alágbèé": 6431,
      "fẹ́fẹ́": 6432,
      "▁ẹ̀ṣẹ̀,": 6433,
      "▁bọ́ǹbù": 6434,
      "▁jà,": 6435,
      "▁kejì,": 6436,
      "wísí": 6437,
      "▁fífara": 6438,
      "▁Gbólóhùn": 6439,
      "ánú": 6440,
      "▁ìkún": 6441,
      "▁fú": 6442,
      "▁Ọkọ̀": 6443,
      "▁Àlàyé": 6444,
      "▁lọ́gbà": 6445,
      "▁TI": 6446,
      "▁ìṣìnà": 6447,
      "▁Ámọ́nì": 6448,
      "▁lemọ́lemọ́": 6449,
      "▁pẹrẹ": 6450,
      "geria": 6451,
      "▁Sede": 6452,
      "▁àríyá": 6453,
      "▁nọ́ńbà": 6454,
      "▁àkún": 6455,
      "▁àṣá": 6456,
      "rí,": 6457,
      "▁ọ̀já": 6458,
      "▁ẹ̀dọ̀": 6459,
      "▁ẹ̀gbin": 6460,
      "▁Ìpàdé": 6461,
      "▁Nísinsin": 6462,
      "▁wakọ̀": 6463,
      "▁gbogbo.\n": 6464,
      "▁Wọ̀nyí": 6465,
      "▁mọ̀,": 6466,
      "▁Fọ́": 6467,
      "kùu": 6468,
      "kùú": 6469,
      "wọlé": 6470,
      "fátì": 6471,
      "▁Késárì": 6472,
      "▁akẹ́kọ̀ọ́jinlẹ̀": 6473,
      "▁Reu": 6474,
      "▁ẹ̀ẹ́dẹ́gbẹ̀": 6475,
      "▁Char": 6476,
      "ronavirus": 6477,
      "!”": 6478,
      "im": 6479,
      "▁àbọ̀": 6480,
      "▁ìlù": 6481,
      "▁ban": 6482,
      "▁apo": 6483,
      "▁irínwó": 6484,
      "▁gbéyàwó": 6485,
      "diẹ": 6486,
      "▁Hu": 6487,
      "▁Yan": 6488,
      "mẹ́ta": 6489,
      "dínláàádọ́ta": 6490,
      "▁eérú": 6491,
      "▁William": 6492,
      "gbòdìyàn": 6493,
      "fọwọ́": 6494,
      "▁tun": 6495,
      "▁àná": 6496,
      "▁ìpá": 6497,
      "▁nígbẹ̀yìn": 6498,
      "▁ihà": 6499,
      "▁túbú": 6500,
      "▁Òbí": 6501,
      "▁ìwọ,": 6502,
      "▁àìgbọ́": 6503,
      "▁Baali": 6504,
      "tower": 6505,
      "vin": 6506,
      "▁lákọ̀ọ́kọ́": 6507,
      "▁ìdẹ̀": 6508,
      "lórí": 6509,
      "▁lọ́wọ́lọ́wọ́": 6510,
      "▁ìyọ": 6511,
      "▁olórin": 6512,
      "enn": 6513,
      "▁Àjọṣe": 6514,
      "▁pààrọ̀": 6515,
      "0)": 6516,
      "dẽdé": 6517,
      "▁Ô": 6518,
      "▁awuyewuye": 6519,
      "▁tínú": 6520,
      "ọ́ná": 6521,
      "▁ẹgbaa": 6522,
      "▁ẹfolúṣọ̀n": 6523,
      "▁wá.": 6524,
      "▁wárìrì": 6525,
      "▁dámọ̀ràn": 6526,
      "▁yẹpẹrẹ": 6527,
      "fihàn": 6528,
      "▁Hàn": 6529,
      "kaya": 6530,
      "réré": 6531,
      "kípẹ́": 6532,
      "salo": 6533,
      "▁ṣékélì": 6534,
      "▁ìkókó": 6535,
      "ńbélé": 6536,
      ",àwọn": 6537,
      "ṢẸ́": 6538,
      "▁ọ̀lẹ": 6539,
      "▁lọ́ṣọ̀ọ́": 6540,
      "▁Jéhó": 6541,
      "▁Ṣì": 6542,
      "▁Kíá": 6543,
      "▁ìpele": 6544,
      "▁Efu": 6545,
      "▁olùtọ́jú": 6546,
      "▁ìfẹsẹ̀": 6547,
      "▁yéé": 6548,
      "▁ìṣẹ́niníṣẹ̀ẹ́": 6549,
      "▁lóhùn,": 6550,
      "fútà": 6551,
      "▁olúwarẹ̀": 6552,
      "▁kẹ̀rẹ̀kẹ̀rẹ̀": 6553,
      "bani": 6554,
      "▁ìjókòó": 6555,
      "▁tira": 6556,
      "▁Àfonífojì": 6557,
      "▁Níné": 6558,
      "mọ́ọ́nì": 6559,
      "▁PDP": 6560,
      "▁Áńgẹ́lì": 6561,
      "▁ṣíṣè": 6562,
      "▁Sílẹ̀": 6563,
      "sibẹ": 6564,
      "▁jóná": 6565,
      "▁ìtajà": 6566,
      "▁Nínéfè": 6567,
      "min": 6568,
      "yn": 6569,
      "àwẹ̀": 6570,
      "ǹkà": 6571,
      "▁fini": 6572,
      "▁fún,": 6573,
      "▁Bẹn": 6574,
      "▁“N": 6575,
      "▁ÀP": 6576,
      "▁Ìpa": 6577,
      "dọ̀dọ́": 6578,
      "00,000": 6579,
      "▁Jẹ́fútà": 6580,
      "▁ayaba": 6581,
      "túú": 6582,
      "▁ìṣètò": 6583,
      "▁Super": 6584,
      "▁Jérúsálẹ́mù\n": 6585,
      "▁ọ̀gbun": 6586,
      "▁ìṣirò": 6587,
      "lẹ́ẹ̀": 6588,
      "▁pọ": 6589,
      "ríba": 6590,
      "▁èmí": 6591,
      "▁Nú": 6592,
      "▁Ìpinnu": 6593,
      "batisí": 6594,
      "tàbí": 6595,
      "▁fẹ́rẹ̀": 6596,
      "▁bẹ́ẹ̀.\n": 6597,
      "▁pẹ̀lú.\n": 6598,
      "sẹ̀lẹ̀": 6599,
      "▁Mon": 6600,
      "kúnmí": 6601,
      "org": 6602,
      "▁Kìkì": 6603,
      "▁Philip": 6604,
      "▁ìmọ́tótó": 6605,
      "-ẹ̀": 6606,
      "zer": 6607,
      "▁awò": 6608,
      "▁ọmú": 6609,
      "▁lọ;": 6610,
      "▁rírú": 6611,
      "▁kásẹ̀": 6612,
      "▁gbàrà": 6613,
      "sìnì": 6614,
      "▁ọba\n": 6615,
      "▁Yìí": 6616,
      "▁Eti": 6617,
      "gájíá": 6618,
      "bìnújẹ́": 6619,
      "▁jade": 6620,
      "▁Júdá": 6621,
      "▁régé": 6622,
      "▁Feb": 6623,
      "▁túútúú": 6624,
      "▁àbẹ̀tẹ́lẹ̀": 6625,
      "▁ìwọ́": 6626,
      "▁nígbèkùn": 6627,
      "▁amí": 6628,
      "▁ẹ̀rín": 6629,
      "hónú": 6630,
      "▁á.\n": 6631,
      "dìẹ̀": 6632,
      "kùtù": 6633,
      "▁ìdákẹ́kọ̀ọ́": 6634,
      "jòló": 6635,
      "▁pẹ́kípẹ́": 6636,
      "▁ibẹ̀,": 6637,
      "▁tọ̀sán": 6638,
      "▁Absalo": 6639,
      "bánisọ̀rọ̀": 6640,
      "▁“Ṣé": 6641,
      "▁àìṣedẽdé": 6642,
      "▁Eag": 6643,
      "▁Nebukadinésárì": 6644,
      "kàá": 6645,
      "ÁÀ": 6646,
      "írà": 6647,
      "▁pi": 6648,
      "wọnsẹ̀": 6649,
      "▁Ọlá": 6650,
      "▁Ìkó": 6651,
      "▁AYÉ": 6652,
      "yìnwá": 6653,
      "▁Fojú": 6654,
      "dì,": 6655,
      "wòsàn": 6656,
      "▁]\n": 6657,
      "▁mímọ́\n": 6658,
      "▁70": 6659,
      "▁àkọ́kọ́bẹ̀rẹ̀": 6660,
      "▁dáhùn,": 6661,
      "than": 6662,
      "▁ṣókùnkùn": 6663,
      "▁sísọni": 6664,
      "▁fàájì": 6665,
      "▁pẹ́kípẹ́kí": 6666,
      "mín": 6667,
      "òun": 6668,
      "▁ḿ": 6669,
      "▁is": 6670,
      "tíkù": 6671,
      "▁léṣe": 6672,
      "▁Ger": 6673,
      "▁ÈDÈ": 6674,
      "roni,": 6675,
      "rẹwà": 6676,
      "▁Har": 6677,
      "▁Esau": 6678,
      "▁dìtẹ̀": 6679,
      "▁yĩ,": 6680,
      "▁jòjòló": 6681,
      "▁ìkésíni": 6682,
      "máná": 6683,
      "▁ìkọ́nilẹ́kọ̀ọ́": 6684,
      "▁adarí": 6685,
      "▁bíṣọ́ọ̀bù": 6686,
      "▁sọtẹ́lẹ̀": 6687,
      "▁pẹ̀sẹ̀": 6688,
      "▁ojúgbà": 6689,
      "▁lai": 6690,
      "▁àìló": 6691,
      "▁Make": 6692,
      "▁Pét": 6693,
      "▁Robert": 6694,
      "▁fífẹ̀": 6695,
      "▁àsẹ̀yìnwá": 6696,
      "▁Encyclopedia": 6697,
      "hì": 6698,
      "sú": 6699,
      "yd": 6700,
      "délé": 6701,
      "▁sábàá": 6702,
      "▁ìtẹ": 6703,
      "rónà": 6704,
      "▁jíṣẹ́": 6705,
      "▁Bóásì": 6706,
      "ester": 6707,
      "goro": 6708,
      "▁Aláì": 6709,
      "▁Jehoia": 6710,
      "▁àmujù": 6711,
      "▁Tọkọtaya": 6712,
      "▁létòlétò": 6713,
      "sára": 6714,
      "ẹrẹ": 6715,
      "▁ìgb": 6716,
      "▁for": 6717,
      "▁látọwọ́": 6718,
      "▁Báná": 6719,
      "▁kan.": 6720,
      "mọdé": 6721,
      "▁gira": 6722,
      "▁olódi": 6723,
      "rékérekè": 6724,
      "pẹ̀pẹ̀": 6725,
      "med": 6726,
      "▁àbáyọ": 6727,
      "▁sánmà": 6728,
      "▁pọ́ńbélé": 6729,
      "▁Léfítíkù": 6730,
      "▁Bánábà": 6731,
      "JẸ́": 6732,
      "ótilẹ̀": 6733,
      "▁ìkejì": 6734,
      "▁ṣìnà": 6735,
      "▁Bel": 6736,
      "▁Màá": 6737,
      "ri.\n": 6738,
      "▁dábàá": 6739,
      "▁Jéhù": 6740,
      "▁bófin": 6741,
      "mu.\n": 6742,
      "▁ọlọ́jọ́": 6743,
      "▁ìfọ̀kàn": 6744,
      "▁náwó": 6745,
      "ẹnusọ": 6746,
      "séà": 6747,
      "▁Gali": 6748,
      "▁ìjẹ́pàtàkì": 6749,
      "-ayé": 6750,
      "▁àsálà": 6751,
      "▁Filísínì": 6752,
      "dàn": 6753,
      "ogi": 6754,
      "▁Ata": 6755,
      "▁rẹ.”\n": 6756,
      "▁Igi": 6757,
      "▁Jésí": 6758,
      "▁kérúbù": 6759,
      "▁wòl": 6760,
      "▁rògbòdìyàn": 6761,
      "▁marun-un": 6762,
      "▁2003": 6763,
      "▁Gibe": 6764,
      "▁Peter": 6765,
      "▁Ẹ́sírà": 6766,
      "▁Gileadi": 6767,
      "▁Júdásì": 6768,
      "kàáwọ́": 6769,
      "▁girama": 6770,
      "▁ìfọ̀kànbalẹ̀": 6771,
      ",a": 6772,
      "lla": 6773,
      "▁tô": 6774,
      "ọ́lẹ̀": 6775,
      "▁níí": 6776,
      "▁iwà": 6777,
      "▁ibú": 6778,
      "▁ẹbi": 6779,
      "▁Ìpín": 6780,
      "▁Ègbé": 6781,
      "▁máṣe": 6782,
      "▁mímọ́.\n": 6783,
      "▁kùdìẹ̀": 6784,
      "▁àlùmọ́ọ́nì": 6785,
      "▁gbígbọ́": 6786,
      "▁àpérò": 6787,
      "▁Sioni": 6788,
      "▁ṣááju": 6789,
      "▁nísisìyí,": 6790,
      "ger": 6791,
      "▁ọlẹ̀": 6792,
      "▁láyìí": 6793,
      "▁ẹṣẹ̀": 6794,
      "▁Bẹ̀": 6795,
      "▁mánigbàgbé": 6796,
      "▁olókìkí": 6797,
      "▁Ámá": 6798,
      "kokò": 6799,
      "▁lójúmọ́": 6800,
      "gbèje": 6801,
      "▁kíyèsi": 6802,
      "▁oòrùn,": 6803,
      "▁kulẹ̀": 6804,
      "▁Heb": 6805,
      "▁àkíyèsí": 6806,
      "niláyà": 6807,
      "▁wálẹ̀": 6808,
      "▁Ala": 6809,
      "gbéyàwó": 6810,
      "▁Hen": 6811,
      "gbagbọ": 6812,
      "▁fúnrarẹ̀": 6813,
      "meleki": 6814,
      "▁ràkúnmí": 6815,
      "bínibí": 6816,
      "nìkàngbé": 6817,
      "▁bíkòṣe": 6818,
      "▁láyìíká": 6819,
      ",”": 6820,
      ",àti": 6821,
      "▁agbó": 6822,
      "▁jọ̀": 6823,
      "▁látọkànwá": 6824,
      "▁Ana": 6825,
      "▁Tòótọ́": 6826,
      "jọ́rò": 6827,
      "▁rẹwà": 6828,
      "▁gbààwẹ̀": 6829,
      "▁WỌ́N": 6830,
      "bálì": 6831,
      "díwọ́": 6832,
      "▁ìwọra": 6833,
      "▁àìsí": 6834,
      "▁Ṣebí": 6835,
      "mar": 6836,
      "▁àfiwé": 6837,
      "▁gbèrú": 6838,
      "▁pé:“": 6839,
      "▁múná": 6840,
      "▁fínnú": 6841,
      "▁Ṣàlàyé": 6842,
      "▁àdàbà": 6843,
      "YÀN": 6844,
      "zi": 6845,
      "órá": 6846,
      "▁tóbẹ̃": 6847,
      "▁ỌL": 6848,
      "▁àtinú": 6849,
      "▁rí.\n": 6850,
      "▁padà\n": 6851,
      "ruary": 6852,
      "▁lílò": 6853,
      "▁kẹwàá": 6854,
      "▁Ver": 6855,
      "▁Hágá": 6856,
      "ṣánṣán": 6857,
      "▁ìsoríkọ́": 6858,
      "▁“Èyí": 6859,
      "▁ajíhìnrere": 6860,
      "▁kùtùkùtù": 6861,
      "▁February": 6862,
      "-ara": 6863,
      "▁co": 6864,
      "▁apẹ": 6865,
      "▁ipin": 6866,
      "▁síṣẹ́": 6867,
      "▁báńkì": 6868,
      "▁wọn.”\n": 6869,
      "▁Sọ̀rọ̀": 6870,
      "yàmẹ̀yà": 6871,
      "lùmọ̀": 6872,
      "báyé": 6873,
      "▁olùgbọ́": 6874,
      "tùnú": 6875,
      "sell": 6876,
      "▁èébú": 6877,
      "▁àwòkọ́ṣe": 6878,
      "jùmọ̀sọ̀rọ̀": 6879,
      "▁wòlĩ": 6880,
      "PỌ̀": 6881,
      "ct": 6882,
      "stan": 6883,
      "ákì": 6884,
      "▁Bill": 6885,
      "▁lọọ": 6886,
      "▁tẹ̀dó": 6887,
      "▁yíyan": 6888,
      "ṣi,": 6889,
      "▁iná,": 6890,
      "▁Com": 6891,
      "▁Ìyàlẹ́nu": 6892,
      "▁Ahabu": 6893,
      "▁agogo": 6894,
      "▁Russell": 6895,
      "▁Ìṣẹ̀lẹ̀": 6896,
      "▁Fọ́tò": 6897,
      "bànújẹ́": 6898,
      "▁àfẹ́": 6899,
      "▁níṣ": 6900,
      "▁isà": 6901,
      "▁lárọ̀": 6902,
      "▁Sà": 6903,
      "rùn-ún": 6904,
      "▁mọwọ́": 6905,
      "▁Bárú": 6906,
      "▁dídì": 6907,
      "múra": 6908,
      "▁Ed": 6909,
      "▁Títù": 6910,
      "▁47": 6911,
      "burg": 6912,
      "▁bẹ̀rù,": 6913,
      "gírí": 6914,
      "▁1950": 6915,
      "▁Kíyèsĩ": 6916,
      "▁Luther": 6917,
      "▁Daniel": 6918,
      "▁àsíá": 6919,
      "▁mànàmáná": 6920,
      "-ó": 6921,
      "MÙ": 6922,
      "▁mójú": 6923,
      "▁fẹ̀yìn": 6924,
      "▁òfo": 6925,
      "▁Àṣẹ": 6926,
      "▁Ojoojúmọ́": 6927,
      "barì": 6928,
      "▁kúrú": 6929,
      "▁e,": 6930,
      "▁Ọ̀yọ́": 6931,
      "sowọ́pọ̀": 6932,
      "▁mu,": 6933,
      "▁àlùkò": 6934,
      "▁tẹjú": 6935,
      "▁kudiẹ": 6936,
      "▁Àìsàn": 6937,
      "▁China": 6938,
      "-ín-ní": 6939,
      "▁àdádó": 6940,
      "▁dáńgájíá": 6941,
      "nor": 6942,
      "sco": 6943,
      "▁ìkáwọ́": 6944,
      "▁níbì": 6945,
      "▁arẹwà": 6946,
      "▁ṣọ́ọ̀bù": 6947,
      "▁King": 6948,
      "▁Ìyè": 6949,
      "síà": 6950,
      "▁gbàfiyèsí": 6951,
      "▁Gre": 6952,
      "páta": 6953,
      "▁ìṣara": 6954,
      "▁Mor": 6955,
      "▁leè": 6956,
      "▁Jẹ́ríkò": 6957,
      "tus": 6958,
      "▁náírà": 6959,
      "gbẹjọ́rò": 6960,
      "▁rówó": 6961,
      "▁yii": 6962,
      "▁pòórá": 6963,
      "▁tẹ́ḿpìlì": 6964,
      "ọ́wọ́tó": 6965,
      "▁àmùrè": 6966,
      "▁Ari": 6967,
      "▁Ẹlòmí": 6968,
      "sítọ̀": 6969,
      "▁tàbùkù": 6970,
      "▁Ásà": 6971,
      "▁pète": 6972,
      "ong": 6973,
      "▁ẹlẹ́ṣin": 6974,
      "▁ìpayà": 6975,
      "▁ṣíṣeyebíye": 6976,
      "▁Júdà,": 6977,
      "▁gẹgẹ": 6978,
      "—\n": 6979,
      "▁we": 6980,
      "▁gbúrò": 6981,
      "ríkì": 6982,
      "▁òkìkí": 6983,
      "▁ọ̀gbà": 6984,
      "▁Nísinsìnyí": 6985,
      "▁Mẹ": 6986,
      "tọ́d": 6987,
      "▁Ibù": 6988,
      "▁Ṣẹ́": 6989,
      "▁ilẹ̀\n": 6990,
      "▁bóun": 6991,
      "▁onísìn": 6992,
      "lian": 6993,
      "▁Eko": 6994,
      "▁ìpínyà": 6995,
      "▁Nigeria": 6996,
      "▁Padà": 6997,
      "▁fòyà": 6998,
      "▁Jesu,": 6999,
      "▁1998": 7000,
      "▁Bibeli": 7001,
      "cia": 7002,
      "▁Ìgbéyàwó": 7003,
      "gẹ̀dẹ̀": 7004,
      "▁MÁA": 7005,
      "▁Àríwá": 7006,
      "▁ǸJẸ́": 7007,
      "▁lárọ̀ọ́wọ́tó": 7008,
      "ìkì": 7009,
      "▁àwí": 7010,
      "▁mù": 7011,
      "▁ìhòòhò": 7012,
      "▁iyèméjì": 7013,
      "▁ṣe.": 7014,
      "▁titi": 7015,
      "▁Ken": 7016,
      "▁ríṣẹ́": 7017,
      "▁lẹ́sẹẹsẹ": 7018,
      "▁wíwú": 7019,
      "▁ṣàjèjì": 7020,
      "▁baálé": 7021,
      "▁Árá": 7022,
      "dale": 7023,
      "yamọ": 7024,
      "▁kẹ́míkà": 7025,
      "est": 7026,
      "▁Dádì": 7027,
      "▁ìhìnrere": 7028,
      "▁Yoru": 7029,
      "▁àṣejù": 7030,
      "▁Tẹmpili": 7031,
      "▁olóògbé": 7032,
      "▁àgbáá": 7033,
      "▁Pupa": 7034,
      "mọ́ná": 7035,
      "▁lara": 7036,
      "▁sorí": 7037,
      "▁mè": 7038,
      "▁tipá": 7039,
      "▁“Ó": 7040,
      "▁alárinrin": 7041,
      "▁olókè": 7042,
      "▁ìdáǹdè": 7043,
      "▁láìṣe": 7044,
      "▁sọ́run": 7045,
      "▁yapa": 7046,
      "▁gbòò": 7047,
      "▁dáradára,": 7048,
      "▁Ráhábù": 7049,
      "▁fóun": 7050,
      "▁ìfà": 7051,
      "▁ẹ̀yín": 7052,
      "▁Àyà": 7053,
      "kòtò": 7054,
      "▁ibikíbi": 7055,
      "▁òkú,": 7056,
      "▁Paul": 7057,
      "fura": 7058,
      "▁Ọ́tọ́d": 7059,
      "▁ìrẹ́jẹ": 7060,
      "pààrọ̀": 7061,
      "▁ìfẹsẹ̀wọnsẹ̀": 7062,
      "▁Ọ́tọ́dọ́ọ̀sì": 7063,
      "NÍ": 7064,
      "ses": 7065,
      "▁ìra": 7066,
      "▁atẹ́gùn": 7067,
      "▁ẹgbẹ̀ta": 7068,
      "▁lèmi": 7069,
      "▁ÌṢ": 7070,
      "▁Ìṣàkóso": 7071,
      "▁gbé,": 7072,
      "▁Kíyèsí": 7073,
      "▁Èkejì": 7074,
      "▁(3": 7075,
      "gbajà": 7076,
      "▁Israẹli.": 7077,
      "tory": 7078,
      "▁ìtànná": 7079,
      "▁Olùṣàkóso": 7080,
      "▁gbìmọ̀": 7081,
      "▁Wa\n": 7082,
      "▁orílẹ̀-èdè,": 7083,
      "mìísí": 7084,
      "▁ìbẹ̀rẹ̀pẹ̀pẹ̀": 7085,
      "▁títayọ": 7086,
      "▁alábàáṣiṣẹ́": 7087,
      "▁ìfọkànsìn": 7088,
      "▁Hóséà": 7089,
      "▁ìsọ̀rí": 7090,
      "▁Eagles": 7091,
      "ff": 7092,
      "ọlá": 7093,
      "▁tíọ́rì": 7094,
      "▁jẹ́jẹ̀ẹ́": 7095,
      "▁Ìrí": 7096,
      "▁Ìbà": 7097,
      "▁lọ́la": 7098,
      "▁Th": 7099,
      "▁Èwo": 7100,
      "▁Ẹ̀tọ́": 7101,
      "▁àìṣè": 7102,
      "▁jíjí": 7103,
      "▁Mórónì": 7104,
      "▁fowó": 7105,
      "dínlọ́gọ́rin": 7106,
      "▁tẹríba": 7107,
      "▁kẹ́lẹ́yàmẹ̀yà": 7108,
      "dri": 7109,
      "shi": 7110,
      "ńdé": 7111,
      "▁ìsẹ̀lẹ̀": 7112,
      "▁akọ̀ròyìn": 7113,
      "▁ńbẹ̀": 7114,
      "▁sísan": 7115,
      "▁Ìkìlọ̀": 7116,
      "léèwé": 7117,
      "▁músẹ́": 7118,
      "rákì": 7119,
      "miah": 7120,
      "▁bẹ́ẹ̀dì": 7121,
      "kúté": 7122,
      "▁Fo": 7123,
      "▁Ásá": 7124,
      "dọ́wọ́": 7125,
      "kíà": 7126,
      "▁Símónì": 7127,
      "▁wọ̀nyí\n": 7128,
      "▁Sódómù": 7129,
      "▁èémí": 7130,
      "▁àtẹ́lẹ": 7131,
      "▁tiraka": 7132,
      "▁njẹ́": 7133,
      "▁àrékérekè": 7134,
      "▁nígboyà": 7135,
      "▁ṣọ́nà": 7136,
      "▁Ìpínlẹ̀": 7137,
      "▁Nísàn": 7138,
      "▁wa;": 7139,
      "▁Ali": 7140,
      "ròtẹ́lẹ̀": 7141,
      "ẹnì": 7142,
      "▁kápá": 7143,
      "▁onímìísí": 7144,
      "▁olóyè": 7145,
      "▁Ya": 7146,
      "▁Bójú": 7147,
      "▁bébà": 7148,
      "▁yangàn": 7149,
      "▁tẹra": 7150,
      "▁1919": 7151,
      "▁foríbalẹ̀": 7152,
      "▁ìfihàn": 7153,
      "▁dunjú": 7154,
      "▁pààyàn": 7155,
      "▁Christi": 7156,
      "▁ìlọsíwájú": 7157,
      "▁Charles": 7158,
      "▁gbúròó": 7159,
      "náà": 7160,
      "tipá": 7161,
      "ríbẹ̃": 7162,
      "▁Kún": 7163,
      "▁Àwùjọ": 7164,
      "▁ìyapa": 7165,
      "▁é,": 7166,
      "▁àtẹ̀gùn": 7167,
      "▁fíìfíì": 7168,
      "hamma": 7169,
      "-lé-": 7170,
      "▁ajẹ́jẹ̀ẹ́": 7171,
      "▁amúni": 7172,
      "ER": 7173,
      "Gbogbo": 7174,
      "dandan": 7175,
      "▁àtẹ": 7176,
      "▁èpò": 7177,
      "▁Ku": 7178,
      "▁“I": 7179,
      "▁rírìn": 7180,
      "▁tára": 7181,
      "▁Igbó": 7182,
      "▁yípo": 7183,
      "▁biribi": 7184,
      "▁gbọgbẹ́": 7185,
      "▁egbòogi": 7186,
      "▁kánjúkánjú": 7187,
      "▁gìrì": 7188,
      "-èyi,": 7189,
      "ukùu": 7190,
      "▁fé": 7191,
      "▁abà": 7192,
      "▁amòye": 7193,
      "▁abala": 7194,
      "▁Ọgọ́": 7195,
      "▁Ìmọ́lẹ̀": 7196,
      "ṣẹ́gun": 7197,
      "óògùn": 7198,
      "▁tálẹ́": 7199,
      "▁Pro": 7200,
      "▁Du": 7201,
      "▁Òdodo": 7202,
      "▁fìgboyà": 7203,
      "▁koro": 7204,
      "▁Tẹ́lẹ̀": 7205,
      "gue": 7206,
      "kínní": 7207,
      "▁Africa": 7208,
      "fanáyà": 7209,
      "ṣooṣù": 7210,
      "ótilẹ̀ríbẹ̃": 7211,
      "gán": 7212,
      "pani": 7213,
      "̣́": 7214,
      "ọgbọ́n": 7215,
      "▁wúni": 7216,
      "▁ìsun": 7217,
      "▁as": 7218,
      "▁abọ́": 7219,
      "▁jé": 7220,
      "▁Nor": 7221,
      "▁Nílẹ̀": 7222,
      "▁ìdúpẹ́": 7223,
      "▁ìyọ̀ǹda": 7224,
      "▁irúfẹ́": 7225,
      "▁ṣèdíwọ́": 7226,
      "dọ́rùn": 7227,
      "rì\n": 7228,
      "▁tọ́wọ́": 7229,
      "▁lójú,": 7230,
      "▁ẹnìkọ̀ọ̀kan": 7231,
      "▁lónìí,": 7232,
      "▁Nether": 7233,
      "▁Sefanáyà": 7234,
      "▁Kété": 7235,
      "▁aadọ": 7236,
      "▁ìwọ̀-oòrùn": 7237,
      "mòfin": 7238,
      "▁eeyan": 7239,
      "▁àtọwọ́dọ́wọ́": 7240,
      "▁ỌLỌ́R": 7241,
      "PA": 7242,
      "lán": 7243,
      "▁hun": 7244,
      "▁winá": 7245,
      "▁jẹ́.\n": 7246,
      "▁Àtà": 7247,
      "ṣẹ́kù": 7248,
      "▁OL": 7249,
      "kúù": 7250,
      "▁bóo": 7251,
      "leke": 7252,
      "▁‘Ẹ": 7253,
      "▁àìmọ̀": 7254,
      "▁daran": 7255,
      "▁láàárọ̀": 7256,
      "▁aláìṣòdodo": 7257,
      "▁dóko": 7258,
      "tọrẹ": 7259,
      "dẹ́tẹ̀": 7260,
      "▁Lẹ́tà": 7261,
      "▁lẹ́sẹ̀kẹsẹ̀": 7262,
      "▁Gbàrà": 7263,
      "▁aájò": 7264,
      "lélọ́gọ́ta": 7265,
      "▁Watchtower": 7266,
      "▁kíkankíkan": 7267,
      "▁ỌLỌ́RUN": 7268,
      "cal": 7269,
      "▁ỌDÚN": 7270,
      "▁“Ẹ̀yin": 7271,
      "▁Alẹ": 7272,
      "▁góòlù": 7273,
      "▁káyé": 7274,
      "lógbòó": 7275,
      "▁Èrè": 7276,
      "yege": 7277,
      "doni": 7278,
      "kígbà": 7279,
      "▁olùkọ́ni": 7280,
      "▁láìdá": 7281,
      "saya": 7282,
      "▁àgbàgbà": 7283,
      "▁pákó": 7284,
      "dùkú": 7285,
      "▁bèbè": 7286,
      "▁làákàyè": 7287,
      "▁2023": 7288,
      "▁igbákejì": 7289,
      "▁aṣiwèrè": 7290,
      "TÍ": 7291,
      "blic": 7292,
      "tho": 7293,
      "▁ǹkan": 7294,
      "▁kẹ̀yìn": 7295,
      "▁BÁ": 7296,
      "▁Àgbègbè": 7297,
      "▁Ìrìn": 7298,
      "▁mi!": 7299,
      "▁Ẹran": 7300,
      "yàrá": 7301,
      "dèrú": 7302,
      "▁Bámi": 7303,
      "esi": 7304,
      "dùnnú": 7305,
      "siah": 7306,
      "▁nìkan,": 7307,
      "▁Mika": 7308,
      "▁Micha": 7309,
      "▁Oríṣiríṣi": 7310,
      "▁kìn-ín-ní": 7311,
      "▁olóòórùn": 7312,
      "▁ìdènà": 7313,
      "▁Alẹki": 7314,
      "JỌ́": 7315,
      "os": 7316,
      "oní": 7317,
      "Èyí": 7318,
      "▁ìgbó": 7319,
      "▁ṣùgbọn": 7320,
      "▁oluwa": 7321,
      "▁Aust": 7322,
      "▁gè": 7323,
      "ọ́ọ̀mù": 7324,
      "▁díje": 7325,
      "▁Áhí": 7326,
      "▁Láé": 7327,
      "▁49": 7328,
      "▁rọgbọ": 7329,
      "togí": 7330,
      "riah": 7331,
      "▁Olódodo": 7332,
      "▁mọ́kànlélógún": 7333,
      "▁Lẹ́sẹ̀": 7334,
      "fíndọ̀": 7335,
      "▁(iii)": 7336,
      "▁àtọ̀gbẹ": 7337,
      "▁tipátipá": 7338,
      "fọ̀rọ̀": 7339,
      "àwọ́n": 7340,
      "▁párádísè": 7341,
      "▁i.": 7342,
      "▁látọkàn": 7343,
      "▁ègbé": 7344,
      "▁Àìní": 7345,
      "▁Aṣe": 7346,
      "jọpọ̀": 7347,
      "▁pàǹtí": 7348,
      "dor": 7349,
      "▁le,": 7350,
      "▁Sam": 7351,
      "▁àádọ́rùn": 7352,
      "nùmọ́": 7353,
      "▁Mary": 7354,
      "▁lẹhìn": 7355,
      "▁fohùn": 7356,
      "▁NÍNÚ": 7357,
      "▁Potogí": 7358,
      "ínísítà": 7359,
      "▁Yoruba": 7360,
      "HÓ": 7361,
      "OR": 7362,
      "▁òún": 7363,
      "▁fún-un": 7364,
      "▁Ọgbà": 7365,
      "▁Káwọn": 7366,
      "▁miran": 7367,
      "▁Olu": 7368,
      "▁Olo": 7369,
      "▁gọ": 7370,
      "ráyé": 7371,
      "déédé": 7372,
      "sìkí": 7373,
      "▁Òní": 7374,
      "▁laa": 7375,
      "tẹnirò": 7376,
      "▁olùṣe": 7377,
      "▁Kristi,": 7378,
      "▁Wal": 7379,
      "▁níwọ̀ntúnwọ̀nsì": 7380,
      "▁bẹ̃ni": 7381,
      "▁pọndandan": 7382,
      "▁ṣògo": 7383,
      "▁Muhamma": 7384,
      "kíní": 7385,
      "banbarì": 7386,
      "▁Tẹ̀mí": 7387,
      "▁apànìyàn": 7388,
      "▁Bárúkù": 7389,
      "bojú": 7390,
      "ster": 7391,
      "▁kóò": 7392,
      "▁arí": 7393,
      "ramu": 7394,
      "▁“D": 7395,
      "▁Ìjẹ̀": 7396,
      "▁Ameri": 7397,
      "sùlù": 7398,
      "▁Wi": 7399,
      "▁ará,": 7400,
      "▁dàrú": 7401,
      "▁jẹyọ": 7402,
      "ánì,": 7403,
      "dóje": 7404,
      "polongo": 7405,
      "▁nã;": 7406,
      "▁àbáwọlé": 7407,
      "▁gàgà": 7408,
      "▁Jonatani": 7409,
      "▁Que": 7410,
      "▁àdánidá": 7411,
      "▁ÌGBÉ": 7412,
      "HÓFÀ": 7413,
      "ÈHÓFÀ": 7414,
      "▁irè": 7415,
      "▁itan": 7416,
      "▁lárinrin": 7417,
      "▁ni?": 7418,
      "rata": 7419,
      "lẹ̀kẹ̀": 7420,
      "▁JÈHÓFÀ": 7421,
      "▁á\n": 7422,
      "▁Iná": 7423,
      "▁gbọ́\n": 7424,
      "▁mọṣẹ́": 7425,
      "▁ojúrere": 7426,
      "▁ìtan": 7427,
      "▁sọ̀rọ̀\n": 7428,
      "gbẹ́yín": 7429,
      "▁àìṣòdodo": 7430,
      "ràpadà": 7431,
      "▁Sábáàtì": 7432,
      "▁òtítọ́,": 7433,
      "▁Isráẹ́lì": 7434,
      "▁ẹlẹ́gbin": 7435,
      "▁gbígbẹ́": 7436,
      "tanì": 7437,
      "▁káàbọ̀": 7438,
      "▁kéréje": 7439,
      "▁Aísá": 7440,
      "▁abẹ́lé": 7441,
      "▁Nàìjí": 7442,
      "mẹ̀tọ́mọ̀wà": 7443,
      "dínláàádọ́rin": 7444,
      "▁Benjamini": 7445,
      "lélọ́gọ́rin": 7446,
      "▁Bẹnjamini": 7447,
      "▁Netherlands": 7448,
      "WÁ": 7449,
      "der": 7450,
      "rs": 7451,
      "tes": 7452,
      "vo": 7453,
      "▁ìmoore": 7454,
      "▁níta": 7455,
      "▁be": 7456,
      "▁bẹnu": 7457,
      "▁amá": 7458,
      "▁aburú": 7459,
      "▁asọ̀": 7460,
      "▁pésẹ̀": 7461,
      "▁“Ta": 7462,
      "▁Ẹrú": 7463,
      "tayé": 7464,
      "lifi": 7465,
      "▁méjìlélógún": 7466,
      "▁falẹ̀": 7467,
      "ránṣẹ́": 7468,
      "yọyọ": 7469,
      "▁Times": 7470,
      "▁gírí": 7471,
      "▁ẹ̀kaèdè": 7472,
      "▁pataki": 7473,
      "▁kèfèrí": 7474,
      "áàsì": 7475,
      "▁ẹ̀ya": 7476,
      "▁mọ́;": 7477,
      "▁ìdáná": 7478,
      "▁Rú": 7479,
      "▁un.": 7480,
      "▁àìdáa": 7481,
      "▁ọlọ́ṣà": 7482,
      "▁polówó": 7483,
      "▁yìnbọn": 7484,
      "▁Sarahẹ́": 7485,
      "▁ekuru": 7486,
      "▁turari": 7487,
      "▁apẹja": 7488,
      "my": 7489,
      "árí": 7490,
      "▁àn": 7491,
      "▁àkokò": 7492,
      "▁ìnìkàngbé": 7493,
      "▁adura": 7494,
      "▁oó": 7495,
      "▁pépé": 7496,
      "▁ÌK": 7497,
      "▁Ìṣ": 7498,
      "▁Ọ̀kẹ́": 7499,
      "▁jáde.\n": 7500,
      "▁Ẹ̀dá": 7501,
      "kúnnù": 7502,
      "▁ìdásílẹ̀": 7503,
      "▁obìnrin,": 7504,
      "▁ẹlẹ́ran": 7505,
      "▁ìfojú": 7506,
      "▁pínyà": 7507,
      "▁wọlé,": 7508,
      "▁tan,": 7509,
      "▁Va": 7510,
      "▁tèmi,": 7511,
      "▁ìdẹkùn": 7512,
      "▁Krístì,": 7513,
      "-19": 7514,
      "▁aṣòfin": 7515,
      "▁janjan": 7516,
      "▁aposte": 7517,
      "▁Absalomu": 7518,
      "▁Sarahẹ́mú": 7519,
      "gra": 7520,
      "▁lô": 7521,
      "▁ní:": 7522,
      "▁atu": 7523,
      "▁ọmọ,": 7524,
      "▁ọmọléèwé": 7525,
      "▁Tra": 7526,
      "▁gbére": 7527,
      "▁pàṣí": 7528,
      "▁Òṣì": 7529,
      "fiwé": 7530,
      "▁Em": 7531,
      "▁èròǹgbà": 7532,
      "kárí": 7533,
      "▁Ṣùgbọ́n,": 7534,
      "▁bomi": 7535,
      "▁rọ́wọ́": 7536,
      "dúlá": 7537,
      "▁Inter": 7538,
      "▁ìṣẹ̀dálẹ̀": 7539,
      "lish": 7540,
      "▁ògbólógbòó": 7541,
      "dínlọ́gọ́ta": 7542,
      "▁kínní": 7543,
      "fọkànsìn": 7544,
      "BC": 7545,
      "KỌ": 7546,
      "RÚ": 7547,
      "▁amú": 7548,
      "▁jóòótọ́": 7549,
      "▁dọmọ": 7550,
      "▁ẹẹ": 7551,
      "▁fúnrúgbìn": 7552,
      "▁bí?\n": 7553,
      "▁wà.\n": 7554,
      "▁Nítòótọ́": 7555,
      "bara": 7556,
      "▁Síná": 7557,
      "dégbà": 7558,
      "▁là,": 7559,
      "▁ṣíṣí": 7560,
      "▁ẹnìkejì": 7561,
      "▁ṣiyè": 7562,
      "▁ọ̀run\n": 7563,
      "▁lọ́dọ̀ọ́": 7564,
      "moni,": 7565,
      "▁ìríjú": 7566,
      "▁irinṣẹ́": 7567,
      "▁àpèjẹ": 7568,
      "▁“OLUWA": 7569,
      "▁ìtàjẹ̀": 7570,
      "LÉ": 7571,
      "ida": 7572,
      "qu": 7573,
      "ṣùn": 7574,
      "▁aké": 7575,
      "▁jàn": 7576,
      "▁láa": 7577,
      "▁lọ́jà": 7578,
      "▁LÈ": 7579,
      "▁Láà": 7580,
      "▁Sina": 7581,
      "taré": 7582,
      "▁Gbá": 7583,
      "▁ọdún,": 7584,
      "▁ìṣún": 7585,
      "▁dídára": 7586,
      "▁kúnnú": 7587,
      "▁kàmàmà": 7588,
      "▁Élì": 7589,
      "dóníà": 7590,
      "▁run\n": 7591,
      "▁ṣáko": 7592,
      "pùrọ́": 7593,
      "▁Mose,": 7594,
      "píà": 7595,
      "▁kọkànlá": 7596,
      "w.org": 7597,
      "▁ìbẹ́mìílò": 7598,
      "▁Éfúráímù": 7599,
      "norr": 7600,
      "▁Alẹkisáń": 7601,
      ",wọ́n": 7602,
      "ID": 7603,
      "ON": 7604,
      "RIN": 7605,
      "asu": 7606,
      "iri": 7607,
      "ńṣó": 7608,
      "▁ijù": 7609,
      "▁Knorr": 7610,
      "▁NI": 7611,
      "▁Ṣú": 7612,
      "▁baálẹ̀": 7613,
      "▁balógun": 7614,
      "▁ṣèkẹ́kọ̀ọ́": 7615,
      "▁wòye": 7616,
      "▁ọkùnrin,": 7617,
      "▁ṣírò": 7618,
      "péle": 7619,
      "gbádùn": 7620,
      "▁ìbákẹ́gbẹ́": 7621,
      "▁kejìlá": 7622,
      "gàgà": 7623,
      "▁wéra": 7624,
      "fati": 7625,
      "▁àdánù": 7626,
      "▁Násáré": 7627,
      "▁Lea": 7628,
      "▁pada,": 7629,
      "ǹbáyé": 7630,
      "▁“Ọmọ": 7631,
      "▁àwọsánmà": 7632,
      "▁Númérì": 7633,
      "▁Makedóníà": 7634,
      "MỌ": 7635,
      "gy": 7636,
      "gú": 7637,
      "gara": 7638,
      "▁eru": 7639,
      "ọ̀dọ̀": 7640,
      "▁apa": 7641,
      "▁ẹgbẹ̀ẹ́": 7642,
      "▁Ban": 7643,
      "▁“Ǹjẹ́": 7644,
      "▁mí.\n": 7645,
      "▁gbà,": 7646,
      "▁Púpọ̀": 7647,
      "tìlẹyìn": 7648,
      "rìírí": 7649,
      "▁dídúró": 7650,
      "red": 7651,
      "róbóámù": 7652,
      "▁Ẹ̀ẹ̀": 7653,
      "múṣé": 7654,
      "▁kúnlẹ̀": 7655,
      "▁ikú,": 7656,
      "▁ranni": 7657,
      "ṣoṣo": 7658,
      "▁rọ̀bì": 7659,
      "▁Kén": 7660,
      "▁paraku": 7661,
      "▁kọkàndínlógún": 7662,
      "▁ìkùukùu": 7663,
      "▁Michael": 7664,
      "dánwò": 7665,
      "▁l’": 7666,
      "▁àna": 7667,
      "▁àjùmọ̀": 7668,
      "▁gbùngbùn": 7669,
      "▁wọ́n.": 7670,
      "▁Àpapọ̀": 7671,
      "▁Ìbànújẹ́": 7672,
      "fàìmọ̀": 7673,
      "▁Abẹ́": 7674,
      "rip": 7675,
      "▁bẹ́ẹ̀\n": 7676,
      "▁pàbó": 7677,
      "rẹ́gẹ̀": 7678,
      "▁Fri": 7679,
      "daran": 7680,
      "▁Emi": 7681,
      "▁olùyọ̀ǹda": 7682,
      "bọi": 7683,
      "goji": 7684,
      "▁ìbímọ": 7685,
      "kudà": 7686,
      "▁Par": 7687,
      "▁márùndínlógójì": 7688,
      "▁Farisi": 7689,
      "▁jùlọ,": 7690,
      "wìrì": 7691,
      "▁Ṣẹlẹ̀": 7692,
      "▁wọ̀n-ọn-nì": 7693,
      "▁wewu": 7694,
      "▁mère": 7695,
      "sùlùmí": 7696,
      "▁amáyé": 7697,
      "tayébáyé": 7698,
      "rẹ́gẹ̀rẹ́": 7699,
      "pọ́njú": 7700,
      "átà": 7701,
      "gbàn": 7702,
      "▁ìso": 7703,
      "▁amòfin": 7704,
      "▁iwin": 7705,
      "▁síhà": 7706,
      "▁sísàlẹ̀": 7707,
      "gbàgbọ": 7708,
      "yítọ́": 7709,
      "mita": 7710,
      "▁ele": 7711,
      "gẹ́gẹ́": 7712,
      "▁ìṣubú": 7713,
      "lebu": 7714,
      "▁Eri": 7715,
      "óoru": 7716,
      "▁Cla": 7717,
      "▁lẹ́nu,": 7718,
      "▁Ọmọkùnrin": 7719,
      "▁gomina": 7720,
      "mère": 7721,
      "▁mẹ̀kúnnù": 7722,
      ",500": 7723,
      "▁banú": 7724,
      "Tí": 7725,
      "YÀ": 7726,
      "núnibíni": 7727,
      "wn": 7728,
      "ẹ̀yin": 7729,
      "▁àwárí": 7730,
      "▁ìjùmọ̀sọ̀rọ̀": 7731,
      "▁ṣenúnibíni": 7732,
      "▁Ọkunrin": 7733,
      "▁wọnnì": 7734,
      "▁rẹ̀yìn": 7735,
      "tì\n": 7736,
      "díje": 7737,
      "▁Áté": 7738,
      "▁Ẹ̀K": 7739,
      "▁àìgbọràn": 7740,
      "máṣe": 7741,
      "▁fífẹ́": 7742,
      "▁Kárí": 7743,
      "▁káàánú": 7744,
      "▁idà,": 7745,
      "▁ìmúkúrò": 7746,
      "▁ṣayẹyẹ": 7747,
      "▁2004": 7748,
      "▁Jeremiah": 7749,
      "▁odidi": 7750,
      "▁“Ẹni": 7751,
      "▁ṣúgà": 7752,
      "▁Filistia": 7753,
      "▁United": 7754,
      "▁Túbọ̀": 7755,
      "▁“Wò": 7756,
      "▁dẹ̀dẹ̀": 7757,
      "▁gẹ̀rẹ́gẹ̀rẹ́": 7758,
      "mèyítọ́": 7759,
      "▁Jeroboamu": 7760,
      "▁gọbọi": 7761,
      "KAN": 7762,
      "▁ńlẹ̀": 7763,
      "▁lákọ": 7764,
      "▁Ohùn": 7765,
      "▁—⁠": 7766,
      "▁kọ,": 7767,
      "▁Òjò": 7768,
      "▁Òpìtàn": 7769,
      "▁Láyọ̀": 7770,
      "▁Che": 7771,
      "▁tìkọ̀": 7772,
      "▁kẹsàn": 7773,
      "▁yéni": 7774,
      "▁ṣọ̀wọ́n": 7775,
      "▁Ham": 7776,
      "▁1990": 7777,
      "▁buyì": 7778,
      "▁Martin": 7779,
      "-ogun": 7780,
      "▁àgbéyẹ̀wò": 7781,
      "▁Rákélì": 7782,
      "▁Ireland": 7783,
      "sen": 7784,
      "▁ìràn": 7785,
      "▁aki": 7786,
      "▁ọ̀bẹ": 7787,
      "▁Kesa": 7788,
      "▁Ẹsẹ̀": 7789,
      "▁Tho": 7790,
      "mi,": 7791,
      "▁túká": 7792,
      "kadì": 7793,
      "▁àkóbá": 7794,
      "▁ọ̀run.\n": 7795,
      "▁púpọ̀\n": 7796,
      "pẹ̀ẹ̀": 7797,
      "▁Orísun": 7798,
      "dẹrùn": 7799,
      "fínní": 7800,
      "▁fọ́nrán": 7801,
      "▁Éjíbítì\n": 7802,
      "▁ọ̀dọ́mọbìnrin": 7803,
      "▁ìwẹ̀nùmọ́": 7804,
      "▁léèmọ̀": 7805,
      "▁Edomu": 7806,
      "▁Ọ̀RỌ̀": 7807,
      "▁Ìrírí": 7808,
      "▁mèremère": 7809,
      "kojú": 7810,
      "ǹkí": 7811,
      "▁\t": 7812,
      "▁◆": 7813,
      "▁àgbọ̀n": 7814,
      "▁ay": 7815,
      "▁adẹ́tẹ̀": 7816,
      "▁olo": 7817,
      "▁iṣu": 7818,
      "▁gbọ̀": 7819,
      "▁BBC": 7820,
      "palára": 7821,
      "▁Ìy": 7822,
      "▁Swit": 7823,
      "▁Póòpù": 7824,
      "▁nìyìí": 7825,
      "jàgan": 7826,
      "réè": 7827,
      "▁pèpéle": 7828,
      "▁olùwádìí": 7829,
      "yanrìn": 7830,
      "ten": 7831,
      "▁Nábálì": 7832,
      "▁Mọ́mì": 7833,
      "gùtàn": 7834,
      "▁aláìlẹ́gbẹ́": 7835,
      "zerland": 7836,
      "▁Etió": 7837,
      "▁Bámidélé": 7838,
      "▁Násárétì": 7839,
      "▁Switzerland": 7840,
      "—Àwọn": 7841,
      "▁rẹ̀:": 7842,
      "▁wáṣẹ́": 7843,
      "lie": 7844,
      "▁sílẹ̀.": 7845,
      "kéte": 7846,
      "▁kẹ́ni": 7847,
      "gagbá": 7848,
      "▁dìbò": 7849,
      "▁119": 7850,
      "▁àfihàn": 7851,
      "▁òru,": 7852,
      "▁ìgbẹ́jọ́": 7853,
      "▁alufaa,": 7854,
      "▁jíjìnnà": 7855,
      "▁Daniẹli": 7856,
      "gídíjàgan": 7857,
      "▁látọjọ́": 7858,
      "▁eruku": 7859,
      "pẹ̀ẹ̀pẹ́": 7860,
      "gagbága": 7861,
      "KỌ̀": 7862,
      "as": 7863,
      "Ṣùgbọ́n": 7864,
      "▁s̩": 7865,
      "▁awo": 7866,
      "▁ṣeun": 7867,
      "▁láṣọ": 7868,
      "raine": 7869,
      "▁kò\n": 7870,
      "▁wá;": 7871,
      "rinà": 7872,
      "rúsì": 7873,
      "láì": 7874,
      "pọ̀jù": 7875,
      "▁gbọ́.\n": 7876,
      "▁àpó": 7877,
      "déká": 7878,
      "▁Báyĩ": 7879,
      "díran": 7880,
      "▁ọ́.\n": 7881,
      "▁Ẹ̀jẹ̀": 7882,
      "keli": 7883,
      "▁ẹlẹ́kọ̀ọ́": 7884,
      "▁ìfún": 7885,
      "▁gbọọrọ": 7886,
      "▁ìtẹ̀sí": 7887,
      "▁àgbékalẹ̀": 7888,
      "▁kẹrìnlá": 7889,
      "▁lóòjọ́": 7890,
      "▁ìhín": 7891,
      "▁Jordani": 7892,
      "▁Version": 7893,
      "Wọn": 7894,
      "the": 7895,
      "íìsì": 7896,
      "▁àkọ̀": 7897,
      "▁níyàwó": 7898,
      "▁pọ̀n": 7899,
      "▁at": 7900,
      "▁ọdọ": 7901,
      "▁sísọ̀rọ̀": 7902,
      "▁òfì": 7903,
      "▁wọni": 7904,
      "▁lóhun": 7905,
      "▁Níbo": 7906,
      "▁táyé": 7907,
      "▁ṣèpalára": 7908,
      "laka": 7909,
      "▁Ye": 7910,
      "jẹun": 7911,
      "kíni": 7912,
      "▁olùdá": 7913,
      "▁jíǹkí": 7914,
      "▁sọ́rọ̀": 7915,
      "maya": 7916,
      "▁ìforí": 7917,
      "▁Jehu": 7918,
      "▁dáríjì": 7919,
      "▁fífani": 7920,
      "▁1945": 7921,
      "▁Bẹti": 7922,
      "▁Ọ́\n": 7923,
      "▁láìnídìí": 7924,
      "▁àjàkálẹ̀-à": 7925,
      "▁ìwẹ̀fà": 7926,
      "▁jàǹdùkú": 7927,
      "▁ìtẹríba": 7928,
      "▁biribiri": 7929,
      "▁Etiópíà": 7930,
      "bán": 7931,
      "ede": 7932,
      "Òun": 7933,
      "▁nla": 7934,
      "lé,": 7935,
      "▁Níní": 7936,
      "▁múpò": 7937,
      "▁Ẹgbẹẹgbẹ̀rún": 7938,
      "▁ká\n": 7939,
      "▁ká.\n": 7940,
      "▁mí\n": 7941,
      "▁hán": 7942,
      "▁PÉ": 7943,
      "wérọ̀": 7944,
      "▁jásí": 7945,
      "▁ìṣiṣẹ́": 7946,
      "leè": 7947,
      "▁(4": 7948,
      "▁ṣètọrẹ": 7949,
      "▁ṣíbẹ̀": 7950,
      "▁CO": 7951,
      "mìtì": 7952,
      "máwo": 7953,
      "▁Módéká": 7954,
      "sùnmáwo": 7955,
      "▁rẹ́gí": 7956,
      "▁ewébẹ̀": 7957,
      "▁Ísáákì": 7958,
      "▁Ìyàtọ̀": 7959,
      "▁pẹ́ẹ́pẹ̀ẹ̀pẹ́": 7960,
      "▁Nàìjíí": 7961,
      "\"\n": 7962,
      "fìn": 7963,
      "▁ọṣẹ": 7964,
      "▁Ọrọ̀": 7965,
      "▁bíbọ̀": 7966,
      "síhùwà": 7967,
      "ṣepọ̀": 7968,
      "dàkudà": 7969,
      "▁ilẹ̀.\n": 7970,
      "▁yín.”\n": 7971,
      "▁Dè": 7972,
      "▁oníbàá": 7973,
      "▁jẹ.\n": 7974,
      "▁lorúkọ": 7975,
      "▁yíyí": 7976,
      "▁ìtó": 7977,
      "▁jíhìn": 7978,
      "ṣàpẹẹrẹ": 7979,
      "pines": 7980,
      "pẹ̀lẹ́": 7981,
      "▁Paris": 7982,
      "▁Aláwọ̀": 7983,
      "▁mọ́lẹ̀,": 7984,
      "gìrì": 7985,
      "▁àtinúwá": 7986,
      "▁Muhammadu": 7987,
      "▁ÌGBÉSÍ": 7988,
      "0,000": 7989,
      "BÁ": 7990,
      "con": 7991,
      "tri": 7992,
      "òò": 7993,
      "▁aró": 7994,
      "▁apata": 7995,
      "▁atọ́ka": 7996,
      "▁jọ̀kan": 7997,
      "ral": 7998,
      "▁òpò": 7999
    },
    "merges": [
      [
        "▁",
        "t"
      ],
      [
        "ọ",
        "́"
      ],
      [
        "▁",
        "n"
      ],
      [
        "ẹ",
        "̀"
      ],
      [
        "▁",
        "l"
      ],
      [
        "▁",
        "à"
      ],
      [
        "ẹ",
        "́"
      ],
      [
        "▁",
        "k"
      ],
      [
        "▁",
        "w"
      ],
      [
        "g",
        "b"
      ],
      [
        "▁",
        "s"
      ],
      [
        "ọ",
        "̀"
      ],
      [
        "ọ",
        "n"
      ],
      [
        "▁",
        "m"
      ],
      [
        "▁",
        "ì"
      ],
      [
        "▁n",
        "í"
      ],
      [
        "▁",
        ","
      ],
      [
        "▁",
        "p"
      ],
      [
        "▁",
        "b"
      ],
      [
        "w",
        "ọn"
      ],
      [
        "▁",
        "."
      ],
      [
        "▁",
        "f"
      ],
      [
        "▁",
        "a"
      ],
      [
        "▁",
        "ṣ"
      ],
      [
        "▁t",
        "í"
      ],
      [
        "▁",
        "r"
      ],
      [
        "▁",
        "o"
      ],
      [
        "u",
        "n"
      ],
      [
        "▁.",
        "\n"
      ],
      [
        "▁à",
        "wọn"
      ],
      [
        "ú",
        "n"
      ],
      [
        "a",
        "n"
      ],
      [
        "▁",
        "ń"
      ],
      [
        "à",
        "n"
      ],
      [
        "t",
        "i"
      ],
      [
        "▁",
        "y"
      ],
      [
        "▁t",
        "ó"
      ],
      [
        "▁",
        "i"
      ],
      [
        "ọ́",
        "n"
      ],
      [
        "▁",
        "j"
      ],
      [
        "▁p",
        "é"
      ],
      [
        "▁",
        "ọ"
      ],
      [
        "▁",
        "gb"
      ],
      [
        "r",
        "í"
      ],
      [
        "▁",
        "d"
      ],
      [
        "▁ṣ",
        "e"
      ],
      [
        "▁l",
        "á"
      ],
      [
        "▁s",
        "í"
      ],
      [
        "▁s",
        "ì"
      ],
      [
        "▁",
        "ó"
      ],
      [
        "▁n",
        "i"
      ],
      [
        "▁t",
        "i"
      ],
      [
        "r",
        "a"
      ],
      [
        "á",
        "a"
      ],
      [
        "▁",
        "è"
      ],
      [
        "▁w",
        "ọ́n"
      ],
      [
        "l",
        "ẹ̀"
      ],
      [
        "▁",
        "ò"
      ],
      [
        "i",
        "n"
      ],
      [
        "á",
        "à"
      ],
      [
        "▁m",
        "áa"
      ],
      [
        "n",
        "ú"
      ],
      [
        "▁",
        "ẹ"
      ],
      [
        "▁",
        "J"
      ],
      [
        "▁b",
        "á"
      ],
      [
        "▁",
        "ọ̀"
      ],
      [
        "▁f",
        "ún"
      ],
      [
        "ì",
        "n"
      ],
      [
        "▁",
        "Ọ"
      ],
      [
        "▁f",
        "i"
      ],
      [
        "gb",
        "à"
      ],
      [
        "▁w",
        "ọn"
      ],
      [
        "▁k",
        "í"
      ],
      [
        "▁j",
        "ẹ́"
      ],
      [
        "▁r",
        "ẹ̀"
      ],
      [
        "▁n",
        "áà"
      ],
      [
        "▁l",
        "ó"
      ],
      [
        "ì",
        "í"
      ],
      [
        "j",
        "ú"
      ],
      [
        "ù",
        "n"
      ],
      [
        "▁",
        "B"
      ],
      [
        "▁à",
        "ti"
      ],
      [
        "n",
        "i"
      ],
      [
        "▁lá",
        "ti"
      ],
      [
        "▁k",
        "an"
      ],
      [
        "▁",
        "ẹ̀"
      ],
      [
        "r",
        "un"
      ],
      [
        "▁",
        "K"
      ],
      [
        "▁",
        "“"
      ],
      [
        "▁b",
        "í"
      ],
      [
        "l",
        "ọ́"
      ],
      [
        "h",
        "un"
      ],
      [
        "▁l",
        "è"
      ],
      [
        "▁",
        "À"
      ],
      [
        "▁",
        "N"
      ],
      [
        "y",
        "àn"
      ],
      [
        "▁s",
        "ọ"
      ],
      [
        "▁k",
        "ò"
      ],
      [
        "m",
        "ọ"
      ],
      [
        "▁w",
        "à"
      ],
      [
        "▁",
        "”"
      ],
      [
        "▁",
        "-"
      ],
      [
        "▁w",
        "á"
      ],
      [
        "▁ní",
        "nú"
      ],
      [
        "lọ́",
        "run"
      ],
      [
        "á",
        "n"
      ],
      [
        "p",
        "a"
      ],
      [
        "▁o",
        "hun"
      ],
      [
        "▁Ọ",
        "lọ́run"
      ],
      [
        "▁",
        ":"
      ],
      [
        "▁",
        "Ì"
      ],
      [
        "l",
        "é"
      ],
      [
        "k",
        "an"
      ],
      [
        "l",
        "ú"
      ],
      [
        "f",
        "à"
      ],
      [
        "ṣ",
        "ẹ́"
      ],
      [
        "▁N",
        "í"
      ],
      [
        "gb",
        "o"
      ],
      [
        "r",
        "ọ̀"
      ],
      [
        "▁ọ",
        "mọ"
      ],
      [
        "r",
        "in"
      ],
      [
        "▁w",
        "a"
      ],
      [
        "▁l",
        "ọ"
      ],
      [
        "▁m",
        "i"
      ],
      [
        "w",
        "ọ́"
      ],
      [
        "r",
        "ú"
      ],
      [
        "o",
        "rí"
      ],
      [
        "▁",
        "O"
      ],
      [
        "ó",
        "ò"
      ],
      [
        "▁ì",
        "w"
      ],
      [
        "b",
        "í"
      ],
      [
        "y",
        "é"
      ],
      [
        "t",
        "í"
      ],
      [
        "l",
        "á"
      ],
      [
        "▁l",
        "ọ́"
      ],
      [
        "▁",
        "M"
      ],
      [
        "m",
        "ọ́"
      ],
      [
        "l",
        "ì"
      ],
      [
        "▁r",
        "í"
      ],
      [
        "o",
        "gbo"
      ],
      [
        "▁",
        "A"
      ],
      [
        "y",
        "í"
      ],
      [
        "▁",
        "?"
      ],
      [
        "h",
        "ó"
      ],
      [
        ".",
        "\n"
      ],
      [
        "▁y",
        "ìí"
      ],
      [
        "▁",
        "g"
      ],
      [
        "▁J",
        "è"
      ],
      [
        "▁Jè",
        "hó"
      ],
      [
        "▁",
        "1"
      ],
      [
        "▁Jèhó",
        "fà"
      ],
      [
        "è",
        "yàn"
      ],
      [
        "▁k",
        "ó"
      ],
      [
        "í",
        "n"
      ],
      [
        "▁m",
        "ú"
      ],
      [
        "▁gb",
        "ogbo"
      ],
      [
        "b",
        "a"
      ],
      [
        "▁",
        "L"
      ],
      [
        "r",
        "ò"
      ],
      [
        "▁?",
        "\n"
      ],
      [
        "▁B",
        "í"
      ],
      [
        "n",
        "í"
      ],
      [
        "▁",
        "Ẹ"
      ],
      [
        "▁",
        "T"
      ],
      [
        "r",
        "i"
      ],
      [
        "s",
        "í"
      ],
      [
        "j",
        "ọ"
      ],
      [
        "y",
        "ìn"
      ],
      [
        "ẹ",
        "n"
      ],
      [
        "▁d",
        "á"
      ],
      [
        "▁p",
        "a"
      ],
      [
        "▁k",
        "á"
      ],
      [
        "▁",
        "S"
      ],
      [
        "▁t",
        "á"
      ],
      [
        "▁ní",
        "pa"
      ],
      [
        "▁y",
        "óò"
      ],
      [
        "n",
        "ì"
      ],
      [
        "r",
        "á"
      ],
      [
        "t",
        "orí"
      ],
      [
        "à",
        "á"
      ],
      [
        "▁”",
        "\n"
      ],
      [
        "e",
        "r"
      ],
      [
        "ẹ́",
        "ẹ̀"
      ],
      [
        "▁è",
        "èyàn"
      ],
      [
        "s",
        "ù"
      ],
      [
        "m",
        "i"
      ],
      [
        "b",
        "i"
      ],
      [
        "p",
        "ọ̀"
      ],
      [
        "k",
        "àn"
      ],
      [
        "▁ẹ",
        "ni"
      ],
      [
        "y",
        "à"
      ],
      [
        "▁m",
        "o"
      ],
      [
        "r",
        "àn"
      ],
      [
        "j",
        "ọ́"
      ],
      [
        "▁m",
        "ọ́"
      ],
      [
        "t",
        "à"
      ],
      [
        "b",
        "é"
      ],
      [
        "l",
        "ù"
      ],
      [
        "▁m",
        "í"
      ],
      [
        "▁",
        "Ó"
      ],
      [
        "ṣ",
        "e"
      ],
      [
        "▁gb",
        "é"
      ],
      [
        "▁À",
        "wọn"
      ],
      [
        "▁a",
        "ra"
      ],
      [
        "d",
        "e"
      ],
      [
        "▁r",
        "ẹ"
      ],
      [
        "▁",
        "í"
      ],
      [
        "ọ̀",
        "n"
      ],
      [
        "k",
        "ọ"
      ],
      [
        "▁gb",
        "à"
      ],
      [
        "l",
        "ẹ́"
      ],
      [
        "t",
        "ọ́"
      ],
      [
        "d",
        "ún"
      ],
      [
        "m",
        "í"
      ],
      [
        "▁ní",
        "gbà"
      ],
      [
        "▁ì",
        "d"
      ],
      [
        "▁f",
        "ẹ́"
      ],
      [
        "k",
        "ọ́"
      ],
      [
        "▁",
        "á"
      ],
      [
        "j",
        "ì"
      ],
      [
        "▁a",
        "yé"
      ],
      [
        "k",
        "ùn"
      ],
      [
        "▁",
        "I"
      ],
      [
        "d",
        "è"
      ],
      [
        "▁i",
        "ṣẹ́"
      ],
      [
        "t",
        "a"
      ],
      [
        "w",
        "a"
      ],
      [
        "▁l",
        "ẹ́"
      ],
      [
        "k",
        "ò"
      ],
      [
        "▁",
        "h"
      ],
      [
        "m",
        "ọ̀"
      ],
      [
        "▁t",
        "à"
      ],
      [
        "▁b",
        "ẹ́ẹ̀"
      ],
      [
        "▁",
        "—"
      ],
      [
        "l",
        "ó"
      ],
      [
        "▁J",
        "é"
      ],
      [
        "▁l",
        "é"
      ],
      [
        "ǹ",
        "kan"
      ],
      [
        "▁p",
        "ẹ̀"
      ],
      [
        "b",
        "ẹ̀"
      ],
      [
        "▁",
        "G"
      ],
      [
        "gb",
        "ọ́n"
      ],
      [
        "▁",
        "Ṣ"
      ],
      [
        "▁",
        "W"
      ],
      [
        "▁d",
        "i"
      ],
      [
        "▁n",
        "ǹkan"
      ],
      [
        "bé",
        "lì"
      ],
      [
        "▁Bí",
        "bélì"
      ],
      [
        "r",
        "ẹ̀"
      ],
      [
        "▁ló",
        "rí"
      ],
      [
        "▁",
        "P"
      ],
      [
        "d",
        "à"
      ],
      [
        "▁t",
        "ún"
      ],
      [
        "k",
        "ọ̀"
      ],
      [
        "▁Jé",
        "sù"
      ],
      [
        "▁pẹ̀",
        "lú"
      ],
      [
        "n",
        "u"
      ],
      [
        "ú",
        "r"
      ],
      [
        "▁o",
        "rí"
      ],
      [
        "▁i",
        "lẹ̀"
      ],
      [
        "▁è",
        "yí"
      ],
      [
        "▁k",
        "ì"
      ],
      [
        "▁ọ̀",
        "rọ̀"
      ],
      [
        "k",
        "ó"
      ],
      [
        "▁tà",
        "bí"
      ],
      [
        "d",
        "ọ̀"
      ],
      [
        "▁y",
        "ín"
      ],
      [
        "▁ò",
        "un"
      ],
      [
        "▁lọ́",
        "wọ́"
      ],
      [
        "▁ì",
        "gbà"
      ],
      [
        "n",
        "à"
      ],
      [
        "k",
        "ú"
      ],
      [
        "▁ní",
        "torí"
      ],
      [
        "▁",
        "2"
      ],
      [
        "á",
        "jú"
      ],
      [
        "▁k",
        "ú"
      ],
      [
        "▁",
        "e"
      ],
      [
        "ri",
        "s"
      ],
      [
        "r",
        "ùn"
      ],
      [
        "l",
        "à"
      ],
      [
        "▁ì",
        "y"
      ],
      [
        "w",
        "ó"
      ],
      [
        "▁gb",
        "ọ́"
      ],
      [
        "▁K",
        "í"
      ],
      [
        "▁k",
        "ọ́"
      ],
      [
        "b",
        "á"
      ],
      [
        "▁a",
        "rá"
      ],
      [
        "kùn",
        "rin"
      ],
      [
        "gb",
        "é"
      ],
      [
        "á",
        "ra"
      ],
      [
        "▁",
        "È"
      ],
      [
        "r",
        "è"
      ],
      [
        "▁Ní",
        "gbà"
      ],
      [
        "▁K",
        "ris"
      ],
      [
        "▁Ọ",
        "̀"
      ],
      [
        "▁a",
        "lá"
      ],
      [
        "▁k",
        "ọ"
      ],
      [
        "▁à",
        "p"
      ],
      [
        "▁n",
        "ì"
      ],
      [
        "▁ọ",
        "dún"
      ],
      [
        "▁è",
        "dè"
      ],
      [
        "▁i",
        "lé"
      ],
      [
        "▁d",
        "é"
      ],
      [
        "▁lá",
        "ra"
      ],
      [
        "g",
        "un"
      ],
      [
        "▁",
        "D"
      ],
      [
        "k",
        "ì"
      ],
      [
        "w",
        "é"
      ],
      [
        "f",
        "ẹ́"
      ],
      [
        "▁j",
        "á"
      ],
      [
        "nì",
        "yàn"
      ],
      [
        "s",
        "ìn"
      ],
      [
        "▁m",
        "ọ̀"
      ],
      [
        "▁",
        "R"
      ],
      [
        "▁m",
        "ọ"
      ],
      [
        "▁gb",
        "a"
      ],
      [
        "m",
        "ù"
      ],
      [
        "g",
        "ẹ́"
      ],
      [
        "er",
        "e"
      ],
      [
        "p",
        "á"
      ],
      [
        "▁ì",
        "ṣ"
      ],
      [
        "▁b",
        "ẹ̀"
      ],
      [
        "▁p",
        "à"
      ],
      [
        "▁i",
        "nú"
      ],
      [
        "l",
        "ò"
      ],
      [
        "▁h",
        "àn"
      ],
      [
        "▁w",
        "í"
      ],
      [
        "y",
        "e"
      ],
      [
        "▁m",
        "á"
      ],
      [
        "d",
        "é"
      ],
      [
        "▁w",
        "o"
      ],
      [
        "▁è",
        "nìyàn"
      ],
      [
        "t",
        "ì"
      ],
      [
        "▁ìw",
        "é"
      ],
      [
        "s",
        "ì"
      ],
      [
        "r",
        "o"
      ],
      [
        "r",
        "ù"
      ],
      [
        "y",
        "è"
      ],
      [
        "r",
        "ẹ́"
      ],
      [
        "▁ì",
        "jọ"
      ],
      [
        "▁y",
        "ẹ"
      ],
      [
        "▁y",
        "ẹn"
      ],
      [
        "▁b",
        "ó"
      ],
      [
        "▁o",
        "ní"
      ],
      [
        "r",
        "ẹ"
      ],
      [
        "l",
        "i"
      ],
      [
        "▁m",
        "ẹ́"
      ],
      [
        "ọ̀",
        "rọ̀"
      ],
      [
        "▁ọ",
        "jọ́"
      ],
      [
        "▁d",
        "à"
      ],
      [
        "▁m",
        "é"
      ],
      [
        "▁ọ̀",
        "nà"
      ],
      [
        "▁a",
        "n"
      ],
      [
        "k",
        "ẹ́"
      ],
      [
        "▁B",
        "á"
      ],
      [
        "ẹ",
        "ni"
      ],
      [
        "▁t",
        "ú"
      ],
      [
        "ù",
        "gbọ́n"
      ],
      [
        "s",
        "ẹ̀"
      ],
      [
        "k",
        "è"
      ],
      [
        "d",
        "í"
      ],
      [
        "ó",
        "tọ́"
      ],
      [
        "t",
        "ọ̀"
      ],
      [
        "▁",
        "F"
      ],
      [
        "▁t",
        "ẹ̀"
      ],
      [
        "▁ṣ",
        "à"
      ],
      [
        "j",
        "ẹ́"
      ],
      [
        "k",
        "à"
      ],
      [
        "▁o",
        "jú"
      ],
      [
        "▁j",
        "ẹ"
      ],
      [
        "▁",
        "Ò"
      ],
      [
        "d",
        "i"
      ],
      [
        "ẹ́",
        "gẹ́"
      ],
      [
        "▁pé",
        ","
      ],
      [
        "▁p",
        "ọ̀"
      ],
      [
        "▁sí",
        "lẹ̀"
      ],
      [
        "▁b",
        "a"
      ],
      [
        "▁g",
        "an"
      ],
      [
        "▁À",
        "mọ́"
      ],
      [
        "▁ọ̀",
        "pọ̀"
      ],
      [
        "▁ì",
        "r"
      ],
      [
        "d",
        "o"
      ],
      [
        "a",
        "ra"
      ],
      [
        "b",
        "ìn"
      ],
      [
        "bìn",
        "rin"
      ],
      [
        "d",
        "á"
      ],
      [
        "▁ì",
        "p"
      ],
      [
        "ọ́",
        "ọ̀"
      ],
      [
        "d",
        "ì"
      ],
      [
        "w",
        "o"
      ],
      [
        "▁l",
        "o"
      ],
      [
        "▁i",
        "rú"
      ],
      [
        "l",
        "e"
      ],
      [
        "t",
        "ò"
      ],
      [
        "▁ọ",
        "kàn"
      ],
      [
        "▁l",
        "a"
      ],
      [
        "t",
        "ẹni"
      ],
      [
        "▁bẹ̀",
        "rẹ̀"
      ],
      [
        "▁k",
        "é"
      ],
      [
        "▁",
        "un"
      ],
      [
        "r",
        "ìí"
      ],
      [
        "▁d",
        "í"
      ],
      [
        "▁ìd",
        "í"
      ],
      [
        "▁i",
        "bi"
      ],
      [
        "▁Kris",
        "tẹni"
      ],
      [
        "▁",
        "("
      ],
      [
        "j",
        "à"
      ],
      [
        "l",
        "ọ"
      ],
      [
        "▁j",
        "ù"
      ],
      [
        "kọ̀",
        "ọ́"
      ],
      [
        "b",
        "ù"
      ],
      [
        "▁kú",
        "rò"
      ],
      [
        "▁s",
        "á"
      ],
      [
        "▁ṣ",
        "è"
      ],
      [
        "▁y",
        "í"
      ],
      [
        "è",
        "rè"
      ],
      [
        "gb",
        "ára"
      ],
      [
        "▁ì",
        "t"
      ],
      [
        "▁t",
        "ẹ́"
      ],
      [
        "▁ì",
        "lú"
      ],
      [
        "u",
        "rú"
      ],
      [
        "▁",
        "Í"
      ],
      [
        "▁s",
        "ọ̀rọ̀"
      ],
      [
        "▁ìw",
        "à"
      ],
      [
        "p",
        "ò"
      ],
      [
        "▁g",
        "ẹ́gẹ́"
      ],
      [
        "gb",
        "ẹ́"
      ],
      [
        "h",
        "ùn"
      ],
      [
        "▁W",
        "ọ́n"
      ],
      [
        "ṣ",
        "ẹ̀"
      ],
      [
        "ẹ",
        "ẹ"
      ],
      [
        "ṣ",
        "ẹ"
      ],
      [
        "k",
        "ù"
      ],
      [
        "j",
        "á"
      ],
      [
        "w",
        "ájú"
      ],
      [
        "▁è",
        "mi"
      ],
      [
        "▁ṣ",
        "ẹ"
      ],
      [
        "▁orí",
        "lẹ̀"
      ],
      [
        "f",
        "í"
      ],
      [
        "▁tá",
        "wọn"
      ],
      [
        "▁ìw",
        "ọ"
      ],
      [
        "▁l",
        "à"
      ],
      [
        "f",
        "i"
      ],
      [
        "▁M",
        "o"
      ],
      [
        "▁Ní",
        "torí"
      ],
      [
        "▁já",
        "de"
      ],
      [
        "▁w",
        "ò"
      ],
      [
        "▁",
        "3"
      ],
      [
        "ẹ̀",
        "ẹ́"
      ],
      [
        "▁b",
        "à"
      ],
      [
        "y",
        "ìí"
      ],
      [
        "o",
        "jú"
      ],
      [
        "▁ìy",
        "ẹn"
      ],
      [
        "w",
        "ò"
      ],
      [
        "▁j",
        "ọ"
      ],
      [
        "w",
        "à"
      ],
      [
        "lú",
        "wa"
      ],
      [
        "r",
        "e"
      ],
      [
        "▁",
        "H"
      ],
      [
        "k",
        "un"
      ],
      [
        "r",
        "ó"
      ],
      [
        "gb",
        "ọ́"
      ],
      [
        "▁r",
        "ere"
      ],
      [
        "▁ọ",
        "ba"
      ],
      [
        "▁ẹ̀",
        "mí"
      ],
      [
        "r",
        "an"
      ],
      [
        "▁o",
        "ló"
      ],
      [
        "y",
        "in"
      ],
      [
        "▁",
        "‘"
      ],
      [
        "k",
        "a"
      ],
      [
        "▁",
        "Á"
      ],
      [
        "úr",
        "ó"
      ],
      [
        "d",
        "ọ́"
      ],
      [
        "▁Ẹ",
        "lẹ́"
      ],
      [
        "l",
        "í"
      ],
      [
        "l",
        "a"
      ],
      [
        "k",
        "o"
      ],
      [
        "f",
        "in"
      ],
      [
        "ọ́n",
        "à"
      ],
      [
        "▁L",
        "á"
      ],
      [
        "rí",
        "n"
      ],
      [
        "d",
        "a"
      ],
      [
        "r",
        "ì"
      ],
      [
        "▁à",
        "tà"
      ],
      [
        "▁",
        "Y"
      ],
      [
        "rú",
        "kọ"
      ],
      [
        "▁t",
        "ọ́"
      ],
      [
        "j",
        "ẹ"
      ],
      [
        "▁",
        "ọ́"
      ],
      [
        "▁lẹ́",
        "yìn"
      ],
      [
        "▁O",
        "lúwa"
      ],
      [
        "▁ì",
        "fẹ́"
      ],
      [
        "▁ló",
        "jú"
      ],
      [
        "ẹẹ",
        "rẹ"
      ],
      [
        "▁ì",
        "gbé"
      ],
      [
        "tà",
        "kì"
      ],
      [
        "r",
        "é"
      ],
      [
        "▁Ẹ",
        "̀"
      ],
      [
        "▁à",
        "ì"
      ],
      [
        "▁a",
        "ti"
      ],
      [
        "b",
        "ọ̀"
      ],
      [
        "y",
        "ẹn"
      ],
      [
        "▁",
        ";"
      ],
      [
        "ọ́ọ̀",
        "lù"
      ],
      [
        "gb",
        "è"
      ],
      [
        "án",
        "ì"
      ],
      [
        "▁tí",
        "tí"
      ],
      [
        "▁à",
        "kó"
      ],
      [
        "m",
        "ú"
      ],
      [
        "b",
        "à"
      ],
      [
        "▁ń",
        "lá"
      ],
      [
        "j",
        "í"
      ],
      [
        "y",
        "ọ̀"
      ],
      [
        "▁pà",
        "tàkì"
      ],
      [
        "▁l",
        "ò"
      ],
      [
        "ẹ́",
        "yìn"
      ],
      [
        "s",
        "è"
      ],
      [
        "g",
        "ún"
      ],
      [
        "▁",
        "!"
      ],
      [
        "s",
        "á"
      ],
      [
        "s",
        "o"
      ],
      [
        "k",
        "í"
      ],
      [
        "t",
        "é"
      ],
      [
        "▁s",
        "ó"
      ],
      [
        "m",
        "u"
      ],
      [
        "g",
        "i"
      ],
      [
        "t",
        "á"
      ],
      [
        "▁àtà",
        "wọn"
      ],
      [
        "úr",
        "à"
      ],
      [
        "▁p",
        "è"
      ],
      [
        "▁",
        "["
      ],
      [
        "▁",
        "]"
      ],
      [
        "▁ọ",
        "kùnrin"
      ],
      [
        "y",
        "a"
      ],
      [
        "▁",
        "E"
      ],
      [
        "▁j",
        "u"
      ],
      [
        "▁",
        ")"
      ],
      [
        "▁Ẹlẹ́",
        "rìí"
      ],
      [
        "▁r",
        "án"
      ],
      [
        "▁w",
        "ọ̀n"
      ],
      [
        "▁bí",
        "i"
      ],
      [
        "àn",
        "í"
      ],
      [
        "k",
        "ún"
      ],
      [
        "▁",
        "’"
      ],
      [
        "▁o",
        "lù"
      ],
      [
        "▁ṣẹ",
        "lẹ̀"
      ],
      [
        "ṣ",
        "ù"
      ],
      [
        "▁k",
        "a"
      ],
      [
        "b",
        "ọ"
      ],
      [
        "▁mé",
        "jì"
      ],
      [
        "▁a",
        "ṣ"
      ],
      [
        "▁ìd",
        "á"
      ],
      [
        "ò",
        "ro"
      ],
      [
        "n",
        "á"
      ],
      [
        "▁àkó",
        "kò"
      ],
      [
        "▁j",
        "í"
      ],
      [
        "b",
        "ú"
      ],
      [
        "s",
        "ọ"
      ],
      [
        "r",
        "à"
      ],
      [
        "▁T",
        "í"
      ],
      [
        "t",
        "ẹ́"
      ],
      [
        "▁mí",
        "ì"
      ],
      [
        "▁à",
        "wa"
      ],
      [
        "ṣ",
        "à"
      ],
      [
        "▁O",
        "hun"
      ],
      [
        "▁1",
        "9"
      ],
      [
        "▁pa",
        "dà"
      ],
      [
        "l",
        "u"
      ],
      [
        "▁mí",
        "mọ́"
      ],
      [
        "▁ṣ",
        "ùgbọ́n"
      ],
      [
        "▁t",
        "a"
      ],
      [
        "▁k",
        "ọ̀"
      ],
      [
        "▁r",
        "o"
      ],
      [
        "k",
        "é"
      ],
      [
        "▁k",
        "e"
      ],
      [
        "w",
        "ọ̀n"
      ],
      [
        "ìí",
        "ràn"
      ],
      [
        "▁d",
        "úró"
      ],
      [
        "yà",
        "wó"
      ],
      [
        "▁o",
        "gun"
      ],
      [
        "f",
        "ẹ̀ẹ́"
      ],
      [
        "▁àp",
        "ẹẹrẹ"
      ],
      [
        "▁m",
        "ìíràn"
      ],
      [
        "▁m",
        "u"
      ],
      [
        "g",
        "ọ́"
      ],
      [
        "▁d",
        "áa"
      ],
      [
        "▁Í",
        "sí"
      ],
      [
        "rẹ́",
        "lì"
      ],
      [
        "▁Ì",
        "wé"
      ],
      [
        "▁k",
        "ẹ́"
      ],
      [
        "g",
        "ùn"
      ],
      [
        "▁Ísí",
        "rẹ́lì"
      ],
      [
        "▁ṣe",
        "é"
      ],
      [
        "▁ṣ",
        "í"
      ],
      [
        "▁o",
        "rúkọ"
      ],
      [
        "▁P",
        "ọ́ọ̀lù"
      ],
      [
        "▁ọ",
        "wọ́"
      ],
      [
        "▁à",
        "mọ́"
      ],
      [
        "ò",
        "ótọ́"
      ],
      [
        "d",
        "úrà"
      ],
      [
        "▁è",
        "rò"
      ],
      [
        "0",
        "0"
      ],
      [
        "▁S",
        "í"
      ],
      [
        "y",
        "á"
      ],
      [
        "fà",
        "àní"
      ],
      [
        "▁y",
        "à"
      ],
      [
        "▁G",
        "b"
      ],
      [
        "j",
        "ò"
      ],
      [
        "▁T",
        "ó"
      ],
      [
        "▁Ì",
        "jọ"
      ],
      [
        "ǹ",
        "fààní"
      ],
      [
        "▁ẹ",
        "nì"
      ],
      [
        "▁gbọ́",
        "dọ̀"
      ],
      [
        "▁bá",
        "yìí"
      ],
      [
        "▁B",
        "ó"
      ],
      [
        "▁k",
        "ún"
      ],
      [
        "▁ìdí",
        "lé"
      ],
      [
        "▁K",
        "ò"
      ],
      [
        "▁Kris",
        "ti"
      ],
      [
        "▁rẹ̀",
        ","
      ],
      [
        "b",
        "ò"
      ],
      [
        "▁là",
        "wọn"
      ],
      [
        "▁Bá",
        "wo"
      ],
      [
        "▁",
        "4"
      ],
      [
        "e",
        "s"
      ],
      [
        "▁wọ̀n",
        "yí"
      ],
      [
        "▁ṣ",
        "i"
      ],
      [
        "p",
        "ẹ́"
      ],
      [
        "k",
        "á"
      ],
      [
        "▁ní",
        "bẹ̀"
      ],
      [
        "▁dá",
        "ra"
      ],
      [
        "”",
        "\n"
      ],
      [
        "▁ẹ̀",
        "yin"
      ],
      [
        "▁lá",
        "ì"
      ],
      [
        "l",
        "o"
      ],
      [
        "ó",
        "o"
      ],
      [
        "w",
        "ọ̀"
      ],
      [
        "y",
        "an"
      ],
      [
        "w",
        "á"
      ],
      [
        "g",
        "o"
      ],
      [
        "▁!",
        "\n"
      ],
      [
        "tí",
        "tọ́"
      ],
      [
        "▁d",
        "ùn"
      ],
      [
        "ẹ",
        "li"
      ],
      [
        "▁M",
        "í"
      ],
      [
        "▁ro",
        "nú"
      ],
      [
        "▁ẹ̀",
        "kọ́"
      ],
      [
        "▁o",
        "bìnrin"
      ],
      [
        "▁t",
        "orí"
      ],
      [
        "▁o",
        "mi"
      ],
      [
        "d",
        "ùn"
      ],
      [
        "▁o",
        "wó"
      ],
      [
        "▁à",
        "ní"
      ],
      [
        "▁Ṣ",
        "ùgbọ́n"
      ],
      [
        "r",
        "u"
      ],
      [
        "h",
        "ìn"
      ],
      [
        "▁k",
        "à"
      ],
      [
        "▁",
        "C"
      ],
      [
        "r",
        "ún"
      ],
      [
        "▁wà",
        "á"
      ],
      [
        "▁ì",
        "mọ̀"
      ],
      [
        "▁",
        "ún"
      ],
      [
        "▁l",
        "ọ́nà"
      ],
      [
        "▁ọ̀",
        "run"
      ],
      [
        "▁lọ́",
        "kàn"
      ],
      [
        "ṣ",
        "ì"
      ],
      [
        "▁ti",
        "ẹ̀"
      ],
      [
        "▁t",
        "ì"
      ],
      [
        "t",
        "ó"
      ],
      [
        "er",
        "é"
      ],
      [
        "á",
        "rá"
      ],
      [
        "gb",
        "ẹ̀"
      ],
      [
        "▁Ìjọ",
        "ba"
      ],
      [
        "á",
        "wọn"
      ],
      [
        "▁à",
        "á"
      ],
      [
        "▁sí",
        "nú"
      ],
      [
        "á",
        "ájú"
      ],
      [
        "▁tú",
        "bọ̀"
      ],
      [
        "b",
        "ẹ́"
      ],
      [
        "▁ìjọ",
        "ba"
      ],
      [
        "k",
        "i"
      ],
      [
        "in",
        "nu"
      ],
      [
        "w",
        "ọ"
      ],
      [
        "▁",
        "Ń"
      ],
      [
        "▁a",
        "gbára"
      ],
      [
        "▁w",
        "ọ"
      ],
      [
        "▁Ọ̀",
        "rọ̀"
      ],
      [
        "w",
        "e"
      ],
      [
        "an",
        "i"
      ],
      [
        "▁ò",
        "bí"
      ],
      [
        "▁f",
        "à"
      ],
      [
        "▁ti",
        "lẹ̀"
      ],
      [
        "▁y",
        "óo"
      ],
      [
        "ọ̀",
        "kan"
      ],
      [
        "s",
        "i"
      ],
      [
        "▁p",
        "e"
      ],
      [
        "g",
        "a"
      ],
      [
        "▁d",
        "a"
      ],
      [
        "▁f",
        "ara"
      ],
      [
        "j",
        "ẹ̀"
      ],
      [
        "▁Ṣ",
        "é"
      ],
      [
        "▁ìgbà",
        "gbọ́"
      ],
      [
        "▁s",
        "ọ́"
      ],
      [
        "▁dí",
        "ẹ̀"
      ],
      [
        "s",
        "in"
      ],
      [
        "kò",
        "ó"
      ],
      [
        "▁nì",
        "kan"
      ],
      [
        "W",
        "A"
      ],
      [
        "▁L",
        "ẹ́yìn"
      ],
      [
        "▁y",
        "ọ"
      ],
      [
        "▁ìṣ",
        "òro"
      ],
      [
        "r",
        "ìn"
      ],
      [
        "ún",
        "jẹ"
      ],
      [
        "t",
        "àn"
      ],
      [
        "▁r",
        "ò"
      ],
      [
        "m",
        "ì"
      ],
      [
        "Ǹ",
        "jẹ́"
      ],
      [
        "▁ṣi",
        "ṣẹ́"
      ],
      [
        "L",
        "U"
      ],
      [
        "▁k",
        "àn"
      ],
      [
        "LU",
        "WA"
      ],
      [
        "▁lá",
        "àá"
      ],
      [
        "p",
        "é"
      ],
      [
        "▁ò",
        "fin"
      ],
      [
        "▁ìr",
        "án"
      ],
      [
        "s",
        "àn"
      ],
      [
        "s",
        "a"
      ],
      [
        "▁r",
        "àn"
      ],
      [
        "▁S",
        "á"
      ],
      [
        "▁à",
[...]
